<unk>	0
<s>	0
</s>	0
e▁	-0
s▁	-1
n▁	-2
th	-3
er	-4
d▁	-5
an	-6
t▁	-7
,▁	-8
in	-9
or	-10
the▁	-11
ar	-12
y▁	-13
al	-14
en	-15
.▁	-16
es	-17
on	-18
of	-19
ti	-20
ed▁	-21
of▁	-22
a▁	-23
in▁	-24
o▁	-25
er▁	-26
ic	-27
and▁	-28
is	-29
ro	-30
is▁	-31
an▁	-32
re	-33
as▁	-34
ing	-35
ou	-36
on▁	-37
it	-38
19	-39
at	-40
el	-41
es▁	-42
Th	-43
am	-44
il	-45
ch	-46
st	-47
to▁	-48
ol	-49
20	-50
om	-51
ing▁	-52
al▁	-53
||	-54
or▁	-55
ac	-56
as	-57
m▁	-58
pl	-59
was▁	-60
ir	-61
us	-62
ur	-63
ec	-64
The▁	-65
ati	-66
em	-67
at▁	-68
th▁	-69
ri	-70
di	-71
un	-72
ag	-73
all	-74
ow	-75
ent	-76
ov	-77
en▁	-78
h▁	-79
ad	-80
et	-81
li	-82
os	-83
le	-84
ul	-85
rom▁	-86
ap	-87
ers	-88
k▁	-89
ist	-90
from▁	-91
id	-92
ay	-93
for▁	-94
ab	-95
oun	-96
wh	-97
ef	-98
ig	-99
iv	-100
enc	-101
)▁	-102
ed	-103
200	-104
ev	-105
av	-106
pe	-107
by▁	-108
ent▁	-109
res	-110
ot	-111
op	-112
201	-113
mer	-114
wi	-115
ep	-116
com	-117
sh	-118
St	-119
and	-120
ea	-121
are▁	-122
Ch	-123
ther▁	-124
oc	-125
ch▁	-126
ican▁	-127
ation	-128
um	-129
Amer	-130
with▁	-131
eb	-132
tic	-133
ak	-134
l▁	-135
ere▁	-136
It▁	-137
ter	-138
He▁	-139
ey▁	-140
ew	-141
that▁	-142
opl	-143
erenc	-144
ex	-145
ear	-146
im	-147
American▁	-148
Ref	-149
he▁	-150
ra	-151
Referenc	-152
–▁	-153
up	-154
for	-155
References	-156
uc	-157
pro	-158
sp	-159
ic▁	-160
ly▁	-161
0▁	-162
le▁	-163
199	-164
ber▁	-165
Un	-166
ay▁	-167
con	-168
od	-169
18	-170
||0	-171
ub	-172
ers▁	-173
si	-174
it▁	-175
anc	-176
og	-177
-▁	-178
art	-179
ity▁	-180
:▁	-181
inc	-182
i▁	-183
),▁	-184
ong	-185
peopl	-186
bor	-187
ang	-188
als	-189
tr	-190
mov	-191
ation▁	-192
all▁	-193
ut	-194
our	-195
In▁	-196
ip	-197
ar▁	-198
1▁	-199
ug	-200
ain	-201
act	-202
ot▁	-203
ary▁	-204
st▁	-205
ths	-206
man	-207
est	-208
se	-209
198	-210
ian▁	-211
ame▁	-212
In	-213
est▁	-214
tion	-215
qu	-216
ud	-217
lis	-218
play	-219
his▁	-220
|-	-221
born▁	-222
ate▁	-223
be	-224
wor	-225
sit	-226
bu	-227
ated▁	-228
ew▁	-229
2▁	-230
oo	-231
ter▁	-232
the	-233
ian	-234
own▁	-235
tion▁	-236
ion▁	-237
also▁	-238
ad▁	-239
5▁	-240
rec	-241
one▁	-242
be▁	-243
ember▁	-244
movi	-245
197	-246
"▁	-247
4▁	-248
ts▁	-249
ia	-250
Mar	-251
has▁	-252
el▁	-253
ir▁	-254
Fr	-255
ave▁	-256
ited▁	-257
3▁	-258
7▁	-259
web	-260
An	-261
ff	-262
Al	-263
ich▁	-264
6▁	-265
ld▁	-266
out▁	-267
ill	-268
me	-269
rit	-270
websit	-271
end	-272
were▁	-273
fir	-274
ount	-275
ric	-276
aw	-277
igh	-278
ob	-279
En	-280
age▁	-281
pr	-282
8▁	-283
bir	-284
str	-285
A▁	-286
196	-287
United▁	-288
Ar	-289
bec	-290
per	-291
par	-292
ted▁	-293
not▁	-294
which▁	-295
ion	-296
Other▁	-297
por	-298
pol	-299
ard	-300
ell	-301
et▁	-302
ve▁	-303
ore▁	-304
gh	-305
ph	-306
mun	-307
ies▁	-308
people▁	-309
am▁	-310
kn	-311
ment	-312
||1	-313
eg	-314
ia▁	-315
ow▁	-316
ome▁	-317
ther	-318
first▁	-319
cl	-320
ser	-321
have▁	-322
iti	-323
il▁	-324
Stat	-325
websites	-326
ost▁	-327
land	-328
ass	-329
form	-330
births	-331
ational▁	-332
ast	-333
195	-334
ts	-335
other▁	-336
ese▁	-337
te	-338
194	-339
dea	-340
9▁	-341
ally▁	-342
itic	-343
duc	-344
row	-345
f▁	-346
ern	-347
tim	-348
Eng	-349
ard▁	-350
ial▁	-351
ine▁	-352
dis	-353
us▁	-354
ess	-355
used▁	-356
oot	-357
ical▁	-358
Le	-359
New▁	-360
they▁	-361
lish	-362
af	-363
are	-364
ong▁	-365
col	-366
can▁	-367
had▁	-368
ord	-369
sc	-370
Sh	-371
193	-372
tw	-373
ast▁	-374
Com	-375
ors	-376
use▁	-377
writ	-378
year	-379
ure	-380
uary▁	-381
their▁	-382
und	-383
we	-384
ade▁	-385
ue▁	-386
mus	-387
ver	-388
who▁	-389
up▁	-390
its▁	-391
This▁	-392
people	-393
ment▁	-394
ant	-395
ain▁	-396
ge▁	-397
ber	-398
comp	-399
ootb	-400
known▁	-401
ist▁	-402
oh	-403
pres	-404
ity	-405
politic	-406
She▁	-407
ish▁	-408
||2	-409
man▁	-410
ke▁	-411
call	-412
bo	-413
ack	-414
her▁	-415
but▁	-416
ind	-417
Ger	-418
;▁	-419
ach	-420
ly	-421
sy	-422
sing	-423
su	-424
ne	-425
tur	-426
mon	-427
to	-428
="	-429
ice▁	-430
about▁	-431
cent	-432
id▁	-433
ans	-434
amp	-435
ens	-436
rap	-437
tis	-438
called▁	-439
att	-440
They▁	-441
00	-442
ision▁	-443
ann	-444
gro	-445
ant▁	-446
Nor	-447
192	-448
ever	-449
ound▁	-450
Riv	-451
Par	-452
||0||0	-453
iz	-454
Bri	-455
span	-456
tel	-457
ich	-458
many▁	-459
po	-460
dr	-461
died▁	-462
au	-463
ous▁	-464
istor	-465
ign	-466
ivers	-467
ack▁	-468
bl	-469
reg	-470
made▁	-471
most▁	-472
tor	-473
this▁	-474
ould▁	-475
min	-476
17	-477
mar	-478
ey	-479
ake▁	-480
ince▁	-481
Wor	-482
fic	-483
ased▁	-484
Au	-485
gr	-486
elec	-487
movies	-488
x▁	-489
incl	-490
ous	-491
nam	-492
ies	-493
illi	-494
footb	-495
).▁	-496
tl	-497
ill▁	-498
two▁	-499
Jap	-500
Af	-501
cont	-502
ess▁	-503
fe	-504
lar	-505
includ	-506
movie▁	-507
Sp	-508
fl	-509
ath	-510
fi	-511
ater▁	-512
ish	-513
ks▁	-514
ah	-515
Con	-516
inn	-517
Wh	-518
after▁	-519
into▁	-520
ace▁	-521
Franc	-522
pop	-523
Sc	-524
Liv	-525
Ac	-526
tish▁	-527
ents▁	-528
ound	-529
g▁	-530
Jan	-531
||||	-532
deaths	-533
lin	-534
overn	-535
arr	-536
tal	-537
Joh	-538
||3	-539
Count	-540
been▁	-541
own	-542
ree▁	-543
States	-544
ust▁	-545
dist	-546
outh▁	-547
co	-548
ablish	-549
ond	-550
mp	-551
Pe	-552
ten▁	-553
10	-554
national▁	-555
hi	-556
enti	-557
ide	-558
evision▁	-559
establish	-560
ubl	-561
).	-562
produc	-563
1,▁	-564
ener	-565
ship	-566
bet	-567
olog	-568
ause▁	-569
az	-570
liv	-571
more▁	-572
uring▁	-573
direc	-574
Col	-575
when▁	-576
|200	-577
sec	-578
ities▁	-579
land▁	-580
ide▁	-581
Can	-582
org	-583
enn	-584
hy	-585
u▁	-586
II	-587
lish▁	-588
ans▁	-589
dep	-590
vi	-591
um▁	-592
air	-593
Pres	-594
pos	-595
River	-596
ght▁	-597
ell▁	-598
he	-599
our▁	-600
fam	-601
television▁	-602
any▁	-603
Is	-604
old	-605
cho	-606
Leag	-607
English▁	-608
city▁	-609
Oc	-610
Indi	-611
ograp	-612
Yor	-613
adi	-614
hel	-615
British▁	-616
Univers	-617
eng	-618
January▁	-619
Car	-620
ebr	-621
became▁	-622
de▁	-623
ence▁	-624
Living▁	-625
Ge	-626
Pol	-627
part▁	-628
Gre	-629
ments▁	-630
16	-631
ail	-632
ock	-633
nor	-634
World▁	-635
actors	-636
ine	-637
popul	-638
des	-639
ok	-640
ran	-641
old▁	-642
atur	-643
tic▁	-644
serv	-645
count	-646
coun	-647
Cal	-648
diff	-649
politician	-650
ild	-651
icip	-652
ings▁	-653
yp	-654
Jun	-655
ood▁	-656
gu	-657
ib	-658
she▁	-659
als▁	-660
Peopl	-661
15	-662
ome	-663
ook▁	-664
than▁	-665
Pro	-666
Rep	-667
played▁	-668
pre	-669
son▁	-670
cre	-671
ight▁	-672
sk	-673
ie▁	-674
Sw	-675
sti	-676
rele	-677
oy	-678
Cl	-679
ost	-680
ive▁	-681
ept	-682
2"	-683
Mus	-684
sion	-685
ash	-686
aj	-687
ol▁	-688
os▁	-689
me▁	-690
ident▁	-691
(200	-692
only▁	-693
les▁	-694
For	-695
over▁	-696
Bl	-697
like▁	-698
2020	-699
ate	-700
spec	-701
="2"	-702
Fren	-703
inter	-704
ik	-705
sur	-706
Pr	-707
uro	-708
commun	-709
4,▁	-710
2,▁	-711
ween▁	-712
States▁	-713
pers	-714
ue	-715
cri	-716
icipal	-717
de	-718
Japan	-719
C▁	-720
some▁	-721
ne▁	-722
able▁	-723
Ital	-724
roug	-725
Aug	-726
ss	-727
Ph	-728
tiv	-729
ations▁	-730
3,▁	-731
March▁	-732
bur	-733
ths▁	-734
very▁	-735
Nov	-736
sm	-737
Gr	-738
Dec	-739
Pri	-740
ered▁	-741
May▁	-742
between▁	-743
Pl	-744
ile▁	-745
work	-746
Apr	-747
S▁	-748
cap	-749
op▁	-750
Ad	-751
ood	-752
ance▁	-753
rowspan	-754
low	-755
Br	-756
National▁	-757
ory▁	-758
Chr	-759
prov	-760
time▁	-761
atic	-762
char	-763
ton	-764
Sept	-765
eas	-766
On▁	-767
oci	-768
tro	-769
angu	-770
z▁	-771
ut▁	-772
April▁	-773
om▁	-774
age	-775
because▁	-776
French▁	-777
name▁	-778
ry▁	-779
ite▁	-780
p▁	-781
7,▁	-782
Austr	-783
I▁	-784
ages	-785
establishments▁	-786
ting▁	-787
South▁	-788
Austral	-789
ays▁	-790
Euro	-791
Min	-792
John▁	-793
6,▁	-794
Aw	-795
there▁	-796
People▁	-797
Jul	-798
Or	-799
202	-800
June▁	-801
emb	-802
8,▁	-803
ose▁	-804
ond▁	-805
ear▁	-806
ater	-807
September▁	-808
such▁	-809
ul▁	-810
riv	-811
ton▁	-812
num	-813
fin	-814
tober▁	-815
October▁	-816
ore	-817
where▁	-818
There▁	-819
190	-820
Mon	-821
oug	-822
Inter	-823
centur	-824
state▁	-825
sou	-826
start	-827
ai	-828
August▁	-829
bas	-830
German▁	-831
mi	-832
til▁	-833
Rus	-834
Tr	-835
ative▁	-836
during▁	-837
5,▁	-838
Li	-839
ge	-840
Rom	-841
ste	-842
December▁	-843
July▁	-844
differ	-845
found▁	-846
ames▁	-847
chang	-848
2019	-849
ick	-850
won▁	-851
Febr	-852
will▁	-853
ors▁	-854
ually▁	-855
cur	-856
ture	-857
November▁	-858
sa	-859
son	-860
govern	-861
France	-862
Gu	-863
ld	-864
langu	-865
port	-866
new▁	-867
distric	-868
'▁	-869
Rel	-870
ari	-871
ely▁	-872
song	-873
until▁	-874
(199	-875
Fl	-876
end▁	-877
February▁	-878
te▁	-879
member▁	-880
ress	-881
rel	-882
ook	-883
football▁	-884
histor	-885
go	-886
League▁	-887
Man	-888
ort	-889
dec	-890
North▁	-891
Dea	-892
Chin	-893
tions▁	-894
ampion	-895
sol	-896
would▁	-897
part	-898
bro	-899
famil	-900
former▁	-901
div	-902
throug	-903
may▁	-904
ple▁	-905
0,▁	-906
mil	-907
Histor	-908
ents	-909
way▁	-910
ref	-911
released▁	-912
different▁	-913
9,▁	-914
offic	-915
bel	-916
sup	-917
efore▁	-918
ce▁	-919
so▁	-920
arm	-921
Am	-922
ates▁	-923
comm	-924
years▁	-925
then▁	-926
fol	-927
law	-928
York▁	-929
ough▁	-930
beg	-931
plac	-932
depart	-933
loc	-934
ys	-935
|199	-936
three▁	-937
re▁	-938
ern▁	-939
Republ	-940
ists	-941
County	-942
der▁	-943
||0||	-944
ement▁	-945
tra	-946
make▁	-947
mak	-948
ouse▁	-949
Ser	-950
car	-951
University▁	-952
ca	-953
mod	-954
His▁	-955
inv	-956
Bar	-957
President▁	-958
ital▁	-959
do	-960
gre	-961
red▁	-962
Cent	-963
mer▁	-964
Russi	-965
ister▁	-966
thern▁	-967
tri	-968
tre	-969
Europe	-970
again	-971
since▁	-972
municipal	-973
12	-974
football	-975
sub	-976
found	-977
music	-978
El	-979
ifor	-980
ale▁	-981
Americ	-982
same▁	-983
Commun	-984
stri	-985
tive▁	-986
Ab	-987
def	-988
Mich	-989
no▁	-990
players	-991
13	-992
,00	-993
jec	-994
iforn	-995
group	-996
ire	-997
Part	-998
some	-999
vers	-1000
Californ	-1001
cons	-1002
tor▁	-1003
ru	-1004
her	-1005
Off	-1006
lymp	-1007
prof	-1008
sel	-1009
ama▁	-1010
met	-1011
Ang	-1012
Olymp	-1013
fe▁	-1014
colspan	-1015
ating▁	-1016
After▁	-1017
ester	-1018
Ed	-1019
ins	-1020
Char	-1021
dev	-1022
later▁	-1023
Di	-1024
Mov	-1025
14	-1026
Em	-1027
them▁	-1028
countr	-1029
work▁	-1030
time	-1031
1)	-1032
Willi	-1033
often▁	-1034
Me	-1035
pages	-1036
="2"|-	-1037
appe	-1038
named▁	-1039
Per	-1040
189	-1041
roc	-1042
Ear	-1043
ship▁	-1044
gener	-1045
stit	-1046
Rob	-1047
through▁	-1048
player	-1049
care	-1050
do▁	-1051
town▁	-1052
War	-1053
being▁	-1054
times▁	-1055
cul	-1056
der	-1057
ub▁	-1058
ax	-1059
Japanese▁	-1060
ank	-1061
ual▁	-1062
cer	-1063
br	-1064
int	-1065
based▁	-1066
leg	-1067
5)	-1068
Related▁	-1069
seas	-1070
Her	-1071
Lond	-1072
over	-1073
app	-1074
one	-1075
ounc	-1076
present	-1077
music▁	-1078
second▁	-1079
series▁	-1080
Tex	-1081
Cor	-1082
Re	-1083
acc	-1084
3)	-1085
started▁	-1086
organ	-1087
les	-1088
each▁	-1089
ics	-1090
ations	-1091
Bel	-1092
area▁	-1093
gest▁	-1094
1.	-1095
ort▁	-1096
gen	-1097
ur▁	-1098
ets▁	-1099
As▁	-1100
ins▁	-1101
stor	-1102
ows▁	-1103
amm	-1104
",▁	-1105
Ex	-1106
tle▁	-1107
oth	-1108
bi	-1109
ry	-1110
ings	-1111
sci	-1112
ft▁	-1113
German	-1114
Italian▁	-1115
fiel	-1116
even▁	-1117
typ	-1118
sion▁	-1119
singer	-1120
7)	-1121
8)	-1122
him▁	-1123
ty▁	-1124
lead	-1125
bre	-1126
oper	-1127
against▁	-1128
wom	-1129
ons▁	-1130
bum	-1131
giv	-1132
lim	-1133
number▁	-1134
County▁	-1135
How	-1136
with	-1137
4)	-1138
ach▁	-1139
ze▁	-1140
Ne	-1141
fil	-1142
Te	-1143
exam	-1144
Scot	-1145
ames	-1146
can	-1147
6)	-1148
He	-1149
pow	-1150
ros	-1151
Some▁	-1152
188	-1153
ture▁	-1154
before▁	-1155
ou▁	-1156
2010	-1157
"|	-1158
actor	-1159
Canadi	-1160
usually▁	-1161
usin	-1162
bri	-1163
2)	-1164
off	-1165
King	-1166
Be	-1167
Se	-1168
Sy	-1169
ugh	-1170
(198	-1171
kill	-1172
".▁	-1173
||4	-1174
med	-1175
atic▁	-1176
Champion	-1177
Mc	-1178
both▁	-1179
Govern	-1180
Wal	-1181
did▁	-1182
main▁	-1183
struc	-1184
ire▁	-1185
team	-1186
everal▁	-1187
vo	-1188
lig	-1189
anim	-1190
20▁	-1191
compl	-1192
them	-1193
if	-1194
ens▁	-1195
onom	-1196
compos	-1197
ograph	-1198
iss	-1199
high	-1200
ress▁	-1201
county▁	-1202
,000▁	-1203
well▁	-1204
ians▁	-1205
including▁	-1206
early▁	-1207
Asi	-1208
ass▁	-1209
winn	-1210
Offic	-1211
sim	-1212
ead▁	-1213
ke	-1214
under▁	-1215
V▁	-1216
best▁	-1217
these▁	-1218
aur	-1219
scho	-1220
These▁	-1221
population▁	-1222
00▁	-1223
ase▁	-1224
small▁	-1225
ure▁	-1226
When▁	-1227
ters▁	-1228
around▁	-1229
Bo	-1230
Arm	-1231
ary	-1232
tics	-1233
War▁	-1234
aint	-1235
tions	-1236
could▁	-1237
plan	-1238
186	-1239
eder	-1240
marri	-1241
Deaths▁	-1242
igh▁	-1243
&▁	-1244
ucc	-1245
elop	-1246
place▁	-1247
ism	-1248
City	-1249
mat	-1250
ativ	-1251
ons	-1252
appear	-1253
Ass	-1254
ket	-1255
art▁	-1256
team▁	-1257
aged▁	-1258
ography	-1259
fa	-1260
vis	-1261
let	-1262
tak	-1263
10▁	-1264
now▁	-1265
per▁	-1266
Bra	-1267
Dis	-1268
hum	-1269
For▁	-1270
9)	-1271
la	-1272
ace	-1273
mo	-1274
uk	-1275
region▁	-1276
California	-1277
lo	-1278
album	-1279
Sec	-1280
Dav	-1281
Pa	-1282
At▁	-1283
ards▁	-1284
ession	-1285
ek▁	-1286
follow	-1287
canc	-1288
get▁	-1289
said▁	-1290
Dem	-1291
Sch	-1292
import	-1293
Swed	-1294
jo	-1295
dom	-1296
ig▁	-1297
estern▁	-1298
aut	-1299
fec	-1300
Canadian▁	-1301
ages▁	-1302
group▁	-1303
tional▁	-1304
ina▁	-1305
several▁	-1306
2010▁	-1307
orig	-1308
Ro	-1309
tors▁	-1310
Lou	-1311
ocr	-1312
world	-1313
ll▁	-1314
Sup	-1315
ds▁	-1316
Qu	-1317
ned▁	-1318
2.	-1319
mu	-1320
pri	-1321
ral▁	-1322
year▁	-1323
Ber	-1324
Tur	-1325
stud	-1326
Ev	-1327
century▁	-1328
ll	-1329
ina	-1330
player▁	-1331
Pet	-1332
adem	-1333
bum▁	-1334
187	-1335
spe	-1336
cor	-1337
2020▁	-1338
rop	-1339
Roman▁	-1340
||||||||	-1341
ret	-1342
Phil	-1343
Mun	-1344
lev	-1345
game▁	-1346
milli	-1347
ublish	-1348
writer	-1349
directed▁	-1350
ence	-1351
day▁	-1352
ign▁	-1353
io▁	-1354
stu	-1355
peri	-1356
progr	-1357
port▁	-1358
if▁	-1359
zer	-1360
department▁	-1361
iev	-1362
near▁	-1363
On	-1364
ics▁	-1365
back▁	-1366
municipality▁	-1367
And	-1368
set▁	-1369
four▁	-1370
lived▁	-1371
atis	-1372
activ	-1373
inal▁	-1374
Gro	-1375
One▁	-1376
writer▁	-1377
yn	-1378
ame	-1379
Hol	-1380
form▁	-1381
Japan▁	-1382
im▁	-1383
him	-1384
ice	-1385
(201	-1386
arch	-1387
itary▁	-1388
ek	-1389
lit	-1390
rul	-1391
ourn	-1392
career▁	-1393
family▁	-1394
ple	-1395
und▁	-1396
trans	-1397
arti	-1398
buil	-1399
person▁	-1400
ove▁	-1401
Co	-1402
ever▁	-1403
actor▁	-1404
stem	-1405
w▁	-1406
main	-1407
west▁	-1408
album▁	-1409
nec	-1410
poin	-1411
Dist	-1412
Dr	-1413
ght	-1414
disc	-1415
succ	-1416
Minister▁	-1417
Dep	-1418
dio▁	-1419
sch	-1420
William▁	-1421
water▁	-1422
Vi	-1423
curr	-1424
live▁	-1425
isti	-1426
song▁	-1427
%▁	-1428
Su	-1429
pec	-1430
chil	-1431
ists▁	-1432
19▁	-1433
ball▁	-1434
/0	-1435
3.	-1436
Bu	-1437
auth	-1438
while▁	-1439
Cities▁	-1440
International▁	-1441
long	-1442
though▁	-1443
uck	-1444
els	-1445
ung	-1446
House▁	-1447
anish▁	-1448
important▁	-1449
Official▁	-1450
Party▁	-1451
district▁	-1452
".	-1453
unn	-1454
act▁	-1455
formed▁	-1456
Canad	-1457
The	-1458
contro	-1459
play▁	-1460
vide	-1461
Communes▁	-1462
band	-1463
T▁	-1464
ities	-1465
Mal	-1466
ang▁	-1467
band▁	-1468
began▁	-1469
design	-1470
actress	-1471
ements▁	-1472
Indian▁	-1473
Bro	-1474
ane▁	-1475
ars▁	-1476
king▁	-1477
website	-1478
ron	-1479
ought▁	-1480
York	-1481
build	-1482
mis	-1483
memb	-1484
12▁	-1485
years	-1486
countri	-1487
State▁	-1488
minist	-1489
Australian▁	-1490
chn	-1491
ert▁	-1492
Angel	-1493
any	-1494
what▁	-1495
ble▁	-1496
large▁	-1497
person	-1498
5.	-1499
written▁	-1500
day	-1501
edi	-1502
Sal	-1503
Sen	-1504
ined▁	-1505
publish	-1506
Award▁	-1507
language▁	-1508
ox	-1509
ight	-1510
ick▁	-1511
Mex	-1512
add	-1513
1.▁	-1514
San▁	-1515
air▁	-1516
drama▁	-1517
moved▁	-1518
created▁	-1519
hear	-1520
fri	-1521
mag	-1522
omin	-1523
ak▁	-1524
0)	-1525
Ju	-1526
City▁	-1527
Footb	-1528
D▁	-1529
James▁	-1530
develop	-1531
cy	-1532
ley▁	-1533
sign	-1534
means▁	-1535
ockey▁	-1536
Germany	-1537
ision	-1538
government▁	-1539
2.▁	-1540
(197	-1541
Scho	-1542
restl	-1543
King▁	-1544
15▁	-1545
orge▁	-1546
aff	-1547
Flor	-1548
ator▁	-1549
Russian▁	-1550
pi	-1551
thir	-1552
Jo	-1553
Pal	-1554
Bas	-1555
out	-1556
there	-1557
7.	-1558
Tim	-1559
vol	-1560
ards	-1561
record	-1562
Distric	-1563
ef▁	-1564
ajor▁	-1565
ized▁	-1566
tt	-1567
life	-1568
Christi	-1569
ats▁	-1570
busin	-1571
line▁	-1572
ind▁	-1573
2017▁	-1574
show▁	-1575
using▁	-1576
(2	-1577
Bi	-1578
Gener	-1579
ature▁	-1580
ped▁	-1581
Fir	-1582
largest▁	-1583
augh	-1584
phys	-1585
11▁	-1586
Ale	-1587
Jos	-1588
ened▁	-1589
ked▁	-1590
US▁	-1591
18▁	-1592
bod	-1593
umb	-1594
ust	-1595
Its▁	-1596
Pak	-1597
Reg	-1598
publ	-1599
Sou	-1600
De	-1601
Med	-1602
idd	-1603
However	-1604
185	-1605
Spor	-1606
ful▁	-1607
ians	-1608
last▁	-1609
famous▁	-1610
profession	-1611
||5	-1612
ement	-1613
Movies▁	-1614
how▁	-1615
History	-1616
Politic	-1617
ology	-1618
ze	-1619
stem▁	-1620
yr	-1621
od▁	-1622
held▁	-1623
nov	-1624
CO	-1625
edy▁	-1626
Mor	-1627
chem	-1628
read	-1629
ise▁	-1630
rece	-1631
="2"|	-1632
ft	-1633
Democr	-1634
Sing	-1635
Many▁	-1636
2000	-1637
Chic	-1638
but	-1639
ones	-1640
ided▁	-1641
contin	-1642
country▁	-1643
so	-1644
unc	-1645
prot	-1646
2018▁	-1647
ular▁	-1648
Rich	-1649
ord▁	-1650
George▁	-1651
elected▁	-1652
each	-1653
Pre	-1654
Rec	-1655
ony▁	-1656
long▁	-1657
Mo	-1658
capital▁	-1659
omb	-1660
League	-1661
1)▁	-1662
Har	-1663
|▁	-1664
Fre	-1665
ana	-1666
ates	-1667
4.	-1668
Cath	-1669
much▁	-1670
Mil	-1671
vill	-1672
ator	-1673
Bur	-1674
Cap	-1675
war	-1676
US	-1677
series	-1678
14▁	-1679
Il	-1680
ensus	-1681
ended▁	-1682
8.	-1683
ger▁	-1684
uses▁	-1685
new	-1686
anti	-1687
ult▁	-1688
Ir	-1689
Kh	-1690
stitu	-1691
England	-1692
politicians	-1693
politician▁	-1694
Wil	-1695
ummer▁	-1696
way	-1697
ery▁	-1698
not	-1699
ock▁	-1700
ago	-1701
ext▁	-1702
Atl	-1703
back	-1704
cour	-1705
London	-1706
West▁	-1707
become▁	-1708
itar	-1709
ney▁	-1710
married▁	-1711
Prime▁	-1712
European▁	-1713
still▁	-1714
E▁	-1715
Braz	-1716
attle▁	-1717
east	-1718
Austri	-1719
served▁	-1720
million▁	-1721
tain	-1722
system	-1723
Most▁	-1724
given▁	-1725
ism▁	-1726
tem	-1727
death▁	-1728
13▁	-1729
ah▁	-1730
book▁	-1731
under	-1732
living▁	-1733
Mis	-1734
Sci	-1735
ovi	-1736
ael▁	-1737
ature	-1738
ks	-1739
Ter	-1740
ite	-1741
Spanish▁	-1742
Tw	-1743
oge	-1744
wro	-1745
youn	-1746
ivil▁	-1747
Div	-1748
Ma	-1749
16▁	-1750
mul	-1751
ful	-1752
Afric	-1753
Comp	-1754
istan	-1755
eph	-1756
lec	-1757
include▁	-1758
6.	-1759
forc	-1760
sl	-1761
ance	-1762
3.▁	-1763
wan	-1764
30▁	-1765
sil	-1766
north	-1767
diseas	-1768
..	-1769
2014▁	-1770
fre	-1771
hav	-1772
ier	-1773
educ	-1774
P▁	-1775
Res	-1776
4.▁	-1777
New	-1778
La▁	-1779
went▁	-1780
cr	-1781
John	-1782
arry▁	-1783
identi	-1784
Du	-1785
ains▁	-1786
electr	-1787
Gl	-1788
Air	-1789
Fil	-1790
May	-1791
happ	-1792
Ap	-1793
net	-1794
17▁	-1795
posi	-1796
north▁	-1797
right▁	-1798
||0||1	-1799
ani	-1800
home▁	-1801
go▁	-1802
light▁	-1803
é▁	-1804
grow	-1805
0.	-1806
Wi	-1807
L▁	-1808
Mac	-1809
ient▁	-1810
First▁	-1811
All▁	-1812
charact	-1813
–200	-1814
ale	-1815
ten	-1816
video▁	-1817
lov	-1818
wrote▁	-1819
ley	-1820
ived▁	-1821
rock▁	-1822
caused▁	-1823
Kar	-1824
ana▁	-1825
built▁	-1826
partic	-1827
professional▁	-1828
Ag	-1829
cel	-1830
els▁	-1831
ep▁	-1832
Los▁	-1833
urric	-1834
ver▁	-1835
Lu	-1836
Mi	-1837
7.▁	-1838
games	-1839
Ze	-1840
took▁	-1841
popular▁	-1842
Hen	-1843
ank▁	-1844
led▁	-1845
2019▁	-1846
Actors▁	-1847
common▁	-1848
ve	-1849
off▁	-1850
alist▁	-1851
Er	-1852
America	-1853
fem	-1854
Georg	-1855
equ	-1856
India	-1857
ount▁	-1858
atistics	-1859
stand	-1860
journ	-1861
ene	-1862
word▁	-1863
dren	-1864
5.▁	-1865
ettl	-1866
Not	-1867
cas	-1868
rac	-1869
hor	-1870
ently▁	-1871
Jew	-1872
Sim	-1873
ania	-1874
less▁	-1875
ute▁	-1876
From▁	-1877
||0||0||0||0	-1878
Vir	-1879
Kans	-1880
left▁	-1881
cast	-1882
Don	-1883
dia▁	-1884
sts▁	-1885
view	-1886
ties▁	-1887
Australia	-1888
8.▁	-1889
came▁	-1890
itch	-1891
ei	-1892
sometimes▁	-1893
vir	-1894
military▁	-1895
B▁	-1896
ty	-1897
aw▁	-1898
political▁	-1899
II▁	-1900
Pers	-1901
la▁	-1902
ama	-1903
Cour	-1904
English	-1905
9.▁	-1906
lands▁	-1907
voc	-1908
Thom	-1909
East▁	-1910
univers	-1911
ra▁	-1912
region	-1913
another▁	-1914
does▁	-1915
Emp	-1916
ems▁	-1917
ties	-1918
founded▁	-1919
life▁	-1920
ways▁	-1921
9.	-1922
km	-1923
ille	-1924
becom	-1925
ae	-1926
singer▁	-1927
ex▁	-1928
Municipal	-1929
cell	-1930
show	-1931
spor	-1932
south	-1933
Robert▁	-1934
species▁	-1935
VI	-1936
ie	-1937
oph	-1938
system▁	-1939
my	-1940
Academ	-1941
Prov	-1942
David▁	-1943
During▁	-1944
Texas	-1945
vari	-1946
Carol	-1947
worked▁	-1948
ean▁	-1949
tain▁	-1950
Republic▁	-1951
Ind	-1952
ois	-1953
ai▁	-1954
child	-1955
sty	-1956
owns▁	-1957
men	-1958
Christ	-1959
pris	-1960
cancer	-1961
century	-1962
()▁	-1963
An▁	-1964
book	-1965
just▁	-1966
Sam	-1967
bar	-1968
1,	-1969
expl	-1970
plays▁	-1971
stage▁	-1972
Cam	-1973
Rh	-1974
rang	-1975
ren▁	-1976
Mag	-1977
Illin	-1978
Michael▁	-1979
6.▁	-1980
lands	-1981
Mat	-1982
reas	-1983
announc	-1984
Wash	-1985
Saint	-1986
high▁	-1987
Cathol	-1988
tot	-1989
Port	-1990
Best▁	-1991
official▁	-1992
Dut	-1993
gin	-1994
1990	-1995
ode▁	-1996
ally	-1997
toge	-1998
published▁	-1999
di▁	-2000
western▁	-2001
4)▁	-2002
ob▁	-2003
sen	-2004
ially▁	-2005
see▁	-2006
type▁	-2007
Brazil	-2008
single▁	-2009
que▁	-2010
manag	-2011
East	-2012
relig	-2013
Que	-2014
deb	-2015
ven	-2016
ink▁	-2017
ip▁	-2018
vot	-2019
action▁	-2020
2016▁	-2021
2021▁	-2022
Canada	-2023
Tor	-2024
8),▁	-2025
pass	-2026
retur	-2027
Florid	-2028
guitar	-2029
River▁	-2030
econom	-2031
che	-2032
righ	-2033
|}	-2034
example	-2035
ory	-2036
descri	-2037
1980	-2038
ones▁	-2039
If▁	-2040
third▁	-2041
Washing	-2042
Bal	-2043
dam	-2044
Chur	-2045
7)▁	-2046
comedy▁	-2047
ministr	-2048
gl	-2049
Pop	-2050
phil	-2051
club▁	-2052
seat▁	-2053
Sovi	-2054
well	-2055
Lo	-2056
state	-2057
ade	-2058
my▁	-2059
business	-2060
8)▁	-2061
role▁	-2062
census	-2063
world▁	-2064
believ	-2065
members▁	-2066
ni	-2067
BC▁	-2068
na▁	-2069
emp	-2070
ext	-2071
ning▁	-2072
184	-2073
hal	-2074
Ros	-2075
ches▁	-2076
groups▁	-2077
TV▁	-2078
ept▁	-2079
field▁	-2080
har	-2081
ald▁	-2082
rain	-2083
2)▁	-2084
along▁	-2085
lv	-2086
commune	-2087
province▁	-2088
ago▁	-2089
General▁	-2090
ends▁	-2091
ology▁	-2092
ush	-2093
res▁	-2094
K▁	-2095
Fin	-2096
ery	-2097
1),▁	-2098
Chinese▁	-2099
represent	-2100
Democratic▁	-2101
help▁	-2102
major▁	-2103
Wom	-2104
Arch	-2105
ams▁	-2106
resp	-2107
olu	-2108
term▁	-2109
thing▁	-2110
burg	-2111
simil	-2112
5),▁	-2113
ooks▁	-2114
ematic	-2115
cop	-2116
head	-2117
mean	-2118
scre	-2119
Associ	-2120
Olympic▁	-2121
making▁	-2122
Vic	-2123
(196	-2124
Kore	-2125
ious▁	-2126
ta	-2127
25▁	-2128
put▁	-2129
Charles▁	-2130
athematic	-2131
All	-2132
five▁	-2133
school▁	-2134
order▁	-2135
We	-2136
ines▁	-2137
atural▁	-2138
6),▁	-2139
list▁	-2140
||6	-2141
4),▁	-2142
few▁	-2143
tures▁	-2144
Tel	-2145
inst	-2146
ouse	-2147
side▁	-2148
probl	-2149
ner▁	-2150
183	-2151
Writ	-2152
ily▁	-2153
success	-2154
mount	-2155
south▁	-2156
scienti	-2157
ds	-2158
following▁	-2159
proc	-2160
top▁	-2161
25	-2162
cat	-2163
ower▁	-2164
amb	-2165
Her▁	-2166
ying▁	-2167
ality▁	-2168
ron▁	-2169
statistics	-2170
hab	-2171
Paul▁	-2172
mit	-2173
Eg	-2174
doc	-2175
Colle	-2176
Sports	-2177
makes▁	-2178
Ver	-2179
ps▁	-2180
vic	-2181
change▁	-2182
killed▁	-2183
University	-2184
BC	-2185
2),▁	-2186
Wind	-2187
down▁	-2188
children	-2189
21▁	-2190
Roy	-2191
voice▁	-2192
Vill	-2193
lear	-2194
ants▁	-2195
ams	-2196
2015▁	-2197
those▁	-2198
Lit	-2199
pain	-2200
actress▁	-2201
7),▁	-2202
peror▁	-2203
works▁	-2204
Kn	-2205
got▁	-2206
3)▁	-2207
ocial▁	-2208
Mer	-2209
dem	-2210
aver	-2211
Des	-2212
ines	-2213
deaths▁	-2214
ward▁	-2215
cu	-2216
Mad	-2217
tour	-2218
every▁	-2219
Gold	-2220
Park	-2221
berg	-2222
power▁	-2223
non	-2224
dge▁	-2225
tin▁	-2226
heart▁	-2227
6)▁	-2228
Soviet▁	-2229
phot	-2230
albums	-2231
river▁	-2232
Football▁	-2233
key	-2234
Play	-2235
FA▁	-2236
ere	-2237
hand	-2238
produced▁	-2239
Bor	-2240
osp	-2241
rog	-2242
=▁	-2243
ta▁	-2244
feder	-2245
take▁	-2246
5)▁	-2247
pur	-2248
writers	-2249
located▁	-2250
version▁	-2251
/9	-2252
good▁	-2253
next▁	-2254
ross▁	-2255
hol	-2256
Alex	-2257
Mexic	-2258
epend	-2259
complet	-2260
ording▁	-2261
independ	-2262
Bec	-2263
List▁	-2264
charac	-2265
se▁	-2266
Asia	-2267
ata▁	-2268
list	-2269
head▁	-2270
Greek▁	-2271
mot	-2272
||0||2	-2273
ean	-2274
roy	-2275
Cong	-2276
Club▁	-2277
ety▁	-2278
Dutch▁	-2279
Cup▁	-2280
received▁	-2281
Hum	-2282
Jack	-2283
attack	-2284
without▁	-2285
Sar	-2286
1970	-2287
itzer	-2288
urricane▁	-2289
Bir	-2290
flu	-2291
COVI	-2292
reti	-2293
parts▁	-2294
father▁	-2295
Pat	-2296
earch▁	-2297
ka	-2298
ri▁	-2299
Summer▁	-2300
sw	-2301
Kur	-2302
ief▁	-2303
daugh	-2304
placed▁	-2305
ner	-2306
Isra	-2307
COVID	-2308
formation▁	-2309
ce	-2310
9),▁	-2311
ated	-2312
season	-2313
Met	-2314
Pic	-2315
movie	-2316
esh	-2317
ied▁	-2318
most	-2319
ments	-2320
public▁	-2321
3),▁	-2322
ised▁	-2323
Cur	-2324
Dar	-2325
ham	-2326
thought▁	-2327
Si	-2328
Sk	-2329
Ben	-2330
gar	-2331
Im	-2332
Switzer	-2333
ile	-2334
2011▁	-2335
Great▁	-2336
Pakistan	-2337
announced▁	-2338
WW	-2339
country	-2340
Richard▁	-2341
adu	-2342
camp	-2343
total▁	-2344
related▁	-2345
45	-2346
Del	-2347
lab	-2348
cal	-2349
ms▁	-2350
Penn	-2351
Kingdom	-2352
ets	-2353
ka▁	-2354
epis	-2355
2006▁	-2356
Sol	-2357
Tri	-2358
100▁	-2359
Championship▁	-2360
Sant	-2361
effec	-2362
Academy▁	-2363
2007▁	-2364
school	-2365
election▁	-2366
Cr	-2367
Cre	-2368
atives▁	-2369
30	-2370
ha	-2371
val	-2372
2013▁	-2373
alth▁	-2374
rown▁	-2375
continu	-2376
Republican▁	-2377
body▁	-2378
consid	-2379
b▁	-2380
Afr	-2381
fail	-2382
film▁	-2383
water	-2384
ipp	-2385
fied▁	-2386
short▁	-2387
city	-2388
dom▁	-2389
vent	-2390
2000▁	-2391
tical▁	-2392
similar▁	-2393
appeared▁	-2394
Fri	-2395
rom	-2396
men▁	-2397
trop	-2398
by	-2399
ident	-2400
West	-2401
wrestl	-2402
author	-2403
engine	-2404
general▁	-2405
Ca	-2406
.,▁	-2407
ap▁	-2408
dra	-2409
que	-2410
viol	-2411
you▁	-2412
human▁	-2413
olv	-2414
hockey▁	-2415
!▁	-2416
Nob	-2417
ches	-2418
liam	-2419
London▁	-2420
22▁	-2421
Gen	-2422
Jer	-2423
China	-2424
resent	-2425
African▁	-2426
Counc	-2427
ency▁	-2428
ketball▁	-2429
abil	-2430
war▁	-2431
seen▁	-2432
collec	-2433
countries▁	-2434
ino▁	-2435
24▁	-2436
tern	-2437
23▁	-2438
ides▁	-2439
mostly▁	-2440
footballer	-2441
footballers	-2442
Go	-2443
Hy	-2444
Texas▁	-2445
special▁	-2446
Cup	-2447
ali	-2448
occ	-2449
come▁	-2450
techn	-2451
commune▁	-2452
Represent	-2453
Rev	-2454
Belg	-2455
Jers	-2456
comes▁	-2457
Po	-2458
Hon	-2459
Italy	-2460
sible▁	-2461
organiz	-2462
season▁	-2463
company▁	-2464
kl	-2465
resul	-2466
Thomas▁	-2467
things▁	-2468
Swedish▁	-2469
cant	-2470
ions▁	-2471
Henry▁	-2472
ox▁	-2473
pat	-2474
2012▁	-2475
starr	-2476
mb	-2477
Mur	-2478
ake	-2479
small	-2480
international▁	-2481
Mel	-2482
trav	-2483
Ham	-2484
Zeal	-2485
must▁	-2486
Virgin	-2487
iddle▁	-2488
local▁	-2489
Arg	-2490
ham▁	-2491
Catholic▁	-2492
president▁	-2493
Gar	-2494
ag▁	-2495
ket▁	-2496
village▁	-2497
|198	-2498
reach	-2499
teach	-2500
Acc	-2501
Union▁	-2502
ander▁	-2503
eball▁	-2504
Central▁	-2505
Op	-2506
Isl	-2507
Law	-2508
class	-2509
uter▁	-2510
Cast	-2511
law▁	-2512
radi	-2513
France▁	-2514
History▁	-2515
character▁	-2516
Gir	-2517
four	-2518
ium▁	-2519
2008▁	-2520
Sportspeople▁	-2521
chur	-2522
mur	-2523
Mass	-2524
name	-2525
ster	-2526
ude▁	-2527
–199	-2528
nomin	-2529
udd	-2530
Elec	-2531
sylv	-2532
protec	-2533
Scottish▁	-2534
ball	-2535
late▁	-2536
director▁	-2537
original▁	-2538
9)▁	-2539
hold	-2540
Sur	-2541
Web	-2542
ac▁	-2543
ma▁	-2544
Egyp	-2545
view▁	-2546
Switzerland	-2547
||7	-2548
its	-2549
eter	-2550
Christian▁	-2551
N▁	-2552
ese	-2553
clos	-2554
host	-2555
tradi	-2556
modern▁	-2557
provinc	-2558
tropical▁	-2559
M▁	-2560
50▁	-2561
aim	-2562
ial	-2563
Red▁	-2564
did	-2565
1960	-2566
ography▁	-2567
includes▁	-2568
Soci	-2569
east▁	-2570
light	-2571
mathematic	-2572
r▁	-2573
fer	-2574
ored▁	-2575
ground	-2576
Val	-2577
ro▁	-2578
champion	-2579
due▁	-2580
joined▁	-2581
FI	-2582
games▁	-2583
playing▁	-2584
perform	-2585
Pas	-2586
||8	-2587
itiz	-2588
Leg	-2589
Smi	-2590
eld	-2591
Arab	-2592
epar	-2593
ject▁	-2594
cycl	-2595
sequ	-2596
ground▁	-2597
history	-2598
27▁	-2599
2004▁	-2600
broad	-2601
Illinois	-2602
medi	-2603
six▁	-2604
Prize▁	-2605
should▁	-2606
Writers▁	-2607
established▁	-2608
Bul	-2609
ford▁	-2610
Brit	-2611
Pref	-2612
lot▁	-2613
tran	-2614
Hall▁	-2615
connec	-2616
Pennsylv	-2617
Governor▁	-2618
big	-2619
win▁	-2620
self▁	-2621
11	-2622
28▁	-2623
hon	-2624
Mont	-2625
clim	-2626
Peter▁	-2627
GB	-2628
indu	-2629
Music▁	-2630
R▁	-2631
Luc	-2632
ars	-2633
dic	-2634
pian	-2635
try▁	-2636
Feder	-2637
Prefec	-2638
ators▁	-2639
within▁	-2640
Jac	-2641
self	-2642
allow	-2643
Grand▁	-2644
ma	-2645
Depart	-2646
story▁	-2647
record▁	-2648
co▁	-2649
able	-2650
physic	-2651
history▁	-2652
times	-2653
yl	-2654
au▁	-2655
gave▁	-2656
leader▁	-2657
Championship	-2658
ms	-2659
exec	-2660
ij	-2661
eth	-2662
peti	-2663
piec	-2664
2005▁	-2665
away▁	-2666
changed▁	-2667
appl	-2668
Muse	-2669
natural▁	-2670
ger	-2671
oss	-2672
we▁	-2673
eth▁	-2674
radio▁	-2675
stars▁	-2676
Battle▁	-2677
exc	-2678
gy▁	-2679
tar	-2680
ior▁	-2681
Park▁	-2682
Royal▁	-2683
Politicians▁	-2684
O▁	-2685
multi	-2686
distri	-2687
ering▁	-2688
troduc	-2689
winning▁	-2690
3"|	-2691
bed▁	-2692
Vol	-2693
syn	-2694
But▁	-2695
defe	-2696
overed▁	-2697
ants	-2698
avy▁	-2699
dies▁	-2700
inds▁	-2701
round	-2702
screen	-2703
young▁	-2704
Polish▁	-2705
current▁	-2706
together▁	-2707
Mu	-2708
180	-2709
ash▁	-2710
eastern▁	-2711
To▁	-2712
becomes▁	-2713
Dev	-2714
aly	-2715
sal	-2716
ford	-2717
need	-2718
stre	-2719
ung▁	-2720
station▁	-2721
Brazilian▁	-2722
Gall	-2723
mach	-2724
ples▁	-2725
tics▁	-2726
rights▁	-2727
included▁	-2728
40	-2729
bour	-2730
ene▁	-2731
nation	-2732
remain	-2733
School▁	-2734
Emperor▁	-2735
Jr	-2736
."▁	-2737
Mah	-2738
Ohi	-2739
ged▁	-2740
="3"|	-2741
100	-2742
conduc	-2743
Louis	-2744
ille▁	-2745
administr	-2746
Kr	-2747
town	-2748
aper▁	-2749
berg▁	-2750
Win	-2751
ling	-2752
shar	-2753
mater	-2754
Early▁	-2755
origin	-2756
area	-2757
thod	-2758
2001▁	-2759
groups	-2760
1950	-2761
Black▁	-2762
house▁	-2763
No	-2764
26▁	-2765
Educ	-2766
Chicago	-2767
29▁	-2768
ats	-2769
cle	-2770
cra	-2771
ross	-2772
||0||3	-2773
Iran	-2774
Army▁	-2775
Music	-2776
Since▁	-2777
viv	-2778
Instit	-2779
Former▁	-2780
Juli	-2781
associ	-2782
Ur	-2783
wat	-2784
sea▁	-2785
separ	-2786
ished▁	-2787
ott	-2788
department	-2789
mem	-2790
ney	-2791
2009▁	-2792
bert▁	-2793
FC▁	-2794
inj	-2795
(193	-2796
dest	-2797
lawy	-2798
Civil▁	-2799
Sa	-2800
Sain	-2801
lin▁	-2802
requ	-2803
align	-2804
district	-2805
pe▁	-2806
itec	-2807
runn	-2808
island▁	-2809
Ha	-2810
fire▁	-2811
Argent	-2812
La	-2813
no	-2814
itz	-2815
die▁	-2816
ific▁	-2817
Nobel▁	-2818
Portug	-2819
developed▁	-2820
liz	-2821
sex	-2822
low▁	-2823
prob	-2824
Asian▁	-2825
Jewish▁	-2826
(3	-2827
Fer	-2828
king	-2829
philos	-2830
By▁	-2831
aves▁	-2832
habit	-2833
Victor	-2834
li▁	-2835
ío▁	-2836
ica▁	-2837
ya▁	-2838
ital	-2839
omet	-2840
Mount	-2841
lost▁	-2842
women	-2843
Israel	-2844
soci	-2845
uel▁	-2846
–201	-2847
ending▁	-2848
fac	-2849
books	-2850
ues▁	-2851
Sweden	-2852
Pan	-2853
del	-2854
exp	-2855
event	-2856
NA	-2857
Cze	-2858
agre	-2859
func	-2860
ole▁	-2861
wea	-2862
Bern	-2863
big▁	-2864
other	-2865
Louis▁	-2866
taken▁	-2867
Western▁	-2868
gir	-2869
Africa	-2870
artist	-2871
least▁	-2872
Because▁	-2873
children▁	-2874
Stu	-2875
ots▁	-2876
rain▁	-2877
songs	-2878
tice▁	-2879
title▁	-2880
having▁	-2881
Hel	-2882
(195	-2883
fact	-2884
ettlements▁	-2885
assi	-2886
Andre	-2887
production▁	-2888
ini	-2889
bass	-2890
ough	-2891
liter	-2892
southern▁	-2893
Land	-2894
run▁	-2895
wood	-2896
black▁	-2897
50	-2898
Den	-2899
Princ	-2900
aster	-2901
2020)▁	-2902
Gra	-2903
Lab	-2904
eau	-2905
Turk	-2906
ena▁	-2907
soldi	-2908
aster▁	-2909
central▁	-2910
introduc	-2911
lad	-2912
Enter	-2913
ense▁	-2914
ests▁	-2915
England▁	-2916
director	-2917
."	-2918
Kent	-2919
spir	-2920
Islam	-2921
control▁	-2922
un▁	-2923
Record	-2924
ental▁	-2925
squ	-2926
shire	-2927
Angeles	-2928
Kingdom▁	-2929
Bre	-2930
Gal	-2931
Mos	-2932
far	-2933
again▁	-2934
ww	-2935
(;▁	-2936
Fam	-2937
||9	-2938
rough	-2939
Uk	-2940
lav	-2941
top	-2942
sych	-2943
repor	-2944
School	-2945
Florida	-2946
(19	-2947
stat	-2948
countries	-2949
mix	-2950
wid	-2951
ier▁	-2952
great▁	-2953
active▁	-2954
Pac	-2955
den	-2956
god	-2957
family	-2958
women▁	-2959
center▁	-2960
considered▁	-2961
jud	-2962
ific	-2963
2002▁	-2964
states▁	-2965
idential▁	-2966
basketball▁	-2967
oon▁	-2968
Prince▁	-2969
oll	-2970
Stev	-2971
You▁	-2972
uset	-2973
Premi	-2974
Michig	-2975
essor▁	-2976
/▁	-2977
Sil	-2978
money▁	-2979
female▁	-2980
position▁	-2981
whe	-2982
Prof	-2983
diss	-2984
("	-2985
rail	-2986
rest	-2987
field	-2988
give▁	-2989
studied▁	-2990
Northern▁	-2991
days▁	-2992
gradu	-2993
recog	-2994
2010,▁	-2995
Up	-2996
zz	-2997
Earth	-2998
death	-2999
wood▁	-3000
temper	-3001
highest▁	-3002
producer	-3003
Bang	-3004
power	-3005
lives▁	-3006
Austrian▁	-3007
dia	-3008
fur	-3009
ns▁	-3010
ult	-3011
pop▁	-3012
face▁	-3013
common	-3014
ights▁	-3015
Lib	-3016
Ori	-3017
Hung	-3018
Minn	-3019
arded▁	-3020
Clar	-3021
High	-3022
citiz	-3023
Massach	-3024
almost▁	-3025
amount▁	-3026
better▁	-3027
places▁	-3028
government	-3029
Massachuset	-3030
Settlements▁	-3031
Dani	-3032
numb	-3033
outs	-3034
Towns▁	-3035
ological▁	-3036
Mart	-3037
building▁	-3038
cir	-3039
mor	-3040
rip	-3041
avar	-3042
find▁	-3043
posed▁	-3044
composer▁	-3045
problems▁	-3046
lor	-3047
car▁	-3048
Irish▁	-3049
point▁	-3050
certain▁	-3051
W▁	-3052
Tre	-3053
Jersey	-3054
ained▁	-3055
mother▁	-3056
15,▁	-3057
comb	-3058
super	-3059
transl	-3060
Association▁	-3061
Gi	-3062
thr	-3063
site	-3064
among▁	-3065
Francis	-3066
du	-3067
Cas	-3068
You	-3069
mid	-3070
Big▁	-3071
ara▁	-3072
net▁	-3073
open	-3074
ury▁	-3075
ves▁	-3076
white▁	-3077
Korean▁	-3078
Ra	-3079
study▁	-3080
movies▁	-3081
oday	-3082
ois▁	-3083
High▁	-3084
Minist	-3085
Municipalities▁	-3086
Pi	-3087
179	-3088
log	-3089
ull	-3090
chan	-3091
ids▁	-3092
iss▁	-3093
2003▁	-3094
Missou	-3095
Nether	-3096
areas▁	-3097
atin▁	-3098
Court▁	-3099
Their▁	-3100
(192	-3101
Anim	-3102
Viet	-3103
Spain	-3104
shows▁	-3105
retired▁	-3106
23	-3107
see	-3108
Youn	-3109
compan	-3110
atures▁	-3111
Ob	-3112
gy	-3113
Day▁	-3114
azz▁	-3115
ropol	-3116
strum	-3117
ures▁	-3118
Cri	-3119
ink	-3120
Río▁	-3121
astr	-3122
leag	-3123
wanted▁	-3124
northern▁	-3125
With▁	-3126
sent▁	-3127
compet	-3128
musical▁	-3129
24	-3130
rid	-3131
sour	-3132
says▁	-3133
above▁	-3134
board▁	-3135
always▁	-3136
Carolina	-3137
na	-3138
addi	-3139
thre	-3140
average▁	-3141
Cat	-3142
Nic	-3143
uel	-3144
Vall	-3145
ucle	-3146
uty▁	-3147
Party	-3148
Star▁	-3149
Secret	-3150
takes▁	-3151
canton▁	-3152
Ky	-3153
Mr	-3154
hom	-3155
ota	-3156
ris	-3157
tit	-3158
Spec	-3159
say▁	-3160
ula▁	-3161
-19	-3162
ugg	-3163
ells▁	-3164
estiv	-3165
lead▁	-3166
site▁	-3167
involv	-3168
District	-3169
run	-3170
line	-3171
Liber	-3172
ett	-3173
ops▁	-3174
quar	-3175
ster▁	-3176
ested▁	-3177
2,	-3178
ban	-3179
cle▁	-3180
left	-3181
osaur	-3182
social▁	-3183
language	-3184
Iow	-3185
enz	-3186
acy▁	-3187
down	-3188
onic▁	-3189
either▁	-3190
little▁	-3191
ely	-3192
symb	-3193
working▁	-3194
Os	-3195
Ari	-3196
Tok	-3197
fron	-3198
period	-3199
cities▁	-3200
divided▁	-3201
God	-3202
Mod	-3203
ena	-3204
ishop▁	-3205
songwriter	-3206
og▁	-3207
tari	-3208
burg▁	-3209
eign▁	-3210
direct	-3211
Kor	-3212
Camp	-3213
Paris	-3214
food▁	-3215
goes▁	-3216
sold▁	-3217
Germany▁	-3218
F▁	-3219
—▁	-3220
Wik	-3221
ti▁	-3222
tra▁	-3223
influ	-3224
road▁	-3225
fr	-3226
Ire	-3227
read▁	-3228
opened▁	-3229
anth	-3230
1988▁	-3231
books▁	-3232
competi	-3233
mainly▁	-3234
Hor	-3235
ump	-3236
eph▁	-3237
ales▁	-3238
words▁	-3239
information▁	-3240
My▁	-3241
Stre	-3242
Lake▁	-3243
Latin▁	-3244
erence▁	-3245
example▁	-3246
UK▁	-3247
1||1	-3248
Care	-3249
That▁	-3250
never▁	-3251
Philipp	-3252
ran▁	-3253
North	-3254
sound	-3255
Columb	-3256
Order▁	-3257
alists	-3258
ender▁	-3259
Prefecture	-3260
My	-3261
Air▁	-3262
speak	-3263
Island	-3264
territ	-3265
tural▁	-3266
founder▁	-3267
Fe	-3268
Som	-3269
wal	-3270
ched▁	-3271
wide▁	-3272
China▁	-3273
Wrestl	-3274
antic▁	-3275
Parliam	-3276
ety	-3277
ler	-3278
pic	-3279
meas	-3280
this	-3281
artic	-3282
newsp	-3283
wife▁	-3284
Kansas	-3285
Entertain	-3286
sn	-3287
gold▁	-3288
later	-3289
rest▁	-3290
viron	-3291
comedi	-3292
istan▁	-3293
suppor	-3294
Joseph▁	-3295
theast▁	-3296
Premier▁	-3297
various▁	-3298
ope	-3299
Rang	-3300
ersh	-3301
game	-3302
river	-3303
event▁	-3304
meaning▁	-3305
District▁	-3306
Sub	-3307
Tot	-3308
oon	-3309
tow	-3310
People	-3311
iller▁	-3312
Hockey▁	-3313
Kansas▁	-3314
Chicago▁	-3315
dro	-3316
get	-3317
singers	-3318
ropical▁	-3319
Pennsylvania	-3320
1-	-3321
deg	-3322
red	-3323
(194	-3324
Notes	-3325
College▁	-3326
Council▁	-3327
present▁	-3328
IS	-3329
isl	-3330
club	-3331
shap	-3332
espec	-3333
idents▁	-3334
ony	-3335
18,▁	-3336
1990▁	-3337
1999▁	-3338
close▁	-3339
reached▁	-3340
computer▁	-3341
(8	-3342
Cub	-3343
fig	-3344
ino	-3345
ren	-3346
ring▁	-3347
Harry▁	-3348
civil▁	-3349
Ak	-3350
ga	-3351
agu	-3352
dig	-3353
Ohio	-3354
conc	-3355
1984▁	-3356
press	-3357
Senate▁	-3358
Division▁	-3359
daughter▁	-3360
ica	-3361
ont	-3362
edit	-3363
fall	-3364
hit▁	-3365
med▁	-3366
level	-3367
occur	-3368
party▁	-3369
round▁	-3370
police▁	-3371
Government▁	-3372
31▁	-3373
12,▁	-3374
Tran	-3375
ellow▁	-3376
Bon	-3377
Far	-3378
17,▁	-3379
stro	-3380
1995▁	-3381
ynast	-3382
ications▁	-3383
songs▁	-3384
start▁	-3385
think▁	-3386
types▁	-3387
Republic	-3388
3–	-3389
Bab	-3390
ane	-3391
don	-3392
sof	-3393
Group	-3394
Super▁	-3395
disease	-3396
")▁	-3397
ium	-3398
issu	-3399
Queen▁	-3400
lines▁	-3401
Edward▁	-3402
ps	-3403
ls▁	-3404
1991▁	-3405
Ko	-3406
ably▁	-3407
chest	-3408
move▁	-3409
metal▁	-3410
might▁	-3411
winners	-3412
science▁	-3413
According▁	-3414
90	-3415
Spr	-3416
ais	-3417
ita▁	-3418
norm	-3419
row▁	-3420
condi	-3421
Church▁	-3422
period▁	-3423
baseball▁	-3424
Lar	-3425
Two▁	-3426
execu	-3427
across▁	-3428
especially▁	-3429
Ni	-3430
14,▁	-3431
16,▁	-3432
Radi	-3433
Stor	-3434
Love▁	-3435
ques▁	-3436
Awards	-3437
Windows▁	-3438
Washington	-3439
performed▁	-3440
footballer▁	-3441
5–	-3442
It	-3443
1980▁	-3444
sports	-3445
instrum	-3446
Busin	-3447
earli	-3448
free▁	-3449
2020,▁	-3450
Ontari	-3451
atory▁	-3452
cause▁	-3453
prison	-3454
proper	-3455
support▁	-3456
Tom	-3457
ive	-3458
Chil	-3459
ani▁	-3460
antas	-3461
novel	-3462
Minnes	-3463
forms▁	-3464
strong▁	-3465
Department▁	-3466
Gh	-3467
Pu	-3468
Sm	-3469
Haut	-3470
1994▁	-3471
Empire	-3472
woman▁	-3473
ancient▁	-3474
chemical▁	-3475
1–	-3476
Ath	-3477
1996▁	-3478
author▁	-3479
mission	-3480
replaced▁	-3481
7–	-3482
Lee▁	-3483
princ	-3484
child▁	-3485
olution	-3486
America▁	-3487
currently▁	-3488
80	-3489
13,▁	-3490
Rail	-3491
too▁	-3492
Women	-3493
About▁	-3494
Bet	-3495
pen	-3496
urb	-3497
2||1	-3498
final▁	-3499
sport▁	-3500
int▁	-3501
Direc	-3502
need▁	-3503
tures	-3504
60	-3505
wa	-3506
Miss	-3507
Bill▁	-3508
Games	-3509
Steph	-3510
exist	-3511
legal▁	-3512
ority▁	-3513
Empire▁	-3514
Mexican▁	-3515
Fi	-3516
NH	-3517
ahom	-3518
danc	-3519
itan▁	-3520
uted▁	-3521
recorded▁	-3522
California▁	-3523
Representatives▁	-3524
Okl	-3525
III▁	-3526
Tenn	-3527
|197	-3528
alist	-3529
ville	-3530
Mexico	-3531
Indones	-3532
Oklahom	-3533
io	-3534
even	-3535
laun	-3536
ler▁	-3537
Bavar	-3538
arron	-3539
Center▁	-3540
Jus	-3541
Wis	-3542
ov▁	-3543
ency	-3544
color	-3545
race▁	-3546
White▁	-3547
fall▁	-3548
”▁	-3549
Bat	-3550
Disc	-3551
onia	-3552
1981▁	-3553
half▁	-3554
ately▁	-3555
ences▁	-3556
ensive▁	-3557
Eastern▁	-3558
Bib	-3559
aij	-3560
ara	-3561
fish	-3562
done▁	-3563
ness▁	-3564
ements	-3565
going▁	-3566
seven▁	-3567
="2"|-||	-3568
Southern▁	-3569
Tropical▁	-3570
characters▁	-3571
2–	-3572
Ru	-3573
let▁	-3574
cast▁	-3575
contr	-3576
idea▁	-3577
shown▁	-3578
musicians	-3579
10,▁	-3580
11,▁	-3581
divid	-3582
gets▁	-3583
players▁	-3584
X▁	-3585
LGB	-3586
sip	-3587
empl	-3588
ker▁	-3589
post	-3590
Frank	-3591
appro	-3592
India▁	-3593
range▁	-3594
helped▁	-3595
election	-3596
Lov	-3597
Pun	-3598
bul	-3599
Some	-3600
west	-3601
house	-3602
Martin▁	-3603
Football	-3604
disease▁	-3605
ression▁	-3606
arrondiss	-3607
Harr	-3608
1993▁	-3609
cannot▁	-3610
Olympics	-3611
architec	-3612
27	-3613
how	-3614
los	-3615
Rock	-3616
etro	-3617
leng	-3618
Year▁	-3619
case▁	-3620
weight▁	-3621
As	-3622
Jud	-3623
may	-3624
20,▁	-3625
avail	-3626
office▁	-3627
Jef	-3628
1992▁	-3629
1998▁	-3630
once▁	-3631
energy▁	-3632
signed▁	-3633
counties	-3634
Av	-3635
Mic	-3636
km▁	-3637
era▁	-3638
oto▁	-3639
ators	-3640
hard▁	-3641
ping▁	-3642
Kentuck	-3643
oldest▁	-3644
Musical▁	-3645
pointed▁	-3646
Bol	-3647
hosp	-3648
Russia	-3649
abeth▁	-3650
father	-3651
invent	-3652
ically▁	-3653
Washington▁	-3654
Phy	-3655
Tai	-3656
box	-3657
Slov	-3658
crime▁	-3659
releas	-3660
community▁	-3661
look▁	-3662
buted▁	-3663
ships▁	-3664
inning▁	-3665
constitu	-3666
6–	-3667
Gri	-3668
Mary	-3669
stop▁	-3670
Second▁	-3671
outside▁	-3672
ids	-3673
orb	-3674
uses	-3675
40▁	-3676
Ste	-3677
use	-3678
Year	-3679
Duke▁	-3680
ange▁	-3681
Scienti	-3682
Haw	-3683
det	-3684
events	-3685
Before▁	-3686
inhabit	-3687
Virginia	-3688
Zealand▁	-3689
ode	-3690
ues	-3691
4||1	-3692
driv	-3693
food	-3694
1987▁	-3695
every	-3696
jazz▁	-3697
real▁	-3698
opher▁	-3699
storm▁	-3700
cancer▁	-3701
designed▁	-3702
CA	-3703
prac	-3704
ques	-3705
claim	-3706
Publ	-3707
ado▁	-3708
hous	-3709
plat	-3710
star▁	-3711
independent▁	-3712
Hun	-3713
ata	-3714
Bill	-3715
Techn	-3716
billi	-3717
Group▁	-3718
Santa▁	-3719
brother▁	-3720
9–	-3721
dge	-3722
edy	-3723
egg	-3724
mol	-3725
Hill	-3726
Award	-3727
carri	-3728
earth	-3729
lower▁	-3730
states	-3731
Little▁	-3732
Louisian	-3733
Geography	-3734
nominated▁	-3735
Massachusetts	-3736
Squ	-3737
gun	-3738
body	-3739
oms▁	-3740
1948▁	-3741
amed▁	-3742
objec	-3743
Saint▁	-3744
level▁	-3745
Hal	-3746
da▁	-3747
din	-3748
tig	-3749
Sir▁	-3750
ness	-3751
|201	-3752
1979▁	-3753
Black	-3754
2019,▁	-3755
career	-3756
2-	-3757
178	-3758
mos	-3759
Azer	-3760
Stan	-3761
ply▁	-3762
previ	-3763
academ	-3764
thers▁	-3765
species	-3766
through	-3767
Belgian▁	-3768
changes▁	-3769
ES	-3770
Lad	-3771
Net	-3772
ality	-3773
ania▁	-3774
know▁	-3775
Atlantic▁	-3776
Anc	-3777
Ark	-3778
Red	-3779
Sel	-3780
Wat	-3781
ano	-3782
stop	-3783
1986▁	-3784
earch	-3785
friend	-3786
8–	-3787
Lig	-3788
Mem	-3789
fif	-3790
olf▁	-3791
1973▁	-3792
autom	-3793
|2006	-3794
recogn	-3795
second	-3796
although▁	-3797
7-	-3798
NA▁	-3799
Econ	-3800
ains	-3801
baij	-3802
drug	-3803
depend	-3804
seats▁	-3805
forces▁	-3806
fourth▁	-3807
Institute▁	-3808
Day	-3809
Str	-3810
ipe	-3811
Czech▁	-3812
Games▁	-3813
ennis▁	-3814
possible▁	-3815
returned▁	-3816
21	-3817
rown	-3818
border▁	-3819
Ty	-3820
Sun	-3821
fle	-3822
Fran	-3823
poet	-3824
break	-3825
short	-3826
ances▁	-3827
Canada▁	-3828
elling▁	-3829
commonly▁	-3830
Jes	-3831
aps	-3832
19,▁	-3833
bes▁	-3834
titl	-3835
1978▁	-3836
kind▁	-3837
|2005	-3838
Econom	-3839
celebr	-3840
itive▁	-3841
Island▁	-3842
raised▁	-3843
Constitu	-3844
instead▁	-3845
producer▁	-3846
Ry	-3847
TV	-3848
pa	-3849
Rog	-3850
San	-3851
ker	-3852
Bost	-3853
Comm	-3854
1951▁	-3855
ices▁	-3856
allowed▁	-3857
Hurricane▁	-3858
continued▁	-3859
="4	-3860
cou	-3861
WWE▁	-3862
LGBT▁	-3863
Chief▁	-3864
Azerbaij	-3865
Michigan	-3866
Although▁	-3867
starring▁	-3868
establishments	-3869
Az	-3870
1997▁	-3871
Toron	-3872
right	-3873
2018,▁	-3874
orial▁	-3875
Bay	-3876
Por	-3877
ha▁	-3878
ona	-3879
24,▁	-3880
Eliz	-3881
ror▁	-3882
="4"|	-3883
Mary▁	-3884
Super	-3885
track▁	-3886
vocals	-3887
something▁	-3888
dou	-3889
ota▁	-3890
Book▁	-3891
ances	-3892
ison▁	-3893
roman	-3894
|2003	-3895
26	-3896
lik	-3897
ves	-3898
Sand	-3899
Tom▁	-3900
ini▁	-3901
ions	-3902
hold▁	-3903
vice▁	-3904
roles▁	-3905
others▁	-3906
ble	-3907
1940	-3908
26,▁	-3909
Cart	-3910
Old▁	-3911
alth	-3912
conf	-3913
1960▁	-3914
1972▁	-3915
1982▁	-3916
1989▁	-3917
colle	-3918
2016,▁	-3919
review	-3920
studio▁	-3921
70	-3922
FIFA▁	-3923
poet▁	-3924
psych	-3925
Human▁	-3926
Territ	-3927
candid	-3928
attack▁	-3929
bridge▁	-3930
enough▁	-3931
Ke	-3932
Us	-3933
Doc	-3934
Dre	-3935
Lam	-3936
ny▁	-3937
21,▁	-3938
500▁	-3939
ais▁	-3940
odes	-3941
affec	-3942
5-	-3943
pun	-3944
23,▁	-3945
Coun	-3946
look	-3947
acter	-3948
chart	-3949
names▁	-3950
Golden▁	-3951
decided▁	-3952
Sl	-3953
Cel	-3954
dor	-3955
ily	-3956
nd▁	-3957
Wood	-3958
fire	-3959
last	-3960
ular	-3961
Anton	-3962
killing▁	-3963
originally▁	-3964
(,▁	-3965
Def	-3966
ulf	-3967
win	-3968
Hear	-3969
Toky	-3970
Pope▁	-3971
exper	-3972
added▁	-3973
diffic	-3974
broadcast	-3975
Life▁	-3976
place	-3977
Missis	-3978
Swiss▁	-3979
aircra	-3980
novel▁	-3981
individ	-3982
writing▁	-3983
university▁	-3984
Alab	-3985
thes	-3986
Assemb	-3987
aries▁	-3988
ously▁	-3989
successful▁	-3990
6-	-3991
Est	-3992
Mir	-3993
sum	-3994
figh	-3995
1969▁	-3996
Armen	-3997
docum	-3998
erson▁	-3999
introduced▁	-4000
Mas	-4001
ori	-4002
muse	-4003
reme▁	-4004
Europe▁	-4005
animals▁	-4006
municipalities▁	-4007
At	-4008
Cy	-4009
Rod	-4010
ems	-4011
put	-4012
itage▁	-4013
Middle▁	-4014
Wiscons	-4015
smaller▁	-4016
Mississip	-4017
Secretary▁	-4018
Ep	-4019
Pot	-4020
ges	-4021
nit	-4022
1977▁	-4023
Greec	-4024
ired▁	-4025
magaz	-4026
sport	-4027
2021)▁	-4028
Chris▁	-4029
court▁	-4030
Provinc	-4031
fiction▁	-4032
manager▁	-4033
appointed▁	-4034
60▁	-4035
Tam	-4036
ão▁	-4037
22,▁	-4038
27,▁	-4039
uck▁	-4040
1985▁	-4041
nucle	-4042
settl	-4043
Earth▁	-4044
attemp	-4045
inside▁	-4046
Pacific▁	-4047
musician▁	-4048
students▁	-4049
NS	-4050
Kel	-4051
Nig	-4052
apol	-4053
1929▁	-4054
1970▁	-4055
akes▁	-4056
bands	-4057
scrip	-4058
ination▁	-4059
contains▁	-4060
á▁	-4061
gan	-4062
mig	-4063
Each▁	-4064
full▁	-4065
quick	-4066
refer	-4067
eight▁	-4068
Banglad	-4069
construc	-4070
mountain▁	-4071
hurricane▁	-4072
religious▁	-4073
28	-4074
dar	-4075
mic	-4076
tee▁	-4077
van▁	-4078
||10	-4079
ette▁	-4080
2007,▁	-4081
2017,▁	-4082
Person	-4083
While▁	-4084
longer▁	-4085
program▁	-4086
Cul	-4087
Tro	-4088
ado	-4089
ador	-4090
ano▁	-4091
lie▁	-4092
suff	-4093
1976▁	-4094
lies▁	-4095
rich▁	-4096
match▁	-4097
Vo	-4098
El▁	-4099
Corn	-4100
1968▁	-4101
army▁	-4102
recip	-4103
arian▁	-4104
environ	-4105
Ancient▁	-4106
service▁	-4107
="2"|-||3	-4108
Ox	-4109
Cro	-4110
avy	-4111
mph	-4112
pul	-4113
Arth	-4114
ustr	-4115
acts▁	-4116
2021,▁	-4117
Frank▁	-4118
Tennes	-4119
atest▁	-4120
Netherlands	-4121
Town	-4122
test	-4123
that	-4124
1983▁	-4125
Build	-4126
cross	-4127
teen▁	-4128
crimin	-4129
experi	-4130
teams▁	-4131
musician	-4132
abb	-4133
ror	-4134
-19.	-4135
28,▁	-4136
strong	-4137
particip	-4138
release▁	-4139
4–	-4140
177	-4141
No▁	-4142
foc	-4143
kil	-4144
30,▁	-4145
Cant	-4146
merc	-4147
met▁	-4148
1964▁	-4149
World	-4150
keep▁	-4151
|2007	-4152
style▁	-4153
destroy	-4154
evision	-4155
themsel	-4156
Naz	-4157
bon	-4158
200▁	-4159
Paul	-4160
box▁	-4161
1974▁	-4162
sound▁	-4163
Missouri	-4164
compound	-4165
journalist▁	-4166
3-	-4167
bat	-4168
mir	-4169
tun	-4170
Tour	-4171
hard	-4172
road	-4173
1945▁	-4174
1967▁	-4175
track	-4176
treat	-4177
artist▁	-4178
biggest▁	-4179
Ann	-4180
Bah	-4181
Eth	-4182
chi	-4183
Bob▁	-4184
Man▁	-4185
far▁	-4186
concer	-4187
church▁	-4188
Angeles▁	-4189
saf	-4190
1||2	-4191
Budd	-4192
ardi	-4193
ligh	-4194
priv	-4195
1971▁	-4196
want▁	-4197
failure	-4198
awarded▁	-4199
website▁	-4200
To	-4201
Tit	-4202
job▁	-4203
1946▁	-4204
ville▁	-4205
Awards▁	-4206
languages	-4207
Are	-4208
Ram	-4209
agn	-4210
ee▁	-4211
|2004	-4212
miles▁	-4213
Ti	-4214
fo	-4215
ya	-4216
):▁	-4217
Alp	-4218
emi	-4219
ise	-4220
-19▁	-4221
chos	-4222
hour	-4223
wall	-4224
style	-4225
Commit	-4226
gives▁	-4227
ready▁	-4228
federal▁	-4229
mission▁	-4230
believed▁	-4231
Footballers▁	-4232
six	-4233
weg	-4234
25,▁	-4235
ges▁	-4236
ola▁	-4237
rock	-4238
ella▁	-4239
|2008	-4240
||0||4	-4241
olution▁	-4242
ropolitan▁	-4243
Joe▁	-4244
Kenn	-4245
akes	-4246
ulf▁	-4247
1928▁	-4248
1942▁	-4249
Smith▁	-4250
ensus▁	-4251
owned▁	-4252
public	-4253
himself▁	-4254
throughout▁	-4255
ls	-4256
uj	-4257
Jim	-4258
Tan	-4259
Wall	-4260
ari▁	-4261
ski▁	-4262
1947▁	-4263
1962▁	-4264
2006,▁	-4265
acted▁	-4266
force▁	-4267
sports▁	-4268
fro	-4269
raq	-4270
cart	-4271
ube▁	-4272
1975▁	-4273
colon	-4274
August	-4275
Paraly	-4276
ential▁	-4277
events▁	-4278
composer	-4279
described▁	-4280
Boy	-4281
Nag	-4282
Pit	-4283
Sav	-4284
Spe	-4285
Fox▁	-4286
Libr	-4287
che▁	-4288
dies	-4289
1939▁	-4290
ador▁	-4291
elle▁	-4292
grew▁	-4293
Arkans	-4294
enced▁	-4295
intend	-4296
Paralymp	-4297
Alexander▁	-4298
Australia▁	-4299
1||	-4300
bil	-4301
hot	-4302
batt	-4303
eld▁	-4304
Found	-4305
Satur	-4306
tian▁	-4307
culture	-4308
G▁	-4309
UE	-4310
Lew	-4311
adap	-4312
adel	-4313
Korea	-4314
Malay	-4315
2011,▁	-4316
former	-4317
model▁	-4318
episode▁	-4319
Inc	-4320
neg	-4321
oul	-4322
ison	-4323
key▁	-4324
ona▁	-4325
1936▁	-4326
Mark▁	-4327
Christm	-4328
result▁	-4329
Confeder	-4330
relation	-4331
29	-4332
UK	-4333
used	-4334
1952▁	-4335
anger	-4336
ites▁	-4337
Green▁	-4338
Major▁	-4339
respon	-4340
Daniel▁	-4341
Museum▁	-4342
company	-4343
ür	-4344
Ash	-4345
Dun	-4346
adv	-4347
saw▁	-4348
ands▁	-4349
ember	-4350
athlet	-4351
ression	-4352
Supreme▁	-4353
presidential▁	-4354
Id	-4355
Ly	-4356
ón	-4357
Ven	-4358
29,▁	-4359
awa▁	-4360
ols▁	-4361
1943▁	-4362
Union	-4363
plant▁	-4364
press▁	-4365
Independ	-4366
Islamic▁	-4367
character	-4368
Dor	-4369
Kir	-4370
Lat	-4371
boy	-4372
mel	-4373
film	-4374
Last▁	-4375
airs▁	-4376
shot▁	-4377
Another▁	-4378
features▁	-4379
Wrestling▁	-4380
characters	-4381
(45	-4382
Tal	-4383
Jim▁	-4384
1941▁	-4385
1956▁	-4386
incre	-4387
mary▁	-4388
paint	-4389
ston▁	-4390
Nations▁	-4391
4-	-4392
III	-4393
Ken	-4394
ki▁	-4395
Dall	-4396
Greg	-4397
Iraq	-4398
Star	-4399
ala▁	-4400
bomb	-4401
|2000	-4402
Connec	-4403
commit	-4404
featur	-4405
opera▁	-4406
acting▁	-4407
available▁	-4408
songwriter▁	-4409
Ott	-4410
ted	-4411
Domin	-4412
Wales	-4413
campa	-4414
coach	-4415
enter	-4416
illy▁	-4417
Career	-4418
Church	-4419
Radio▁	-4420
Serie▁	-4421
Ontario	-4422
Florida▁	-4423
discovered▁	-4424
structures▁	-4425
Je	-4426
UN	-4427
Cer	-4428
drum	-4429
oday▁	-4430
told▁	-4431
ining▁	-4432
Disney▁	-4433
Parliament▁	-4434
Ess	-4435
Le▁	-4436
Tar	-4437
ski	-4438
Bell	-4439
flow	-4440
Team▁	-4441
grand	-4442
male▁	-4443
rick▁	-4444
size▁	-4445
theat	-4446
anian▁	-4447
front▁	-4448
starting▁	-4449
Mul	-4450
Tay	-4451
ola	-4452
sky	-4453
Canc	-4454
Thir	-4455
myth	-4456
sure▁	-4457
brough	-4458
popular	-4459
becoming▁	-4460
Do	-4461
Cop	-4462
uss	-4463
Pier	-4464
Vide	-4465
1924▁	-4466
1933▁	-4467
Green	-4468
running▁	-4469
selected▁	-4470
Lim	-4471
ces	-4472
BBC▁	-4473
Sea▁	-4474
cric	-4475
Jack▁	-4476
hind▁	-4477
Donald▁	-4478
larger▁	-4479
ability▁	-4480
romantic▁	-4481
ez	-4482
hi▁	-4483
agon	-4484
bran	-4485
del▁	-4486
gas▁	-4487
1930▁	-4488
gress	-4489
Steve▁	-4490
birth▁	-4491
center	-4492
mechan	-4493
silver▁	-4494
tournam	-4495
So	-4496
Sum	-4497
fut	-4498
keep	-4499
1937▁	-4500
host▁	-4501
|2002	-4502
Poland	-4503
Three▁	-4504
mental▁	-4505
believe▁	-4506
Heritage▁	-4507
Television▁	-4508
administrative▁	-4509
9/	-4510
ux	-4511
Gard	-4512
near	-4513
teen	-4514
others	-4515
Wilson▁	-4516
someone▁	-4517
pot	-4518
draw	-4519
gene	-4520
ius▁	-4521
plom	-4522
1949▁	-4523
South	-4524
neigh	-4525
Electr	-4526
Region	-4527
aying▁	-4528
class▁	-4529
surviv	-4530
numbers▁	-4531
distributed▁	-4532
(7	-4533
3,	-4534
9-	-4535
9||	-4536
Fur	-4537
akh	-4538
1950▁	-4539
birth	-4540
schol	-4541
Common	-4542
Elizabeth▁	-4543
Musicians▁	-4544
officially▁	-4545
Bos	-4546
Seas	-4547
atom	-4548
grap	-4549
weap	-4550
Young▁	-4551
plants▁	-4552
//	-4553
Mot	-4554
cy▁	-4555
ff▁	-4556
hun	-4557
Rome	-4558
aper	-4559
1940▁	-4560
Total	-4561
words	-4562
Ireland	-4563
astronom	-4564
animated▁	-4565
Scientists▁	-4566
historical▁	-4567
Bh	-4568
://	-4569
ave	-4570
von▁	-4571
model	-4572
order	-4573
shoot	-4574
tree▁	-4575
2019)▁	-4576
annel▁	-4577
iting▁	-4578
ruled▁	-4579
months▁	-4580
college▁	-4581
parents▁	-4582
Province▁	-4583
traditional▁	-4584
Der	-4585
So▁	-4586
fru	-4587
ute	-4588
Life	-4589
den▁	-4590
ting	-4591
week	-4592
1938▁	-4593
Like▁	-4594
Press	-4595
aded▁	-4596
fish▁	-4597
ials▁	-4598
open▁	-4599
Movie▁	-4600
coach▁	-4601
Austria	-4602
Nintend	-4603
higher▁	-4604
league▁	-4605
standing▁	-4606
Ku	-4607
Ri	-4608
SA	-4609
Cra	-4610
htt	-4611
Chap	-4612
Curr	-4613
audi	-4614
bron	-4615
rie▁	-4616
ume▁	-4617
||13	-4618
1931▁	-4619
1957▁	-4620
Time▁	-4621
ugby▁	-4622
Scott▁	-4623
except▁	-4624
Israeli▁	-4625
buildings▁	-4626
Ay	-4627
Sab	-4628
Sea	-4629
Tun	-4630
rd▁	-4631
real	-4632
Hong▁	-4633
incor	-4634
ique▁	-4635
College	-4636
Georgia	-4637
8-	-4638
Gab	-4639
Afgh	-4640
bad▁	-4641
Color	-4642
aries	-4643
first	-4644
molec	-4645
odes▁	-4646
Winter▁	-4647
antasy▁	-4648
Station▁	-4649
CE	-4650
zo	-4651
Pen	-4652
sent	-4653
1959▁	-4654
Rock▁	-4655
Formul	-4656
Maria▁	-4657
Norweg	-4658
anned▁	-4659
occer▁	-4660
Public▁	-4661
ologist▁	-4662
Congress▁	-4663
research▁	-4664
northwest▁	-4665
Lor	-4666
lic	-4667
Mill	-4668
com▁	-4669
eds▁	-4670
spok	-4671
|196	-4672
Film▁	-4673
ling▁	-4674
aving▁	-4675
chemist	-4676
division	-4677
U▁	-4678
yg	-4679
Men	-4680
Tem	-4681
ada▁	-4682
days	-4683
mes▁	-4684
ody▁	-4685
ric▁	-4686
umer	-4687
1954▁	-4688
Trans	-4689
chlor	-4690
stein	-4691
legisl	-4692
3:	-4693
Lev	-4694
ops	-4695
uten	-4696
estim	-4697
ured▁	-4698
asked▁	-4699
respec	-4700
Alexand	-4701
allows▁	-4702
ampion▁	-4703
bishop▁	-4704
rivers▁	-4705
discover	-4706
process▁	-4707
surround	-4708
business▁	-4709
beginning▁	-4710
temperature▁	-4711
én	-4712
gun▁	-4713
perc	-4714
ush▁	-4715
1927▁	-4716
1935▁	-4717
Tony▁	-4718
ders▁	-4719
iant▁	-4720
2012,▁	-4721
allow▁	-4722
compar	-4723
tried▁	-4724
Jackson▁	-4725
province	-4726
Pakistan▁	-4727
finished▁	-4728
Lead	-4729
ami▁	-4730
iter	-4731
1965▁	-4732
cell▁	-4733
ences	-4734
escap	-4735
kept▁	-4736
mother	-4737
Vietnam	-4738
electro	-4739
Business	-4740
engineer	-4741
Fol	-4742
Ron	-4743
em▁	-4744
ulp	-4745
Alli	-4746
Bund	-4747
ices	-4748
then	-4749
Wikipe	-4750
adelph	-4751
employ	-4752
CB	-4753
Ga	-4754
MP	-4755
ō▁	-4756
Out	-4757
nic	-4758
Exam	-4759
Marc	-4760
rule▁	-4761
soon▁	-4762
fight▁	-4763
Turkish▁	-4764
brought▁	-4765
surface▁	-4766
="2"|-||2	-4767
Political▁	-4768
generally▁	-4769
maj	-4770
mou	-4771
two	-4772
Arti	-4773
Don▁	-4774
aps▁	-4775
farm	-4776
1961▁	-4777
Detro	-4778
Then▁	-4779
data▁	-4780
medic	-4781
works	-4782
2008,▁	-4783
Georgia▁	-4784
citizens▁	-4785
Philadelph	-4786
Sti	-4787
sor	-4788
...▁	-4789
Laur	-4790
UEFA▁	-4791
debut▁	-4792
igned▁	-4793
earthqu	-4794
Federal▁	-4795
Formula▁	-4796
(5	-4797
ab▁	-4798
edd	-4799
Anth	-4800
Doug	-4801
Serb	-4802
ken▁	-4803
miss	-4804
more	-4805
ters	-4806
1944▁	-4807
1963▁	-4808
idence▁	-4809
taking▁	-4810
Villages▁	-4811
36	-4812
Na	-4813
Ta	-4814
Hou	-4815
dri	-4816
ech	-4817
sts	-4818
Finn	-4819
alph	-4820
ebec	-4821
mass	-4822
||30	-4823
Organ	-4824
arriv	-4825
const	-4826
erto▁	-4827
reduc	-4828
Brown▁	-4829
regular▁	-4830
Biography	-4831
Louisiana	-4832
Aut	-4833
lif	-4834
pal	-4835
Gord	-4836
Live▁	-4837
behav	-4838
frequ	-4839
Gallery	-4840
native▁	-4841
multiple▁	-4842
ada	-4843
pan	-4844
Langu	-4845
ardin	-4846
French	-4847
coast▁	-4848
sexual▁	-4849
turned▁	-4850
Scotland	-4851
ization▁	-4852
starred▁	-4853
Internet▁	-4854
probably▁	-4855
(4	-4856
CD	-4857
uv	-4858
(18	-4859
Alf	-4860
Hom	-4861
ase	-4862
dog	-4863
olf	-4864
Anti	-4865
Sher	-4866
revol	-4867
2009,▁	-4868
elled▁	-4869
refer▁	-4870
tells▁	-4871
middle▁	-4872
Argentine▁	-4873
represented▁	-4874
era	-4875
Song	-4876
oft▁	-4877
1966▁	-4878
occup	-4879
Portugu	-4880
Sports▁	-4881
process	-4882
program	-4883
theory▁	-4884
Francisco▁	-4885
Raj	-4886
1900	-4887
1920	-4888
ring	-4889
sex▁	-4890
1934▁	-4891
Both▁	-4892
Niger	-4893
brain▁	-4894
Persian▁	-4895
climate▁	-4896
DV	-4897
ns	-4898
Bak	-4899
Syd	-4900
spl	-4901
Oper	-4902
1932▁	-4903
date▁	-4904
kill▁	-4905
ricul	-4906
thous	-4907
bacter	-4908
blood▁	-4909
space▁	-4910
programm	-4911
ny	-4912
Act	-4913
We▁	-4914
lem	-4915
adop	-4916
mark	-4917
1958▁	-4918
ayed▁	-4919
Paris▁	-4920
color▁	-4921
heavy▁	-4922
promot	-4923
Alabama	-4924
Cancer▁	-4925
Records	-4926
Connectic	-4927
Mid	-4928
ala	-4929
God▁	-4930
ces▁	-4931
sky▁	-4932
Broad	-4933
test▁	-4934
2014,▁	-4935
assist	-4936
declar	-4937
older▁	-4938
ories▁	-4939
defeated▁	-4940
Alb	-4941
But	-4942
Hay	-4943
Art▁	-4944
Hall	-4945
ural▁	-4946
critic	-4947
number	-4948
||1||0	-4949
animals	-4950
create▁	-4951
ray▁	-4952
Blue▁	-4953
Dougl	-4954
anda▁	-4955
pitch	-4956
2013,▁	-4957
Mount▁	-4958
cells▁	-4959
towns▁	-4960
Kentucky	-4961
incorpor	-4962
||0||0||0||	-4963
IP	-4964
Aqu	-4965
Up▁	-4966
hic	-4967
2||2	-4968
Main	-4969
attr	-4970
aves	-4971
suic	-4972
Lord▁	-4973
today	-4974
diplom	-4975
helps▁	-4976
whole▁	-4977
whose▁	-4978
Series▁	-4979
battle▁	-4980
controll	-4981
together	-4982
happened▁	-4983
languages▁	-4984
By	-4985
]▁	-4986
Ern	-4987
Rap	-4988
cam	-4989
spac	-4990
ual	-4991
Chem	-4992
died	-4993
Lady▁	-4994
efore	-4995
mean▁	-4996
genus▁	-4997
Mexico▁	-4998
forced▁	-4999
rather▁	-5000
AS	-5001
Aub	-5002
ami	-5003
flo	-5004
hus	-5005
Iowa	-5006
Gramm	-5007
More▁	-5008
Produc	-5009
nearly▁	-5010
Nintendo▁	-5011
followed▁	-5012
districts▁	-5013
Gil	-5014
Nev	-5015
Mosc	-5016
liqu	-5017
ull▁	-5018
Long▁	-5019
Bulgar	-5020
Medal▁	-5021
getting▁	-5022
Olympics▁	-5023
according▁	-5024
Cir	-5025
Lin	-5026
ays	-5027
ero	-5028
ix▁	-5029
des▁	-5030
here▁	-5031
known	-5032
lines	-5033
|1998	-5034
Micros	-5035
medal▁	-5036
kilomet	-5037
Stephen▁	-5038
structure▁	-5039
Bou	-5040
Bow	-5041
Leb	-5042
lay	-5043
sle	-5044
Film	-5045
Oreg	-5046
call▁	-5047
runs▁	-5048
media▁	-5049
causes▁	-5050
proved▁	-5051
winner▁	-5052
produce▁	-5053
Assembly▁	-5054
dy	-5055
hu	-5056
Dan	-5057
fav	-5058
Linc	-5059
Memb	-5060
Vene	-5061
anal	-5062
emer	-5063
oid▁	-5064
cloth	-5065
emic▁	-5066
grow▁	-5067
volcan	-5068
machine▁	-5069
reported▁	-5070
development▁	-5071
ki	-5072
Dol	-5073
cli	-5074
she	-5075
swi	-5076
Bay▁	-5077
ades	-5078
bank	-5079
ways	-5080
1923▁	-5081
coast	-5082
frog▁	-5083
Johnson▁	-5084
leading▁	-5085
Carolina▁	-5086
competed▁	-5087
Norwegian▁	-5088
Kat	-5089
Loc	-5090
Of▁	-5091
och	-5092
Ever	-5093
eat▁	-5094
neum	-5095
1925▁	-5096
What▁	-5097
ades▁	-5098
Diseas	-5099
Festiv	-5100
iding▁	-5101
rogen▁	-5102
Arthur▁	-5103
separate▁	-5104
Ba	-5105
Dou	-5106
bot	-5107
iro	-5108
(190	-5109
Book	-5110
ura▁	-5111
1901▁	-5112
1926▁	-5113
Brook	-5114
board	-5115
erson	-5116
love▁	-5117
names	-5118
Storm▁	-5119
stand▁	-5120
moving▁	-5121
ynasty▁	-5122
Iranian▁	-5123
appears▁	-5124
68	-5125
Tra	-5126
www	-5127
Hard	-5128
Phys	-5129
Shar	-5130
pand	-5131
Fame▁	-5132
Grand	-5133
Journ	-5134
ender	-5135
euten	-5136
Italy▁	-5137
chess▁	-5138
piece▁	-5139
airman▁	-5140
commerc	-5141
Science▁	-5142
thriller▁	-5143
(0	-5144
Aff	-5145
Jon	-5146
Rub	-5147
pil	-5148
rup	-5149
1930	-5150
Carl	-5151
Ther	-5152
Under	-5153
Mayor▁	-5154
behind▁	-5155
return▁	-5156
Administr	-5157
Minnesota	-5158
Ul	-5159
ix	-5160
je	-5161
kh	-5162
ün	-5163
5||	-5164
Bad	-5165
dol	-5166
gal	-5167
Jean	-5168
Wels	-5169
fast▁	-5170
inson	-5171
sell▁	-5172
Brian▁	-5173
Lincol	-5174
purpos	-5175
however	-5176
letter▁	-5177
spread▁	-5178
square▁	-5179
Oklahoma	-5180
positive▁	-5181
Christmas▁	-5182
bad	-5183
fic▁	-5184
ward	-5185
ership▁	-5186
lawyer▁	-5187
merged▁	-5188
industri	-5189
,000	-5190
Ariz	-5191
Ukra	-5192
cook	-5193
edic	-5194
elt▁	-5195
goal	-5196
lem▁	-5197
pay▁	-5198
stra	-5199
Class	-5200
dish▁	-5201
ible▁	-5202
award▁	-5203
listed▁	-5204
passed▁	-5205
Arkansas	-5206
position	-5207
railway▁	-5208
Personal▁	-5209
She	-5210
ief	-5211
Calv	-5212
aka▁	-5213
Kelly▁	-5214
Welsh▁	-5215
confir	-5216
write▁	-5217
medical▁	-5218
(24	-5219
Moh	-5220
Mol	-5221
Pur	-5222
St▁	-5223
arg	-5224
ect	-5225
ón▁	-5226
Down	-5227
ples	-5228
1920▁	-5229
Ocean	-5230
Smith	-5231
infec	-5232
rated▁	-5233
urity▁	-5234
industr	-5235
members	-5236
Senator▁	-5237
towards▁	-5238
Illinois▁	-5239
Princess▁	-5240
businessman	-5241
Hu	-5242
ba	-5243
í▁	-5244
176	-5245
za▁	-5246
Over	-5247
Sour	-5248
ests	-5249
frog	-5250
ides	-5251
past	-5252
anny▁	-5253
orse▁	-5254
rate▁	-5255
tured▁	-5256
Russia▁	-5257
Justice▁	-5258
electric▁	-5259
involved▁	-5260
referred▁	-5261
soldiers▁	-5262
journalist	-5263
4:	-5264
Ah	-5265
Ecu	-5266
Ker	-5267
Ren	-5268
ato	-5269
ja▁	-5270
mes	-5271
Love	-5272
enem	-5273
side	-5274
illa▁	-5275
mond▁	-5276
news▁	-5277
pneum	-5278
polic	-5279
2005,▁	-5280
Colomb	-5281
Later▁	-5282
starts▁	-5283
billion▁	-5284
leyball▁	-5285
matches▁	-5286
35	-5287
Ol	-5288
Han	-5289
bab	-5290
dre	-5291
etc	-5292
ko▁	-5293
ée▁	-5294
And▁	-5295
aska	-5296
good	-5297
thin	-5298
edom▁	-5299
folk▁	-5300
Corpor	-5301
Jones▁	-5302
aired▁	-5303
worth▁	-5304
health▁	-5305
passeng	-5306
scored▁	-5307
tennis▁	-5308
quickly▁	-5309
movement▁	-5310
companies▁	-5311
newspaper▁	-5312
>▁	-5313
70▁	-5314
Ret	-5315
Sax	-5316
bach	-5317
roll	-5318
Medic	-5319
ills▁	-5320
micro	-5321
2015,▁	-5322
Night▁	-5323
Spain▁	-5324
obile▁	-5325
Africa▁	-5326
Social▁	-5327
Zealand	-5328
fought▁	-5329
systems▁	-5330
Presidents▁	-5331
33	-5332
NB	-5333
NF	-5334
Tak	-5335
wa▁	-5336
dens	-5337
ited	-5338
ryst	-5339
1922▁	-5340
Manip	-5341
Vienn	-5342
|1997	-5343
kinds▁	-5344
projec	-5345
animal▁	-5346
Special▁	-5347
activist	-5348
painter▁	-5349
actually▁	-5350
composed▁	-5351
material▁	-5352
Dak	-5353
Ray	-5354
civ	-5355
Ball	-5356
Simp	-5357
Whit	-5358
aki▁	-5359
Egypt	-5360
hand▁	-5361
Events	-5362
fully▁	-5363
Malaysi	-5364
friend▁	-5365
actions▁	-5366
professor▁	-5367
Ka	-5368
avi	-5369
gas	-5370
ram	-5371
ula	-5372
Harv	-5373
Mand	-5374
ira▁	-5375
nic▁	-5376
page	-5377
Const	-5378
ative	-5379
minut	-5380
onia▁	-5381
thers	-5382
Atlant	-5383
comic▁	-5384
things	-5385
needed▁	-5386
source▁	-5387
Conf	-5388
Nord	-5389
ved▁	-5390
Only▁	-5391
Song▁	-5392
rian▁	-5393
explor	-5394
conserv	-5395
schools▁	-5396
Christian	-5397
incorporated▁	-5398
Businesspeople▁	-5399
án	-5400
Dom	-5401
job	-5402
sun	-5403
Bure	-5404
cut▁	-5405
hot▁	-5406
know	-5407
meet	-5408
panc	-5409
Genev	-5410
Miss▁	-5411
itch▁	-5412
green▁	-5413
illed▁	-5414
rugby▁	-5415
tellig	-5416
toral▁	-5417
union▁	-5418
Walter▁	-5419
spoken▁	-5420
Century▁	-5421
Tennessee	-5422
Wisconsin	-5423
fication▁	-5424
powerful▁	-5425
designated▁	-5426
businessman▁	-5427
Way	-5428
5||1	-5429
Hot▁	-5430
Lind	-5431
uary	-5432
extre	-5433
Deputy▁	-5434
horror▁	-5435
ologist	-5436
||0||1||0||	-5437
Cab	-5438
Max	-5439
Nik	-5440
Sus	-5441
Var	-5442
Leon	-5443
surv	-5444
uce▁	-5445
vehic	-5446
Video▁	-5447
action	-5448
cases▁	-5449
Columbia▁	-5450
Virginia▁	-5451
(▁	-5452
AD	-5453
Jas	-5454
hur	-5455
ili	-5456
Cham	-5457
Jord	-5458
Oliv	-5459
Winn	-5460
atch	-5461
Mike▁	-5462
Vice▁	-5463
point	-5464
Force▁	-5465
alphab	-5466
organ▁	-5467
Conserv	-5468
foreign▁	-5469
network▁	-5470
regions▁	-5471
stopped▁	-5472
featured▁	-5473
2||	-5474
Fel	-5475
alp	-5476
31,▁	-5477
6||1	-5478
Hind	-5479
ales	-5480
ope▁	-5481
why▁	-5482
Over▁	-5483
aked▁	-5484
mark▁	-5485
Ukrain	-5486
belong	-5487
method	-5488
train▁	-5489
Calais▁	-5490
travel▁	-5491
Division	-5492
already▁	-5493
association▁	-5494
ky	-5495
,"▁	-5496
Fic	-5497
Nep	-5498
USA	-5499
ols	-5500
hund	-5501
libr	-5502
offe	-5503
sugg	-5504
Afghan	-5505
Mario▁	-5506
Albert▁	-5507
length▁	-5508
Society▁	-5509
Bangladesh	-5510
ben	-5511
Lith	-5512
prin	-5513
une▁	-5514
wide	-5515
Alber	-5516
Charl	-5517
March	-5518
Theat	-5519
spent▁	-5520
streng	-5521
Philip▁	-5522
bronze▁	-5523
buried▁	-5524
degree▁	-5525
points▁	-5526
2:▁	-5527
80▁	-5528
Nel	-5529
Vis	-5530
du▁	-5531
eat	-5532
Van▁	-5533
ato▁	-5534
bon▁	-5535
ials	-5536
oil▁	-5537
1921▁	-5538
stead	-5539
Muslim	-5540
Women▁	-5541
achiev	-5542
altern	-5543
break▁	-5544
classi	-5545
plants	-5546
speak▁	-5547
table▁	-5548
anthrop	-5549
entire▁	-5550
showed▁	-5551
officer▁	-5552
private▁	-5553
stories▁	-5554
entertain	-5555
physical▁	-5556
||||||||||||||||	-5557
ja	-5558
pp	-5559
Mes	-5560
acy	-5561
bit▁	-5562
ito▁	-5563
rey▁	-5564
Stand	-5565
talk▁	-5566
tial▁	-5567
Boston▁	-5568
Melbour	-5569
include	-5570
sister▁	-5571
Singers▁	-5572
President	-5573
distance▁	-5574
economic▁	-5575
function▁	-5576
difficult▁	-5577
4,	-5578
Sé	-5579
De▁	-5580
Rav	-5581
tax	-5582
4||2	-5583
Fair	-5584
Lawr	-5585
crip	-5586
ize▁	-5587
pron	-5588
ump▁	-5589
José▁	-5590
mass▁	-5591
Power▁	-5592
fifth▁	-5593
inary▁	-5594
rights	-5595
Victoria▁	-5596
stations▁	-5597
Hungarian▁	-5598
Microsoft▁	-5599
Portuguese▁	-5600
Fa	-5601
rh	-5602
...	-5603
Cru	-5604
Deb	-5605
IV▁	-5606
Ray▁	-5607
adi▁	-5608
ning	-5609
Ottom	-5610
dead▁	-5611
ives▁	-5612
park▁	-5613
softw	-5614
Apple▁	-5615
Croati	-5616
contri	-5617
month▁	-5618
rules▁	-5619
division▁	-5620
Ot	-5621
Non	-5622
Veg	-5623
sea	-5624
Ice▁	-5625
ibn▁	-5626
made	-5627
ming	-5628
1955▁	-5629
Road▁	-5630
ufact	-5631
upon▁	-5632
ution	-5633
Engine	-5634
cover▁	-5635
eding▁	-5636
paper▁	-5637
Andrew▁	-5638
Indiana	-5639
prison▁	-5640
wealth▁	-5641
Francis▁	-5642
launched▁	-5643
Buildings▁	-5644
television	-5645
Ut	-5646
Pow	-5647
aka	-5648
led	-5649
nob	-5650
Brun	-5651
Sam▁	-5652
ashi	-5653
ati▁	-5654
bus▁	-5655
rich	-5656
ston	-5657
vall	-5658
yan▁	-5659
Venez	-5660
aine▁	-5661
magne	-5662
month	-5663
your▁	-5664
Berlin	-5665
chief▁	-5666
mixed▁	-5667
night▁	-5668
stone▁	-5669
programs	-5670
ographic▁	-5671
philosoph	-5672
49	-5673
J▁	-5674
Al▁	-5675
Kaz	-5676
ky▁	-5677
ni▁	-5678
7||1	-5679
http	-5680
scap	-5681
Jean▁	-5682
ires▁	-5683
laws▁	-5684
room▁	-5685
Museum	-5686
charge▁	-5687
station	-5688
directors	-5689
executive▁	-5690
eventually▁	-5691
ographical▁	-5692
za	-5693
45▁	-5694
Ele	-5695
Pap	-5696
Sul	-5697
anch	-5698
bott	-5699
Holy▁	-5700
Matth	-5701
Stock	-5702
past▁	-5703
sculp	-5704
Bundes	-5705
lying▁	-5706
urban▁	-5707
whether▁	-5708
education▁	-5709
graduated▁	-5710
175	-5711
Pok	-5712
Ric	-5713
ose	-5714
set	-5715
Back	-5716
Marv	-5717
Maur	-5718
atab	-5719
grav	-5720
Buddh	-5721
Game▁	-5722
stadi	-5723
voice	-5724
vote▁	-5725
2017)▁	-5726
stein▁	-5727
terms▁	-5728
likely▁	-5729
ration▁	-5730
symbol▁	-5731
covered▁	-5732
Research▁	-5733
personal▁	-5734
Committee▁	-5735
Discography	-5736
arrondissement▁	-5737
IV	-5738
Iv	-5739
dé	-5740
ald	-5741
mpt	-5742
How▁	-5743
lim▁	-5744
web▁	-5745
Brown	-5746
Hill▁	-5747
Holly	-5748
Home▁	-5749
Marsh	-5750
News▁	-5751
Town▁	-5752
ardo▁	-5753
atell	-5754
speed▁	-5755
Develop	-5756
experim	-5757
recent▁	-5758
hospital▁	-5759
Entertainment	-5760
alc	-5761
São▁	-5762
boy▁	-5763
eks▁	-5764
ima▁	-5765
ingu	-5766
star	-5767
Liter	-5768
bass▁	-5769
eauti	-5770
nine▁	-5771
stage	-5772
Korea▁	-5773
calend	-5774
cities	-5775
dered▁	-5776
Grammy▁	-5777
damage▁	-5778
market▁	-5779
simply▁	-5780
widely▁	-5781
ications	-5782
activist▁	-5783
complete▁	-5784
eutenant▁	-5785
standard▁	-5786
destroyed▁	-5787
Christopher▁	-5788
6||	-5789
Dal	-5790
Typ	-5791
kin	-5792
uch	-5793
Cost	-5794
Fern	-5795
ret▁	-5796
surg	-5797
Even▁	-5798
Jones	-5799
atives	-5800
overs▁	-5801
Danish▁	-5802
alists▁	-5803
appear▁	-5804
capital	-5805
illustr	-5806
pieces▁	-5807
themselves▁	-5808
/8	-5809
isi	-5810
sam	-5811
Ben▁	-5812
Orig	-5813
face	-5814
pet▁	-5815
prec	-5816
slow	-5817
tive	-5818
counc	-5819
eful▁	-5820
Ambass	-5821
Greece	-5822
Montre	-5823
Quebec	-5824
meant▁	-5825
quite▁	-5826
Season▁	-5827
Company▁	-5828
EP	-5829
Wy	-5830
Ais	-5831
Is▁	-5832
Rem	-5833
Rol	-5834
Sud	-5835
ark	-5836
ert	-5837
tin	-5838
tou	-5839
mamm	-5840
race	-5841
uge▁	-5842
oppos	-5843
succe	-5844
turn▁	-5845
Track▁	-5846
flows▁	-5847
inform	-5848
begins▁	-5849
earned▁	-5850
tioned▁	-5851
comedian	-5852
signific	-5853
Mississippi	-5854
zh	-5855
°▁	-5856
Ban	-5857
Les	-5858
orn	-5859
Act▁	-5860
Prot	-5861
eman	-5862
wind	-5863
Fred▁	-5864
Today	-5865
agnos	-5866
story	-5867
leave▁	-5868
reach▁	-5869
centre▁	-5870
claimed▁	-5871
connected▁	-5872
philanthrop	-5873
organization▁	-5874
38	-5875
ko	-5876
rod	-5877
xim	-5878
dial	-5879
lor▁	-5880
1953▁	-5881
Manag	-5882
ander	-5883
cerem	-5884
possi	-5885
Tokyo▁	-5886
ching▁	-5887
inated▁	-5888
previous▁	-5889
Billboard▁	-5890
classical▁	-5891
Municipality▁	-5892
+▁	-5893
Ho	-5894
Lis	-5895
Pon	-5896
Sau	-5897
asc	-5898
ba▁	-5899
drop	-5900
prev	-5901
base▁	-5902
care▁	-5903
liber	-5904
tell▁	-5905
arrang	-5906
holds▁	-5907
mayor▁	-5908
Douglas▁	-5909
research	-5910
communes▁	-5911
Professor▁	-5912
22	-5913
ör	-5914
Yam	-5915
cut	-5916
ior	-5917
ita	-5918
jam	-5919
mom	-5920
sus	-5921
too	-5922
(189	-5923
300▁	-5924
Show	-5925
Top▁	-5926
godd	-5927
nam▁	-5928
ophy	-5929
stic	-5930
agan▁	-5931
areas	-5932
bound	-5933
compu	-5934
true▁	-5935
Freder	-5936
Percy▁	-5937
Upper▁	-5938
festiv	-5939
Street▁	-5940
parliam	-5941
simple▁	-5942
trying▁	-5943
Venezuel	-5944
distribu	-5945
guitarist	-5946
Americans▁	-5947
Commission	-5948
wr	-5949
Kev	-5950
Me▁	-5951
Seg	-5952
rob	-5953
ud▁	-5954
Law▁	-5955
via▁	-5956
Dave▁	-5957
blue▁	-5958
cells	-5959
expec	-5960
ession▁	-5961
increas	-5962
troops▁	-5963
Stanley▁	-5964
letters▁	-5965
consists▁	-5966
j▁	-5967
now	-5968
ria	-5969
6||2	-5970
Emil	-5971
Not▁	-5972
Sri▁	-5973
Stra	-5974
elli	-5975
gard	-5976
mont	-5977
stan	-5978
House	-5979
Show▁	-5980
cardi	-5981
crash	-5982
divor	-5983
night	-5984
cular▁	-5985
Jackson	-5986
Poland▁	-5987
direct▁	-5988
entary▁	-5989
headquar	-5990
primary▁	-5991
governor▁	-5992
Bob	-5993
nes	-5994
oti	-5995
Sun▁	-5996
Trav	-5997
aya▁	-5998
here	-5999
lock	-6000
una▁	-6001
Death	-6002
Jane▁	-6003
Leban	-6004
hood▁	-6005
ister	-6006
lung▁	-6007
numer	-6008
Census	-6009
Lower▁	-6010
Sarah▁	-6011
bridge	-6012
leges▁	-6013
prefec	-6014
tribut	-6015
coming▁	-6016
ention▁	-6017
normal▁	-6018
racing▁	-6019
Railway▁	-6020
islands▁	-6021
vention▁	-6022
Ukrainian▁	-6023
avyweight▁	-6024
da	-6025
inf	-6026
ech▁	-6027
fash	-6028
inem	-6029
meth	-6030
Anne▁	-6031
join▁	-6032
Loire▁	-6033
Space▁	-6034
Anthony▁	-6035
Jacques▁	-6036
electric	-6037
organism	-6038
singles▁	-6039
Mik	-6040
1||0	-6041
god▁	-6042
Fort▁	-6043
categ	-6044
eman▁	-6045
indic	-6046
Advent	-6047
leader	-6048
Valley▁	-6049
giving▁	-6050
perial▁	-6051
refers▁	-6052
Congress	-6053
fantasy▁	-6054
Baseball▁	-6055
Military▁	-6056
Association	-6057
individual▁	-6058
77	-6059
EC	-6060
Abd	-6061
Che	-6062
Pyr	-6063
veg	-6064
Buff	-6065
Ober	-6066
oke▁	-6067
Kong▁	-6068
Your▁	-6069
eter▁	-6070
unit▁	-6071
|2001	-6072
Singap	-6073
looks▁	-6074
Puerto▁	-6075
bought▁	-6076
reading	-6077
earlier▁	-6078
="2"|-||1	-6079
greatest▁	-6080
32▁	-6081
Fox	-6082
Hell	-6083
Priv	-6084
cred	-6085
dead	-6086
ule▁	-6087
||33	-6088
Juan▁	-6089
labor	-6090
mouth	-6091
ships	-6092
Center	-6093
Jimmy▁	-6094
ution▁	-6095
brother	-6096
national	-6097
fighting▁	-6098
inhabitants	-6099
ots	-6100
phy	-6101
til	-6102
alum	-6103
guil	-6104
less	-6105
Lithu	-6106
Main▁	-6107
ancy▁	-6108
deter	-6109
ights	-6110
itar▁	-6111
playw	-6112
rice▁	-6113
taugh	-6114
wave▁	-6115
basic▁	-6116
ideas▁	-6117
istic▁	-6118
chosen▁	-6119
nuclear▁	-6120
protect▁	-6121
southwest▁	-6122
RA	-6123
Dur	-6124
uth	-6125
aim▁	-6126
away	-6127
repe	-6128
ussi	-6129
wife	-6130
Eric▁	-6131
Progr	-6132
black	-6133
goal▁	-6134
initi	-6135
ranch	-6136
sons▁	-6137
thing	-6138
tory▁	-6139
Health▁	-6140
humans▁	-6141
meters▁	-6142
Islands▁	-6143
Toronto▁	-6144
friends▁	-6145
Sometimes▁	-6146
supported▁	-6147
responsible▁	-6148
Metropolitan▁	-6149
34	-6150
?▁	-6151
Arn	-6152
Kam	-6153
Ton	-6154
nav	-6155
Ali▁	-6156
Clin	-6157
crow	-6158
half	-6159
tors	-6160
Open▁	-6161
aled▁	-6162
conqu	-6163
lake▁	-6164
wall▁	-6165
Under▁	-6166
ester▁	-6167
royal▁	-6168
African	-6169
Bavaria	-6170
Modern▁	-6171
Taylor▁	-6172
design▁	-6173
results	-6174
Ottoman▁	-6175
studies▁	-6176
Egyptian▁	-6177
activists	-6178
elements▁	-6179
confirmed▁	-6180
Depression▁	-6181
Da	-6182
Adv	-6183
Gon	-6184
Ped	-6185
oli	-6186
Andr	-6187
Jess	-6188
fast	-6189
reve	-6190
swim	-6191
tall	-6192
tice	-6193
Bank▁	-6194
Brand	-6195
Later	-6196
Thail	-6197
olas▁	-6198
onian▁	-6199
Alfred▁	-6200
Company	-6201
houses▁	-6202
science	-6203
entered▁	-6204
champion▁	-6205
Revolution	-6206
background	-6207
scientists▁	-6208
ho	-6209
1:▁	-6210
bio	-6211
sug	-6212
Call	-6213
Mach	-6214
NHL▁	-6215
Plan	-6216
Road	-6217
Sund	-6218
ero▁	-6219
ett▁	-6220
feat	-6221
Iowa▁	-6222
aily▁	-6223
2004,▁	-6224
itself▁	-6225
porary▁	-6226
Finnish▁	-6227
medalists	-6228
complications▁	-6229
',▁	-6230
Gor	-6231
mac	-6232
ral	-6233
Scre	-6234
ann▁	-6235
aven	-6236
hang	-6237
2010)	-6238
Arts▁	-6239
agon▁	-6240
pite▁	-6241
2018)▁	-6242
Allen▁	-6243
Roger▁	-6244
advent	-6245
below▁	-6246
upper▁	-6247
Family▁	-6248
Howard▁	-6249
Johnny▁	-6250
million	-6251
rested▁	-6252
complex▁	-6253
culture▁	-6254
debuted▁	-6255
fication	-6256
Education	-6257
aircraft▁	-6258
gressive▁	-6259
population	-6260
Connecticut	-6261
performance▁	-6262
TC	-6263
Cos	-6264
agh	-6265
cos	-6266
ida	-6267
uts	-6268
Also	-6269
Brad	-6270
Jenn	-6271
Nebr	-6272
Rand	-6273
home	-6274
step	-6275
2022▁	-6276
Maced	-6277
civil	-6278
mers▁	-6279
stay▁	-6280
2007.▁	-6281
Billy▁	-6282
Encycl	-6283
Orthod	-6284
Water▁	-6285
build▁	-6286
comedy	-6287
conver	-6288
ening▁	-6289
minor▁	-6290
observ	-6291
preser	-6292
resist	-6293
cricket	-6294
object▁	-6295
version	-6296
further▁	-6297
districts	-6298
mythology	-6299
PlayStation▁	-6300
alg	-6301
bes	-6302
2006	-6303
5||2	-6304
Dan▁	-6305
Hamp	-6306
Hann	-6307
bear	-6308
gold	-6309
mess	-6310
Anna▁	-6311
Haiti	-6312
money	-6313
teams	-6314
mouth▁	-6315
murder	-6316
itation▁	-6317
limited▁	-6318
majority▁	-6319
Mountains▁	-6320
fictional▁	-6321
guitarist▁	-6322
recognized▁	-6323
35▁	-6324
Kal	-6325
Maj	-6326
Pho	-6327
Son	-6328
Tol	-6329
lo▁	-6330
Hart	-6331
pati	-6332
Emmy▁	-6333
obal▁	-6334
ules▁	-6335
2001,▁	-6336
Collec	-6337
kills▁	-6338
figure▁	-6339
Ministers▁	-6340
recording▁	-6341
ML	-6342
Arc	-6343
Edi	-6344
Rac	-6345
Tat	-6346
elf	-6347
mm▁	-6348
tub	-6349
Lank	-6350
ela▁	-6351
esh▁	-6352
hatt	-6353
ria▁	-6354
rid▁	-6355
Alan▁	-6356
Earl▁	-6357
Jerus	-6358
eggs▁	-6359
2011.▁	-6360
consist	-6361
gender▁	-6362
icipal▁	-6363
numbers	-6364
ularly▁	-6365
Pictures	-6366
edition▁	-6367
problems	-6368
remained▁	-6369
Entertainment▁	-6370
.)	-6371
Va	-6372
mn	-6373
Cla	-6374
Dig	-6375
Do▁	-6376
Hug	-6377
Kan	-6378
Muh	-6379
ask	-6380
rep	-6381
ude	-6382
Long	-6383
acea	-6384
iles	-6385
inet	-6386
Creek	-6387
bach▁	-6388
clubs	-6389
ossil	-6390
plant	-6391
prote	-6392
quali	-6393
2009.▁	-6394
assass	-6395
Manhatt	-6396
effect▁	-6397
murder▁	-6398
museum▁	-6399
chester▁	-6400
chestra▁	-6401
ication▁	-6402
manufact	-6403
Bundeslig	-6404
Commonwealth▁	-6405
EE	-6406
Jav	-6407
Lyn	-6408
Pul	-6409
sho	-6410
Kash	-6411
engu	-6412
situ	-6413
1919▁	-6414
State	-6415
galax	-6416
peror	-6417
pool▁	-6418
2013.▁	-6419
Barcel	-6420
Class▁	-6421
Kevin▁	-6422
athan▁	-6423
trade▁	-6424
leaves▁	-6425
airport▁	-6426
serving▁	-6427
minister▁	-6428
candidate▁	-6429
completed▁	-6430
hp	-6431
3:▁	-6432
="5	-6433
Nav	-6434
Sid	-6435
itt	-6436
kid	-6437
mut	-6438
Boy▁	-6439
Good	-6440
emet	-6441
hood	-6442
rick	-6443
wear	-6444
Four▁	-6445
Hawai	-6446
nickn	-6447
sympt	-6448
2010.▁	-6449
anced▁	-6450
colour	-6451
Dallas▁	-6452
chestra	-6453
lasted▁	-6454
taught▁	-6455
attended▁	-6456
Pakistani▁	-6457
37	-6458
hr	-6459
ju	-6460
4||	-6461
Fac	-6462
Inf	-6463
Rot	-6464
án▁	-6465
9||2	-6466
Band	-6467
Kim▁	-6468
eau▁	-6469
mon▁	-6470
phy▁	-6471
pred	-6472
|195	-6473
coffe	-6474
core▁	-6475
estig	-6476
hydro	-6477
page▁	-6478
Taiwan	-6479
atural	-6480
lawyer	-6481
prime▁	-6482
Atlanti	-6483
Disease	-6484
Muslim▁	-6485
branch▁	-6486
matter▁	-6487
nearby▁	-6488
organis	-6489
ranked▁	-6490
Britain▁	-6491
producers	-6492
DNA▁	-6493
Hosp	-6494
Max▁	-6495
Phot	-6496
Rach	-6497
Vist	-6498
illa	-6499
scor	-6500
Navy▁	-6501
Water	-6502
lobe▁	-6503
Compan	-6504
ammad▁	-6505
cheon▁	-6506
market	-6507
Vietnam▁	-6508
article▁	-6509
neighbor	-6510
Dominican▁	-6511
territory▁	-6512
associated▁	-6513
controlled▁	-6514
Cu	-6515
.)▁	-6516
Log	-6517
Saf	-6518
az▁	-6519
oo▁	-6520
siz	-6521
ua▁	-6522
000▁	-6523
Bour	-6524
best	-6525
elle	-6526
pack	-6527
Alpes	-6528
card▁	-6529
convic	-6530
count▁	-6531
artists	-6532
closed▁	-6533
future▁	-6534
investig	-6535
younger▁	-6536
formerly▁	-6537
magnetic▁	-6538
5,	-6539
PA	-6540
Ard	-6541
Lav	-6542
Pir	-6543
bal	-6544
eds	-6545
hem	-6546
lip	-6547
Fron	-6548
Marl	-6549
Vers	-6550
excl	-6551
ider	-6552
ora▁	-6553
Camer	-6554
space	-6555
Calvad	-6556
Margar	-6557
Martin	-6558
Sloven	-6559
carry▁	-6560
ified▁	-6561
member	-6562
plane▁	-6563
Ecuador	-6564
Country▁	-6565
approxim	-6566
seasons▁	-6567
specific▁	-6568
southeast▁	-6569
Constitution▁	-6570
39	-6571
6,	-6572
Ey	-6573
H▁	-6574
Esp	-6575
Now	-6576
bs▁	-6577
ux▁	-6578
ía▁	-6579
2||0	-6580
Bros	-6581
Cher	-6582
Club	-6583
Fall	-6584
Spir	-6585
fund	-6586
="5"|	-6587
apart	-6588
code▁	-6589
ellow	-6590
insec	-6591
olic▁	-6592
Jerry▁	-6593
Council	-6594
Islands	-6595
Ronald▁	-6596
aining▁	-6597
hosted▁	-6598
online▁	-6599
special	-6600
planned▁	-6601
remains▁	-6602
broadcast▁	-6603
controvers	-6604
scientific▁	-6605
universities▁	-6606
OS▁	-6607
Rou	-6608
Teh	-6609
rad	-6610
urs	-6611
2014	-6612
Belar	-6613
Chart	-6614
Gold▁	-6615
anish	-6616
cover	-6617
ently	-6618
immun	-6619
Série▁	-6620
eption	-6621
financ	-6622
companies	-6623
operating▁	-6624
organized▁	-6625
Ali	-6626
Fle	-6627
Nar	-6628
2007	-6629
2008	-6630
2||3	-6631
date	-6632
mang	-6633
Pitts	-6634
degre	-6635
reser	-6636
solar▁	-6637
split▁	-6638
Britain	-6639
Police▁	-6640
really▁	-6641
ulation	-6642
Captain▁	-6643
Service▁	-6644
element▁	-6645
feature▁	-6646
success▁	-6647
captured▁	-6648
education	-6649
pneumonia	-6650
generation▁	-6651
Zh	-6652
DC▁	-6653
Dam	-6654
Rey	-6655
cab	-6656
eck	-6657
ei▁	-6658
imp	-6659
swe	-6660
try	-6661
400▁	-6662
Army	-6663
dorf	-6664
hero	-6665
ival	-6666
tric	-6667
Hamil	-6668
eded▁	-6669
inct▁	-6670
mosph	-6671
2008.▁	-6672
Death▁	-6673
ading▁	-6674
correc	-6675
ington	-6676
primar	-6677
single	-6678
terror	-6679
value▁	-6680
Johnson	-6681
Society	-6682
ington▁	-6683
ization	-6684
sequel▁	-6685
adopted▁	-6686
decision	-6687
growing▁	-6688
problem▁	-6689
removed▁	-6690
Memorial▁	-6691
48	-6692
Fem	-6693
Hot	-6694
One	-6695
pay	-6696
rol	-6697
4||0	-6698
Clim	-6699
Dieg	-6700
exhi	-6701
shor	-6702
motor	-6703
party	-6704
premi	-6705
Deaths	-6706
Turkey	-6707
apers▁	-6708
change	-6709
drogen▁	-6710
carried▁	-6711
describe▁	-6712
pandemic▁	-6713
''	-6714
78	-6715
CC	-6716
FF	-6717
Key	-6718
Oct	-6719
iz▁	-6720
osh	-6721
Wars	-6722
pret	-6723
shows	-6724
blues▁	-6725
enter▁	-6726
equal▁	-6727
oxide▁	-6728
places	-6729
travel	-6730
ynasty	-6731
Maryland	-6732
Patrick▁	-6733
Orthodox▁	-6734
Williams▁	-6735
counties▁	-6736
families▁	-6737
marriage▁	-6738
pressure▁	-6739
programs▁	-6740
versions▁	-6741
collection▁	-6742
earthquake▁	-6743
iy	-6744
Ful	-6745
Heb	-6746
Jar	-6747
Vel	-6748
kW▁	-6749
lyn	-6750
pa▁	-6751
Mong	-6752
Well	-6753
aff▁	-6754
flic	-6755
gin▁	-6756
mar▁	-6757
reli	-6758
1918▁	-6759
Ford▁	-6760
graph	-6761
lots▁	-6762
2012.▁	-6763
owner▁	-6764
usual▁	-6765
wards▁	-6766
Finland	-6767
easily▁	-6768
Antonio▁	-6769
Members▁	-6770
emperor▁	-6771
notable▁	-6772
writers▁	-6773
declared▁	-6774
historic▁	-6775
magazine▁	-6776
operation▁	-6777
commercial▁	-6778
completely▁	-6779
Dy	-6780
Cum	-6781
Mak	-6782
Nut	-6783
ca▁	-6784
ji▁	-6785
nom	-6786
oms	-6787
Plat	-6788
cann	-6789
ites	-6790
voic	-6791
Free▁	-6792
Will▁	-6793
altit	-6794
veget	-6795
2003,▁	-6796
Marie▁	-6797
Third▁	-6798
calcul	-6799
giant▁	-6800
image▁	-6801
shire▁	-6802
trial▁	-6803
tries▁	-6804
Bishop▁	-6805
Census▁	-6806
Gordon▁	-6807
Soccer▁	-6808
Airport▁	-6809
borders▁	-6810
leaders▁	-6811
managed▁	-6812
screenwriter	-6813
azz	-6814
ela	-6815
fun	-6816
ito	-6817
pon	-6818
sac	-6819
USA▁	-6820
cust	-6821
ori▁	-6822
text	-6823
tis▁	-6824
Album	-6825
Napol	-6826
Real▁	-6827
Rober	-6828
arms▁	-6829
bank▁	-6830
bird▁	-6831
femin	-6832
girl▁	-6833
immig	-6834
text▁	-6835
Light▁	-6836
Nation	-6837
ancell	-6838
broke▁	-6839
health	-6840
learn▁	-6841
serve▁	-6842
today▁	-6843
Rivers▁	-6844
manager	-6845
Victoria	-6846
reviews▁	-6847
directly▁	-6848
eautiful▁	-6849
Azerbaijan	-6850
elections▁	-6851
Paralympics	-6852
inhabitants▁	-6853
FA	-6854
Kö	-6855
7||	-6856
Hit	-6857
INS	-6858
Jam	-6859
Kum	-6860
Nat	-6861
Sof	-6862
agg	-6863
thy	-6864
ury	-6865
Jama	-6866
Kell	-6867
Salv	-6868
YouT	-6869
ask▁	-6870
case	-6871
osph	-6872
Gulf▁	-6873
cases	-6874
iana▁	-6875
imum▁	-6876
match	-6877
stars	-6878
2000,▁	-6879
System	-6880
corpor	-6881
prove▁	-6882
sites▁	-6883
tered▁	-6884
Office▁	-6885
genous▁	-6886
systems	-6887
negative▁	-6888
Philippines	-6889
relationship▁	-6890
169	-6891
Ell	-6892
MP▁	-6893
Nam	-6894
bea	-6895
nar	-6896
(188	-6897
Liga	-6898
Nich	-6899
indi	-6900
ione	-6901
uri▁	-6902
Good▁	-6903
storm	-6904
white	-6905
Coast▁	-6906
Times▁	-6907
units▁	-6908
Member▁	-6909
diagnos	-6910
American	-6911
Channel▁	-6912
Foreign▁	-6913
longest▁	-6914
movement	-6915
Mountain▁	-6916
Territory	-6917
addition▁	-6918
speaking▁	-6919
Education▁	-6920
Statistics	-6921
historian▁	-6922
particular▁	-6923
47	-6924
Wa	-6925
ć▁	-6926
Pad	-6927
obi	-6928
rub	-6929
tle	-6930
tox	-6931
ugu	-6932
Caes	-6933
Will	-6934
don▁	-6935
Asia▁	-6936
bury▁	-6937
dark▁	-6938
illed	-6939
ories	-6940
three	-6941
reason▁	-6942
Records▁	-6943
density▁	-6944
Indonesia	-6945
campaign▁	-6946
Geography▁	-6947
Minnesota▁	-6948
independence▁	-6949
2:	-6950
Cou	-6951
rig	-6952
Beat	-6953
Bosn	-6954
Pop▁	-6955
cher	-6956
poly	-6957
sail	-6958
thro	-6959
Luis▁	-6960
inger	-6961
plan▁	-6962
glass▁	-6963
island	-6964
reign▁	-6965
antine▁	-6966
comment	-6967
engine▁	-6968
Kurdish▁	-6969
Library▁	-6970
provide▁	-6971
||1||0||	-6972
contract▁	-6973
photograp	-6974
Indonesian▁	-6975
headquarters▁	-6976
mathematician▁	-6977
(1▁	-6978
awa	-6979
loy	-6980
Game	-6981
Post	-6982
Vinc	-6983
acqu	-6984
ette	-6985
said	-6986
anna▁	-6987
eton▁	-6988
integ	-6989
solo▁	-6990
Barbar	-6991
inger▁	-6992
killed	-6993
votes▁	-6994
synthes	-6995
educator	-6996
arrested▁	-6997
compounds	-6998
engineer▁	-6999
opposite▁	-7000
property▁	-7001
Wikipedia▁	-7002
Philadelphia	-7003
representatives▁	-7004
IA	-7005
170	-7006
Eug	-7007
Kon	-7008
emo	-7009
idi	-7010
ole	-7011
ura	-7012
3||2	-7013
Roos	-7014
diam	-7015
ild▁	-7016
sulf	-7017
thor	-7018
Adam▁	-7019
Colon	-7020
Dark▁	-7021
maint	-7022
2015)▁	-7023
Births	-7024
Clevel	-7025
adult▁	-7026
theory	-7027
violin	-7028
Toronto	-7029
saying▁	-7030
summer▁	-7031
daughter	-7032
ulation▁	-7033
variety▁	-7034
normally▁	-7035
estimated▁	-7036
Cow	-7037
NAS	-7038
bun	-7039
tol	-7040
6||0	-7041
hers	-7042
ibbe	-7043
idae	-7044
itz▁	-7045
oud▁	-7046
tish	-7047
Carl▁	-7048
Jeff▁	-7049
Relig	-7050
Tunis	-7051
rebel	-7052
twent	-7053
Globe▁	-7054
idents	-7055
ishes▁	-7056
||3||0	-7057
Israel▁	-7058
Romania	-7059
Samuel▁	-7060
Warner▁	-7061
general	-7062
titled▁	-7063
accident	-7064
artists▁	-7065
effects▁	-7066
happens▁	-7067
teacher▁	-7068
Regional▁	-7069
Communist▁	-7070
interview▁	-7071
championship▁	-7072
48▁	-7073
8||	-7074
Rad	-7075
Ann▁	-7076
Cons	-7077
Epis	-7078
Four	-7079
Lanc	-7080
Les▁	-7081
Rain	-7082
mit▁	-7083
colum	-7084
court	-7085
drug▁	-7086
feet▁	-7087
human	-7088
inet▁	-7089
plus▁	-7090
Cross▁	-7091
democr	-7092
explos	-7093
hours▁	-7094
judge▁	-7095
promis	-7096
victim	-7097
weeks▁	-7098
Berlin▁	-7099
Spanish	-7100
Ukraine	-7101
agreed▁	-7102
Liberal▁	-7103
opening▁	-7104
results▁	-7105
section▁	-7106
="2"|-||4	-7107
compared▁	-7108
creating▁	-7109
Mathematic	-7110
MS	-7111
(16	-7112
);▁	-7113
3||	-7114
Bed	-7115
Fal	-7116
Pil	-7117
Pom	-7118
Yon	-7119
ken	-7120
oil	-7121
ows	-7122
tex	-7123
9||1	-7124
Alph	-7125
Bron	-7126
Diff	-7127
eigh	-7128
ense	-7129
iro▁	-7130
pedi	-7131
2013.	-7132
Alex▁	-7133
Franç	-7134
Khan▁	-7135
chall	-7136
fact▁	-7137
mine▁	-7138
paid▁	-7139
whom▁	-7140
Queens	-7141
analys	-7142
doing▁	-7143
perman	-7144
shape▁	-7145
usion▁	-7146
institu	-7147
location▁	-7148
agreement▁	-7149
provinces▁	-7150
wrestling▁	-7151
Heavyweight▁	-7152
philosopher▁	-7153
BA	-7154
Ow	-7155
Oak	-7156
shi	-7157
zy▁	-7158
2001	-7159
adul	-7160
dry▁	-7161
ect▁	-7162
rati	-7163
Artic	-7164
Cross	-7165
Matt▁	-7166
Meite	-7167
Nazi▁	-7168
capac	-7169
ction	-7170
lyric	-7171
wards	-7172
where	-7173
1999,▁	-7174
detail	-7175
piano▁	-7176
Caribbe	-7177
Jersey▁	-7178
Sweden▁	-7179
covers▁	-7180
workers▁	-7181
Scotland▁	-7182
Universe▁	-7183
composers	-7184
Universal▁	-7185
competition▁	-7186
Him	-7187
Lak	-7188
Vik	-7189
bos	-7190
NBA▁	-7191
Tag▁	-7192
bury	-7193
eck▁	-7194
gran	-7195
2014)	-7196
Gary▁	-7197
Phoen	-7198
Treat	-7199
worth	-7200
Danny▁	-7201
Roosev	-7202
dance▁	-7203
Website	-7204
anning▁	-7205
yellow▁	-7206
religion	-7207
Oklahoma▁	-7208
Ug	-7209
uz	-7210
zy	-7211
Lud	-7212
Swe	-7213
Wel	-7214
bit	-7215
Pass	-7216
Roll	-7217
ads▁	-7218
answ	-7219
vert	-7220
Arab▁	-7221
Court	-7222
Light	-7223
after	-7224
alcoh	-7225
flood	-7226
kins▁	-7227
Oregon	-7228
consol	-7229
grown▁	-7230
museum	-7231
office	-7232
store▁	-7233
Unlike▁	-7234
mitted▁	-7235
intellig	-7236
increase▁	-7237
presents▁	-7238
religion▁	-7239
background▁	-7240
||0||2||0||	-7241
--	-7242
99	-7243
va	-7244
Bea	-7245
Sic	-7246
ez▁	-7247
han	-7248
sem	-7249
7||0	-7250
Berk	-7251
Time	-7252
2011.	-7253
Part▁	-7254
Theod	-7255
eing▁	-7256
eland	-7257
feel▁	-7258
meet▁	-7259
2014)▁	-7260
Jesus▁	-7261
Kings▁	-7262
Norway	-7263
Philli	-7264
Story▁	-7265
anded▁	-7266
birds▁	-7267
bring▁	-7268
invest	-7269
ising▁	-7270
secret	-7271
atmosph	-7272
gained▁	-7273
respond	-7274
stated▁	-7275
Province	-7276
aircraft	-7277
digital▁	-7278
personal	-7279
therine▁	-7280
cultural▁	-7281
elections	-7282
invented▁	-7283
influence▁	-7284
northeast▁	-7285
additional▁	-7286
(89	-7287
Ach	-7288
Fuk	-7289
ik▁	-7290
8||2	-7291
Icel	-7292
Punj	-7293
bish	-7294
regn	-7295
ures	-7296
vice	-7297
1913▁	-7298
Compl	-7299
Gabri	-7300
anne▁	-7301
birds	-7302
fort▁	-7303
miner	-7304
quart	-7305
wins▁	-7306
Benjam	-7307
antum▁	-7308
needs▁	-7309
stery▁	-7310
termin	-7311
therap	-7312
threat	-7313
agricul	-7314
bright▁	-7315
parish▁	-7316
restaur	-7317
speech▁	-7318
Bavaria▁	-7319
Governor	-7320
Rangers▁	-7321
Williams	-7322
failure▁	-7323
records▁	-7324
selling▁	-7325
subject▁	-7326
Afghanistan	-7327
previously▁	-7328
56	-7329
rot	-7330
éné	-7331
Bach	-7332
ical	-7333
ours	-7334
path	-7335
Fire▁	-7336
Xbox▁	-7337
beat▁	-7338
flag▁	-7339
heat▁	-7340
entry▁	-7341
stroke	-7342
wants▁	-7343
awards▁	-7344
guitar▁	-7345
Ireland▁	-7346
Stockhol	-7347
defined▁	-7348
dynasty▁	-7349
student▁	-7350
Examples▁	-7351
Imperial▁	-7352
Pictures▁	-7353
evidence▁	-7354
mountains▁	-7355
southwestern▁	-7356
7,	-7357
182	-7358
36▁	-7359
Go▁	-7360
Sem	-7361
Vas	-7362
err	-7363
ga▁	-7364
haw	-7365
pet	-7366
uli	-7367
arm▁	-7368
athe	-7369
cach	-7370
imer	-7371
turb	-7372
Tour▁	-7373
loss▁	-7374
oslav	-7375
visit	-7376
2006.▁	-7377
Peace▁	-7378
Peters	-7379
Senate	-7380
danger	-7381
départ	-7382
goals▁	-7383
Belgium	-7384
Meitei▁	-7385
Publish	-7386
actions	-7387
bodies▁	-7388
double▁	-7389
service	-7390
trains▁	-7391
Natural▁	-7392
backing▁	-7393
leaving▁	-7394
prevent▁	-7395
Director▁	-7396
services▁	-7397
Community▁	-7398
Federation▁	-7399
Lieutenant▁	-7400
depression▁	-7401
understand▁	-7402
DS	-7403
Art	-7404
Bog	-7405
Cob	-7406
Lux	-7407
Rud	-7408
Syn	-7409
bu▁	-7410
Barr	-7411
Beng	-7412
DVD▁	-7413
Mars	-7414
News	-7415
Stud	-7416
Suff	-7417
dog▁	-7418
Cape▁	-7419
Liver	-7420
Mitch	-7421
ante▁	-7422
wound	-7423
yers▁	-7424
arrest	-7425
clear▁	-7426
improv	-7427
predic	-7428
trees▁	-7429
00,000▁	-7430
orders▁	-7431
search▁	-7432
shared▁	-7433
fashion▁	-7434
academic▁	-7435
translated▁	-7436
Championships	-7437
MA	-7438
oz	-7439
174	-7440
CO▁	-7441
phr	-7442
seg	-7443
var	-7444
zen	-7445
3||1	-7446
7||2	-7447
Buen	-7448
Glen	-7449
Wild	-7450
ali▁	-7451
cong	-7452
ees▁	-7453
foot	-7454
only	-7455
ould	-7456
Child	-7457
deal▁	-7458
equip	-7459
induc	-7460
infar	-7461
mann▁	-7462
sign▁	-7463
skin▁	-7464
Buffal	-7465
Jason▁	-7466
Moscow	-7467
prepar	-7468
Player▁	-7469
Potter▁	-7470
Rights▁	-7471
Sources	-7472
ability	-7473
driver▁	-7474
fellow▁	-7475
vocals▁	-7476
finally▁	-7477
Argentina	-7478
examples▁	-7479
physicist▁	-7480
ressional▁	-7481
2).	-7482
Att	-7483
ova	-7484
was	-7485
(),▁	-7486
Conn	-7487
NFL▁	-7488
Trin	-7489
feel	-7490
lah▁	-7491
1914▁	-7492
Land▁	-7493
Media	-7494
cher▁	-7495
decor	-7496
domes	-7497
flow▁	-7498
hero▁	-7499
occas	-7500
onto▁	-7501
schem	-7502
uals▁	-7503
week▁	-7504
wind▁	-7505
2004.▁	-7506
Barry▁	-7507
Every▁	-7508
Media▁	-7509
Tamil▁	-7510
county	-7511
energy	-7512
Bridge▁	-7513
asters▁	-7514
copies▁	-7515
marine▁	-7516
status▁	-7517
Austria▁	-7518
Between▁	-7519
attacks▁	-7520
concert▁	-7521
looking▁	-7522
hydrogen▁	-7523
conductor▁	-7524
literature	-7525
Basketball▁	-7526
Es	-7527
Nu	-7528
Py	-7529
Ts	-7530
q▁	-7531
5:▁	-7532
lea	-7533
pi▁	-7534
sax	-7535
Gian	-7536
Wond	-7537
agan	-7538
ail▁	-7539
alia	-7540
ila▁	-7541
ote▁	-7542
semi	-7543
tha▁	-7544
word	-7545
attle	-7546
devel	-7547
easy▁	-7548
polo▁	-7549
sched	-7550
sycho	-7551
2000.▁	-7552
Honor▁	-7553
Street	-7554
causes	-7555
extrem	-7556
visit▁	-7557
||6||0	-7558
Palace▁	-7559
Region▁	-7560
albums▁	-7561
eventh▁	-7562
listing	-7563
pianist	-7564
Further▁	-7565
Matthew▁	-7566
cardiac▁	-7567
display▁	-7568
husband▁	-7569
Francisco	-7570
continue▁	-7571
earliest▁	-7572
scientists	-7573
Confederate▁	-7574
sportspeople	-7575
46	-7576
CN	-7577
Gy	-7578
Ib	-7579
CC▁	-7580
Hab	-7581
Osc	-7582
aqu	-7583
lap	-7584
Nick	-7585
Tim▁	-7586
With	-7587
eon▁	-7588
Catal	-7589
Hans▁	-7590
along	-7591
anie▁	-7592
Baltim	-7593
Boris▁	-7594
Series	-7595
Simon▁	-7596
Wales▁	-7597
defini	-7598
satell	-7599
annual▁	-7600
bigger▁	-7601
highly▁	-7602
Detroit▁	-7603
Houston▁	-7604
stations	-7605
describes▁	-7606
transport▁	-7607
appearance▁	-7608
Y▁	-7609
Avi	-7610
Fut	-7611
IS▁	-7612
Sah	-7613
aki	-7614
bow	-7615
pas	-7616
ped	-7617
1918	-7618
Benn	-7619
Jews	-7620
Las▁	-7621
drin	-7622
ecra	-7623
2015.	-7624
Rome▁	-7625
Studi	-7626
Wars▁	-7627
accep	-7628
aker▁	-7629
boro▁	-7630
ease▁	-7631
ocks▁	-7632
suppl	-7633
thus▁	-7634
2014.▁	-7635
Bible▁	-7636
Sydney	-7637
aming▁	-7638
divorc	-7639
editor	-7640
Knight▁	-7641
Mediter	-7642
Children	-7643
learned▁	-7644
managers	-7645
romance▁	-7646
brothers▁	-7647
reaction▁	-7648
regional▁	-7649
software▁	-7650
tradition	-7651
Districts▁	-7652
represent▁	-7653
revolution	-7654
construction▁	-7655
screenwriter▁	-7656
10.	-7657
90▁	-7658
Bot	-7659
Kim	-7660
Mit	-7661
fy▁	-7662
lat	-7663
Kong	-7664
Plot	-7665
Stew	-7666
mers	-7667
push	-7668
Pays▁	-7669
Stadi	-7670
White	-7671
cold▁	-7672
fell▁	-7673
parts	-7674
poor▁	-7675
radio	-7676
Alice▁	-7677
Lewis▁	-7678
astic▁	-7679
chair▁	-7680
inner▁	-7681
receiv	-7682
looked▁	-7683
Greater▁	-7684
attempt▁	-7685
ordered▁	-7686
Sciences▁	-7687
activity▁	-7688
required▁	-7689
Educators▁	-7690
environment	-7691
volleyball▁	-7692
(6	-7693
DO	-7694
’▁	-7695
0)▁	-7696
Aus	-7697
Sop	-7698
Yug	-7699
uok	-7700
5||0	-7701
Addi	-7702
Hiro	-7703
List	-7704
Plac	-7705
Poké	-7706
UNES	-7707
sens	-7708
ère▁	-7709
2010.	-7710
Chang	-7711
ating	-7712
burgh	-7713
eval▁	-7714
lets▁	-7715
2002,▁	-7716
Penins	-7717
battle	-7718
divers	-7719
inspir	-7720
moves▁	-7721
Chinese	-7722
Comics▁	-7723
himself	-7724
Highway▁	-7725
ardinal▁	-7726
renamed▁	-7727
interest▁	-7728
president	-7729
Governors▁	-7730
musicians▁	-7731
ci	-7732
Daw	-7733
Dub	-7734
Gib	-7735
Int	-7736
Tob	-7737
cit	-7738
jus	-7739
kir	-7740
si▁	-7741
Abra	-7742
Ferr	-7743
Indu	-7744
Pear	-7745
Who▁	-7746
eda▁	-7747
ele▁	-7748
ete▁	-7749
extr	-7750
ida▁	-7751
mir▁	-7752
myoc	-7753
ober	-7754
torn	-7755
Down▁	-7756
acks▁	-7757
aire▁	-7758
circu	-7759
user▁	-7760
Bruce▁	-7761
Sport▁	-7762
belief	-7763
incumb	-7764
months	-7765
saxoph	-7766
System▁	-7767
census▁	-7768
concent	-7769
fiction	-7770
motion▁	-7771
Network▁	-7772
objects▁	-7773
Margaret▁	-7774
Ministry▁	-7775
diagnosed▁	-7776
infarction	-7777
information	-7778
Pennsylvania▁	-7779
SS	-7780
'.▁	-7781
(79	-7782
33▁	-7783
Cay	-7784
DS▁	-7785
Kin	-7786
Meg	-7787
WA▁	-7788
iop	-7789
rhy	-7790
||▁	-7791
1||3	-7792
Bad▁	-7793
Bart	-7794
Khan	-7795
Out▁	-7796
hop▁	-7797
Essex	-7798
Psych	-7799
Tokyo	-7800
advis	-7801
arts▁	-7802
iano▁	-7803
2005.▁	-7804
Adams▁	-7805
Observ	-7806
dissol	-7807
Native▁	-7808
automob	-7809
couple▁	-7810
course▁	-7811
flight▁	-7812
painter	-7813
Columbia	-7814
picture▁	-7815
theatre▁	-7816
Frederick▁	-7817
Mediterran	-7818
thousands▁	-7819
alternative▁	-7820
Abb	-7821
Dra	-7822
Eli	-7823
Lea	-7824
Num	-7825
acu	-7826
bey	-7827
su▁	-7828
ug▁	-7829
Astr	-7830
Pro▁	-7831
Roy▁	-7832
does	-7833
ella	-7834
hall	-7835
Line▁	-7836
cars▁	-7837
foot▁	-7838
worn▁	-7839
Count▁	-7840
Saudi▁	-7841
Stone▁	-7842
Wilson	-7843
commis	-7844
franch	-7845
fried▁	-7846
liked▁	-7847
subjec	-7848
twice▁	-7849
Brazil▁	-7850
Bureau▁	-7851
Leader▁	-7852
Marine▁	-7853
install	-7854
seasons	-7855
urrican	-7856
Industri	-7857
Computer▁	-7858
attacked▁	-7859
chairman▁	-7860
provides▁	-7861
mentioned▁	-7862
personality▁	-7863
0–	-7864
Um	-7865
c▁	-7866
tz	-7867
är	-7868
55▁	-7869
Sak	-7870
fix	-7871
ima	-7872
max	-7873
pel	-7874
rev	-7875
ube	-7876
"),▁	-7877
2009	-7878
Jeff	-7879
Moon	-7880
Salz	-7881
Sang	-7882
Sult	-7883
kin▁	-7884
Andro	-7885
Night	-7886
Sound	-7887
clear	-7888
cost▁	-7889
drums	-7890
edge▁	-7891
elve▁	-7892
iron▁	-7893
pass▁	-7894
2003.▁	-7895
Board▁	-7896
Cathed	-7897
Indian	-7898
dates▁	-7899
drive▁	-7900
erence	-7901
noted▁	-7902
princi	-7903
Buenos▁	-7904
Several▁	-7905
atively▁	-7906
contain▁	-7907
parties▁	-7908
suicide▁	-7909
Airlines▁	-7910
Benjamin▁	-7911
discovery▁	-7912
presented▁	-7913
journalists	-7914
significant▁	-7915
municipalities	-7916
Mé	-7917
Vl	-7918
160	-7919
Din	-7920
Fab	-7921
Tig	-7922
agr	-7923
8||1	-7924
Merc	-7925
Sier	-7926
arms	-7927
fals	-7928
heav	-7929
mist	-7930
2012.	-7931
Fried	-7932
endor	-7933
enne▁	-7934
heim▁	-7935
traff	-7936
Costa▁	-7937
Suffol	-7938
before	-7939
grade▁	-7940
||4||0	-7941
Carlos▁	-7942
Lincoln	-7943
defeat▁	-7944
ethnic▁	-7945
follow▁	-7946
respons	-7947
teacher	-7948
Theatre▁	-7949
myocardi	-7950
Michigan▁	-7951
altitude▁	-7952
comedian▁	-7953
evolution	-7954
training▁	-7955
experience▁	-7956
Gun	-7957
Hop	-7958
jur	-7959
pup	-7960
Fame	-7961
acid	-7962
aine	-7963
elim	-7964
fair	-7965
fres	-7966
ills	-7967
ocol	-7968
pick	-7969
uro▁	-7970
1917▁	-7971
Books	-7972
Filip	-7973
aceae	-7974
oper▁	-7975
Dakota	-7976
Davis▁	-7977
Today▁	-7978
comput	-7979
replac	-7980
score▁	-7981
Charlot	-7982
Pierre▁	-7983
growth▁	-7984
method▁	-7985
practic	-7986
report▁	-7987
stayed▁	-7988
treated▁	-7989
Romanian▁	-7990
Champions▁	-7991
Fictional▁	-7992
Foundation	-7993
committed▁	-7994
Filmography	-7995
electrical▁	-7996
interested▁	-7997
myocardial▁	-7998
58	-7999
76	-8000
oa	-8001
12)	-8002
168	-8003
Lan	-8004
Yok	-8005
die	-8006
iat	-8007
mo▁	-8008
oto	-8009
4||3	-8010
mann	-8011
1916▁	-8012
Amend	-8013
Karl▁	-8014
Krist	-8015
Magaz	-8016
certi	-8017
hyper	-8018
scope	-8019
wing▁	-8020
|1996	-8021
Heart▁	-8022
Larry▁	-8023
aling▁	-8024
batter	-8025
knowle	-8026
respir	-8027
theme▁	-8028
||5||0	-8029
Arizona	-8030
actors▁	-8031
chester	-8032
liquid▁	-8033
personn	-8034
sounds▁	-8035
Colorado	-8036
Lawyers▁	-8037
product▁	-8038
Business▁	-8039
Missouri▁	-8040
episodes▁	-8041
technology▁	-8042
ER	-8043
Ig	-8044
Ok	-8045
75▁	-8046
Be▁	-8047
Cha	-8048
Lee	-8049
Let	-8050
Raw	-8051
ogy	-8052
1910	-8053
2).▁	-8054
Buck	-8055
Jan▁	-8056
Mess	-8057
Our▁	-8058
Vanc	-8059
Wolf	-8060
apti	-8061
fer▁	-8062
haus	-8063
scen	-8064
2008.	-8065
2009.	-8066
Port▁	-8067
ando▁	-8068
gods▁	-8069
sung▁	-8070
title	-8071
tour▁	-8072
Contro	-8073
Pyréné	-8074
Vancou	-8075
fossil	-8076
heimer	-8077
sixth▁	-8078
Canton▁	-8079
Labour▁	-8080
Oxford▁	-8081
Warren▁	-8082
editor▁	-8083
singing▁	-8084
visited▁	-8085
Original▁	-8086
changing▁	-8087
proposed▁	-8088
financial▁	-8089
Manchester▁	-8090
activities▁	-8091
conditions▁	-8092
electronic▁	-8093
département▁	-8094
Od	-8095
4).	-8096
4:▁	-8097
Beg	-8098
Bud	-8099
Cyr	-8100
Get	-8101
Hex	-8102
Hut	-8103
Pin	-8104
Sac	-8105
ev▁	-8106
tee	-8107
va▁	-8108
7).▁	-8109
AFC▁	-8110
conv	-8111
esty	-8112
full	-8113
nal▁	-8114
orph	-8115
role	-8116
truc	-8117
uan▁	-8118
2018.	-8119
Chile	-8120
dedic	-8121
emerg	-8122
huge▁	-8123
invas	-8124
wear▁	-8125
|2010	-8126
Egypt▁	-8127
Ethiop	-8128
Hercul	-8129
church	-8130
harmon	-8131
ports▁	-8132
ruler▁	-8133
share▁	-8134
Detroit	-8135
Iceland	-8136
borough	-8137
castle▁	-8138
inding▁	-8139
occurs▁	-8140
ascular▁	-8141
material	-8142
wrestler	-8143
Armenian▁	-8144
Colorado▁	-8145
buildings	-8146
combined▁	-8147
expected▁	-8148
communities▁	-8149
representative▁	-8150
MG	-8151
Sn	-8152
13)	-8153
16)	-8154
64▁	-8155
="6	-8156
Byz	-8157
Cle	-8158
Hud	-8159
Mig	-8160
osa	-8161
ys▁	-8162
150▁	-8163
600▁	-8164
Brid	-8165
add▁	-8166
ateg	-8167
chap	-8168
cous	-8169
gall	-8170
han▁	-8171
ords	-8172
zen▁	-8173
1912▁	-8174
Times	-8175
angel	-8176
enge▁	-8177
flat▁	-8178
miles	-8179
|1995	-8180
2015.▁	-8181
2017.▁	-8182
Miami▁	-8183
burgh▁	-8184
driver	-8185
encies	-8186
finds▁	-8187
immedi	-8188
ition▁	-8189
sions▁	-8190
Emperor	-8191
Greece▁	-8192
Kurdist	-8193
element	-8194
happen▁	-8195
serial▁	-8196
building	-8197
develop▁	-8198
meeting▁	-8199
percent▁	-8200
spacecra	-8201
Economic▁	-8202
Portugal▁	-8203
Security▁	-8204
Transport▁	-8205
assistant▁	-8206
difference▁	-8207
industrial▁	-8208
(1	-8209
AR	-8210
Pé	-8211
Sr	-8212
6).	-8213
Len	-8214
ads	-8215
bus	-8216
cot	-8217
nut	-8218
Peru	-8219
Shel	-8220
Sieg	-8221
avel	-8222
bal▁	-8223
ban▁	-8224
shot	-8225
spot	-8226
thm▁	-8227
yet▁	-8228
Once▁	-8229
Roman	-8230
deep▁	-8231
domin	-8232
subst	-8233
towns	-8234
2001.▁	-8235
Boston	-8236
Hindu▁	-8237
Madrid	-8238
Ocean▁	-8239
Palest	-8240
Prussi	-8241
apped▁	-8242
brown▁	-8243
debuts	-8244
ented▁	-8245
Belarus	-8246
Orange▁	-8247
Temple▁	-8248
conflic	-8249
filled▁	-8250
issued▁	-8251
physics	-8252
Nebraska	-8253
calendar	-8254
campaign	-8255
released	-8256
weather▁	-8257
||2||0||	-8258
Lawrence▁	-8259
industry▁	-8260
structure	-8261
Bundesliga	-8262
increased▁	-8263
aturalized▁	-8264
influenced▁	-8265
9,	-8266
ön	-8267
Bey	-8268
IP▁	-8269
Neg	-8270
Sor	-8271
TA▁	-8272
oca	-8273
sli	-8274
Diam	-8275
airs	-8276
born	-8277
cat▁	-8278
live	-8279
nes▁	-8280
sell	-8281
2007.	-8282
Patri	-8283
adver	-8284
ashi▁	-8285
bing▁	-8286
forms	-8287
othy▁	-8288
tier▁	-8289
Legisl	-8290
Valley	-8291
ached▁	-8292
aging▁	-8293
claim▁	-8294
consci	-8295
falls▁	-8296
izing▁	-8297
waves▁	-8298
Holland	-8299
Library	-8300
monarch	-8301
princip	-8302
Architec	-8303
Current▁	-8304
Thailand	-8305
holding▁	-8306
organic▁	-8307
transport	-8308
Mississippi▁	-8309
participated▁	-8310
Championships▁	-8311
1/	-8312
44	-8313
Ny	-8314
Alz	-8315
Cho	-8316
Equ	-8317
Eri	-8318
ho▁	-8319
iel	-8320
sav	-8321
3||0	-8322
Area	-8323
Aust	-8324
Viol	-8325
fly▁	-8326
refl	-8327
resc	-8328
shop	-8329
sons	-8330
stad	-8331
uth▁	-8332
wan▁	-8333
Ohio▁	-8334
Ryan▁	-8335
block	-8336
boat▁	-8337
ects▁	-8338
ords▁	-8339
pregn	-8340
spons	-8341
Girond	-8342
ables▁	-8343
awards	-8344
cycle▁	-8345
exist▁	-8346
exual▁	-8347
humans	-8348
master	-8349
phone▁	-8350
plans▁	-8351
winds▁	-8352
Master▁	-8353
carbon▁	-8354
levels▁	-8355
senior▁	-8356
voiced▁	-8357
Affairs▁	-8358
determin	-8359
episodes	-8360
Franklin▁	-8361
Muhammad▁	-8362
decision▁	-8363
Companies▁	-8364
Government	-8365
scientist▁	-8366
typically▁	-8367
Presidential▁	-8368
Jak	-8369
Jup	-8370
Lef	-8371
RT▁	-8372
Sin	-8373
Whe	-8374
aux	-8375
fli	-8376
ius	-8377
oud	-8378
utr	-8379
Appl	-8380
Frog	-8381
aran	-8382
erup	-8383
ova▁	-8384
repr	-8385
sit▁	-8386
stom	-8387
tree	-8388
="6"|	-8389
Micha	-8390
Prix▁	-8391
Stein	-8392
Urugu	-8393
appar	-8394
deliv	-8395
demon	-8396
gang▁	-8397
moon▁	-8398
ordin	-8399
pione	-8400
rise▁	-8401
(2005)	-8402
Kyoto▁	-8403
border	-8404
scape▁	-8405
Around▁	-8406
Nelson▁	-8407
comune▁	-8408
control	-8409
immune▁	-8410
issues▁	-8411
Yugoslav	-8412
borough▁	-8413
forming▁	-8414
missing▁	-8415
offered▁	-8416
Festival▁	-8417
Jonathan▁	-8418
numerous▁	-8419
products▁	-8420
provided▁	-8421
Ambassador▁	-8422
Historical▁	-8423
electricity▁	-8424
EA	-8425
IO	-8426
34▁	-8427
43▁	-8428
Fun	-8429
Jur	-8430
Lem	-8431
Sev	-8432
Usu	-8433
Vor	-8434
bud	-8435
1919	-8436
Goog	-8437
Hand	-8438
Mang	-8439
Maps	-8440
Shim	-8441
aga▁	-8442
amer	-8443
anda	-8444
flag	-8445
iden	-8446
opin	-8447
||18	-8448
Alger	-8449
Beach	-8450
Wadi▁	-8451
great	-8452
ygen▁	-8453
2002.▁	-8454
Blood▁	-8455
Kurds▁	-8456
bands▁	-8457
begin▁	-8458
embour	-8459
focus▁	-8460
label▁	-8461
planet	-8462
rough▁	-8463
utive▁	-8464
watch▁	-8465
Marvel▁	-8466
concern	-8467
contest	-8468
decide▁	-8469
forest▁	-8470
ication	-8471
lights▁	-8472
|2006/0	-8473
Japanese	-8474
Medical▁	-8475
Kentucky▁	-8476
divorced▁	-8477
historian	-8478
performing▁	-8479
approximately▁	-8480
57	-8481
86	-8482
TS	-8483
Wo	-8484
cru	-8485
itu	-8486
spr	-8487
urg	-8488
0),▁	-8489
Berg	-8490
Happ	-8491
Hold	-8492
Kath	-8493
burn	-8494
mal▁	-8495
mand	-8496
mond	-8497
ogen	-8498
rol▁	-8499
slav	-8500
urem	-8501
(2019	-8502
Bell▁	-8503
Dick▁	-8504
Every	-8505
Nick▁	-8506
goals	-8507
hits▁	-8508
keybo	-8509
tile▁	-8510
(2007)	-8511
2016)▁	-8512
Basic▁	-8513
Final▁	-8514
Origin	-8515
girls▁	-8516
happen	-8517
heard▁	-8518
issue▁	-8519
itself	-8520
coffee▁	-8521
critics	-8522
ection▁	-8523
instead	-8524
leaders	-8525
lowing▁	-8526
teenth▁	-8527
morning▁	-8528
Institute	-8529
criminal▁	-8530
inventor▁	-8531
worldwide	-8532
wrestler▁	-8533
depression	-8534
treatment▁	-8535
Mediterranean▁	-8536
CH	-8537
ee	-8538
ji	-8539
17)	-8540
His	-8541
Ill	-8542
Rid	-8543
Ten	-8544
arc	-8545
fai	-8546
igg	-8547
ody	-8548
ogg	-8549
1999	-8550
8||0	-8551
Emer	-8552
Herz	-8553
Lang	-8554
Leo▁	-8555
Mick	-8556
Patt	-8557
See▁	-8558
cham	-8559
dam▁	-8560
feet	-8561
tail	-8562
1900▁	-8563
Here▁	-8564
Marin	-8565
Ross▁	-8566
Symph	-8567
arch▁	-8568
hair▁	-8569
haps▁	-8570
load▁	-8571
mund▁	-8572
natur	-8573
punk▁	-8574
charts	-8575
essed▁	-8576
modern	-8577
occur▁	-8578
stock▁	-8579
||3||1	-8580
Silver▁	-8581
access▁	-8582
islands	-8583
network	-8584
ounced▁	-8585
recogni	-8586
tracks▁	-8587
|2003/0	-8588
|2005/0	-8589
Atlanta▁	-8590
Capital▁	-8591
Portugal	-8592
channel▁	-8593
students	-8594
Encyclope	-8595
accepted▁	-8596
accident▁	-8597
ancellor▁	-8598
creation▁	-8599
landfall▁	-8600
remaining▁	-8601
automobiles	-8602
songwriters	-8603
Information▁	-8604
Netherlands▁	-8605
philanthropist	-8606
54	-8607
Kl	-8608
v▁	-8609
ér	-8610
Kle	-8611
RGB	-8612
(186	-8613
(187	-8614
Burg	-8615
Cinc	-8616
Ian▁	-8617
Idah	-8618
Now▁	-8619
Shir	-8620
bly▁	-8621
desc	-8622
hire	-8623
isen	-8624
osis	-8625
poor	-8626
same	-8627
sand	-8628
urn▁	-8629
verg	-8630
weak	-8631
Also▁	-8632
Elean	-8633
Fland	-8634
Liga▁	-8635
Nurem	-8636
felt▁	-8637
grass	-8638
simpl	-8639
2019.▁	-8640
Local▁	-8641
astron	-8642
enburg	-8643
enson▁	-8644
leads▁	-8645
pancre	-8646
planet▁	-8647
secret▁	-8648
titles▁	-8649
vision▁	-8650
|2001/0	-8651
|2002/0	-8652
|2004/0	-8653
Despite▁	-8654
applied▁	-8655
causing▁	-8656
receive▁	-8657
visible▁	-8658
Alzheimer	-8659
Luxembour	-8660
Singapore	-8661
resigned▁	-8662
revealed▁	-8663
Corporation	-8664
represents▁	-8665
representing▁	-8666
")	-8667
65	-8668
97	-8669
Ki	-8670
MD	-8671
MI	-8672
38▁	-8673
Fro	-8674
Ple	-8675
Zim	-8676
cha	-8677
mal	-8678
Bald	-8679
Ener	-8680
Lenn	-8681
girl	-8682
wing	-8683
2006.	-8684
2017.	-8685
Loire	-8686
mate▁	-8687
overs	-8688
rank▁	-8689
Blues▁	-8690
Sardin	-8691
eline▁	-8692
parall	-8693
proof▁	-8694
though	-8695
Descrip	-8696
Sydney▁	-8697
encies▁	-8698
master▁	-8699
quarter	-8700
unique▁	-8701
Knights▁	-8702
methods▁	-8703
reality▁	-8704
Language▁	-8705
Melbourne	-8706
Transport	-8707
bacteria▁	-8708
alongside▁	-8709
featuring▁	-8710
municipality	-8711
International	-8712
particularly▁	-8713
8,	-8714
ED	-8715
UC	-8716
Z▁	-8717
15)	-8718
166	-8719
Chi	-8720
Ed▁	-8721
Hag	-8722
MS▁	-8723
Rhô	-8724
cm▁	-8725
you	-8726
2013	-8727
2017	-8728
85,▁	-8729
89,▁	-8730
Slav	-8731
Stef	-8732
deep	-8733
ils▁	-8734
impl	-8735
prop	-8736
1907▁	-8737
1915▁	-8738
2015)	-8739
Dean▁	-8740
Five▁	-8741
accur	-8742
aska▁	-8743
hour▁	-8744
opher	-8745
post▁	-8746
suit▁	-8747
udes▁	-8748
ulty▁	-8749
Divisi	-8750
Pedro▁	-8751
peace▁	-8752
theore	-8753
ument▁	-8754
views▁	-8755
UNESCO▁	-8756
shaped▁	-8757
surface	-8758
Animals▁	-8759
Pyrénées	-8760
Russell▁	-8761
minutes▁	-8762
ologists	-8763
stadium▁	-8764
Marlboro▁	-8765
affected▁	-8766
founding▁	-8767
recently▁	-8768
Provinces▁	-8769
commander▁	-8770
instrument	-8771
positions▁	-8772
radiation▁	-8773
organizations▁	-8774
Dic	-8775
Hes	-8776
Hub	-8777
Kit	-8778
Raf	-8779
Tab	-8780
Toy	-8781
aci	-8782
erc	-8783
hat	-8784
ove	-8785
rar	-8786
tes	-8787
yl▁	-8788
Cann	-8789
Garc	-8790
Sylv	-8791
assa	-8792
chen	-8793
cool	-8794
didn	-8795
embl	-8796
wild	-8797
2014.	-8798
Prize	-8799
Reser	-8800
abstr	-8801
eyes▁	-8802
reign	-8803
train	-8804
woman	-8805
1997,▁	-8806
2021.▁	-8807
Amster	-8808
brand▁	-8809
dated▁	-8810
finish	-8811
voted▁	-8812
||4||1	-8813
Rachel▁	-8814
changes	-8815
eption▁	-8816
nation▁	-8817
rystal▁	-8818
|2007/0	-8819
demonstr	-8820
freedom▁	-8821
pitcher▁	-8822
guitarists	-8823
themselves	-8824
Independent▁	-8825
metropolitan▁	-8826
5:	-8827
Fo	-8828
LA	-8829
PD	-8830
149	-8831
Has	-8832
Ing	-8833
Wol	-8834
Wür	-8835
ray	-8836
rey	-8837
yn▁	-8838
Gonz	-8839
Hond	-8840
June	-8841
Work	-8842
alem	-8843
army	-8844
buy▁	-8845
eler	-8846
elev	-8847
gang	-8848
idea	-8849
late	-8850
oven	-8851
size	-8852
2005.	-8853
Athle	-8854
Galax	-8855
Girl▁	-8856
paper	-8857
(1995)	-8858
Oxford	-8859
damage	-8860
horse▁	-8861
ingen▁	-8862
precip	-8863
resour	-8864
techni	-8865
Dennis▁	-8866
Sierra▁	-8867
Studio▁	-8868
Article▁	-8869
Borough▁	-8870
Chilean▁	-8871
Kennedy▁	-8872
Notable▁	-8873
concept▁	-8874
families	-8875
hospital	-8876
Manhattan	-8877
Nigerian▁	-8878
Parkinson	-8879
community	-8880
response▁	-8881
suffered▁	-8882
pancreatic▁	-8883
surrounded▁	-8884
tournament▁	-8885
surrounding▁	-8886
distribution▁	-8887
85	-8888
PS	-8889
Tu	-8890
pu	-8891
150	-8892
37▁	-8893
Kei	-8894
91,▁	-8895
End▁	-8896
Goth	-8897
Rhin	-8898
Wich	-8899
chi▁	-8900
flav	-8901
kins	-8902
poll	-8903
qual	-8904
||20	-8905
Bibli	-8906
Griff	-8907
Iran▁	-8908
Nepal	-8909
Story	-8910
boys▁	-8911
lack▁	-8912
ller▁	-8913
ocean	-8914
sibil	-8915
slow▁	-8916
1997.▁	-8917
1999.▁	-8918
2018.▁	-8919
Method	-8920
Robin▁	-8921
armed▁	-8922
avoid▁	-8923
||2||1	-8924
Chemist	-8925
Doctor▁	-8926
Italian	-8927
Norman▁	-8928
bition▁	-8929
bottom▁	-8930
choose▁	-8931
formal▁	-8932
images▁	-8933
ressed▁	-8934
schools	-8935
serves▁	-8936
soccer▁	-8937
stream▁	-8938
computer	-8939
economy▁	-8940
interest	-8941
serious▁	-8942
Barcelona	-8943
adventure▁	-8944
divisions▁	-8945
separated▁	-8946
temporary▁	-8947
Convention▁	-8948
Vietnamese▁	-8949
congressional▁	-8950
55	-8951
ng	-8952
1).	-8953
167	-8954
47▁	-8955
Dod	-8956
Kab	-8957
Lag	-8958
Moz	-8959
Tou	-8960
icy	-8961
nik	-8962
vel	-8963
").▁	-8964
87,▁	-8965
9/10	-8966
Cycl	-8967
Gust	-8968
Lope	-8969
Prag	-8970
Revi	-8971
bria	-8972
cler	-8973
cost	-8974
ends	-8975
2016.	-8976
2020.	-8977
Aquit	-8978
Cemet	-8979
Wall▁	-8980
Ward▁	-8981
alty▁	-8982
caugh	-8983
facil	-8984
neth▁	-8985
rare▁	-8986
video	-8987
Comedi	-8988
behavi	-8989
films▁	-8990
fires▁	-8991
istics	-8992
slight	-8993
General	-8994
Geneva▁	-8995
Victor▁	-8996
society	-8997
Charlie▁	-8998
Digital▁	-8999
Freedom▁	-9000
damaged▁	-9001
function	-9002
reading▁	-9003
showing▁	-9004
Hampshire	-9005
Standard▁	-9006
respectiv	-9007
teaching▁	-9008
conducted▁	-9009
extremely▁	-9010
photograph	-9011
mathematics	-9012
96	-9013
lé	-9014
vs	-9015
155	-9016
Bis	-9017
Byr	-9018
Fuj	-9019
Sik	-9020
Sky	-9021
Tas	-9022
Zor	-9023
1800	-9024
Bank	-9025
Beij	-9026
CBS▁	-9027
Lake	-9028
Mark	-9029
Runn	-9030
Then	-9031
arts	-9032
emy▁	-9033
free	-9034
park	-9035
sue▁	-9036
ules	-9037
2019.	-9038
Head▁	-9039
Multi	-9040
built	-9041
chick	-9042
cinem	-9043
green	-9044
oral▁	-9045
osis▁	-9046
purch	-9047
Morris	-9048
block▁	-9049
discus	-9050
enemy▁	-9051
guest▁	-9052
solid▁	-9053
Cincinn	-9054
Hungary	-9055
Legend▁	-9056
Montana	-9057
entrepr	-9058
illness	-9059
mobile▁	-9060
oxygen▁	-9061
vertebr	-9062
accused▁	-9063
compete▁	-9064
drummer▁	-9065
project▁	-9066
Nicholas▁	-9067
electron▁	-9068
Profession	-9069
entreprene	-9070
municipal▁	-9071
production	-9072
Azerbaijan▁	-9073
Foundation▁	-9074
Independence▁	-9075
businesspeople	-9076
zi	-9077
)"▁	-9078
Boh	-9079
Nak	-9080
Pos	-9081
Row	-9082
Sig	-9083
bed	-9084
dy▁	-9085
ipl	-9086
Fish	-9087
Gill	-9088
Hend	-9089
Live	-9090
Orle	-9091
Test	-9092
atem	-9093
nie▁	-9094
room	-9095
Delaw	-9096
Young	-9097
attor	-9098
dium▁	-9099
effic	-9100
milit	-9101
range	-9102
regul	-9103
ving▁	-9104
(2006)	-9105
(2008)	-9106
Calais	-9107
Seven▁	-9108
Vienna	-9109
conven	-9110
destro	-9111
eaten▁	-9112
honor▁	-9113
items▁	-9114
ocean▁	-9115
resign	-9116
||2||0	-9117
Centre▁	-9118
Common▁	-9119
Harold▁	-9120
Harris▁	-9121
Johann▁	-9122
Turkey▁	-9123
ferred▁	-9124
inging▁	-9125
rebelli	-9126
volcano	-9127
writing	-9128
However▁	-9129
elements	-9130
genetic▁	-9131
greater▁	-9132
industry	-9133
settled▁	-9134
society▁	-9135
Medicine▁	-9136
September	-9137
graduate▁	-9138
youngest▁	-9139
Biography▁	-9140
Catherine▁	-9141
TH	-9142
bs	-9143
Alt	-9144
Bes	-9145
Dir	-9146
Hem	-9147
Say	-9148
Voc	-9149
cod	-9150
cup	-9151
dir	-9152
rat	-9153
84,▁	-9154
Ken▁	-9155
Mond	-9156
Ron▁	-9157
amp▁	-9158
fort	-9159
hors	-9160
mind	-9161
pool	-9162
Rail▁	-9163
Rhine	-9164
Side▁	-9165
alism	-9166
borgh	-9167
chrom	-9168
ming▁	-9169
tern▁	-9170
(1996)	-9171
Diego▁	-9172
Eddie▁	-9173
Solar▁	-9174
Spring	-9175
alumni	-9176
angle▁	-9177
atures	-9178
necess	-9179
sense▁	-9180
verse▁	-9181
vocal▁	-9182
Atlanta	-9183
Birming	-9184
Carter▁	-9185
Nations	-9186
actual▁	-9187
cartoon	-9188
descrip	-9189
device▁	-9190
street▁	-9191
uments▁	-9192
Bernard▁	-9193
Lamborgh	-9194
Malaysia	-9195
goddess▁	-9196
printed▁	-9197
replace▁	-9198
chemistry	-9199
literary▁	-9200
painting▁	-9201
physicist	-9202
practice▁	-9203
technology	-9204
Archbishop▁	-9205
Naturalized▁	-9206
SN	-9207
rd	-9208
Kas	-9209
VI▁	-9210
hop	-9211
ira	-9212
rif	-9213
sin	-9214
Appe	-9215
Bear	-9216
Brig	-9217
July	-9218
Rena	-9219
Six▁	-9220
eva▁	-9221
gar▁	-9222
ris▁	-9223
sain	-9224
wedd	-9225
Categ	-9226
Otto▁	-9227
Vladi	-9228
burn▁	-9229
depos	-9230
guns▁	-9231
oxide	-9232
ries▁	-9233
sang▁	-9234
Concer	-9235
Ferdin	-9236
Grant▁	-9237
Tommy▁	-9238
Trade▁	-9239
Vista▁	-9240
Where▁	-9241
clubs▁	-9242
dancer	-9243
inters	-9244
rivers	-9245
scale▁	-9246
sides▁	-9247
Czechos	-9248
Graham▁	-9249
Muslims	-9250
Protest	-9251
athlete	-9252
counts▁	-9253
measure	-9254
metres▁	-9255
minutes	-9256
othing▁	-9257
|2000/0	-9258
belongs▁	-9259
closely▁	-9260
magazine	-9261
physics▁	-9262
|2009/10	-9263
François▁	-9264
Hospital▁	-9265
designer▁	-9266
smallest▁	-9267
Czechoslov	-9268
Television	-9269
Wisconsin▁	-9270
attention▁	-9271
conditions	-9272
primarily▁	-9273
Conference▁	-9274
Massachusetts▁	-9275
43	-9276
Gö	-9277
Ja	-9278
Ve	-9279
WA	-9280
(10	-9281
5).	-9282
8).	-9283
Hil	-9284
Kre	-9285
Mut	-9286
Nan	-9287
Pra	-9288
Reb	-9289
Tow	-9290
Wag	-9291
ec▁	-9292
hit	-9293
ocy	-9294
Know	-9295
Rio▁	-9296
Utah	-9297
abol	-9298
ange	-9299
igi▁	-9300
larg	-9301
lay▁	-9302
pray	-9303
ums▁	-9304
(1999	-9305
Capit	-9306
Dead▁	-9307
Phil▁	-9308
Wild▁	-9309
astro	-9310
award	-9311
datab	-9312
esses	-9313
iper▁	-9314
ishi▁	-9315
izes▁	-9316
reds▁	-9317
stock	-9318
1996,▁	-9319
Golden	-9320
Jesse▁	-9321
Press▁	-9322
Servic	-9323
Singh▁	-9324
Statis	-9325
Wilhel	-9326
agree▁	-9327
bright	-9328
route▁	-9329
stood▁	-9330
||5||1	-9331
1986),▁	-9332
Batman▁	-9333
biology	-9334
dancer▁	-9335
parents	-9336
reviews	-9337
spring▁	-9338
Barbara▁	-9339
addition	-9340
council▁	-9341
pianist▁	-9342
Cambridge	-9343
security▁	-9344
Population	-9345
dedicated▁	-9346
ovascular▁	-9347
personality	-9348
Development▁	-9349
respiratory▁	-9350
Philadelphia▁	-9351
screenwriters	-9352
*▁	-9353
IN	-9354
Sz	-9355
TA	-9356
tu	-9357
Hav	-9358
NHL	-9359
Pav	-9360
Van	-9361
Wer	-9362
aer	-9363
bra	-9364
las	-9365
83,▁	-9366
Bush	-9367
Exec	-9368
Fitz	-9369
Giov	-9370
Mall	-9371
Tall	-9372
Vish	-9373
Way▁	-9374
como	-9375
thel	-9376
Bible	-9377
Haute	-9378
Neil▁	-9379
Queen	-9380
Santi	-9381
Solid	-9382
Teach	-9383
blood	-9384
brevi	-9385
force	-9386
ider▁	-9387
poets	-9388
soft▁	-9389
uled▁	-9390
Alaska	-9391
Hirosh	-9392
Wayne▁	-9393
advant	-9394
antly▁	-9395
drink▁	-9396
length	-9397
psycho	-9398
rocks▁	-9399
switch	-9400
users▁	-9401
Jordan▁	-9402
Manipur	-9403
October	-9404
Treaty▁	-9405
another	-9406
easier▁	-9407
nature▁	-9408
orange▁	-9409
parties	-9410
restric	-9411
strateg	-9412
tribes▁	-9413
Lincoln▁	-9414
Ontario▁	-9415
Serbian▁	-9416
hundred▁	-9417
||0||0||	-9418
Filipino▁	-9419
domestic▁	-9420
occurred▁	-9421
Parliament	-9422
architect▁	-9423
particles▁	-9424
protected▁	-9425
tournament	-9426
32	-9427
158	-9428
Cav	-9429
Eag	-9430
Lah	-9431
Seb	-9432
Tos	-9433
av▁	-9434
enj	-9435
kar	-9436
nin	-9437
(180	-9438
Aber	-9439
Amaz	-9440
Biel	-9441
Expl	-9442
Ralp	-9443
Web▁	-9444
aro▁	-9445
dict	-9446
eful	-9447
mix▁	-9448
(2010	-9449
1911▁	-9450
Andy▁	-9451
Chand	-9452
Honor	-9453
Walt▁	-9454
aste▁	-9455
ente▁	-9456
lingu	-9457
roll▁	-9458
rows▁	-9459
send▁	-9460
stone	-9461
utes▁	-9462
|1994	-9463
2020.▁	-9464
Collin	-9465
Crown▁	-9466
Dallas	-9467
Grace▁	-9468
Ralph▁	-9469
Second	-9470
Surviv	-9471
Until▁	-9472
frogs▁	-9473
geomet	-9474
idden▁	-9475
inson▁	-9476
moment	-9477
osaurs	-9478
pilot▁	-9479
promin	-9480
venue▁	-9481
Airport	-9482
Famous▁	-9483
Roberts	-9484
Steven▁	-9485
Westmin	-9486
caught▁	-9487
friends	-9488
medals▁	-9489
memory▁	-9490
rating▁	-9491
|2008/0	-9492
Minister	-9493
Raymond▁	-9494
contact▁	-9495
dropped▁	-9496
marriage	-9497
painted▁	-9498
perform▁	-9499
unusual▁	-9500
Chairman▁	-9501
approved▁	-9502
murdered▁	-9503
operated▁	-9504
sequence▁	-9505
slightly▁	-9506
Caribbean▁	-9507
beautiful▁	-9508
Commission▁	-9509
everything▁	-9510
Representative▁	-9511
67	-9512
95	-9513
98	-9514
Cô	-9515
DC	-9516
PC	-9517
XX	-9518
Zo	-9519
14)	-9520
6:▁	-9521
;"▁	-9522
Dog	-9523
Hea	-9524
Maz	-9525
Sap	-9526
Sir	-9527
gom	-9528
ule	-9529
zo▁	-9530
9/00	-9531
90,▁	-9532
Cook	-9533
Glas	-9534
Midd	-9535
Rabb	-9536
brid	-9537
kes▁	-9538
Bapti	-9539
Maine	-9540
Peter	-9541
aragu	-9542
bell▁	-9543
holid	-9544
plays	-9545
wise▁	-9546
|1990	-9547
1994,▁	-9548
2016.▁	-9549
Among▁	-9550
Crimin	-9551
daily▁	-9552
ounts▁	-9553
scene▁	-9554
treat▁	-9555
Russian	-9556
linked▁	-9557
passes▁	-9558
stories	-9559
arrived▁	-9560
capture▁	-9561
chemist▁	-9562
females▁	-9563
follows▁	-9564
kingdom▁	-9565
soldier▁	-9566
|1999/00	-9567
articles▁	-9568
conductor	-9569
everyone▁	-9570
Byzantine▁	-9571
Interview▁	-9572
condition▁	-9573
convicted▁	-9574
materials▁	-9575
succeeded▁	-9576
||||||||||||	-9577
:#	-9578
Dh	-9579
7).	-9580
Cot	-9581
Gam	-9582
Inv	-9583
Rah	-9584
lag	-9585
mi▁	-9586
ras	-9587
vid	-9588
88,▁	-9589
CEO▁	-9590
Joy▁	-9591
heim	-9592
ico▁	-9593
ious	-9594
term	-9595
ults	-9596
Boliv	-9597
Cold▁	-9598
James	-9599
Thomp	-9600
gene▁	-9601
metal	-9602
mont▁	-9603
neuro	-9604
portr	-9605
zone▁	-9606
Differ	-9607
Family	-9608
Mariti	-9609
Philos	-9610
anese▁	-9611
calls▁	-9612
hotel▁	-9613
result	-9614
Houston	-9615
January	-9616
Julian▁	-9617
Spring▁	-9618
Uruguay	-9619
Windsor	-9620
broken▁	-9621
citizen	-9622
ective▁	-9623
equival	-9624
escape▁	-9625
profile	-9626
similar	-9627
valley▁	-9628
winter▁	-9629
Arizona▁	-9630
Herbert▁	-9631
Kenneth▁	-9632
adapted▁	-9633
cantons▁	-9634
charged▁	-9635
figures▁	-9636
novelist	-9637
quantum▁	-9638
Montreal▁	-9639
academics	-9640
thousand▁	-9641
Following▁	-9642
compounds▁	-9643
continues▁	-9644
correspond	-9645
celebrated▁	-9646
Municipality	-9647
personalities	-9648
PR	-9649
à▁	-9650
12.	-9651
3).	-9652
Aar	-9653
Dim	-9654
Imp	-9655
Isa	-9656
Lay	-9657
Lon	-9658
Mim	-9659
UTC	-9660
Viv	-9661
ele	-9662
fat	-9663
ila	-9664
niv	-9665
oma	-9666
rov	-9667
une	-9668
77,▁	-9669
Are▁	-9670
Gang	-9671
Hugh	-9672
Leop	-9673
Mamm	-9674
Prad	-9675
Site	-9676
dwar	-9677
elf▁	-9678
entr	-9679
eye▁	-9680
hair	-9681
icop	-9682
iji▁	-9683
1895▁	-9684
1908▁	-9685
Again	-9686
Emman	-9687
Hart▁	-9688
INSEE	-9689
Jews▁	-9690
Squad	-9691
arter	-9692
injur	-9693
ises▁	-9694
knew▁	-9695
lose▁	-9696
pair▁	-9697
save▁	-9698
sites	-9699
uble▁	-9700
volum	-9701
1994.▁	-9702
Albums	-9703
Andrew	-9704
fruit▁	-9705
orite▁	-9706
rical▁	-9707
British	-9708
Climate	-9709
Grande▁	-9710
Junior▁	-9711
Virgin▁	-9712
billion	-9713
instruc	-9714
slowly▁	-9715
useful▁	-9716
Chamber▁	-9717
Eleanor▁	-9718
Nicaragu	-9719
alphabet	-9720
tionary▁	-9721
tourist▁	-9722
winners▁	-9723
Broadway▁	-9724
Venezuela	-9725
centuries	-9726
learning▁	-9727
Socialist▁	-9728
chemistry▁	-9729
orchestra▁	-9730
,0	-9731
75	-9732
JS	-9733
MO	-9734
120	-9735
Got	-9736
Jay	-9737
Sty	-9738
few	-9739
fly	-9740
gor	-9741
gri	-9742
jo▁	-9743
ok▁	-9744
8).▁	-9745
86,▁	-9746
Abor	-9747
Abu▁	-9748
Barn	-9749
Cuba	-9750
Isab	-9751
Magn	-9752
Mann	-9753
NBC▁	-9754
Thor	-9755
Toge	-9756
Vend	-9757
Week	-9758
alli	-9759
boil	-9760
eng▁	-9761
eyes	-9762
help	-9763
modi	-9764
uma▁	-9765
wick	-9766
1905▁	-9767
2003.	-9768
Hauts	-9769
Joan▁	-9770
Labor	-9771
Nova▁	-9772
coron	-9773
neutr	-9774
roles	-9775
Cuban▁	-9776
Laura▁	-9777
Opera▁	-9778
Parish	-9779
Saxony	-9780
Those▁	-9781
Uncle▁	-9782
United	-9783
Using▁	-9784
Youth▁	-9785
aking▁	-9786
assemb	-9787
colors	-9788
drugs▁	-9789
inned▁	-9790
itzer▁	-9791
punish	-9792
||7||0	-9793
1988),▁	-9794
Environ	-9795
Giovann	-9796
abbrevi	-9797
endron▁	-9798
powers▁	-9799
scholar	-9800
Airlines	-9801
advertis	-9802
Category▁	-9803
colleges▁	-9804
promoted▁	-9805
villages▁	-9806
Melbourne▁	-9807
champions▁	-9808
depending▁	-9809
personnel▁	-9810
worldwide▁	-9811
Bangladesh▁	-9812
Technology▁	-9813
competition	-9814
kilometres▁	-9815
pronounced▁	-9816
organizations	-9817
Representatives	-9818
%)▁	-9819
EP▁	-9820
Fay	-9821
Fis	-9822
Kaw	-9823
Kun	-9824
Ran	-9825
eri	-9826
oba	-9827
pep	-9828
sa▁	-9829
2011	-9830
2012	-9831
Age▁	-9832
Kang	-9833
Kron	-9834
MPs▁	-9835
Mac▁	-9836
Pand	-9837
Scar	-9838
Schw	-9839
Shaw	-9840
blue	-9841
eggs	-9842
egov	-9843
rule	-9844
warm	-9845
1910▁	-9846
2021.	-9847
Bush▁	-9848
Other	-9849
Site▁	-9850
Space	-9851
Spenc	-9852
acid▁	-9853
annel	-9854
brief	-9855
exact	-9856
hill▁	-9857
honor	-9858
otic▁	-9859
safe▁	-9860
weak▁	-9861
|1993	-9862
1998.▁	-9863
Bridge	-9864
Creek▁	-9865
Norman	-9866
Sites▁	-9867
centen	-9868
chain▁	-9869
chose▁	-9870
compon	-9871
extra▁	-9872
orders	-9873
perfec	-9874
prize▁	-9875
reason	-9876
Denmark	-9877
anyone▁	-9878
marked▁	-9879
Maurice▁	-9880
Movement	-9881
amounts▁	-9882
injured▁	-9883
maximum▁	-9884
sources▁	-9885
talking▁	-9886
Buddhist▁	-9887
Croatian▁	-9888
Michelle▁	-9889
Mountains	-9890
Politics▁	-9891
Yorkshire	-9892
extended▁	-9893
identity▁	-9894
inspired▁	-9895
mountains	-9896
Tennessee▁	-9897
Revolution▁	-9898
programming	-9899
Philippines▁	-9900
66	-9901
CS	-9902
OS	-9903
Yu	-9904
lu	-9905
(09	-9906
159	-9907
42▁	-9908
44▁	-9909
AD▁	-9910
Bry	-9911
Bus	-9912
Hur	-9913
Joy	-9914
Laz	-9915
Tus	-9916
igu	-9917
sew	-9918
Ardè	-9919
eta▁	-9920
spin	-9921
unit	-9922
vote	-9923
1904▁	-9924
Area▁	-9925
Back▁	-9926
Baden	-9927
Cardi	-9928
Kate▁	-9929
Kelly	-9930
Milan	-9931
Nine▁	-9932
Post▁	-9933
Thorn	-9934
ables	-9935
adapt	-9936
asks▁	-9937
atory	-9938
bone▁	-9939
concl	-9940
ering	-9941
glass	-9942
peak▁	-9943
young	-9944
(2004)	-9945
Aisne▁	-9946
Disney	-9947
Girls▁	-9948
Guatem	-9949
league	-9950
portun	-9951
||8||0	-9952
1983),▁	-9953
Action▁	-9954
Bosnia▁	-9955
Forest▁	-9956
Miller▁	-9957
Norway▁	-9958
Online▁	-9959
affect▁	-9960
arrest▁	-9961
courts▁	-9962
kingdom	-9963
officer	-9964
release	-9965
stands▁	-9966
theolog	-9967
Pokémon▁	-9968
Vincent▁	-9969
purpose▁	-9970
soldiers	-9971
strength	-9972
symptoms▁	-9973
wrestlers	-9974
Louisiana▁	-9975
commission	-9976
molecules▁	-9977
permanent▁	-9978
university	-9979
-9	-9980
Mü	-9981
Ye	-9982
39▁	-9983
End	-9984
Gur	-9985
cav	-9986
Leuc	-9987
Men▁	-9988
NWA▁	-9989
Ned▁	-9990
Shad	-9991
aire	-9992
argu	-9993
aut▁	-9994
bar▁	-9995
bin▁	-9996
bond	-9997
cath	-9998
copy	-9999
dish	-10000
enne	-10001
enth	-10002
love	-10003
ores	-10004
ries	-10005
tly▁	-10006
2013)	-10007
Greek	-10008
Shang	-10009
Yokoh	-10010
alleg	-10011
eved▁	-10012
fans▁	-10013
fted▁	-10014
iest▁	-10015
link▁	-10016
table	-10017
utsch	-10018
warm▁	-10019
Rhode▁	-10020
Summer	-10021
anger▁	-10022
expedi	-10023
meets▁	-10024
orbit▁	-10025
ovich▁	-10026
Moscow▁	-10027
Station	-10028
chance▁	-10029
faster▁	-10030
fields▁	-10031
global▁	-10032
height▁	-10033
illing▁	-10034
origin▁	-10035
policy▁	-10036
regions	-10037
suicide	-10038
Colombia	-10039
cricket▁	-10040
perhaps▁	-10041
quality▁	-10042
symbols▁	-10043
Jerusalem	-10044
Wikipedia	-10045
ceremony▁	-10046
explorer▁	-10047
parishes▁	-10048
expensive▁	-10049
passenger▁	-10050
physician▁	-10051
therefore▁	-10052
Description	-10053
nomination▁	-10054
resistance▁	-10055
programming▁	-10056
CP	-10057
ck	-10058
ht	-10059
0.▁	-10060
Eld	-10061
Hus	-10062
Sat	-10063
Vit	-10064
iPh	-10065
mud	-10066
ums	-10067
unt	-10068
81,▁	-10069
Fire	-10070
Guin	-10071
Inst	-10072
Read	-10073
oxid	-10074
rad▁	-10075
||19	-10076
Baham	-10077
Davis	-10078
Just▁	-10079
Marc▁	-10080
Mars▁	-10081
etta▁	-10082
hours	-10083
media	-10084
weigh	-10085
Baron▁	-10086
Oscar▁	-10087
Tower▁	-10088
Voice▁	-10089
breed▁	-10090
chart▁	-10091
eland▁	-10092
hands▁	-10093
ocese▁	-10094
percus	-10095
teeth▁	-10096
turns▁	-10097
wealth	-10098
Claude▁	-10099
Flight▁	-10100
Manuel▁	-10101
Service	-10102
Singles	-10103
Vienna▁	-10104
flying▁	-10105
priest▁	-10106
signal▁	-10107
Dynasty▁	-10108
Festival	-10109
Harvard▁	-10110
Herzegov	-10111
Indiana▁	-10112
Simpson▁	-10113
captain▁	-10114
challeng	-10115
mystery▁	-10116
osaurus▁	-10117
reasons▁	-10118
Colleges▁	-10119
regarded▁	-10120
straight▁	-10121
Hollywood▁	-10122
Indianapol	-10123
electrons▁	-10124
Paralympic▁	-10125
Bangladeshi▁	-10126
documentary▁	-10127
Conservative▁	-10128
biographical▁	-10129
Ji	-10130
NY	-10131
Nô	-10132
gi	-10133
165	-10134
Box	-10135
CD▁	-10136
DVD	-10137
Ein	-10138
Mix	-10139
Sle	-10140
Who	-10141
ax▁	-10142
cum	-10143
eno	-10144
75,▁	-10145
Path	-10146
Vent	-10147
Yank	-10148
agas	-10149
amph	-10150
dram	-10151
een▁	-10152
gay▁	-10153
tax▁	-10154
true	-10155
....▁	-10156
Datab	-10157
aband	-10158
chen▁	-10159
eball	-10160
essor	-10161
ifer▁	-10162
ogue▁	-10163
trees	-10164
tual▁	-10165
(2001)	-10166
1989.▁	-10167
1995,▁	-10168
Auverg	-10169
Beach▁	-10170
Cardin	-10171
Field▁	-10172
accept	-10173
alism▁	-10174
basis▁	-10175
cards▁	-10176
effect	-10177
encour	-10178
factor	-10179
lison▁	-10180
marry▁	-10181
novels	-10182
staff▁	-10183
Boeing▁	-10184
Castle▁	-10185
Google▁	-10186
Julius▁	-10187
Montgom	-10188
Oregon▁	-10189
Perform	-10190
Romans▁	-10191
Suffolk	-10192
adding▁	-10193
patent▁	-10194
peaked▁	-10195
prince▁	-10196
screen▁	-10197
silent▁	-10198
Provence	-10199
content▁	-10200
distingu	-10201
existed▁	-10202
forests▁	-10203
illegal▁	-10204
painters	-10205
reports▁	-10206
require▁	-10207
typical▁	-10208
Aviation▁	-10209
Calvados▁	-10210
Catholics	-10211
Chemical▁	-10212
anything▁	-10213
hundreds▁	-10214
produces▁	-10215
strength▁	-10216
Comedians▁	-10217
direction▁	-10218
suggested▁	-10219
Additional▁	-10220
Volleyball▁	-10221
respectively	-10222
successfully▁	-10223
FC	-10224
KO	-10225
Oz	-10226
Uz	-10227
ât	-10228
és	-10229
•▁	-10230
Ble	-10231
Fif	-10232
Kol	-10233
McC	-10234
Rhy	-10235
Shi	-10236
erg	-10237
ici	-10238
urn	-10239
ypt	-10240
3||3	-10241
Brab	-10242
Lloy	-10243
Lock	-10244
Remi	-10245
Vari	-10246
ardy	-10247
dale	-10248
ika▁	-10249
mud▁	-10250
outl	-10251
sta▁	-10252
turn	-10253
1903▁	-10254
2000.	-10255
2001.	-10256
Alban	-10257
Glasg	-10258
Mahar	-10259
Twin▁	-10260
Very▁	-10261
aspec	-10262
boss▁	-10263
fair▁	-10264
idad▁	-10265
inaug	-10266
inher	-10267
sleep	-10268
tube▁	-10269
(1994)	-10270
(1998)	-10271
(2003)	-10272
1998,▁	-10273
Punjab	-10274
Shakes	-10275
esses▁	-10276
joins▁	-10277
retire	-10278
strugg	-10279
usive▁	-10280
||7||1	-10281
Agricul	-10282
Armenia	-10283
Louise▁	-10284
Oliver▁	-10285
killer▁	-10286
rapper▁	-10287
stroke▁	-10288
Construc	-10289
Internet	-10290
Sardinia	-10291
Shakespe	-10292
Working▁	-10293
contribu	-10294
lington▁	-10295
trained▁	-10296
Animated▁	-10297
Cultural▁	-10298
Historic▁	-10299
Saturday▁	-10300
assigned▁	-10301
believes▁	-10302
discrimin	-10303
executed▁	-10304
shooting▁	-10305
Christians	-10306
dangerous▁	-10307
electoral▁	-10308
evolution▁	-10309
involving▁	-10310
containing▁	-10311
identified▁	-10312
broadcasters	-10313
Kō	-10314
->▁	-10315
Cad	-10316
Hir	-10317
Kos	-10318
Low	-10319
Pep	-10320
WWE	-10321
abs	-10322
amo	-10323
bol	-10324
ote	-10325
oy▁	-10326
wig	-10327
wit	-10328
ín▁	-10329
2005	-10330
2015	-10331
79,▁	-10332
Chel	-10333
Hein	-10334
Jay▁	-10335
Shah	-10336
Vern	-10337
deal	-10338
egg▁	-10339
oba▁	-10340
porn	-10341
skel	-10342
Camp▁	-10343
Citiz	-10344
Iron▁	-10345
Ivan▁	-10346
Scott	-10347
Tibet	-10348
crime	-10349
evolv	-10350
ingen	-10351
units	-10352
uoka▁	-10353
veter	-10354
Aborig	-10355
Leucad	-10356
Miller	-10357
Somme▁	-10358
centre	-10359
fired▁	-10360
happy▁	-10361
steel▁	-10362
Animal▁	-10363
armies▁	-10364
autonom	-10365
counter	-10366
critic▁	-10367
doctor▁	-10368
guilty▁	-10369
husband	-10370
ination	-10371
phrase▁	-10372
rocket▁	-10373
thinks▁	-10374
Actress▁	-10375
classic▁	-10376
helping▁	-10377
measure▁	-10378
Committee	-10379
iversary▁	-10380
occupied▁	-10381
presenter	-10382
Background	-10383
knowledge▁	-10384
ministers▁	-10385
sentenced▁	-10386
Adventures▁	-10387
popularity▁	-10388
Constitution	-10389
continental▁	-10390
Commissioner▁	-10391
Leucadendron▁	-10392
southeastern▁	-10393
59	-10394
Det	-10395
Lot	-10396
Mrs	-10397
Utt	-10398
eye	-10399
ips	-10400
lie	-10401
2004	-10402
ABC▁	-10403
Bomb	-10404
Elli	-10405
Page	-10406
Poly	-10407
ema▁	-10408
fold	-10409
hypo	-10410
ives	-10411
oor▁	-10412
oul▁	-10413
pist	-10414
seat	-10415
sist	-10416
sun▁	-10417
Soul▁	-10418
Treas	-10419
doesn	-10420
funer	-10421
ooth▁	-10422
rail▁	-10423
soul▁	-10424
strip	-10425
wich▁	-10426
wild▁	-10427
(2002)	-10428
Austin	-10429
Geneva	-10430
assic▁	-10431
chemic	-10432
cross▁	-10433
magnit	-10434
report	-10435
Cooper▁	-10436
Kennedy	-10437
Sultan▁	-10438
claims▁	-10439
throne▁	-10440
twelve▁	-10441
Astronom	-10442
collabor	-10443
cyclone▁	-10444
exactly▁	-10445
improve▁	-10446
library▁	-10447
overall▁	-10448
portion▁	-10449
pressed▁	-10450
Orchestra	-10451
Wrestling	-10452
Baltimore▁	-10453
Commander▁	-10454
organisms▁	-10455
presenters	-10456
urricanes▁	-10457
Prefecture▁	-10458
settlement▁	-10459
transgender▁	-10460
Edu	-10461
Tic	-10462
aph	-10463
gam	-10464
pir	-10465
tac	-10466
1997	-10467
80,▁	-10468
9||3	-10469
Jon▁	-10470
Mind	-10471
Sick	-10472
Suic	-10473
aren	-10474
aza▁	-10475
crop	-10476
eton	-10477
five	-10478
imag	-10479
onic	-10480
otam	-10481
spar	-10482
unt▁	-10483
1926)	-10484
2006)	-10485
Abdul	-10486
Aisne	-10487
Aubin	-10488
Baby▁	-10489
Hebre	-10490
Jesus	-10491
Male▁	-10492
Picar	-10493
Scoti	-10494
Somme	-10495
Unter	-10496
arian	-10497
chron	-10498
drew▁	-10499
label	-10500
lock▁	-10501
pengu	-10502
rejec	-10503
thin▁	-10504
1993,▁	-10505
1995.▁	-10506
1996.▁	-10507
Bryan▁	-10508
Mongol	-10509
Palace	-10510
Small▁	-10511
ancest	-10512
ateur▁	-10513
audio▁	-10514
crash▁	-10515
eller▁	-10516
forces	-10517
future	-10518
object	-10519
Morgan▁	-10520
ephone▁	-10521
reasons	-10522
unknown	-10523
Defense▁	-10524
massive▁	-10525
refused▁	-10526
remember	-10527
seventh▁	-10528
Picardie▁	-10529
category▁	-10530
officers▁	-10531
Electoral▁	-10532
manufactur	-10533
astronomer▁	-10534
passengers▁	-10535
prefecture▁	-10536
Lamborghini▁	-10537
territories▁	-10538
Professional▁	-10539
conservative▁	-10540
0-	-10541
Gw	-10542
NE	-10543
py	-10544
11)	-10545
49▁	-10546
Coh	-10547
Kid	-10548
Mom	-10549
Rat	-10550
Tul	-10551
Wea	-10552
Yos	-10553
aco	-10554
ees	-10555
had	-10556
ods	-10557
qui	-10558
ère	-10559
(185	-10560
1998	-10561
5||3	-10562
74,▁	-10563
Apol	-10564
Conc	-10565
Crow	-10566
Due▁	-10567
Foot	-10568
Lear	-10569
Ten▁	-10570
USD▁	-10571
ampl	-10572
ancy	-10573
bell	-10574
cris	-10575
dit▁	-10576
feld	-10577
hip▁	-10578
itor	-10579
ont▁	-10580
org▁	-10581
shir	-10582
shut	-10583
urb▁	-10584
1000▁	-10585
2007)	-10586
Extre	-10587
Iraq▁	-10588
Lanka	-10589
Miami	-10590
There	-10591
camp▁	-10592
dimen	-10593
door▁	-10594
draw▁	-10595
large	-10596
solid	-10597
(1999)	-10598
(2011)	-10599
Bobby▁	-10600
Forest	-10601
Keith▁	-10602
Munich	-10603
Nevada	-10604
Projec	-10605
Trump▁	-10606
apart▁	-10607
doctor	-10608
dollar	-10609
males▁	-10610
obtain	-10611
ossil▁	-10612
poison	-10613
recipi	-10614
roads▁	-10615
rural▁	-10616
sister	-10617
Arabic▁	-10618
Arnold▁	-10619
Galaxy▁	-10620
Richard	-10621
Square▁	-10622
burned▁	-10623
discuss	-10624
distinc	-10625
episode	-10626
ficial▁	-10627
filmmak	-10628
losing▁	-10629
profit▁	-10630
sitcom▁	-10631
Brooklyn	-10632
Buffalo▁	-10633
Denmark▁	-10634
Duchess▁	-10635
November	-10636
Profile▁	-10637
Project▁	-10638
doctors▁	-10639
however▁	-10640
profile▁	-10641
tension▁	-10642
weapons▁	-10643
Hamilton▁	-10644
invasion▁	-10645
novelists	-10646
supposed▁	-10647
engineering	-10648
literature▁	-10649
parliament▁	-10650
||0||0||0||1	-10651
AT	-10652
Ax	-10653
FB	-10654
eh	-10655
ku	-10656
156	-10657
9).	-10658
Bru	-10659
Map	-10660
Pel	-10661
Was	-10662
aj▁	-10663
anx	-10664
aya	-10665
etz	-10666
kov	-10667
oke	-10668
pub	-10669
shr	-10670
2002	-10671
93,▁	-10672
Auth	-10673
Gran	-10674
Hans	-10675
Lion	-10676
Mans	-10677
Pied	-10678
Rick	-10679
aid▁	-10680
clar	-10681
fit▁	-10682
zed▁	-10683
5–200	-10684
Activ	-10685
Aires	-10686
Hugh▁	-10687
Hyde▁	-10688
Lost▁	-10689
Luke▁	-10690
Nucle	-10691
Works	-10692
beach	-10693
bill▁	-10694
ging▁	-10695
hole▁	-10696
puts▁	-10697
rape▁	-10698
sing▁	-10699
stret	-10700
tall▁	-10701
ually	-10702
George	-10703
Nancy▁	-10704
Screen	-10705
Terry▁	-10706
Westph	-10707
archae	-10708
arians	-10709
banks▁	-10710
eless▁	-10711
legend	-10712
price▁	-10713
queen▁	-10714
valley	-10715
youth▁	-10716
10,000▁	-10717
Nigeria	-10718
Reagan▁	-10719
belong▁	-10720
colony▁	-10721
eighth▁	-10722
launch▁	-10723
throat▁	-10724
Private▁	-10725
Without▁	-10726
athlete▁	-10727
command▁	-10728
governor	-10729
illness▁	-10730
victory▁	-10731
incumbent	-10732
medicine▁	-10733
medieval▁	-10734
scientist	-10735
Cambridge▁	-10736
conquered▁	-10737
defensive▁	-10738
philosopher	-10739
appearances▁	-10740
organization	-10741
'.	-10742
--▁	-10743
Ara	-10744
Bun	-10745
Six	-10746
adj	-10747
fit	-10748
ico	-10749
ils	-10750
-20▁	-10751
92,▁	-10752
Ages	-10753
Arts	-10754
Bass	-10755
Cass	-10756
Danc	-10757
Elev	-10758
Far▁	-10759
Ferg	-10760
Floy	-10761
Latv	-10762
Mend	-10763
Shin	-10764
Tang	-10765
aco▁	-10766
avir	-10767
eign	-10768
emen	-10769
iana	-10770
infl	-10771
inth	-10772
osa▁	-10773
raph	-10774
Attor	-10775
Bond▁	-10776
Force	-10777
Frogs	-10778
Jazz▁	-10779
Marri	-10780
Moroc	-10781
Osaka	-10782
Retri	-10783
Schol	-10784
Taipe	-10785
Templ	-10786
anks▁	-10787
fight	-10788
hall▁	-10789
opera	-10790
partn	-10791
third	-10792
tons▁	-10793
wore▁	-10794
(2009)	-10795
1992,▁	-10796
Aberde	-10797
Ellen▁	-10798
Hardy▁	-10799
Villa▁	-10800
asters	-10801
expres	-10802
gather	-10803
guard▁	-10804
hosts▁	-10805
nomine	-10806
osaur▁	-10807
outer▁	-10808
rapper	-10809
sized▁	-10810
slave▁	-10811
spirit	-10812
Jackie▁	-10813
Mother▁	-10814
Number▁	-10815
Saturn▁	-10816
Sunday▁	-10817
Triple▁	-10818
choice▁	-10819
crimes▁	-10820
descent	-10821
thetic▁	-10822
|1998/9	-10823
Abraham▁	-10824
Empress▁	-10825
classes▁	-10826
critics▁	-10827
designer	-10828
erences▁	-10829
extinct▁	-10830
granted▁	-10831
Broadcast	-10832
Giovanni▁	-10833
Hercules▁	-10834
Sometimes	-10835
Symphony▁	-10836
capacity▁	-10837
measured▁	-10838
orchestra	-10839
Cleveland▁	-10840
authority▁	-10841
computers▁	-10842
converted▁	-10843
prisoners▁	-10844
producers▁	-10845
producing▁	-10846
resulting▁	-10847
Interstate▁	-10848
Literature▁	-10849
properties▁	-10850
relatively▁	-10851
spacecraft▁	-10852
Czechoslovak	-10853
environment▁	-10854
instruments▁	-10855
recognition▁	-10856
Cardiovascular▁	-10857
BS	-10858
EF	-10859
IC	-10860
Lé	-10861
oe	-10862
wo	-10863
ó▁	-10864
(3▁	-10865
500	-10866
92.	-10867
Ant	-10868
Cli	-10869
Sug	-10870
Tod	-10871
elt	-10872
jun	-10873
ora	-10874
ved	-10875
2||4	-10876
Cric	-10877
Guy▁	-10878
Ted▁	-10879
bush	-10880
ebra	-10881
kind	-10882
mill	-10883
ooth	-10884
reci	-10885
ska▁	-10886
1897▁	-10887
1899▁	-10888
1906▁	-10889
2017)	-10890
Band▁	-10891
Greg▁	-10892
Hindu	-10893
Milli	-10894
Neigh	-10895
Physi	-10896
Tradi	-10897
abad▁	-10898
baby▁	-10899
benef	-10900
dolph	-10901
horiz	-10902
itus▁	-10903
ours▁	-10904
poem▁	-10905
rell▁	-10906
rett▁	-10907
sets▁	-10908
wrong	-10909
(1991)	-10910
(2000)	-10911
1993.▁	-10912
Corps▁	-10913
Helen▁	-10914
Short▁	-10915
Wonder	-10916
acker▁	-10917
breath	-10918
compil	-10919
elect▁	-10920
seems▁	-10921
speech	-10922
Cumbria	-10923
Dynasty	-10924
Justin▁	-10925
Quebec▁	-10926
Renaiss	-10927
Syrian▁	-10928
William	-10929
copper▁	-10930
failed▁	-10931
headed▁	-10932
offers▁	-10933
storms▁	-10934
tested▁	-10935
writes▁	-10936
Catholic	-10937
Director	-10938
Montreal	-10939
focused▁	-10940
scholar▁	-10941
traffic▁	-10942
Brothers▁	-10943
Champion▁	-10944
Therefore	-10945
astronaut	-10946
attached▁	-10947
Aquitaine▁	-10948
Different▁	-10949
Roosevelt▁	-10950
indigenous▁	-10951
1||0||0||0||0	-10952
Administration	-10953
Revolutionary▁	-10954
IR	-10955
hl	-10956
→▁	-10957
#1▁	-10958
(2▁	-10959
300	-10960
Blo	-10961
Dix	-10962
Put	-10963
Ves	-10964
aca	-10965
aga	-10966
fra	-10967
zi▁	-10968
én▁	-10969
6;"▁	-10970
Beau	-10971
Head	-10972
Name	-10973
Orlé	-10974
base	-10975
carr	-10976
isol	-10977
poss	-10978
Jose▁	-10979
Lewis	-10980
Serge	-10981
Titan	-10982
ases▁	-10983
brain	-10984
elder	-10985
ello▁	-10986
piano	-10987
step▁	-10988
ucks▁	-10989
1992.▁	-10990
Books▁	-10991
Iraqi▁	-10992
Judge▁	-10993
Slovak	-10994
Works▁	-10995
column	-10996
false▁	-10997
ically	-10998
locomo	-10999
races▁	-11000
virus▁	-11001
1982),▁	-11002
1987),▁	-11003
Honours	-11004
Springs	-11005
acceler	-11006
arding▁	-11007
atomic▁	-11008
colour▁	-11009
destruc	-11010
solute▁	-11011
village	-11012
volume▁	-11013
weather	-11014
|2006||	-11015
Assembly	-11016
Fantasy▁	-11017
Players▁	-11018
Rolling▁	-11019
Wilhelm▁	-11020
degrees▁	-11021
goalkeep	-11022
imprison	-11023
partner▁	-11024
products	-11025
stomach▁	-11026
Jennifer▁	-11027
allowing▁	-11028
direction	-11029
exchange▁	-11030
internal▁	-11031
suggests▁	-11032
Ferdinand▁	-11033
Jefferson▁	-11034
functions▁	-11035
residents▁	-11036
Collection▁	-11037
Opposition▁	-11038
definition▁	-11039
graduating▁	-11040
kilometers▁	-11041
Bibliography	-11042
Christianity	-11043
Fu	-11044
(14	-11045
1%▁	-11046
65▁	-11047
Blu	-11048
KDO	-11049
Tyr	-11050
bay	-11051
oxy	-11052
pip	-11053
Cand	-11054
Edin	-11055
Elis	-11056
Fred	-11057
Lomb	-11058
Pack	-11059
Peri	-11060
aud▁	-11061
bird	-11062
coll	-11063
enzy	-11064
oda▁	-11065
shel	-11066
surr	-11067
uter	-11068
vin▁	-11069
1902▁	-11070
Faceb	-11071
Heart	-11072
Lisa▁	-11073
Rhône	-11074
Rick▁	-11075
Shah▁	-11076
Short	-11077
Start	-11078
Wind▁	-11079
alem▁	-11080
alone	-11081
asha▁	-11082
aver▁	-11083
chair	-11084
codes	-11085
file▁	-11086
frey▁	-11087
navig	-11088
oted▁	-11089
sters	-11090
tail▁	-11091
terms	-11092
unda▁	-11093
walk▁	-11094
Centre	-11095
Cooper	-11096
Labor▁	-11097
Marath	-11098
Types▁	-11099
Urban▁	-11100
autobi	-11101
better	-11102
marks▁	-11103
plate▁	-11104
points	-11105
1968),▁	-11106
Career▁	-11107
Ethnic▁	-11108
eating▁	-11109
objects	-11110
ocaust▁	-11111
require	-11112
Muslims▁	-11113
Wallace▁	-11114
fielder▁	-11115
interpre	-11116
martial▁	-11117
services	-11118
vehicle▁	-11119
violent▁	-11120
wearing▁	-11121
Pulitzer▁	-11122
advanced▁	-11123
colonial▁	-11124
keyboards	-11125
neighbour	-11126
newspaper	-11127
ologists▁	-11128
provinces	-11129
residents	-11130
resulted▁	-11131
violence▁	-11132
Bulgarian▁	-11133
Jerusalem▁	-11134
Luxembourg	-11135
Technical▁	-11136
economist▁	-11137
secondary▁	-11138
Christians▁	-11139
educational▁	-11140
governments▁	-11141
mathematical▁	-11142
organisation▁	-11143
precipitation▁	-11144
04	-11145
79	-11146
AI	-11147
TO	-11148
än	-11149
ét	-11150
..▁	-11151
Add	-11152
Da▁	-11153
Gan	-11154
Sey	-11155
Tyl	-11156
alk	-11157
eor	-11158
mas	-11159
ogn	-11160
uce	-11161
uni	-11162
vin	-11163
2003	-11164
78,▁	-11165
800▁	-11166
82,▁	-11167
9||0	-11168
Bail	-11169
Bran	-11170
Clay	-11171
Dog▁	-11172
Fost	-11173
Get▁	-11174
Hero	-11175
Proc	-11176
Zamb	-11177
data	-11178
fear	-11179
laws	-11180
lyn▁	-11181
map▁	-11182
moon	-11183
mph▁	-11184
2008)	-11185
Arsen	-11186
Bull▁	-11187
Days▁	-11188
Moon▁	-11189
Pengu	-11190
Wolf▁	-11191
advoc	-11192
ager▁	-11193
analy	-11194
farm▁	-11195
hear▁	-11196
hurt▁	-11197
ichi▁	-11198
legs▁	-11199
plane	-11200
rose▁	-11201
studi	-11202
tune▁	-11203
ument	-11204
1,000▁	-11205
1984.▁	-11206
1990.▁	-11207
Alpes▁	-11208
Chess▁	-11209
Daily▁	-11210
Franz▁	-11211
Islam▁	-11212
Susan▁	-11213
ention	-11214
floor▁	-11215
idence	-11216
itals▁	-11217
motor▁	-11218
nature	-11219
qualif	-11220
||6||1	-11221
1984),▁	-11222
Academy	-11223
Ernest▁	-11224
Female▁	-11225
Network	-11226
discipl	-11227
meaning	-11228
poetry▁	-11229
thrown▁	-11230
weapon▁	-11231
División	-11232
activity	-11233
fishing▁	-11234
formula▁	-11235
keeping▁	-11236
mixture▁	-11237
reaches▁	-11238
unknown▁	-11239
Complete▁	-11240
Lebanese▁	-11241
Vladimir▁	-11242
locality▁	-11243
novelist▁	-11244
sentence▁	-11245
studying▁	-11246
Retrieved▁	-11247
officials▁	-11248
principal▁	-11249
satellite▁	-11250
philosophy▁	-11251
protection▁	-11252
Corporation▁	-11253
combination▁	-11254
88	-11255
ua	-11256
ı▁	-11257
а▁	-11258
10)	-11259
Hat	-11260
Hin	-11261
Ish	-11262
Kap	-11263
Kil	-11264
Nas	-11265
Wes	-11266
edo	-11267
een	-11268
kes	-11269
lob	-11270
sev	-11271
tap	-11272
Chan	-11273
Figh	-11274
Hook	-11275
Nept	-11276
bert	-11277
disp	-11278
ewor	-11279
fix▁	-11280
kan▁	-11281
mic▁	-11282
nor▁	-11283
unci	-11284
vibr	-11285
2020)	-11286
Admir	-11287
Born▁	-11288
Cambo	-11289
Cruz▁	-11290
Maxim	-11291
acle▁	-11292
dorf▁	-11293
eleph	-11294
fuel▁	-11295
gate▁	-11296
itor▁	-11297
mart▁	-11298
meat▁	-11299
note▁	-11300
oppon	-11301
pleas	-11302
pole▁	-11303
rely▁	-11304
scrap	-11305
spot▁	-11306
|1991	-11307
1988,▁	-11308
Berkel	-11309
Child▁	-11310
Emily▁	-11311
Guardi	-11312
Jordan	-11313
Lorenz	-11314
Moore▁	-11315
Shangh	-11316
ected▁	-11317
flies▁	-11318
houses	-11319
regist	-11320
spoke▁	-11321
statis	-11322
1955),▁	-11323
1989),▁	-11324
Global▁	-11325
Queens▁	-11326
Stuart▁	-11327
Trophy▁	-11328
camera▁	-11329
dynasty	-11330
lowest▁	-11331
matches	-11332
rarely▁	-11333
runner▁	-11334
ternal▁	-11335
unable▁	-11336
waters▁	-11337
December	-11338
Lawrence	-11339
Politics	-11340
airline▁	-11341
coastal▁	-11342
destroy▁	-11343
electron	-11344
Amsterdam	-11345
Anderson▁	-11346
Philippe▁	-11347
breaking▁	-11348
relative▁	-11349
Holocaust▁	-11350
Nuremberg▁	-11351
ification▁	-11352
reference▁	-11353
tradition▁	-11354
Pittsburgh▁	-11355
arrondissements▁	-11356
06	-11357
1:	-11358
42	-11359
NO	-11360
SR	-11361
ár	-11362
90.	-11363
Eff	-11364
Gul	-11365
Had	-11366
Hog	-11367
Nok	-11368
Obl	-11369
Tag	-11370
aro	-11371
bis	-11372
coc	-11373
uk▁	-11374
Carr	-11375
Cret	-11376
Eve▁	-11377
Gulf	-11378
Sind	-11379
Toul	-11380
eras	-11381
fan▁	-11382
folk	-11383
heat	-11384
nest	-11385
née▁	-11386
rand	-11387
rice	-11388
suit	-11389
type	-11390
wig▁	-11391
1892▁	-11392
1896▁	-11393
1–200	-11394
2004.	-11395
Anglo	-11396
Antar	-11397
Babyl	-11398
Bowl▁	-11399
IPCC▁	-11400
Jacob	-11401
Sebas	-11402
antin	-11403
below	-11404
cats▁	-11405
cles▁	-11406
coat▁	-11407
expan	-11408
gain▁	-11409
gone▁	-11410
ideas	-11411
onne▁	-11412
sees▁	-11413
speed	-11414
trial	-11415
wheel	-11416
while	-11417
(1993)	-11418
1991,▁	-11419
Dream▁	-11420
Harris	-11421
Polish	-11422
Right▁	-11423
active	-11424
extinc	-11425
finals	-11426
homes▁	-11427
poems▁	-11428
police	-11429
recomm	-11430
Benedic	-11431
Current	-11432
Energy▁	-11433
Harvey▁	-11434
Results	-11435
breaks▁	-11436
library	-11437
models▁	-11438
partly▁	-11439
pattern	-11440
reduce▁	-11441
stones▁	-11442
target▁	-11443
Nuclear▁	-11444
amental▁	-11445
constell	-11446
Theodore▁	-11447
arranged▁	-11448
organisms	-11449
parallel▁	-11450
possibly▁	-11451
requires▁	-11452
visitors▁	-11453
attempted▁	-11454
collected▁	-11455
decisions▁	-11456
Chancellor▁	-11457
Electronic▁	-11458
communities	-11459
performance	-11460
supporting▁	-11461
immediately▁	-11462
individuals▁	-11463
progressive▁	-11464
translation▁	-11465
AC	-11466
LE	-11467
RO	-11468
cm	-11469
51▁	-11470
83.	-11471
BAF	-11472
Bil	-11473
Gol	-11474
Pay	-11475
UN▁	-11476
Ura	-11477
Yas	-11478
eli	-11479
gra	-11480
hag	-11481
ize	-11482
lia	-11483
neb	-11484
pig	-11485
tab	-11486
vul	-11487
6||3	-11488
Bhag	-11489
Cypr	-11490
Girl	-11491
Rico	-11492
bet▁	-11493
bie▁	-11494
bow▁	-11495
else	-11496
eno▁	-11497
fied	-11498
fung	-11499
idel	-11500
ido▁	-11501
isph	-11502
loss	-11503
omer	-11504
scop	-11505
ses▁	-11506
skin	-11507
tend	-11508
tip▁	-11509
1925)	-11510
1928)	-11511
Break	-11512
Hills	-11513
Human	-11514
Hutch	-11515
ISIS▁	-11516
Nutt▁	-11517
Palat	-11518
Rose▁	-11519
Softw	-11520
Vishn	-11521
divis	-11522
minor	-11523
ores▁	-11524
thern	-11525
(1997)	-11526
Julie▁	-11527
Nickel	-11528
Stars▁	-11529
Tasman	-11530
alone▁	-11531
catch▁	-11532
liver▁	-11533
meters	-11534
models	-11535
offer▁	-11536
sters▁	-11537
thick▁	-11538
tives▁	-11539
transi	-11540
1985),▁	-11541
Austin▁	-11542
Culture	-11543
Fribour	-11544
Program	-11545
Rangers	-11546
lyrics▁	-11547
problem	-11548
string▁	-11549
suburb▁	-11550
|1996/9	-11551
|2001||	-11552
Alberto▁	-11553
Anderson	-11554
Calvados	-11555
Gabriel▁	-11556
diplomat	-11557
invited▁	-11558
joining▁	-11559
planets▁	-11560
Greatest▁	-11561
Marshall▁	-11562
bordered▁	-11563
educators	-11564
interview	-11565
politics▁	-11566
territory	-11567
Colombian▁	-11568
Orchestra▁	-11569
Paramount▁	-11570
committee▁	-11571
directors▁	-11572
paintings▁	-11573
terrorist▁	-11574
instruments	-11575
Organization▁	-11576
NC	-11577
RS	-11578
RT	-11579
Aer	-11580
Coc	-11581
Elv	-11582
Mam	-11583
Nad	-11584
Nou	-11585
aku	-11586
iny	-11587
ith	-11588
pap	-11589
ph▁	-11590
pm▁	-11591
say	-11592
1).▁	-11593
7||3	-11594
Brus	-11595
ECW▁	-11596
Flem	-11597
Half	-11598
Indo	-11599
Köpp	-11600
Mean	-11601
Nash	-11602
Rein	-11603
Rest	-11604
Shep	-11605
Wend	-11606
abad	-11607
dogs	-11608
icon	-11609
lung	-11610
mini	-11611
ras▁	-11612
seud	-11613
sper	-11614
spy▁	-11615
trig	-11616
ttem	-11617
unte	-11618
7–200	-11619
Côte▁	-11620
Syria	-11621
ately	-11622
dian▁	-11623
drugs	-11624
films	-11625
mind▁	-11626
otes▁	-11627
pound	-11628
risk▁	-11629
trump	-11630
usion	-11631
(2010)	-11632
Album▁	-11633
Atlas▁	-11634
Getty▁	-11635
Johann	-11636
Suppor	-11637
Valenc	-11638
agent▁	-11639
hired▁	-11640
issues	-11641
logic▁	-11642
restle	-11643
twenty	-11644
weight	-11645
||8||1	-11646
Arctic▁	-11647
Pradesh	-11648
Science	-11649
Taiwan▁	-11650
Tournam	-11651
YouTube	-11652
belief▁	-11653
chromos	-11654
complex	-11655
complic	-11656
dating▁	-11657
drivers	-11658
flower▁	-11659
forests	-11660
ranges▁	-11661
records	-11662
remain▁	-11663
review▁	-11664
supply▁	-11665
twenty▁	-11666
|1997/9	-11667
Blackhaw	-11668
Chapter▁	-11669
Crystal▁	-11670
Flanders	-11671
Sherman▁	-11672
address▁	-11673
drafted▁	-11674
opportun	-11675
passing▁	-11676
politics	-11677
promote▁	-11678
slavery▁	-11679
Stockholm	-11680
alphabet▁	-11681
anthropol	-11682
controls▁	-11683
credited▁	-11684
existing▁	-11685
movements	-11686
ographer▁	-11687
particle▁	-11688
pictures▁	-11689
question▁	-11690
Classical▁	-11691
Friedrich▁	-11692
composers▁	-11693
oxidation▁	-11694
prominent▁	-11695
Aboriginal▁	-11696
consisting▁	-11697
mathematician	-11698
environmental▁	-11699
unincorporated▁	-11700
ME	-11701
Zü	-11702
mm	-11703
ín	-11704
CDP	-11705
Guy	-11706
Lac	-11707
Old	-11708
ao▁	-11709
avo	-11710
kan	-11711
pra	-11712
tum	-11713
uri	-11714
utt	-11715
és▁	-11716
Bish	-11717
Dick	-11718
Line	-11719
Math	-11720
RNA▁	-11721
Vice	-11722
auke	-11723
boys	-11724
carb	-11725
code	-11726
infr	-11727
kidn	-11728
lav▁	-11729
otyp	-11730
1882▁	-11731
April	-11732
Basse	-11733
Britt	-11734
Campa	-11735
Coast	-11736
Dream	-11737
Idaho	-11738
Laure	-11739
Occit	-11740
Perug	-11741
Soldi	-11742
Soon▁	-11743
Such▁	-11744
Zeus▁	-11745
alia▁	-11746
arsen	-11747
catch	-11748
cryst	-11749
iller	-11750
theor	-11751
visa▁	-11752
1979,▁	-11753
2022)▁	-11754
BAFTA▁	-11755
Craig▁	-11756
Henri▁	-11757
Lists▁	-11758
Maple▁	-11759
Saturn	-11760
approv	-11761
earth▁	-11762
eased▁	-11763
guide▁	-11764
shore▁	-11765
winter	-11766
1956),▁	-11767
Cretace	-11768
Willie▁	-11769
Württem	-11770
climate	-11771
cousin▁	-11772
economy	-11773
idency▁	-11774
lawyers	-11775
osaurs▁	-11776
|2008||	-11777
100,000▁	-11778
Bulgaria	-11779
Hamilton	-11780
Journal▁	-11781
Regions▁	-11782
Release▁	-11783
Seattle▁	-11784
Stewart▁	-11785
Ukraine▁	-11786
factory▁	-11787
falling▁	-11788
keyboard	-11789
liberal▁	-11790
logical▁	-11791
minister	-11792
mountain	-11793
possible	-11794
returns▁	-11795
shortly▁	-11796
specific	-11797
tically▁	-11798
Harrison▁	-11799
architect	-11800
churches▁	-11801
constant▁	-11802
critical▁	-11803
destroyed	-11804
executive	-11805
festival▁	-11806
platform▁	-11807
reaching▁	-11808
Amendment▁	-11809
Kurdistan▁	-11810
Queensland	-11811
movements▁	-11812
development	-11813
underground▁	-11814
Christianity▁	-11815
Unincorporated▁	-11816
89	-11817
Ic	-11818
Iw	-11819
Lt	-11820
ès	-11821
(68	-11822
Rab	-11823
gol	-11824
je▁	-11825
jum	-11826
oft	-11827
onc	-11828
3).▁	-11829
Bath	-11830
Chal	-11831
Das▁	-11832
Dead	-11833
Dest	-11834
Ladi	-11835
Shre	-11836
Stri	-11837
att▁	-11838
chro	-11839
ders	-11840
emia	-11841
enom	-11842
flat	-11843
hill	-11844
ipel	-11845
lake	-11846
rez▁	-11847
scar	-11848
sson	-11849
1863▁	-11850
1909▁	-11851
Fall▁	-11852
Films	-11853
Gene▁	-11854
Sony▁	-11855
aven▁	-11856
brand	-11857
cards	-11858
clean	-11859
fine▁	-11860
jobs▁	-11861
milk▁	-11862
ockey	-11863
oria▁	-11864
regim	-11865
satis	-11866
Alpha▁	-11867
Comics	-11868
Design	-11869
McCart	-11870
Monte▁	-11871
Route▁	-11872
Songs▁	-11873
adors▁	-11874
kings▁	-11875
opened	-11876
ration	-11877
spring	-11878
sweet▁	-11879
tower▁	-11880
yellow	-11881
Others▁	-11882
Planet▁	-11883
Spirit▁	-11884
Wrestle	-11885
Yellow▁	-11886
endings	-11887
helicop	-11888
proper▁	-11889
rescue▁	-11890
Baldwin▁	-11891
Clinton▁	-11892
Cornell▁	-11893
Phoenix▁	-11894
crowned▁	-11895
features	-11896
medicine	-11897
nothing▁	-11898
occasion	-11899
psychiat	-11900
tallest▁	-11901
Hollywood	-11902
Nickelode	-11903
Proposed▁	-11904
audience▁	-11905
diplomat▁	-11906
survived▁	-11907
Federation	-11908
centuries▁	-11909
effective▁	-11910
magnitude▁	-11911
surviving▁	-11912
instrument▁	-11913
||0||3||0||	-11914
engineering▁	-11915
classification	-11916
()	-11917
MC	-11918
Oh	-11919
añ	-11920
(46	-11921
(8▁	-11922
164	-11923
Ces	-11924
Haz	-11925
Lec	-11926
MEP	-11927
Mou	-11928
Neu	-11929
Pod	-11930
Roh	-11931
Sad	-11932
alu	-11933
arl	-11934
dub	-11935
lan	-11936
po▁	-11937
sey	-11938
(12▁	-11939
1975	-11940
2018	-11941
Brah	-11942
Cauc	-11943
Duch	-11944
Gand	-11945
Note	-11946
Sunn	-11947
Wyom	-11948
ark▁	-11949
ebri	-11950
grad	-11951
icks	-11952
junc	-11953
plas	-11954
rel▁	-11955
ros▁	-11956
rows	-11957
1864▁	-11958
1898▁	-11959
1924)	-11960
1927)	-11961
2012)	-11962
3–199	-11963
Cinem	-11964
Cook▁	-11965
First	-11966
Geoff	-11967
Girls	-11968
Gray▁	-11969
Lion▁	-11970
Reich	-11971
Warri	-11972
ario▁	-11973
crew▁	-11974
edly▁	-11975
ended	-11976
final	-11977
horn▁	-11978
inhab	-11979
injec	-11980
inum▁	-11981
parti	-11982
treas	-11983
wauke	-11984
Aaron▁	-11985
Altern	-11986
Batman	-11987
Birds▁	-11988
Brunsw	-11989
Clark▁	-11990
Fergus	-11991
Front▁	-11992
Guinea	-11993
Health	-11994
Hotel▁	-11995
Luigi▁	-11996
Termin	-11997
Urawa▁	-11998
berry▁	-11999
butter	-12000
cannab	-12001
contem	-12002
enberg	-12003
goods▁	-12004
ingly▁	-12005
naval▁	-12006
orian▁	-12007
parks▁	-12008
raped▁	-12009
status	-12010
steam▁	-12011
toxic▁	-12012
ulate▁	-12013
wheel▁	-12014
1981),▁	-12015
Artist▁	-12016
Friday▁	-12017
Miguel▁	-12018
Walker▁	-12019
effects	-12020
iPhone▁	-12021
mammals	-12022
prelate	-12023
ruling▁	-12024
visual▁	-12025
weapons	-12026
Intellig	-12027
academic	-12028
account▁	-12029
battles▁	-12030
communes	-12031
creator▁	-12032
decides▁	-12033
forward▁	-12034
Goldenrod	-12035
Solidago▁	-12036
champions	-12037
important	-12038
Charlotte▁	-12039
Liverpool▁	-12040
Westphalia	-12041
WrestleMan	-12042
contained▁	-12043
tributary▁	-12044
equivalent▁	-12045
Encyclopedia▁	-12046
northeastern▁	-12047
controversial▁	-12048
Administrative▁	-12049
08	-12050
87	-12051
ui	-12052
173	-12053
Dew	-12054
Fon	-12055
Hok	-12056
ISB	-12057
clo	-12058
htm	-12059
jaw	-12060
lot	-12061
0||0	-12062
1||4	-12063
Alum	-12064
Ford	-12065
Hous	-12066
Kuwa	-12067
Stal	-12068
Tamp	-12069
Wein	-12070
aft▁	-12071
apor	-12072
bers	-12073
buck	-12074
iki▁	-12075
ith▁	-12076
ized	-12077
like	-12078
opol	-12079
ram▁	-12080
reun	-12081
uba▁	-12082
uki▁	-12083
1933)	-12084
2016)	-12085
Ghana	-12086
Leon▁	-12087
aria▁	-12088
ento▁	-12089
evil▁	-12090
judge	-12091
laid▁	-12092
often	-12093
remov	-12094
soap▁	-12095
1974)▁	-12096
Antarc	-12097
Daniel	-12098
Ernst▁	-12099
Ghost▁	-12100
Meiji▁	-12101
Thomas	-12102
Yonne▁	-12103
angry▁	-12104
bodies	-12105
circum	-12106
endorf	-12107
eville	-12108
layer▁	-12109
propos	-12110
restor	-12111
runner	-12112
shall▁	-12113
titles	-12114
||9||0	-12115
1971),▁	-12116
Edmund▁	-12117
Princip	-12118
Turner▁	-12119
adults▁	-12120
ballet▁	-12121
banned▁	-12122
deputy▁	-12123
fossil▁	-12124
inches▁	-12125
kidney▁	-12126
letters	-12127
rulers▁	-12128
struck▁	-12129
February	-12130
Gregory▁	-12131
Milwauke	-12132
Research	-12133
Sciences	-12134
Spencer▁	-12135
Universe	-12136
beliefs▁	-12137
colored▁	-12138
disorder	-12139
opposed▁	-12140
saxophon	-12141
software	-12142
spelled▁	-12143
Estonian▁	-12144
Maryland▁	-12145
Thompson▁	-12146
Yokohama▁	-12147
analysis▁	-12148
carrying▁	-12149
compound▁	-12150
disorder▁	-12151
household	-12152
medalist▁	-12153
stronger▁	-12154
supports▁	-12155
Singapore▁	-12156
appearance	-12157
frequency▁	-12158
nicknamed▁	-12159
physicists	-12160
potential▁	-12161
statesman▁	-12162
technical▁	-12163
operations▁	-12164
provincial▁	-12165
Atlantiques▁	-12166
Azerbaijani▁	-12167
entrepreneur	-12168
05	-12169
AK	-12170
DA	-12171
MB	-12172
Of	-12173
RI	-12174
-1▁	-12175
138	-12176
81.	-12177
Fra	-12178
Suz	-12179
Swi	-12180
nas	-12181
rum	-12182
som	-12183
6).▁	-12184
850▁	-12185
Angl	-12186
Beth	-12187
Chev	-12188
Gamb	-12189
Less	-12190
Must	-12191
Nadu	-12192
Past	-12193
Pat▁	-12194
Raw▁	-12195
VII▁	-12196
aker	-12197
esa▁	-12198
from	-12199
news	-12200
oki▁	-12201
oku▁	-12202
rap▁	-12203
rifl	-12204
sie▁	-12205
trum	-12206
1860▁	-12207
1883▁	-12208
8–200	-12209
Kurt▁	-12210
Rodri	-12211
Round	-12212
Smack	-12213
achi▁	-12214
bits▁	-12215
bomb▁	-12216
botan	-12217
disc▁	-12218
effor	-12219
essay	-12220
mile▁	-12221
moder	-12222
opter	-12223
stan▁	-12224
uded▁	-12225
urbs▁	-12226
1960,▁	-12227
1985,▁	-12228
Adolf▁	-12229
Heavy▁	-12230
Patric	-12231
Sound▁	-12232
Sulliv	-12233
Taylor	-12234
Testam	-12235
enger▁	-12236
ernal▁	-12237
forest	-12238
loves▁	-12239
phosph	-12240
print▁	-12241
prise▁	-12242
should	-12243
specim	-12244
spend▁	-12245
throw▁	-12246
walls▁	-12247
1976),▁	-12248
Charles	-12249
Croatia	-12250
Dakota▁	-12251
Garden▁	-12252
Lebanon	-12253
Madagas	-12254
Madrid▁	-12255
Mickey▁	-12256
enburg▁	-12257
golden▁	-12258
multipl	-12259
phones▁	-12260
scenes▁	-12261
tistic▁	-12262
toward▁	-12263
Alabama▁	-12264
Belgium▁	-12265
Cameron▁	-12266
Salzburg	-12267
Village▁	-12268
chamber▁	-12269
derived▁	-12270
driving▁	-12271
fighter▁	-12272
nations▁	-12273
persons▁	-12274
roughly▁	-12275
shorter▁	-12276
surgery▁	-12277
urricane	-12278
Robinson▁	-12279
computers	-12280
machines▁	-12281
materials	-12282
railroad▁	-12283
Slovenian▁	-12284
Technology	-12285
relations▁	-12286
scheduled▁	-12287
situation▁	-12288
Indigenous▁	-12289
playwright▁	-12290
responsibil	-12291
retirement▁	-12292
||||||||||1	-12293
Connecticut▁	-12294
Outstanding▁	-12295
departments▁	-12296
subtropical▁	-12297
northwestern▁	-12298
03	-12299
Aj	-12300
LP	-12301
Og	-12302
Q▁	-12303
154	-12304
87.	-12305
Big	-12306
Bug	-12307
Buk	-12308
Esc	-12309
Spo	-12310
Tax	-12311
iph	-12312
lun	-12313
mob	-12314
”.▁	-12315
(184	-12316
5).▁	-12317
76,▁	-12318
Adri	-12319
Die▁	-12320
Han▁	-12321
Ivan	-12322
Mugh	-12323
Prix	-12324
Ptol	-12325
Sign	-12326
Son▁	-12327
Team	-12328
Uran	-12329
Wii▁	-12330
gio▁	-12331
gods	-12332
gymn	-12333
icy▁	-12334
iko▁	-12335
illy	-12336
redi	-12337
sudd	-12338
tes▁	-12339
ubün	-12340
wave	-12341
1862▁	-12342
6–200	-12343
Cell▁	-12344
Chall	-12345
Doug▁	-12346
Mass▁	-12347
Much▁	-12348
Parad	-12349
Remix	-12350
bles▁	-12351
chore	-12352
deer▁	-12353
eath▁	-12354
eras▁	-12355
feed▁	-12356
heart	-12357
illo▁	-12358
insur	-12359
soil▁	-12360
votes	-12361
ères▁	-12362
1973)▁	-12363
1986,▁	-12364
1990,▁	-12365
Bachel	-12366
Edgar▁	-12367
Heaven	-12368
Hills▁	-12369
Malcol	-12370
Osaka▁	-12371
Proper	-12372
Surrey	-12373
aftern	-12374
female	-12375
ingham	-12376
notes▁	-12377
syndro	-12378
talks▁	-12379
worst▁	-12380
||9||1	-12381
1950),▁	-12382
Brabant	-12383
Brussel	-12384
Diamond	-12385
Eugene▁	-12386
Graubün	-12387
Ludwig▁	-12388
Stadium	-12389
colors▁	-12390
edited▁	-12391
finish▁	-12392
insects	-12393
support	-12394
treaty▁	-12395
vation▁	-12396
workers	-12397
Extreme▁	-12398
Segunda▁	-12399
Singles▁	-12400
Website▁	-12401
birthday	-12402
defense▁	-12403
extreme▁	-12404
survive▁	-12405
Attorney▁	-12406
Children▁	-12407
Malaysia▁	-12408
Napoleon▁	-12409
Reception	-12410
Reference	-12411
abilities	-12412
achieved▁	-12413
breeding▁	-12414
connects▁	-12415
different	-12416
formally▁	-12417
indicate▁	-12418
internet▁	-12419
scholars▁	-12420
Executive▁	-12421
Manchester	-12422
Normandie▁	-12423
Pittsburgh	-12424
Southeast▁	-12425
Vancouver▁	-12426
documents▁	-12427
existence▁	-12428
historians	-12429
playwright	-12430
publisher▁	-12431
religions▁	-12432
spiritual▁	-12433
Engineering▁	-12434
influential▁	-12435
administration▁	-12436
3/	-12437
31	-12438
DE	-12439
(13	-12440
(6▁	-12441
10,	-12442
18)	-12443
66▁	-12444
Ast	-12445
GB▁	-12446
Gos	-12447
Myr	-12448
PC▁	-12449
Vil	-12450
ema	-12451
nur	-12452
oe▁	-12453
rab	-12454
won	-12455
120▁	-12456
Can▁	-12457
Cord	-12458
Flag	-12459
Gene	-12460
JSL▁	-12461
Open	-12462
Tong	-12463
Tues	-12464
ager	-12465
anas	-12466
cars	-12467
cht▁	-12468
gian	-12469
make	-12470
mart	-12471
mort	-12472
neph	-12473
ogy▁	-12474
oni▁	-12475
rate	-12476
ured	-12477
vess	-12478
zone	-12479
1873▁	-12480
1890▁	-12481
1920)	-12482
1938)	-12483
1999.	-12484
Bertr	-12485
Bird▁	-12486
Carth	-12487
Lane▁	-12488
Manit	-12489
Marqu	-12490
NASA▁	-12491
Next▁	-12492
Nikol	-12493
Sophi	-12494
Starr	-12495
absor	-12496
copy▁	-12497
decre	-12498
eller	-12499
escop	-12500
keys▁	-12501
lists	-12502
onso▁	-12503
paras	-12504
path▁	-12505
rules	-12506
shape	-12507
teeth	-12508
tives	-12509
|1999	-12510
,000.▁	-12511
1981)▁	-12512
1986.▁	-12513
1988.▁	-12514
Archae	-12515
Carter	-12516
Floyd▁	-12517
Kazakh	-12518
Lopez▁	-12519
Nokia▁	-12520
Serbia	-12521
Sweet▁	-12522
amoto▁	-12523
bishop	-12524
ership	-12525
foods▁	-12526
ridge▁	-12527
sales▁	-12528
sleep▁	-12529
1974),▁	-12530
Command	-12531
Forces▁	-12532
Hamburg	-12533
Phelps▁	-12534
Though▁	-12535
account	-12536
apping▁	-12537
closer▁	-12538
created	-12539
inaugur	-12540
monary▁	-12541
quickly	-12542
safety▁	-12543
script▁	-12544
subsequ	-12545
timate▁	-12546
victims	-12547
|1995/9	-12548
Canadian	-12549
Frankfur	-12550
Gilbert▁	-12551
Mission▁	-12552
Physics▁	-12553
ativity▁	-12554
briefly▁	-12555
engines▁	-12556
herself▁	-12557
offices▁	-12558
storage▁	-12559
trading▁	-12560
Arkansas▁	-12561
Cleveland	-12562
Criminal▁	-12563
Florence▁	-12564
Physical▁	-12565
boundary▁	-12566
cardinal▁	-12567
clothing▁	-12568
cricketer	-12569
dimension	-12570
intended▁	-12571
nickname▁	-12572
observed▁	-12573
ordinary▁	-12574
senators▁	-12575
Municipal▁	-12576
Territory▁	-12577
automatic▁	-12578
emergency▁	-12579
threatened▁	-12580
universities	-12581
4/	-12582
Hé	-12583
NG	-12584
Ou	-12585
PW	-12586
Vä	-12587
ú▁	-12588
14.	-12589
20)	-12590
Dum	-12591
Kot	-12592
Lip	-12593
Taj	-12594
Wen	-12595
cub	-12596
eme	-12597
esp	-12598
hu▁	-12599
|-▁	-12600
70,▁	-12601
Dord	-12602
Farm	-12603
Nôm▁	-12604
Ross	-12605
ava▁	-12606
beat	-12607
cand	-12608
erne	-12609
ias▁	-12610
iga▁	-12611
ivod	-12612
legs	-12613
lost	-12614
narr	-12615
omb▁	-12616
pur▁	-12617
rix▁	-12618
snow	-12619
1929)	-12620
1935)	-12621
Brend	-12622
Chern	-12623
Circu	-12624
Food▁	-12625
Jacqu	-12626
Late▁	-12627
Mesop	-12628
Pack▁	-12629
Peruv	-12630
Sever	-12631
Thai▁	-12632
VIII▁	-12633
alry▁	-12634
athle	-12635
dogs▁	-12636
edia▁	-12637
eline	-12638
ferti	-12639
front	-12640
fruit	-12641
https	-12642
iles▁	-12643
prey▁	-12644
proph	-12645
store	-12646
twin▁	-12647
types	-12648
weeks	-12649
(1990)	-12650
1980)▁	-12651
Chile▁	-12652
Delhi▁	-12653
Large▁	-12654
María▁	-12655
Master	-12656
Spider	-12657
Transl	-12658
ambass	-12659
arily▁	-12660
carbon	-12661
chestr	-12662
corrup	-12663
formes	-12664
hormon	-12665
iness▁	-12666
joint▁	-12667
shoot▁	-12668
signs▁	-12669
source	-12670
symbol	-12671
teach▁	-12672
tools▁	-12673
voices	-12674
1962),▁	-12675
Britann	-12676
Caesar▁	-12677
Christ▁	-12678
Comedy▁	-12679
Dragon▁	-12680
Earthqu	-12681
Kashmir	-12682
Project	-12683
anthem▁	-12684
denomin	-12685
fielder	-12686
linear▁	-12687
reacts▁	-12688
relief▁	-12689
Arabian▁	-12690
Database	-12691
Maharash	-12692
Roberto▁	-12693
articles	-12694
carries▁	-12695
depends▁	-12696
devices▁	-12697
fastest▁	-12698
ituaries	-12699
telling▁	-12700
Anglican▁	-12701
Mesopotam	-12702
divisions	-12703
involves▁	-12704
sections▁	-12705
thinking▁	-12706
Argentina▁	-12707
celebrate▁	-12708
chemicals▁	-12709
increases▁	-12710
Cincinnati▁	-12711
Industrial▁	-12712
Philippine▁	-12713
expedition▁	-12714
newspapers▁	-12715
||||||||||2	-12716
Legislative▁	-12717
Switzerland▁	-12718
independence	-12719
performances▁	-12720
constitutional▁	-12721
Dj	-12722
MV	-12723
NP	-12724
Ud	-12725
bg	-12726
eu	-12727
ás	-12728
ов	-12729
(12	-12730
400	-12731
54▁	-12732
88.	-12733
?"▁	-12734
Cec	-12735
Fig	-12736
Haj	-12737
Hod	-12738
Kra	-12739
Lil	-12740
Rhe	-12741
Tap	-12742
atj	-12743
len	-12744
uty	-12745
4).▁	-12746
700▁	-12747
Baro	-12748
Cris	-12749
Gay▁	-12750
Let▁	-12751
Mumb	-12752
Snow	-12753
Uses	-12754
acks	-12755
ansk	-12756
atar	-12757
beet	-12758
bles	-12759
came	-12760
enge	-12761
neur	-12762
sedi	-12763
were	-12764
1889▁	-12765
2018)	-12766
2–200	-12767
Apost	-12768
Azur▁	-12769
Ball▁	-12770
Bever	-12771
Deep▁	-12772
Dutch	-12773
Eisen	-12774
Istan	-12775
Java▁	-12776
Kyle▁	-12777
Polo▁	-12778
Ruth▁	-12779
Wheel	-12780
arith	-12781
enjoy	-12782
eppe▁	-12783
gross	-12784
iter▁	-12785
legal	-12786
medal	-12787
moons	-12788
roads	-12789
scale	-12790
scand	-12791
till▁	-12792
tism▁	-12793
|2009	-12794
(1992)	-12795
1984,▁	-12796
1991.▁	-12797
2022,▁	-12798
Betty▁	-12799
Contin	-12800
Doming	-12801
Edwin▁	-12802
Happy▁	-12803
Mother	-12804
Santo▁	-12805
Venus▁	-12806
cathed	-12807
circul	-12808
enses▁	-12809
inian▁	-12810
kness▁	-12811
photos	-12812
stick▁	-12813
tious▁	-12814
tland▁	-12815
1947),▁	-12816
1967),▁	-12817
1979),▁	-12818
Charact	-12819
Deutsch	-12820
Jupiter	-12821
Orleans	-12822
Quarter	-12823
Russell	-12824
Weston▁	-12825
abandon	-12826
alcohol	-12827
changed	-12828
collaps	-12829
enbach▁	-12830
fights▁	-12831
founded	-12832
istics▁	-12833
married	-12834
medium▁	-12835
mining▁	-12836
shares▁	-12837
talked▁	-12838
temple▁	-12839
Auvergne	-12840
Brothers	-12841
Culture▁	-12842
Morning▁	-12843
Officer▁	-12844
Program▁	-12845
Speaker▁	-12846
bacteria	-12847
immigran	-12848
military	-12849
protein▁	-12850
tornado▁	-12851
wedding▁	-12852
Demograph	-12853
absolute▁	-12854
conflict▁	-12855
confused▁	-12856
contribut	-12857
positions	-12858
Stockholm▁	-12859
equipment▁	-12860
offensive▁	-12861
sportscast	-12862
statement▁	-12863
successful	-12864
Eurovision▁	-12865
Afghanistan▁	-12866
Progressive▁	-12867
constructed▁	-12868
theoretical▁	-12869
geographical▁	-12870
Ec	-12871
GP	-12872
.:▁	-12873
11.	-12874
115	-12875
46▁	-12876
="8	-12877
Aur	-12878
DJ▁	-12879
Dow	-12880
Gas	-12881
Gav	-12882
Hos	-12883
Kay	-12884
Koh	-12885
Las	-12886
Meh	-12887
Mob	-12888
Qur	-12889
Sag	-12890
Sta	-12891
Vul	-12892
cad	-12893
oni	-12894
101▁	-12895
Anto	-12896
Aviv	-12897
Uzbe	-12898
Warr	-12899
Zeld	-12900
cats	-12901
done	-12902
eri▁	-12903
ews▁	-12904
iny▁	-12905
isot	-12906
lee▁	-12907
lets	-12908
thal	-12909
unk▁	-12910
wich	-12911
1923)	-12912
1931)	-12913
1934)	-12914
Blanc	-12915
Blood	-12916
Brist	-12917
Clark	-12918
Contr	-12919
David	-12920
Euro▁	-12921
Guerr	-12922
Henry	-12923
Hull▁	-12924
Latin	-12925
Maria	-12926
Omar▁	-12927
Rhin▁	-12928
Stars	-12929
Tyrol	-12930
Years	-12931
cliff	-12932
earn▁	-12933
elli▁	-12934
else▁	-12935
epage	-12936
exerc	-12937
iddle	-12938
inder	-12939
inus▁	-12940
issa▁	-12941
lives	-12942
notes	-12943
ocol▁	-12944
peace	-12945
print	-12946
races	-12947
rive▁	-12948
sover	-12949
staff	-12950
tific	-12951
vous▁	-12952
ware▁	-12953
(1989)	-12954
1978,▁	-12955
1989,▁	-12956
2013)▁	-12957
Arabia	-12958
Dance▁	-12959
Darwin	-12960
Fantas	-12961
Julia▁	-12962
Naval▁	-12963
Never▁	-12964
anime▁	-12965
atoms▁	-12966
bones▁	-12967
crimes	-12968
fewer▁	-12969
hyperb	-12970
idency	-12971
opens▁	-12972
pages▁	-12973
penins	-12974
sword▁	-12975
touch▁	-12976
victor	-12977
Hitler▁	-12978
Michel▁	-12979
Theatre	-12980
appoint	-12981
bgcolor	-12982
ceremon	-12983
defend▁	-12984
erences	-12985
itation	-12986
ivodesh	-12987
landed▁	-12988
pulled▁	-12989
severe▁	-12990
videos▁	-12991
Examples	-12992
crashes▁	-12993
escaped▁	-12994
evolved▁	-12995
exposed▁	-12996
finding▁	-12997
healthy▁	-12998
hunting▁	-12999
ographer	-13000
partial▁	-13001
volcano▁	-13002
||3||0||	-13003
Democrat▁	-13004
Santiago▁	-13005
calendar▁	-13006
coronavir	-13007
diseases▁	-13008
economist	-13009
equation▁	-13010
identify▁	-13011
measures▁	-13012
obtained▁	-13013
professor	-13014
strongly▁	-13015
Siegfried▁	-13016
biography▁	-13017
collection	-13018
Physiology▁	-13019
determined▁	-13020
remembered▁	-13021
="2"|-||0||0	-13022
philosophers	-13023
Indianapolis▁	-13024
constitution▁	-13025
Municipalities	-13026
entertainment▁	-13027
,6	-13028
Ci	-13029
WC	-13030
pm	-13031
å▁	-13032
(5▁	-13033
113	-13034
56▁	-13035
Any	-13036
Ced	-13037
Lun	-13038
Nem	-13039
Nol	-13040
Rut	-13041
Suk	-13042
Thr	-13043
Wed	-13044
alo	-13045
gov	-13046
sic	-13047
(183	-13048
1976	-13049
Bagh	-13050
Batt	-13051
Fres	-13052
Gram	-13053
KDOT	-13054
Kais	-13055
Navy	-13056
Rams	-13057
Ring	-13058
Wess	-13059
Yosh	-13060
achi	-13061
atol	-13062
edom	-13063
edo▁	-13064
hail	-13065
isa▁	-13066
mid▁	-13067
rabb	-13068
seem	-13069
seri	-13070
tag▁	-13071
tie▁	-13072
till	-13073
wash	-13074
will	-13075
||28	-13076
1880▁	-13077
1921)	-13078
1932)	-13079
1993.	-13080
2004)	-13081
2011)	-13082
3–200	-13083
Champ	-13084
Colum	-13085
Come▁	-13086
Congo	-13087
Newsp	-13088
Pink▁	-13089
above	-13090
antic	-13091
drum▁	-13092
feld▁	-13093
hail▁	-13094
iden▁	-13095
merch	-13096
opes▁	-13097
raid▁	-13098
rescu	-13099
rica▁	-13100
tled▁	-13101
ulus▁	-13102
zing▁	-13103
(1988)	-13104
(2012)	-13105
1987.▁	-13106
5,000▁	-13107
Achiev	-13108
Along▁	-13109
Assist	-13110
Athens	-13111
Bureau	-13112
Canter	-13113
Castle	-13114
Delta▁	-13115
Dordog	-13116
Hawaii	-13117
Jacob▁	-13118
Places	-13119
Randy▁	-13120
Singer	-13121
atics▁	-13122
chocol	-13123
ector▁	-13124
effici	-13125
elles▁	-13126
enforc	-13127
evich▁	-13128
ither▁	-13129
keeps▁	-13130
lakes▁	-13131
matter	-13132
medium	-13133
phase▁	-13134
suspec	-13135
tribe▁	-13136
vision	-13137
wrong▁	-13138
1948),▁	-13139
1957),▁	-13140
1958),▁	-13141
1964),▁	-13142
Economy	-13143
Hannah▁	-13144
beyond▁	-13145
breast▁	-13146
estone▁	-13147
galaxy▁	-13148
project	-13149
|1999||	-13150
|2004||	-13151
|2005||	-13152
Android▁	-13153
Beijing▁	-13154
Courage▁	-13155
Electric	-13156
Georges▁	-13157
Gironde▁	-13158
Hungary▁	-13159
Malcolm▁	-13160
Studies▁	-13161
Through▁	-13162
correct▁	-13163
despite▁	-13164
diseases	-13165
document	-13166
engaged▁	-13167
evening▁	-13168
flowers▁	-13169
hearing▁	-13170
reduced▁	-13171
Cardinal▁	-13172
Mitchell▁	-13173
Peruvian▁	-13174
concerts▁	-13175
distinct▁	-13176
minority▁	-13177
ographers	-13178
molecular▁	-13179
qualified▁	-13180
recipient▁	-13181
technique▁	-13182
Herzegovina	-13183
connection▁	-13184
soundtrack▁	-13185
Demographics	-13186
mathematics▁	-13187
photographer	-13188
contemporary▁	-13189
evolutionary▁	-13190
introduction▁	-13191
temperatures▁	-13192
2/	-13193
Ek	-13194
UD	-13195
").	-13196
(0.	-13197
172	-13198
BBC	-13199
Cly	-13200
Pab	-13201
Peg	-13202
abo	-13203
fi▁	-13204
ić▁	-13205
rag	-13206
rie	-13207
sta	-13208
wel	-13209
2016	-13210
94,▁	-13211
95,▁	-13212
Amar	-13213
Incl	-13214
Judi	-13215
Magg	-13216
Scoo	-13217
Tanz	-13218
Tel▁	-13219
Thre	-13220
Yang	-13221
aja▁	-13222
ente	-13223
file	-13224
izu▁	-13225
oma▁	-13226
pot▁	-13227
rell	-13228
1879▁	-13229
1930)	-13230
1995.	-13231
2005)	-13232
4–200	-13233
="8"|	-13234
Coron	-13235
Dale▁	-13236
Dame▁	-13237
Grant	-13238
Hard▁	-13239
Lilli	-13240
Page▁	-13241
Paulo	-13242
Refor	-13243
Words	-13244
acion	-13245
acre▁	-13246
addic	-13247
afia▁	-13248
boxer	-13249
cycle	-13250
dale▁	-13251
faith	-13252
gers▁	-13253
icks▁	-13254
knock	-13255
mouse	-13256
none▁	-13257
pick▁	-13258
promo	-13259
tool▁	-13260
total	-13261
twice	-13262
2006:▁	-13263
Drama▁	-13264
Isaac▁	-13265
Money▁	-13266
Norse▁	-13267
Olympi	-13268
Rural▁	-13269
Temple	-13270
acked▁	-13271
crete▁	-13272
custom	-13273
exact▁	-13274
faces▁	-13275
judges	-13276
letter	-13277
links▁	-13278
stops▁	-13279
tempor	-13280
||1||1	-13281
1960),▁	-13282
1978),▁	-13283
1980),▁	-13284
Events▁	-13285
Hudson▁	-13286
Individ	-13287
Leslie▁	-13288
Marcus▁	-13289
Sidney▁	-13290
attacks	-13291
batter▁	-13292
command	-13293
eleven▁	-13294
enders▁	-13295
narrow▁	-13296
openly▁	-13297
output▁	-13298
rhythm▁	-13299
singles	-13300
stores▁	-13301
thesis▁	-13302
traded▁	-13303
|1991/9	-13304
Defence▁	-13305
Encyclop	-13306
Jeffrey▁	-13307
Montana▁	-13308
Sickles▁	-13309
circuit▁	-13310
explain▁	-13311
flights▁	-13312
fossils▁	-13313
largely▁	-13314
Electric▁	-13315
Liverpool	-13316
comedians	-13317
covering▁	-13318
memorial▁	-13319
patients▁	-13320
releases▁	-13321
solution▁	-13322
Cathedral▁	-13323
Victorian▁	-13324
mechanics▁	-13325
reactions▁	-13326
Montgomery▁	-13327
Württemberg	-13328
atmosphere▁	-13329
classified▁	-13330
democratic▁	-13331
leadership▁	-13332
publishing▁	-13333
architecture	-13334
traditionally▁	-13335
53	-13336
AA	-13337
Sv	-13338
ye	-13339
ée	-13340
''▁	-13341
(1,	-13342
(7▁	-13343
118	-13344
15.	-13345
16.	-13346
52▁	-13347
7"|	-13348
71▁	-13349
79.	-13350
96▁	-13351
BS▁	-13352
Civ	-13353
Cut	-13354
Dob	-13355
Kul	-13356
Led	-13357
Lic	-13358
Lub	-13359
Pea	-13360
Run	-13361
Top	-13362
jar	-13363
oc▁	-13364
pag	-13365
reb	-13366
73,▁	-13367
Blin	-13368
Brow	-13369
Form	-13370
Gius	-13371
Mack	-13372
Medi	-13373
Ster	-13374
Taur	-13375
abet	-13376
akh▁	-13377
alty	-13378
anna	-13379
load	-13380
pent	-13381
pen▁	-13382
sati	-13383
tica	-13384
uda▁	-13385
urg▁	-13386
1868▁	-13387
1891▁	-13388
1918)	-13389
1922)	-13390
2009)	-13391
="7"|	-13392
Dolph	-13393
Radio	-13394
Slam▁	-13395
Take▁	-13396
Zone▁	-13397
admir	-13398
ental	-13399
expos	-13400
hara▁	-13401
idae▁	-13402
infin	-13403
leaf▁	-13404
omes▁	-13405
rait▁	-13406
sand▁	-13407
shop▁	-13408
tles▁	-13409
union	-13410
(1987)	-13411
1970,▁	-13412
1972)▁	-13413
1984)▁	-13414
Ahmed▁	-13415
Belle▁	-13416
Calend	-13417
Cities	-13418
Dragon	-13419
Glenn▁	-13420
Mechan	-13421
Movies	-13422
Potter	-13423
Tales▁	-13424
amorph	-13425
consec	-13426
drawn▁	-13427
easily	-13428
ellect	-13429
genre▁	-13430
interf	-13431
ively▁	-13432
lists▁	-13433
pairs▁	-13434
poetry	-13435
rapid▁	-13436
rival▁	-13437
saint▁	-13438
||5||2	-13439
1970),▁	-13440
Frances	-13441
Hunting	-13442
Mobile▁	-13443
Murray▁	-13444
Notting	-13445
Seattle	-13446
Wright▁	-13447
alpine▁	-13448
answer▁	-13449
beauty▁	-13450
certain	-13451
edition	-13452
estate▁	-13453
finals▁	-13454
ingredi	-13455
recover	-13456
remove▁	-13457
rowing▁	-13458
session	-13459
stable▁	-13460
student	-13461
surgery	-13462
Bradley▁	-13463
Dorothy▁	-13464
Edition▁	-13465
Manipur▁	-13466
Norfolk▁	-13467
brothers	-13468
connect▁	-13469
creates▁	-13470
defeats▁	-13471
dioxide▁	-13472
powered▁	-13473
protest▁	-13474
strange▁	-13475
walking▁	-13476
acquired▁	-13477
Department	-13478
Manhattan▁	-13479
Petersburg	-13480
appearing▁	-13481
attracted▁	-13482
|2004/05||	-13483
Shakespeare	-13484
criticized▁	-13485
frequently▁	-13486
opposition▁	-13487
Westminster▁	-13488
championship	-13489
radioactive▁	-13490
WrestleMania▁	-13491
intelligence▁	-13492
assassination▁	-13493
AL	-13494
2%▁	-13495
FIV	-13496
Mey	-13497
NFL	-13498
enh	-13499
esc	-13500
exu	-13501
ib▁	-13502
ios	-13503
mad	-13504
oce	-13505
oir	-13506
ouc	-13507
sop	-13508
uff	-13509
ña▁	-13510
(11▁	-13511
(22▁	-13512
Chât	-13513
Corr	-13514
Hamm	-13515
Hass	-13516
Key▁	-13517
MTV▁	-13518
Perp	-13519
Pill	-13520
Shiz	-13521
Stic	-13522
Stur	-13523
anks	-13524
ante	-13525
bor▁	-13526
card	-13527
cha▁	-13528
din▁	-13529
ello	-13530
emic	-13531
guns	-13532
olo▁	-13533
repl	-13534
saff	-13535
valu	-13536
1884▁	-13537
1940)	-13538
Adams	-13539
Clay▁	-13540
Fair▁	-13541
Guang	-13542
Link▁	-13543
Make▁	-13544
NASCA	-13545
Order	-13546
Pete▁	-13547
Steel	-13548
Train	-13549
Trump	-13550
Whist	-13551
ears▁	-13552
flew▁	-13553
mail▁	-13554
nest▁	-13555
notic	-13556
seek▁	-13557
vary▁	-13558
(2013)	-13559
Carol▁	-13560
Cayce▁	-13561
Crime▁	-13562
Drake▁	-13563
Guide▁	-13564
Joseph	-13565
Molly▁	-13566
Newton	-13567
Obama▁	-13568
Philip	-13569
Resour	-13570
Rican▁	-13571
Steel▁	-13572
Volcan	-13573
Years▁	-13574
accomp	-13575
algori	-13576
asaki▁	-13577
ashire	-13578
concep	-13579
craft▁	-13580
etary▁	-13581
eties▁	-13582
hammer	-13583
hills▁	-13584
leaves	-13585
middle	-13586
needed	-13587
oxygen	-13588
pieces	-13589
uscrip	-13590
1944),▁	-13591
2010),▁	-13592
Agency▁	-13593
Algeria	-13594
Celtic▁	-13595
Chronic	-13596
Freeman	-13597
Jamaica	-13598
Leagues	-13599
Rogers▁	-13600
agency▁	-13601
aveleng	-13602
composi	-13603
coordin	-13604
domain▁	-13605
eldest▁	-13606
holder▁	-13607
moment▁	-13608
stages▁	-13609
|2007||	-13610
Gallery▁	-13611
Piedmont	-13612
alition▁	-13613
behavior	-13614
consider	-13615
details▁	-13616
horizont	-13617
pattern▁	-13618
pronunci	-13619
senator▁	-13620
trouble▁	-13621
Chemistry	-13622
Christmas	-13623
Election▁	-13624
Fernando▁	-13625
Olympians	-13626
Thailand▁	-13627
hurricane	-13628
operates▁	-13629
paintings	-13630
prepared▁	-13631
traveled▁	-13632
universe▁	-13633
Arlington▁	-13634
Birmingham	-13635
Indonesia▁	-13636
Lancashire	-13637
Macedonia▁	-13638
explosion▁	-13639
initially▁	-13640
premiered▁	-13641
Management▁	-13642
Protestant▁	-13643
mechanical▁	-13644
originated▁	-13645
distribution	-13646
experienced▁	-13647
legislators▁	-13648
Intelligence▁	-13649
neighborhood▁	-13650
administration	-13651
GC	-13652
5%▁	-13653
74.	-13654
Bac	-13655
Bag	-13656
ESP	-13657
Fav	-13658
Fly	-13659
Hob	-13660
Kad	-13661
Kok	-13662
Kyr	-13663
NBA	-13664
Oce	-13665
TC▁	-13666
Vad	-13667
ike	-13668
iri	-13669
ye▁	-13670
17.▁	-13671
250▁	-13672
71,▁	-13673
Ain▁	-13674
Chib	-13675
Jagu	-13676
Kirk	-13677
Mad▁	-13678
Pred	-13679
Rap▁	-13680
Rob▁	-13681
Vauc	-13682
WWF▁	-13683
acts	-13684
aest	-13685
bath	-13686
both	-13687
herb	-13688
keys	-13689
leg▁	-13690
omi▁	-13691
onym	-13692
phas	-13693
soft	-13694
trag	-13695
urs▁	-13696
1886▁	-13697
2019)	-13698
Autom	-13699
Brad▁	-13700
Full▁	-13701
Great	-13702
Judy▁	-13703
Monro	-13704
Moore	-13705
Name▁	-13706
Wang▁	-13707
Winst	-13708
Woman	-13709
Yonne	-13710
amend	-13711
aran▁	-13712
ared▁	-13713
coup▁	-13714
dean▁	-13715
eston	-13716
forec	-13717
hima▁	-13718
icon▁	-13719
laugh	-13720
major	-13721
rocks	-13722
secre	-13723
wick▁	-13724
(2016)	-13725
André▁	-13726
Haiti▁	-13727
Linda▁	-13728
Perry▁	-13729
Pierre	-13730
Rishi▁	-13731
Schles	-13732
Staff▁	-13733
Stock▁	-13734
access	-13735
anche▁	-13736
animal	-13737
boxer▁	-13738
cultiv	-13739
fixed▁	-13740
grows▁	-13741
sends▁	-13742
tests▁	-13743
uding▁	-13744
ushed▁	-13745
1951),▁	-13746
1972),▁	-13747
1973),▁	-13748
1975),▁	-13749
Andrea▁	-13750
Apollo▁	-13751
Barack▁	-13752
Members	-13753
Northum	-13754
Sister▁	-13755
Wichita	-13756
campus▁	-13757
dementi	-13758
descend	-13759
earlier	-13760
estyle▁	-13761
filmed▁	-13762
follows	-13763
impact▁	-13764
minute▁	-13765
owners▁	-13766
rondiss	-13767
section	-13768
slaves▁	-13769
|2003||	-13770
Contest▁	-13771
Edwards▁	-13772
Holstein	-13773
Jessica▁	-13774
Leonard▁	-13775
Madison▁	-13776
Medicine	-13777
Version▁	-13778
amateur▁	-13779
arrives▁	-13780
authors▁	-13781
churches	-13782
closest▁	-13783
clothes▁	-13784
cooking▁	-13785
crossed▁	-13786
operate▁	-13787
patient▁	-13788
penalty▁	-13789
pressure	-13790
Movement▁	-13791
available	-13792
belonged▁	-13793
bringing▁	-13794
distribut	-13795
educated▁	-13796
franchise	-13797
presence▁	-13798
prisoner▁	-13799
somewhat▁	-13800
conscious▁	-13801
economics▁	-13802
franchise▁	-13803
pneumonia▁	-13804
portrayed▁	-13805
strongest▁	-13806
Lithuanian▁	-13807
Supporting▁	-13808
Ambassadors▁	-13809
constitution	-13810
agricultural▁	-13811
relationships▁	-13812
understanding▁	-13813
):	-13814
07	-13815
09	-13816
5/	-13817
FD	-13818
Ré	-13819
!"▁	-13820
-2▁	-13821
19)	-13822
62▁	-13823
80.	-13824
84.	-13825
85.	-13826
Dyl	-13827
Ere	-13828
Kah	-13829
Wit	-13830
Yuk	-13831
akk	-13832
anz	-13833
auc	-13834
bub	-13835
dal	-13836
eb▁	-13837
fab	-13838
has	-13839
hip	-13840
ied	-13841
iga	-13842
uti	-13843
wet	-13844
(240	-13845
1850	-13846
72,▁	-13847
Barb	-13848
Bhut	-13849
Cat▁	-13850
IOC▁	-13851
Mari	-13852
Oak▁	-13853
aks▁	-13854
alt▁	-13855
bull	-13856
dark	-13857
kick	-13858
los▁	-13859
ongo	-13860
roof	-13861
sel▁	-13862
smok	-13863
sum▁	-13864
thou	-13865
want	-13866
wond	-13867
1887▁	-13868
1917)	-13869
FIVB▁	-13870
Holid	-13871
Hood▁	-13872
Integ	-13873
Inves	-13874
Kashi	-13875
Lead▁	-13876
Sean▁	-13877
Teleg	-13878
Thurs	-13879
abeth	-13880
breed	-13881
cemet	-13882
edes▁	-13883
iders	-13884
ility	-13885
kers▁	-13886
laure	-13887
laus▁	-13888
mera▁	-13889
ninet	-13890
phone	-13891
remot	-13892
salt▁	-13893
sensi	-13894
stric	-13895
thal▁	-13896
ults▁	-13897
watch	-13898
wides	-13899
|1992	-13900
1964,▁	-13901
1978)▁	-13902
1980,▁	-13903
1983)▁	-13904
Actor▁	-13905
Bruno▁	-13906
Chula▁	-13907
Freud▁	-13908
Gordon	-13909
Hispan	-13910
Juvent	-13911
Rhodes	-13912
Rights	-13913
Somers	-13914
Square	-13915
Tehran	-13916
Terror	-13917
codes▁	-13918
crown▁	-13919
faced▁	-13920
fresh▁	-13921
llery▁	-13922
oured▁	-13923
plain▁	-13924
sharp▁	-13925
skull▁	-13926
strip▁	-13927
uncle▁	-13928
1940),▁	-13929
1945),▁	-13930
1963),▁	-13931
1969),▁	-13932
Allied▁	-13933
Father▁	-13934
Fernand	-13935
Hebrew▁	-13936
Munich▁	-13937
bridges	-13938
college	-13939
judges▁	-13940
membran	-13941
percent	-13942
perors▁	-13943
skills▁	-13944
soldier	-13945
tornado	-13946
|1994/9	-13947
Advance▁	-13948
Flemish▁	-13949
Language	-13950
Picture▁	-13951
calling▁	-13952
collect▁	-13953
formers▁	-13954
monster▁	-13955
notably▁	-13956
respect▁	-13957
spotted▁	-13958
suggest▁	-13959
Arrondiss	-13960
Benedict▁	-13961
Geoffrey▁	-13962
Jurassic▁	-13963
Lithuania	-13964
Roosevelt	-13965
Together▁	-13966
behavior▁	-13967
civilian▁	-13968
consider▁	-13969
entirely▁	-13970
feelings▁	-13971
formation	-13972
interpret	-13973
networks▁	-13974
speakers▁	-13975
communist▁	-13976
selection▁	-13977
lieutenant▁	-13978
Statistical▁	-13979
neighborhood	-13980
applications▁	-13981
74	-13982
;"	-13983
AP	-13984
BM	-13985
CJ	-13986
HB	-13987
Om	-13988
11,	-13989
148	-13990
76▁	-13991
86.	-13992
95.	-13993
App	-13994
Nur	-13995
Rup	-13996
Sha	-13997
Tah	-13998
Uly	-13999
Vin	-14000
kel	-14001
nos	-14002
ozo	-14003
0||1	-14004
Amph	-14005
Bast	-14006
Cros	-14007
Der▁	-14008
Hels	-14009
Jeop	-14010
Juda	-14011
Mold	-14012
Pall	-14013
Reed	-14014
Sank	-14015
Sky▁	-14016
Tric	-14017
Ward	-14018
ambi	-14019
anxi	-14020
aná▁	-14021
bei▁	-14022
chor	-14023
harm	-14024
ined	-14025
iron	-14026
isch	-14027
lon▁	-14028
mati	-14029
once	-14030
ott▁	-14031
oux▁	-14032
oya▁	-14033
peac	-14034
tong	-14035
wrec	-14036
1919)	-14037
1991.	-14038
2002.	-14039
Blues	-14040
Budap	-14041
Code▁	-14042
Diego	-14043
Draft	-14044
Edmon	-14045
Event	-14046
Galer	-14047
Have▁	-14048
Henri	-14049
Hesse	-14050
Hokka	-14051
Kings	-14052
Luna▁	-14053
Metro	-14054
Nicol	-14055
Pompe	-14056
Power	-14057
Salt▁	-14058
Simil	-14059
Teen▁	-14060
Vaucl	-14061
aces▁	-14062
agent	-14063
alive	-14064
bred▁	-14065
deleg	-14066
evacu	-14067
eway▁	-14068
horse	-14069
morph	-14070
neck▁	-14071
nutri	-14072
oons▁	-14073
owner	-14074
trip▁	-14075
(1982)	-14076
1969,▁	-14077
1976,▁	-14078
1982)▁	-14079
1987,▁	-14080
Chuck▁	-14081
Commer	-14082
Donald	-14083
Lance▁	-14084
Reagan	-14085
Sicily	-14086
Tomato	-14087
Valent	-14088
Woman▁	-14089
Wright	-14090
Zürich	-14091
anatom	-14092
bling▁	-14093
brief▁	-14094
carniv	-14095
flight	-14096
fortun	-14097
guaran	-14098
heads▁	-14099
likes▁	-14100
limit▁	-14101
meter▁	-14102
newly▁	-14103
ospel▁	-14104
priest	-14105
unnel▁	-14106
Archive	-14107
Gerald▁	-14108
Mughal▁	-14109
cooked▁	-14110
limits▁	-14111
novels▁	-14112
pitcher	-14113
planets	-14114
pushed▁	-14115
seeing▁	-14116
Cemetery	-14117
Circuit▁	-14118
Ethiopia	-14119
Portland	-14120
analysis	-14121
factors▁	-14122
focuses▁	-14123
isation▁	-14124
mammals▁	-14125
networks	-14126
victims▁	-14127
waveleng	-14128
wounded▁	-14129
Giuseppe▁	-14130
Prussian▁	-14131
attorney▁	-14132
birthday▁	-14133
colonies▁	-14134
disaster▁	-14135
explains▁	-14136
prostate▁	-14137
Beautiful▁	-14138
Directory▁	-14139
Peninsula▁	-14140
childhood▁	-14141
explained▁	-14142
philosophy	-14143
|2001/02||	-14144
Development	-14145
adaptation▁	-14146
electricity	-14147
Renaissance▁	-14148
description▁	-14149
transferred▁	-14150
63	-14151
BE	-14152
Bj	-14153
Có	-14154
12-	-14155
68▁	-14156
77▁	-14157
Ain	-14158
Aud	-14159
Dex	-14160
Kub	-14161
Voy	-14162
ea▁	-14163
isc	-14164
lid	-14165
nau	-14166
vac	-14167
(10▁	-14168
(18▁	-14169
-17▁	-14170
64,▁	-14171
65,▁	-14172
Box▁	-14173
CNN▁	-14174
Made	-14175
Niss	-14176
Poet	-14177
Sask	-14178
Thal	-14179
Val▁	-14180
Why▁	-14181
aill	-14182
anam	-14183
corn	-14184
endi	-14185
iper	-14186
ires	-14187
jet▁	-14188
leuk	-14189
nith	-14190
noun	-14191
prey	-14192
pric	-14193
shif	-14194
stim	-14195
tar▁	-14196
tia▁	-14197
trad	-14198
1865▁	-14199
1867▁	-14200
1893▁	-14201
1945)	-14202
2003)	-14203
2021)	-14204
Astro	-14205
Cuba▁	-14206
Hope▁	-14207
Hugo▁	-14208
Krish	-14209
Left▁	-14210
Planc	-14211
Roll▁	-14212
Sansk	-14213
Vista	-14214
added	-14215
arra▁	-14216
attri	-14217
auer▁	-14218
bold▁	-14219
coal▁	-14220
dance	-14221
enna▁	-14222
iled▁	-14223
incar	-14224
juris	-14225
leton	-14226
marsh	-14227
mone▁	-14228
olith	-14229
physi	-14230
pseud	-14231
queen	-14232
scene	-14233
sever	-14234
thick	-14235
tools	-14236
umed▁	-14237
1966,▁	-14238
1971,▁	-14239
Colin▁	-14240
Finist	-14241
Metro▁	-14242
Pearl▁	-14243
borne▁	-14244
charge	-14245
eenth▁	-14246
ighty▁	-14247
inate▁	-14248
knows▁	-14249
loved▁	-14250
monast	-14251
ninth▁	-14252
shark▁	-14253
shell▁	-14254
stream	-14255
supern	-14256
throne	-14257
1977),▁	-14258
Adrian▁	-14259
Edition	-14260
Hawaii▁	-14261
Martha▁	-14262
address	-14263
article	-14264
assium▁	-14265
forward	-14266
garden▁	-14267
herself	-14268
machine	-14269
started	-14270
unlike▁	-14271
vention	-14272
volunte	-14273
||10||0	-14274
Allison▁	-14275
Baroque▁	-14276
Classic▁	-14277
Delaware	-14278
Florence	-14279
Liberty▁	-14280
Stiller▁	-14281
Tourism▁	-14282
YouTube▁	-14283
affects▁	-14284
archive▁	-14285
burning▁	-14286
citizen▁	-14287
housing▁	-14288
idental▁	-14289
journey▁	-14290
legally▁	-14291
orchestr	-14292
perfect▁	-14293
quarter▁	-14294
setting▁	-14295
Establish	-14296
Georgian▁	-14297
Highness▁	-14298
Nebraska▁	-14299
Philosoph	-14300
approach▁	-14301
athletes▁	-14302
biography	-14303
declares▁	-14304
radiation	-14305
vehicles▁	-14306
Barcelona▁	-14307
Occitanie▁	-14308
Religious▁	-14309
advantage▁	-14310
earthquake	-14311
preserved▁	-14312
providing▁	-14313
successor▁	-14314
synthesis▁	-14315
Scientific▁	-14316
||0||4||0||	-14317
authorities▁	-14318
||0||2||0||1	-14319
constituency▁	-14320
revolutionary▁	-14321
electromagnetic▁	-14322
Iz	-14323
fu	-14324
10-	-14325
3%▁	-14326
91.	-14327
Bit	-14328
Cit	-14329
Doo	-14330
Ext	-14331
Nin	-14332
Sut	-14333
Tik	-14334
Wei	-14335
ae▁	-14336
bin	-14337
bo▁	-14338
fel	-14339
jew	-14340
ku▁	-14341
olo	-14342
pes	-14343
sul	-14344
(30▁	-14345
1994	-14346
66,▁	-14347
Burn	-14348
Car▁	-14349
Craw	-14350
Diet	-14351
Donn	-14352
Forg	-14353
Free	-14354
Hain	-14355
Hers	-14356
Hip▁	-14357
MLB▁	-14358
PWI▁	-14359
Pret	-14360
Reyn	-14361
Rost	-14362
alys	-14363
aux▁	-14364
cold	-14365
flex	-14366
jump	-14367
oun▁	-14368
ping	-14369
rat▁	-14370
sai▁	-14371
sett	-14372
susp	-14373
tre▁	-14374
uals	-14375
uras	-14376
||34	-14377
1913)	-14378
1942)	-14379
1996.	-14380
Arist	-14381
Baghd	-14382
Chair	-14383
Chick	-14384
Crist	-14385
Data▁	-14386
Glouc	-14387
Gradu	-14388
ISBN▁	-14389
Joey▁	-14390
Josh▁	-14391
Kosov	-14392
Percy	-14393
Type▁	-14394
choos	-14395
fled▁	-14396
guez▁	-14397
holy▁	-14398
homos	-14399
olar▁	-14400
ović▁	-14401
rant▁	-14402
sacri	-14403
sick▁	-14404
stadt	-14405
study	-14406
veloc	-14407
wine▁	-14408
witch	-14409
1969.▁	-14410
1972.▁	-14411
1980.▁	-14412
Celebr	-14413
Derek▁	-14414
Hindi▁	-14415
Lloyd▁	-14416
Office	-14417
Warsaw	-14418
affili	-14419
ambigu	-14420
anthem	-14421
atchew	-14422
cerebr	-14423
costs▁	-14424
dragon	-14425
drums▁	-14426
entin▁	-14427
eries▁	-14428
grand▁	-14429
icial▁	-14430
ility▁	-14431
invers	-14432
orous▁	-14433
owski▁	-14434
pitch▁	-14435
proced	-14436
quanti	-14437
silver	-14438
sugar▁	-14439
1966),▁	-14440
1990),▁	-14441
20,000▁	-14442
Affairs	-14443
Express	-14444
Finally	-14445
Fourth▁	-14446
Future▁	-14447
Industr	-14448
Murphy▁	-14449
Physics	-14450
Secret▁	-14451
Studios	-14452
Usually	-14453
celebri	-14454
enberg▁	-14455
enters▁	-14456
format▁	-14457
income▁	-14458
ingham▁	-14459
ishing▁	-14460
metals▁	-14461
organs▁	-14462
picked▁	-14463
powder▁	-14464
remake▁	-14465
values▁	-14466
voices▁	-14467
voting▁	-14468
Brother▁	-14469
Cartoon▁	-14470
Express▁	-14471
Investig	-14472
Magazine	-14473
Popular▁	-14474
Richmond	-14475
Slovenia	-14476
approach	-14477
bassist▁	-14478
license▁	-14479
nervous▁	-14480
putting▁	-14481
stitute▁	-14482
therapy▁	-14483
Augustus▁	-14484
Building▁	-14485
Magazine▁	-14486
Salzburg▁	-14487
Vancouver	-14488
Voivodesh	-14489
chloride▁	-14490
fordshire	-14491
honorary▁	-14492
inducted▁	-14493
ministers	-14494
protects▁	-14495
southwest	-14496
transfer▁	-14497
treatment	-14498
Adventure▁	-14499
Literature	-14500
Production	-14501
Saskatchew	-14502
abilities▁	-14503
challenge▁	-14504
expansion▁	-14505
receiving▁	-14506
regularly▁	-14507
|2007/08||	-14508
competitions	-14509
Broadcasting▁	-14510
architecture▁	-14511
Dw	-14512
Hö	-14513
SC	-14514
TE	-14515
ii	-14516
nd	-14517
èv	-14518
(9▁	-14519
13.	-14520
18.	-14521
19.	-14522
57▁	-14523
7:▁	-14524
Age	-14525
Agu	-14526
Cov	-14527
Dul	-14528
EE▁	-14529
Giv	-14530
Hip	-14531
Jab	-14532
Jen	-14533
Kud	-14534
Lug	-14535
Two	-14536
Vid	-14537
aft	-14538
ava	-14539
cht	-14540
cyc	-14541
dee	-14542
fs▁	-14543
got	-14544
odi	-14545
tom	-14546
uge	-14547
(21▁	-14548
10.▁	-14549
1995	-14550
6||4	-14551
Abhi	-14552
Bris	-14553
Exhi	-14554
Food	-14555
Grav	-14556
Gren	-14557
Hick	-14558
Mort	-14559
Nouv	-14560
Pope	-14561
Sham	-14562
Vaud	-14563
aan▁	-14564
ady▁	-14565
berl	-14566
buff	-14567
clou	-14568
ede▁	-14569
gent	-14570
hua▁	-14571
min▁	-14572
omo▁	-14573
prim	-14574
syll	-14575
tack	-14576
thum	-14577
uttg	-14578
ware	-14579
what	-14580
ław▁	-14581
1872▁	-14582
1894▁	-14583
1941)	-14584
2002)	-14585
Boys▁	-14586
Delhi	-14587
Nakam	-14588
Nara▁	-14589
Plain	-14590
Quart	-14591
Reed▁	-14592
René▁	-14593
Snow▁	-14594
Want▁	-14595
chief	-14596
deser	-14597
dynam	-14598
eclip	-14599
enson	-14600
inch▁	-14601
lakes	-14602
lide▁	-14603
mode▁	-14604
occer	-14605
octop	-14606
sale▁	-14607
sugar	-14608
surge	-14609
tend▁	-14610
tied▁	-14611
tiny▁	-14612
tissu	-14613
tuber	-14614
value	-14615
|1989	-14616
1970)▁	-14617
1973,▁	-14618
1977)▁	-14619
Buchan	-14620
Charts	-14621
Declar	-14622
Elvis▁	-14623
Guard▁	-14624
Motor▁	-14625
Pablo▁	-14626
Parker	-14627
Rocky▁	-14628
Satell	-14629
Stuttg	-14630
Uttar▁	-14631
Vorarl	-14632
annon▁	-14633
clean▁	-14634
conges	-14635
depth▁	-14636
endra▁	-14637
esters	-14638
fleet▁	-14639
online	-14640
played	-14641
raise▁	-14642
search	-14643
social	-14644
summer	-14645
uting▁	-14646
winner	-14647
1943),▁	-14648
1949),▁	-14649
1953),▁	-14650
1954),▁	-14651
1961),▁	-14652
1965),▁	-14653
50,000▁	-14654
Almost▁	-14655
Central	-14656
Helsink	-14657
Illustr	-14658
Jeremy▁	-14659
Judith▁	-14660
Köppen▁	-14661
Riding▁	-14662
Rotten▁	-14663
Stewart	-14664
Watson▁	-14665
ampton▁	-14666
binary▁	-14667
bishops	-14668
combat▁	-14669
comics▁	-14670
contain	-14671
flowers	-14672
latter▁	-14673
palace▁	-14674
rising▁	-14675
spiral▁	-14676
spirit▁	-14677
stored▁	-14678
studies	-14679
sulfur▁	-14680
Brandon▁	-14681
Cornwall	-14682
Emmanuel	-14683
Episode▁	-14684
Friends▁	-14685
Mikhail▁	-14686
Timothy▁	-14687
atorial▁	-14688
baseball	-14689
cultures	-14690
farmers▁	-14691
happened	-14692
holiday▁	-14693
plastic▁	-14694
testing▁	-14695
theater▁	-14696
turning▁	-14697
Manipuri▁	-14698
Patricia▁	-14699
Services▁	-14700
Stanford▁	-14701
Starship▁	-14702
abstract▁	-14703
disorders	-14704
drinking▁	-14705
economics	-14706
entitled▁	-14707
equipment	-14708
flooding▁	-14709
improved▁	-14710
projects▁	-14711
restrial▁	-14712
Northwest▁	-14713
certified▁	-14714
consisted▁	-14715
daughters▁	-14716
infection▁	-14717
questions▁	-14718
returning▁	-14719
telephone▁	-14720
Dictionary▁	-14721
Liberation▁	-14722
Originally▁	-14723
Venezuelan▁	-14724
anthropolog	-14725
developing▁	-14726
foundation▁	-14727
importance▁	-14728
increasing▁	-14729
management▁	-14730
registered▁	-14731
temperature	-14732
nationalist▁	-14733
classification▁	-14734
51	-14735
84	-14736
AM	-14737
Bé	-14738
Eb	-14739
IM	-14740
Mö	-14741
iP	-14742
ih	-14743
kW	-14744
(17	-14745
128	-14746
152	-14747
Alg	-14748
Buc	-14749
Gem	-14750
Hed	-14751
IX▁	-14752
Jet	-14753
Ltd	-14754
Lum	-14755
Nix	-14756
Pam	-14757
SR▁	-14758
Wah	-14759
Yer	-14760
boo	-14761
bug	-14762
eto	-14763
jan	-14764
map	-14765
rib	-14766
sid	-14767
(16▁	-14768
12.▁	-14769
16.▁	-14770
96,▁	-14771
Córd	-14772
Dill	-14773
Flow	-14774
Guar	-14775
Imag	-14776
Jung	-14777
Lass	-14778
Mel▁	-14779
Pent	-14780
Pick	-14781
aged	-14782
asa▁	-14783
aust	-14784
boss	-14785
etti	-14786
gate	-14787
have	-14788
horn	-14789
hra▁	-14790
iri▁	-14791
mmet	-14792
ods▁	-14793
para	-14794
ploy	-14795
pock	-14796
sick	-14797
uss▁	-14798
||27	-14799
1857▁	-14800
1877▁	-14801
1881▁	-14802
1998.	-14803
7–199	-14804
Afon▁	-14805
Diet▁	-14806
Erik▁	-14807
Field	-14808
Joel▁	-14809
Maya▁	-14810
Motor	-14811
Seneg	-14812
Siber	-14813
Veter	-14814
Winds	-14815
about	-14816
bint▁	-14817
elic▁	-14818
folkl	-14819
inho▁	-14820
lymph	-14821
riter	-14822
romae	-14823
sions	-14824
smart	-14825
stain	-14826
trade	-14827
tron▁	-14828
(2015)	-14829
1976.▁	-14830
1979)▁	-14831
1985.▁	-14832
2,000▁	-14833
Anton▁	-14834
Arabic	-14835
Bermud	-14836
Caesar	-14837
Diana▁	-14838
Explor	-14839
Howard	-14840
Luther	-14841
Often▁	-14842
Rugby▁	-14843
Sainte	-14844
Scotia	-14845
Strang	-14846
Wester	-14847
Zimmer	-14848
anner▁	-14849
course	-14850
enton▁	-14851
excell	-14852
fields	-14853
formed	-14854
ician▁	-14855
machin	-14856
prior▁	-14857
raced▁	-14858
script	-14859
(2006)▁	-14860
1946),▁	-14861
1952),▁	-14862
1959),▁	-14863
Alaska▁	-14864
Alumni▁	-14865
Buffalo	-14866
Hunter▁	-14867
Ladies▁	-14868
Nissan▁	-14869
Orléans	-14870
Perpign	-14871
Punjab▁	-14872
Rafael▁	-14873
Reynold	-14874
Schools	-14875
Senior▁	-14876
Tunisia	-14877
drives▁	-14878
fruits▁	-14879
osaurus	-14880
parent▁	-14881
tissue▁	-14882
written	-14883
|1990/9	-14884
||13||0	-14885
Ardèche▁	-14886
Cricket▁	-14887
Germans▁	-14888
Jeopardy	-14889
Primera▁	-14890
Shimizu▁	-14891
arranger	-14892
assault▁	-14893
cabinet▁	-14894
cartoon▁	-14895
clothing	-14896
courses▁	-14897
festival	-14898
flowing▁	-14899
highway▁	-14900
lawsuit▁	-14901
marries▁	-14902
minimum▁	-14903
pioneer▁	-14904
widespre	-14905
–2011),▁	-14906
,000,000▁	-14907
Abdullah▁	-14908
Campbell▁	-14909
Charlotte	-14910
Facebook▁	-14911
atically▁	-14912
chlorine▁	-14913
expanded▁	-14914
goddesses	-14915
infection	-14916
millions▁	-14917
planning▁	-14918
pregnant▁	-14919
proteins▁	-14920
protests▁	-14921
teachers▁	-14922
Conference	-14923
Constantin	-14924
Medalists▁	-14925
exclusive▁	-14926
measuring▁	-14927
otherwise▁	-14928
predators▁	-14929
presenter▁	-14930
purchased▁	-14931
superhero▁	-14932
techniques▁	-14933
abbreviated▁	-14934
collections▁	-14935
sportscaster	-14936
discontinued▁	-14937
distinguished▁	-14938
disestablished▁	-14939
64	-14940
IG	-14941
";▁	-14942
%.▁	-14943
(52	-14944
112	-14945
78▁	-14946
81▁	-14947
98▁	-14948
99▁	-14949
Chu	-14950
Cyn	-14951
Inn	-14952
Miz	-14953
Mün	-14954
Set	-14955
TO▁	-14956
Tir	-14957
Tut	-14958
agi	-14959
cin	-14960
gay	-14961
lam	-14962
oda	-14963
wyn	-14964
çu▁	-14965
(20▁	-14966
(245	-14967
2021	-14968
360▁	-14969
Ana▁	-14970
Bird	-14971
Card	-14972
Edit	-14973
Feel	-14974
Flet	-14975
Fris	-14976
Full	-14977
Gour	-14978
Heph	-14979
Kann	-14980
Kyiv	-14981
Rank	-14982
Rous	-14983
That	-14984
Thel	-14985
Turn	-14986
ails	-14987
also	-14988
alus	-14989
brig	-14990
clin	-14991
cos▁	-14992
edes	-14993
emor	-14994
fing	-14995
gers	-14996
iano	-14997
iber	-14998
joy▁	-14999
lies	-15000
phis	-15001
pill	-15002
sidi	-15003
tian	-15004
umb▁	-15005
1850▁	-15006
1876▁	-15007
1912)	-15008
1936)	-15009
1997.	-15010
Aube▁	-15011
Emma▁	-15012
Fish▁	-15013
Hyper	-15014
Kiss▁	-15015
Lucy▁	-15016
Ring▁	-15017
Solom	-15018
Struc	-15019
Ulyss	-15020
Utah▁	-15021
acous	-15022
elia▁	-15023
lord▁	-15024
plain	-15025
rear▁	-15026
root▁	-15027
sort▁	-15028
trail	-15029
uddy▁	-15030
1981.▁	-15031
1982,▁	-15032
Allan▁	-15033
Arthur	-15034
Canal▁	-15035
Jamie▁	-15036
Larsen	-15037
Lucas▁	-15038
Morgan	-15039
Murphy	-15040
Round▁	-15041
Tehsil	-15042
Woods▁	-15043
alive▁	-15044
anarch	-15045
antin▁	-15046
antry▁	-15047
blind▁	-15048
cream▁	-15049
erner▁	-15050
files▁	-15051
partis	-15052
phones	-15053
ratio▁	-15054
sings▁	-15055
solve▁	-15056
tracks	-15057
Albania	-15058
Allier▁	-15059
Barnum▁	-15060
Bolivia	-15061
Channel	-15062
Collins	-15063
Double▁	-15064
Glasgow	-15065
Instead	-15066
Market▁	-15067
Middles	-15068
Return▁	-15069
Single▁	-15070
agents▁	-15071
antibio	-15072
average	-15073
demand▁	-15074
efully▁	-15075
injured	-15076
prevent	-15077
reservo	-15078
speaks▁	-15079
tarian▁	-15080
ulated▁	-15081
Armenia▁	-15082
Artists▁	-15083
Diocese▁	-15084
Eduardo▁	-15085
Location	-15086
Mammals▁	-15087
Masters▁	-15088
Mitchell	-15089
Stadium▁	-15090
Township	-15091
Transit▁	-15092
Usually▁	-15093
charges▁	-15094
dialect▁	-15095
efforts▁	-15096
identity	-15097
invaded▁	-15098
message▁	-15099
promise▁	-15100
saffron▁	-15101
scoring▁	-15102
Caroline▁	-15103
Germanic▁	-15104
Macedonia	-15105
Railroad▁	-15106
Released▁	-15107
Schleswig	-15108
Starting▁	-15109
attempts▁	-15110
branches▁	-15111
catchment	-15112
diameter▁	-15113
displays▁	-15114
favorite▁	-15115
intellect	-15116
mainland▁	-15117
manuscrip	-15118
rainfall▁	-15119
subjects▁	-15120
volcanic▁	-15121
wrestling	-15122
defeating▁	-15123
necessary▁	-15124
parliament	-15125
populated▁	-15126
programme▁	-15127
wrestlers▁	-15128
Alexandria▁	-15129
Bundesliga▁	-15130
Ecuadorian▁	-15131
autonomous▁	-15132
congestive▁	-15133
independent	-15134
applications	-15135
complicated▁	-15136
institution▁	-15137
politicians▁	-15138
photographer▁	-15139
professionally▁	-15140
02	-15141
6/	-15142
Fé	-15143
Hä	-15144
Jú	-15145
LL	-15146
Ya	-15147
114	-15148
116	-15149
130	-15150
72▁	-15151
85▁	-15152
DNA	-15153
Dag	-15154
NCA	-15155
eta	-15156
fea	-15157
ieg	-15158
una	-15159
vs▁	-15160
1989	-15161
Amy▁	-15162
Antl	-15163
Aver	-15164
Calg	-15165
Cont	-15166
Drug	-15167
Feld	-15168
Fras	-15169
Fund	-15170
Java	-15171
Leic	-15172
Lou▁	-15173
Marx	-15174
Piet	-15175
RFC▁	-15176
Rica	-15177
Sist	-15178
TNA▁	-15179
Trev	-15180
Vamp	-15181
cott	-15182
eas▁	-15183
ewic	-15184
gae▁	-15185
ikh▁	-15186
ises	-15187
iti▁	-15188
jack	-15189
kers	-15190
lio▁	-15191
ller	-15192
milk	-15193
ogo▁	-15194
sen▁	-15195
they	-15196
tim▁	-15197
||29	-15198
100,▁	-15199
1869▁	-15200
1888▁	-15201
1994.	-15202
2–199	-15203
6–199	-15204
Aleks	-15205
Artem	-15206
Aude▁	-15207
Flag▁	-15208
Isle▁	-15209
Karab	-15210
Kyrgy	-15211
Near▁	-15212
Scand	-15213
Vegas	-15214
Yang▁	-15215
brown	-15216
depic	-15217
deriv	-15218
epic▁	-15219
esto▁	-15220
etti▁	-15221
fear▁	-15222
grade	-15223
inner	-15224
itta▁	-15225
lava▁	-15226
lineb	-15227
logo▁	-15228
olve▁	-15229
ously	-15230
oven▁	-15231
rapid	-15232
snow▁	-15233
umes▁	-15234
upta▁	-15235
urity	-15236
|1988	-15237
1945,▁	-15238
1968,▁	-15239
1969)▁	-15240
1974,▁	-15241
1975.▁	-15242
1981,▁	-15243
1983.▁	-15244
Adult▁	-15245
Being▁	-15246
Buddy▁	-15247
Clara▁	-15248
Congo▁	-15249
Linux▁	-15250
Orland	-15251
Paragu	-15252
Place▁	-15253
Sandy▁	-15254
Wings▁	-15255
bread▁	-15256
cargo▁	-15257
collap	-15258
encoun	-15259
eness▁	-15260
eting▁	-15261
explan	-15262
manga▁	-15263
phenom	-15264
propor	-15265
renal▁	-15266
rooms▁	-15267
target	-15268
width▁	-15269
1941),▁	-15270
Conrad▁	-15271
Inside▁	-15272
Normand	-15273
Pacific	-15274
Phoenix	-15275
Racing▁	-15276
Sophie▁	-15277
Vishnu▁	-15278
Warsaw▁	-15279
corner▁	-15280
driven▁	-15281
ketball	-15282
muscle▁	-15283
scheme▁	-15284
unless▁	-15285
|2000||	-15286
|2002||	-15287
(1999).▁	-15288
Against▁	-15289
Berkeley	-15290
Capitol▁	-15291
Commons▁	-15292
Frances▁	-15293
Introduc	-15294
Robinson	-15295
Virtual▁	-15296
alcohol▁	-15297
centers▁	-15298
communic	-15299
cyclist▁	-15300
drawing▁	-15301
graphic▁	-15302
greatly▁	-15303
hormone▁	-15304
insects▁	-15305
nominee▁	-15306
pandemic	-15307
produced	-15308
samples▁	-15309
session▁	-15310
signals▁	-15311
singers▁	-15312
sitting▁	-15313
symptoms	-15314
villages	-15315
Americans	-15316
Brittany▁	-15317
Edinburgh	-15318
Guatemala	-15319
Tunisian▁	-15320
cerebral▁	-15321
following	-15322
functions	-15323
governed▁	-15324
including	-15325
maintain▁	-15326
mechanics	-15327
modified▁	-15328
populous▁	-15329
religions	-15330
sculptor▁	-15331
sexually▁	-15332
sporting▁	-15333
switched▁	-15334
tourists▁	-15335
candidates	-15336
cricketer▁	-15337
gradually▁	-15338
organised▁	-15339
pulmonary▁	-15340
rebellion▁	-15341
secretary▁	-15342
shortened▁	-15343
volcanoes▁	-15344
|1999/00||	-15345
|2000/01||	-15346
|2002/03||	-15347
|2006/07||	-15348
Hurricanes▁	-15349
artificial▁	-15350
boundaries▁	-15351
theologian▁	-15352
Nickelodeon▁	-15353
contributed▁	-15354
communication▁	-15355
transportation▁	-15356
))	-15357
DM	-15358
Gó	-15359
IF	-15360
kö	-15361
×▁	-15362
áz	-15363
ý▁	-15364
(4▁	-15365
153	-15366
74▁	-15367
82.	-15368
95▁	-15369
Ech	-15370
Fai	-15371
Gay	-15372
Gaz	-15373
Hul	-15374
Rum	-15375
Sas	-15376
Sed	-15377
Yel	-15378
Yem	-15379
Zar	-15380
ias	-15381
kre	-15382
omy	-15383
py▁	-15384
sy▁	-15385
upl	-15386
yr▁	-15387
zan	-15388
(15▁	-15389
(24▁	-15390
(29▁	-15391
1870	-15392
1988	-15393
2||5	-15394
69,▁	-15395
:00▁	-15396
Bash	-15397
Chat	-15398
Cran	-15399
Crus	-15400
Hal▁	-15401
Hanc	-15402
Host	-15403
Lord	-15404
McCl	-15405
Myan	-15406
Nath	-15407
Near	-15408
Sass	-15409
Scor	-15410
Sequ	-15411
Thur	-15412
Tiff	-15413
What	-15414
airo	-15415
baby	-15416
bicy	-15417
bits	-15418
boat	-15419
calc	-15420
cosm	-15421
ects	-15422
etor	-15423
ible	-15424
meat	-15425
much	-15426
nitz	-15427
ović	-15428
pend	-15429
soil	-15430
uber	-15431
zoo▁	-15432
,000.	-15433
1861▁	-15434
1943)	-15435
1947)	-15436
1–199	-15437
Adela	-15438
Aster	-15439
Baker	-15440
Bloom	-15441
Ghost	-15442
Kids▁	-15443
Rebec	-15444
Songs	-15445
Towns	-15446
Twent	-15447
Uzbek	-15448
Walk▁	-15449
ails▁	-15450
apers	-15451
dress	-15452
drink	-15453
drop▁	-15454
elyn▁	-15455
emia▁	-15456
enly▁	-15457
fill▁	-15458
fresh	-15459
ghost	-15460
image	-15461
kness	-15462
learn	-15463
outs▁	-15464
patri	-15465
pilot	-15466
raph▁	-15467
recre	-15468
refug	-15469
reput	-15470
shell	-15471
sted▁	-15472
tham▁	-15473
|1980	-15474
1970.▁	-15475
Angel▁	-15476
Annie▁	-15477
Armed▁	-15478
Baker▁	-15479
INSEE▁	-15480
Jakart	-15481
Jorge▁	-15482
Karen▁	-15483
Magic▁	-15484
Oblast	-15485
Online	-15486
Pence▁	-15487
Plant▁	-15488
Scooby	-15489
Tyler▁	-15490
Wells▁	-15491
astero	-15492
barrel	-15493
begins	-15494
bottom	-15495
breast	-15496
broad▁	-15497
cable▁	-15498
castle	-15499
cloud▁	-15500
coffee	-15501
corner	-15502
corps▁	-15503
defend	-15504
gender	-15505
ilian▁	-15506
lights	-15507
moons▁	-15508
prosec	-15509
rifle▁	-15510
scope▁	-15511
Avenue▁	-15512
Carmen▁	-15513
Eleven▁	-15514
Foster▁	-15515
Gardens	-15516
Motion▁	-15517
Parker▁	-15518
Personn	-15519
Simpson	-15520
Windows	-15521
charts▁	-15522
circle▁	-15523
credit▁	-15524
cyclist	-15525
emperor	-15526
females	-15527
itting▁	-15528
papers▁	-15529
wooden▁	-15530
|1993/9	-15531
Climate▁	-15532
Harrison	-15533
Hephaest	-15534
Leopold▁	-15535
Schools▁	-15536
aspects▁	-15537
chicken▁	-15538
finished	-15539
funeral▁	-15540
progress	-15541
purposes	-15542
ranking▁	-15543
telescop	-15544
turbine▁	-15545
versions	-15546
warning▁	-15547
–2014),▁	-15548
Brooklyn▁	-15549
Cemetery▁	-15550
Johannes▁	-15551
Shizuoka▁	-15552
alliance▁	-15553
dinosaurs	-15554
educator▁	-15555
grandson▁	-15556
momentum▁	-15557
nitrogen▁	-15558
northwest	-15559
operation	-15560
Assistant▁	-15561
Newcastle▁	-15562
Philharmon	-15563
Uruguayan▁	-15564
announces▁	-15565
elevation▁	-15566
essential▁	-15567
households	-15568
sponsored▁	-15569
Blackhawks▁	-15570
Mathematics	-15571
traditions▁	-15572
understood▁	-15573
centenarians	-15574
differences▁	-15575
illustrated▁	-15576
specifically▁	-15577
Administration▁	-15578
-2	-15579
52	-15580
93	-15581
</	-15582
AB	-15583
GE	-15584
HT	-15585
oj	-15586
ém	-15587
ни	-15588
17.	-15589
63▁	-15590
77.	-15591
93.	-15592
Asc	-15593
Gob	-15594
Haf	-15595
Kem	-15596
Kri	-15597
Mys	-15598
Ord	-15599
Zam	-15600
pin	-15601
rav	-15602
ska	-15603
vow	-15604
yan	-15605
zes	-15606
(13▁	-15607
(26▁	-15608
5||4	-15609
68,▁	-15610
Eva▁	-15611
Guay	-15612
Hang	-15613
Jamm	-15614
Pan▁	-15615
Seng	-15616
Shap	-15617
Tech	-15618
Vale	-15619
abor	-15620
alay	-15621
aria	-15622
atra	-15623
bat▁	-15624
cany	-15625
come	-15626
doub	-15627
feed	-15628
frec	-15629
inqu	-15630
itis	-15631
loan	-15632
mad▁	-15633
male	-15634
offs	-15635
oles	-15636
onna	-15637
oons	-15638
pets	-15639
rit▁	-15640
sieg	-15641
stal	-15642
tea▁	-15643
upo▁	-15644
zon▁	-15645
||14	-15646
(1990	-15647
1871▁	-15648
1885▁	-15649
1937)	-15650
Advis	-15651
Allen	-15652
Anast	-15653
Chlor	-15654
Exper	-15655
Irish	-15656
Marie	-15657
Mater	-15658
Miner	-15659
Movie	-15660
Plant	-15661
Rush▁	-15662
Sched	-15663
Stone	-15664
Tang▁	-15665
True▁	-15666
Work▁	-15667
aise▁	-15668
amps▁	-15669
anta▁	-15670
bear▁	-15671
chann	-15672
drain	-15673
eats▁	-15674
eless	-15675
embry	-15676
eric▁	-15677
hands	-15678
jump▁	-15679
mild▁	-15680
oxidi	-15681
pare▁	-15682
petro	-15683
photo	-15684
stra▁	-15685
tico▁	-15686
waves	-15687
(1980)	-15688
1963,▁	-15689
1963.▁	-15690
1971.▁	-15691
1975,▁	-15692
1983,▁	-15693
1988)▁	-15694
6||0||	-15695
Anatol	-15696
Chart▁	-15697
Denver	-15698
Edward	-15699
Hautes	-15700
Import	-15701
Indus▁	-15702
Knight	-15703
Milan▁	-15704
Monten	-15705
Napole	-15706
Rotter	-15707
Sacram	-15708
Still▁	-15709
Title▁	-15710
Travel	-15711
Walker	-15712
Wednes	-15713
beginn	-15714
disput	-15715
emble▁	-15716
encycl	-15717
expand	-15718
facts▁	-15719
fluid▁	-15720
format	-15721
gases▁	-15722
genes▁	-15723
humid▁	-15724
inside	-15725
isted▁	-15726
legiti	-15727
leton▁	-15728
noble▁	-15729
rings▁	-15730
sevent	-15731
sopran	-15732
spots▁	-15733
syndic	-15734
tribes	-15735
1939),▁	-15736
Amanda▁	-15737
Antonio	-15738
Autonom	-15739
Darwin▁	-15740
Evangel	-15741
NASCAR▁	-15742
Naples▁	-15743
Record▁	-15744
Report▁	-15745
Review▁	-15746
Serbia▁	-15747
Venice▁	-15748
accept▁	-15749
crisis▁	-15750
desert▁	-15751
engines	-15752
genetic	-15753
guards▁	-15754
[...]
