{
    "model_type": "bpe",
    "vocab_size": 16000,
    "vocab": {
        "0": "<unk>",
        "1": "<s>",
        "2": "</s>",
        "3": "e▁",
        "4": "s▁",
        "5": "n▁",
        "6": "th",
        "7": "er",
        "8": "d▁",
        "9": "an",
        "10": "t▁",
        "11": ".▁",
        "12": ",▁",
        "13": "in",
        "14": "or",
        "15": "the▁",
        "16": "ar",
        "17": "y▁",
        "18": "al",
        "19": "en",
        "20": "a▁",
        "21": "of",
        "22": "on",
        "23": "ti",
        "24": "ed▁",
        "25": "of▁",
        "26": "er▁",
        "27": "in▁",
        "28": "o▁",
        "29": "es▁",
        "30": "ic",
        "31": "es",
        "32": "and▁",
        "33": "is",
        "34": "ou",
        "35": "is▁",
        "36": "an▁",
        "37": "om",
        "38": "on▁",
        "39": "as▁",
        "40": "ing",
        "41": "it",
        "42": "19",
        "43": "re",
        "44": "at",
        "45": "el",
        "46": "Th",
        "47": "am",
        "48": "ol",
        "49": "il",
        "50": "ch",
        "51": "st",
        "52": "to▁",
        "53": "ing▁",
        "54": "20",
        "55": "al▁",
        "56": "or▁",
        "57": "||",
        "58": "ur",
        "59": ")▁",
        "60": "ac",
        "61": "as",
        "62": "ir",
        "63": "pl",
        "64": "was▁",
        "65": "ro",
        "66": "us",
        "67": "ec",
        "68": "em",
        "69": "The▁",
        "70": "ati",
        "71": "th▁",
        "72": "at▁",
        "73": "ri",
        "74": "di",
        "75": "ag",
        "76": "all",
        "77": "ow",
        "78": "en▁",
        "79": "un",
        "80": "ov",
        "81": "ent",
        "82": "h▁",
        "83": "ad",
        "84": "om▁",
        "85": "fr",
        "86": "et",
        "87": "li",
        "88": "k▁",
        "89": "os",
        "90": "ul",
        "91": "oun",
        "92": "ap",
        "93": "le",
        "94": "from▁",
        "95": "id",
        "96": "ist",
        "97": "for▁",
        "98": "ab",
        "99": "ay",
        "100": "wh",
        "101": "ef",
        "102": "ig",
        "103": "op",
        "104": "iv",
        "105": "enc",
        "106": "ent▁",
        "107": "um",
        "108": "ers▁",
        "109": "200",
        "110": "ev",
        "111": "ed",
        "112": "av",
        "113": "by▁",
        "114": "-▁",
        "115": "res",
        "116": "ot",
        "117": "201",
        "118": "wi",
        "119": "mer",
        "120": "0▁",
        "121": "pe",
        "122": "sh",
        "123": "ep",
        "124": "St",
        "125": "im",
        "126": "com",
        "127": "are▁",
        "128": "ch▁",
        "129": "ther▁",
        "130": "ea",
        "131": "ers",
        "132": "Ch",
        "133": "oc",
        "134": "ican▁",
        "135": "Amer",
        "136": "and",
        "137": "with▁",
        "138": "eb",
        "139": "ey▁",
        "140": "tic",
        "141": "ere▁",
        "142": "ak",
        "143": "l▁",
        "144": "It▁",
        "145": "He▁",
        "146": "tr",
        "147": "ar▁",
        "148": "ple▁",
        "149": "ew",
        "150": ":▁",
        "151": "that▁",
        "152": "ation",
        "153": "erenc",
        "154": "ex",
        "155": "American▁",
        "156": "Ref",
        "157": "he▁",
        "158": "–▁",
        "159": "erences▁",
        "160": "ay▁",
        "161": "ic▁",
        "162": "for",
        "163": "References▁",
        "164": "uc",
        "165": "sp",
        "166": "ter",
        "167": "ly▁",
        "168": "ber▁",
        "169": "i▁",
        "170": "ity▁",
        "171": "199",
        "172": "Un",
        "173": "le▁",
        "174": "con",
        "175": "ople▁",
        "176": "18",
        "177": "1▁",
        "178": "pro",
        "179": "ation▁",
        "180": "od",
        "181": "ths▁",
        "182": "it▁",
        "183": "ts▁",
        "184": "ain",
        "185": "ub",
        "186": "gr",
        "187": "ian▁",
        "188": "anc",
        "189": "inc",
        "190": "ies▁",
        "191": "g▁",
        "192": "),▁",
        "193": "bor",
        "194": "all▁",
        "195": "ter▁",
        "196": "mov",
        "197": "ip",
        "198": "our",
        "199": "In▁",
        "200": "ion▁",
        "201": "so▁",
        "202": "ot▁",
        "203": "2▁",
        "204": "ear",
        "205": "ary▁",
        "206": "st▁",
        "207": "people▁",
        "208": "art",
        "209": "0||",
        "210": "ia▁",
        "211": "ame▁",
        "212": "198",
        "213": "est▁",
        "214": "ang",
        "215": "act",
        "216": "se",
        "217": "up",
        "218": "tion▁",
        "219": "In",
        "220": "\"▁",
        "221": "qu",
        "222": "lis",
        "223": "ate▁",
        "224": "ud",
        "225": "his▁",
        "226": "ut",
        "227": "play",
        "228": "5▁",
        "229": "ra",
        "230": "man",
        "231": "oo",
        "232": "born▁",
        "233": "4▁",
        "234": "be",
        "235": "wor",
        "236": "ew▁",
        "237": "sit",
        "238": "ated▁",
        "239": "3▁",
        "240": "ion",
        "241": "gh",
        "242": "Fr",
        "243": "own▁",
        "244": "ad▁",
        "245": "7▁",
        "246": "est",
        "247": "one▁",
        "248": "tion",
        "249": "6▁",
        "250": "also▁",
        "251": "ember▁",
        "252": "el▁",
        "253": "rec",
        "254": "be▁",
        "255": "ian",
        "256": "197",
        "257": "Mar",
        "258": "has▁",
        "259": "ir▁",
        "260": "pr",
        "261": "m▁",
        "262": "bu",
        "263": "og",
        "264": "ited▁",
        "265": "ave▁",
        "266": "web",
        "267": "An",
        "268": "ich▁",
        "269": "Al",
        "270": "8▁",
        "271": "ld▁",
        "272": "out▁",
        "273": "age▁",
        "274": "ff",
        "275": "|-▁",
        "276": "ill",
        "277": "fir",
        "278": "par",
        "279": "websit",
        "280": "rit",
        "281": "were▁",
        "282": "ents▁",
        "283": "end",
        "284": "aw",
        "285": "ount",
        "286": "me",
        "287": "igh",
        "288": "ob",
        "289": "En",
        "290": "str",
        "291": "A▁",
        "292": "Ar",
        "293": "bir",
        "294": "the",
        "295": "196",
        "296": "United▁",
        "297": "et▁",
        "298": "ess",
        "299": "bec",
        "300": "am▁",
        "301": "ted▁",
        "302": "per",
        "303": "not▁",
        "304": ").▁",
        "305": "Other▁",
        "306": "which▁",
        "307": "ors▁",
        "308": "ve▁",
        "309": "por",
        "310": "pol",
        "311": "ore▁",
        "312": "ass",
        "313": "ie▁",
        "314": "ph",
        "315": "mun",
        "316": "ell",
        "317": "ard",
        "318": "ow▁",
        "319": "ome▁",
        "320": "kn",
        "321": "il▁",
        "322": "9▁",
        "323": "Au",
        "324": "iti",
        "325": "first▁",
        "326": "have▁",
        "327": "cl",
        "328": "ost▁",
        "329": "websites▁",
        "330": "Stat",
        "331": "te",
        "332": "form",
        "333": "ational▁",
        "334": "ther",
        "335": "ia",
        "336": "ric",
        "337": "ser",
        "338": "births▁",
        "339": "ong",
        "340": "other▁",
        "341": "195",
        "342": "ese▁",
        "343": "Le",
        "344": "194",
        "345": "us▁",
        "346": "f▁",
        "347": "tur",
        "348": "dea",
        "349": "ally▁",
        "350": "ine▁",
        "351": "ard▁",
        "352": "itic",
        "353": "au",
        "354": "ast",
        "355": "duc",
        "356": "row",
        "357": "tim",
        "358": "ial▁",
        "359": "Eng",
        "360": "ast▁",
        "361": "ern",
        "362": "dis",
        "363": "used▁",
        "364": "ne",
        "365": "ical▁",
        "366": "oot",
        "367": "we",
        "368": "ment▁",
        "369": "New▁",
        "370": "they▁",
        "371": "af",
        "372": "ist▁",
        "373": "ong▁",
        "374": "lish",
        "375": "sc",
        "376": "ge▁",
        "377": "ant",
        "378": "can▁",
        "379": "col",
        "380": "had▁",
        "381": "ound▁",
        "382": "ain▁",
        "383": "land",
        "384": "Sh",
        "385": "193",
        "386": "use▁",
        "387": "Com",
        "388": "ord",
        "389": "are",
        "390": "tw",
        "391": "writ",
        "392": "su",
        "393": "uary▁",
        "394": "ory▁",
        "395": "ib",
        "396": "ade▁",
        "397": "||0||",
        "398": "their▁",
        "399": "its▁",
        "400": "mus",
        "401": "who▁",
        "402": "ue▁",
        "403": "This▁",
        "404": "ks▁",
        "405": ";▁",
        "406": "man▁",
        "407": "known▁",
        "408": "comp",
        "409": "ootb",
        "410": "um▁",
        "411": "ver",
        "412": "ens",
        "413": "ish▁",
        "414": "ke▁",
        "415": "oh",
        "416": "pres",
        "417": "She▁",
        "418": "politic",
        "419": "iz",
        "420": "eg",
        "421": "ice▁",
        "422": "her▁",
        "423": "p▁",
        "424": "call",
        "425": "Ger",
        "426": "but▁",
        "427": "bo",
        "428": "ind",
        "429": "ound",
        "430": "id▁",
        "431": "sy",
        "432": "dr",
        "433": "=\"",
        "434": "to",
        "435": "ision▁",
        "436": "about▁",
        "437": "mon",
        "438": "sing",
        "439": "cent",
        "440": "many▁",
        "441": "ant▁",
        "442": "ly",
        "443": "ach",
        "444": "att",
        "445": "ans",
        "446": "called▁",
        "447": "tis",
        "448": "Nor",
        "449": "They▁",
        "450": "ann",
        "451": "192",
        "452": "land▁",
        "453": "Par",
        "454": "||1",
        "455": "ever",
        "456": "Riv",
        "457": "ber",
        "458": "Bri",
        "459": "span",
        "460": "deaths▁",
        "461": "po",
        "462": "tel",
        "463": "if",
        "464": "\"|",
        "465": "ous▁",
        "466": "bl",
        "467": "ich",
        "468": "died▁",
        "469": "ack▁",
        "470": "amp",
        "471": "x▁",
        "472": "States▁",
        "473": "ack",
        "474": "movies▁",
        "475": "ake▁",
        "476": "ivers",
        "477": "oug",
        "478": "made▁",
        "479": "00",
        "480": "ts",
        "481": "most▁",
        "482": "ince▁",
        "483": "this▁",
        "484": "ould▁",
        "485": "17",
        "486": "Wor",
        "487": "ign",
        "488": "reg",
        "489": "ased▁",
        "490": "year",
        "491": "ous",
        "492": "ess▁",
        "493": "mar",
        "494": "elec",
        "495": "ill▁",
        "496": "der▁",
        "497": "min",
        "498": "incl",
        "499": "em▁",
        "500": "illi",
        "501": "footb",
        "502": "ace▁",
        "503": "two▁",
        "504": "Jap",
        "505": "ater▁",
        "506": "ght▁",
        "507": "movie▁",
        "508": "ities▁",
        "509": "gu",
        "510": "includ",
        "511": "lar",
        "512": "tl",
        "513": "Sp",
        "514": "nam",
        "515": "fl",
        "516": "Con",
        "517": "ship",
        "518": "ough▁",
        "519": "into▁",
        "520": "co",
        "521": "Wh",
        "522": "after▁",
        "523": "pop",
        "524": "inn",
        "525": "Franc",
        "526": "arr",
        "527": "ol▁",
        "528": "adi",
        "529": "ath",
        "530": "Liv",
        "531": "tish▁",
        "532": "Jan",
        "533": "Gr",
        "534": "Ac",
        "535": "ish",
        "536": "ity",
        "537": "off",
        "538": "outh▁",
        "539": "ah",
        "540": "atur",
        "541": "overn",
        "542": "u▁",
        "543": "Sc",
        "544": "ree▁",
        "545": "tal",
        "546": "Joh",
        "547": "gen",
        "548": "I▁",
        "549": "Count",
        "550": "been▁",
        "551": "ust▁",
        "552": "evision▁",
        "553": "als▁",
        "554": "dist",
        "555": "national▁",
        "556": "ans▁",
        "557": "River▁",
        "558": "ey",
        "559": "grap",
        "560": "olog",
        "561": "ablish",
        "562": "ide▁",
        "563": "up▁",
        "564": "ten▁",
        "565": "Pe",
        "566": "lin",
        "567": "az",
        "568": "1,▁",
        "569": "establish",
        "570": "enti",
        "571": "produc",
        "572": "own",
        "573": "mp",
        "574": "ause▁",
        "575": "ments▁",
        "576": "ubl",
        "577": "||||",
        "578": "more▁",
        "579": "liv",
        "580": "ond",
        "581": "ell▁",
        "582": "direc",
        "583": "when▁",
        "584": "Col",
        "585": "|200",
        "586": "As",
        "587": "enn",
        "588": "sec",
        "589": "bet",
        "590": "Can",
        "591": "lish▁",
        "592": "ence▁",
        "593": "ide",
        "594": "10",
        "595": "our▁",
        "596": "air",
        "597": "any▁",
        "598": "||2",
        "599": "uring▁",
        "600": "iss",
        "601": "dep",
        "602": "ings▁",
        "603": "Pres",
        "604": "pos",
        "605": "he",
        "606": "television▁",
        "607": "org",
        "608": "fam",
        "609": "English▁",
        "610": "ians▁",
        "611": "ations▁",
        "612": "city▁",
        "613": "Is",
        "614": "Leag",
        "615": "Oc",
        "616": "des",
        "617": "cho",
        "618": "Indi",
        "619": "Car",
        "620": "||0▁",
        "621": "graph",
        "622": "de▁",
        "623": "vi",
        "624": "Ph",
        "625": "ages▁",
        "626": "Yor",
        "627": "ebr",
        "628": "Gre",
        "629": "January▁",
        "630": "British▁",
        "631": "Univers",
        "632": "actors▁",
        "633": "grou",
        "634": "became▁",
        "635": "ies",
        "636": "os▁",
        "637": "im▁",
        "638": "ail",
        "639": "Living▁",
        "640": "Pol",
        "641": "part▁",
        "642": "16",
        "643": "World▁",
        "644": "Ge",
        "645": "ood▁",
        "646": "uss",
        "647": "ames▁",
        "648": "old▁",
        "649": "hel",
        "650": "nor",
        "651": "tic▁",
        "652": "son▁",
        "653": "ne▁",
        "654": "popul",
        "655": "ash",
        "656": "ok",
        "657": "der",
        "658": "serv",
        "659": "coun",
        "660": "count",
        "661": "Tr",
        "662": "ock",
        "663": "Cal",
        "664": "diff",
        "665": "ook▁",
        "666": "C▁",
        "667": "yp",
        "668": "eng",
        "669": "ik",
        "670": "icip",
        "671": "20▁",
        "672": "Pr",
        "673": "cont",
        "674": "rem",
        "675": "Jun",
        "676": "she▁",
        "677": "ight▁",
        "678": "oll",
        "679": "ive▁",
        "680": "15",
        "681": "than▁",
        "682": "played▁",
        "683": "ild",
        "684": "ome",
        "685": "Rep",
        "686": "ists▁",
        "687": "fe",
        "688": "ile▁",
        "689": "sk",
        "690": "ident▁",
        "691": "ple",
        "692": "tit",
        "693": "For",
        "694": "ept",
        "695": "aj",
        "696": "cre",
        "697": "Sw",
        "698": "Cl",
        "699": "rele",
        "700": "over▁",
        "701": "2\"|",
        "702": "establishments▁",
        "703": "oy",
        "704": "only▁",
        "705": "(200",
        "706": "Br",
        "707": "les▁",
        "708": "like▁",
        "709": "Bl",
        "710": "spec",
        "711": "=\"2\"|",
        "712": "Fren",
        "713": "sur",
        "714": "4,▁",
        "715": "2,▁",
        "716": "commun",
        "717": "old",
        "718": "ween▁",
        "719": "able▁",
        "720": "Mus",
        "721": "ance▁",
        "722": "cri",
        "723": "pers",
        "724": "Pro",
        "725": "ost",
        "726": "icipal",
        "727": "ean▁",
        "728": "fi",
        "729": "alb",
        "730": "some▁",
        "731": "br",
        "732": "z▁",
        "733": "Ital",
        "734": "S▁",
        "735": "inter",
        "736": "char",
        "737": "ton▁",
        "738": "March▁",
        "739": "3,▁",
        "740": "1)▁",
        "741": "very▁",
        "742": "pre",
        "743": "ograph",
        "744": "bur",
        "745": "ment",
        "746": "op▁",
        "747": "de",
        "748": "tiv",
        "749": "Nov",
        "750": "riv",
        "751": "ut▁",
        "752": "\".▁",
        "753": "ine",
        "754": "sm",
        "755": "Dec",
        "756": "thr",
        "757": "May▁",
        "758": "between▁",
        "759": "Pl",
        "760": "ays▁",
        "761": "ite▁",
        "762": "ue",
        "763": "Apr",
        "764": "Chr",
        "765": "ry▁",
        "766": "cap",
        "767": "Ad",
        "768": "num",
        "769": "Eur",
        "770": "rowspan",
        "771": "time▁",
        "772": "National▁",
        "773": "ug",
        "774": "name▁",
        "775": "prov",
        "776": "eral▁",
        "777": "atic",
        "778": "People▁",
        "779": "||3",
        "780": "Sept",
        "781": "ting▁",
        "782": "On▁",
        "783": "tor",
        "784": "April▁",
        "785": "oci",
        "786": "angu",
        "787": "0||0||",
        "788": "ase▁",
        "789": "French▁",
        "790": "South▁",
        "791": "because▁",
        "792": "tions▁",
        "793": "190",
        "794": "ys",
        "795": "7,▁",
        "796": "John▁",
        "797": "Austr",
        "798": "4)▁",
        "799": "Austral",
        "800": "Or",
        "801": "ate",
        "802": "3)▁",
        "803": "June▁",
        "804": "6,▁",
        "805": "ul▁",
        "806": "Min",
        "807": "there▁",
        "808": "Aw",
        "809": "work",
        "810": "Jul",
        "811": "ose▁",
        "812": "ond▁",
        "813": "Pri",
        "814": "cons",
        "815": "202",
        "816": "8,▁",
        "817": "September▁",
        "818": "ood",
        "819": "Aug",
        "820": "me▁",
        "821": "ered▁",
        "822": "2)▁",
        "823": "such▁",
        "824": "istory▁",
        "825": "tober▁",
        "826": "October▁",
        "827": "where▁",
        "828": "state▁",
        "829": "8)▁",
        "830": "There▁",
        "831": "ina▁",
        "832": "7)▁",
        "833": "York▁",
        "834": "Mon",
        "835": "centur",
        "836": "ative▁",
        "837": "Inter",
        "838": "August▁",
        "839": "5)▁",
        "840": "fin",
        "841": "Af",
        "842": "German▁",
        "843": "te▁",
        "844": "til▁",
        "845": "5,▁",
        "846": "Europ",
        "847": "Japan",
        "848": "December▁",
        "849": "during▁",
        "850": "ros",
        "851": "July▁",
        "852": "Rom",
        "853": "ress",
        "854": "19▁",
        "855": "ater",
        "856": "differ",
        "857": "found▁",
        "858": "ture▁",
        "859": "'▁",
        "860": "Fl",
        "861": "ates▁",
        "862": "chang",
        "863": "won▁",
        "864": "Febr",
        "865": "will▁",
        "866": "cur",
        "867": "November▁",
        "868": "ure",
        "869": "ually▁",
        "870": "football▁",
        "871": "6)▁",
        "872": "League▁",
        "873": "io▁",
        "874": "govern",
        "875": "ton",
        "876": "ily▁",
        "877": "Gu",
        "878": "ick",
        "879": "langu",
        "880": "ely▁",
        "881": "new▁",
        "882": "icial▁",
        "883": "distric",
        "884": "Rel",
        "885": "February▁",
        "886": "until▁",
        "887": "(199",
        "888": "emb",
        "889": "song",
        "890": "North▁",
        "891": "way▁",
        "892": "rel",
        "893": "go",
        "894": "ear▁",
        "895": "players▁",
        "896": "bas",
        "897": "Russ",
        "898": "ce▁",
        "899": "dec",
        "900": "member▁",
        "901": "Dea",
        "902": "port",
        "903": "University▁",
        "904": "former▁",
        "905": "ort",
        "906": "would▁",
        "907": "sa",
        "908": "1.▁",
        "909": "series▁",
        "910": "div",
        "911": "States",
        "912": "Man",
        "913": "start",
        "914": "may▁",
        "915": "ampion",
        "916": "ons▁",
        "917": "years▁",
        "918": "ps▁",
        "919": "0,▁",
        "920": "ship▁",
        "921": "released▁",
        "922": "mer▁",
        "923": "do",
        "924": "Am",
        "925": "2.▁",
        "926": "ire▁",
        "927": "9,▁",
        "928": "int",
        "929": "ress▁",
        "930": "ement▁",
        "931": "different▁",
        "932": "ge",
        "933": "efore▁",
        "934": "sup",
        "935": "ern▁",
        "936": "end▁",
        "937": "bel",
        "938": "ref",
        "939": "re▁",
        "940": "ie",
        "941": "ama▁",
        "942": "comm",
        "943": "then▁",
        "944": "artment▁",
        "945": "ouse▁",
        "946": "law",
        "947": "beg",
        "948": "loc",
        "949": "ics▁",
        "950": "tor▁",
        "951": "9)▁",
        "952": "arm",
        "953": "ank",
        "954": "three▁",
        "955": "ins",
        "956": "mil",
        "957": "bro",
        "958": "|199",
        "959": "ublic▁",
        "960": "El",
        "961": "ale▁",
        "962": "plac",
        "963": "ister▁",
        "964": "age",
        "965": "ital▁",
        "966": "Ser",
        "967": "sol",
        "968": "ower▁",
        "969": "President▁",
        "970": "ld",
        "971": "Bar",
        "972": "His▁",
        "973": "inv",
        "974": "mod",
        "975": "fe▁",
        "976": "car",
        "977": "mak",
        "978": "gre",
        "979": "thern▁",
        "980": "Cent",
        "981": "0)▁",
        "982": "tri",
        "983": "ets▁",
        "984": "ica▁",
        "985": "Char",
        "986": "since▁",
        "987": "syst",
        "988": "municipal",
        "989": "again",
        "990": "ai",
        "991": "rop",
        "992": "found",
        "993": "sub",
        "994": "make▁",
        "995": "ifor",
        "996": "II",
        "997": "same▁",
        "998": "ect▁",
        "999": "def",
        "1000": "Commun",
        "1001": "3.▁",
        "1002": "app",
        "1003": "no▁",
        "1004": "ows▁",
        "1005": "sou",
        "1006": "stri",
        "1007": "istor",
        "1008": "Mich",
        "1009": "work▁",
        "1010": "player▁",
        "1011": "Gen",
        "1012": "County▁",
        "1013": ",00",
        "1014": "iforn",
        "1015": "France",
        "1016": "tive▁",
        "1017": "Em",
        "1018": "some",
        "1019": "do▁",
        "1020": "areer▁",
        "1021": "Californ",
        "1022": "Se",
        "1023": "vers",
        "1024": "football",
        "1025": "ating▁",
        "1026": "Ab",
        "1027": "Off",
        "1028": "lymp",
        "1029": "City▁",
        "1030": "prof",
        "1031": "ore",
        "1032": "Ang",
        "1033": "Olymp",
        "1034": "ub▁",
        "1035": "colspan",
        "1036": "After▁",
        "1037": "later▁",
        "1038": "music",
        "1039": "them▁",
        "1040": "ca",
        "1041": "Me",
        "1042": "dev",
        "1043": "met",
        "1044": "4.▁",
        "1045": "als",
        "1046": "ach▁",
        "1047": "Part",
        "1048": "5.▁",
        "1049": "Mov",
        "1050": "7.▁",
        "1051": "countr",
        "1052": "roc",
        "1053": "music▁",
        "1054": "often▁",
        "1055": "Per",
        "1056": "actor▁",
        "1057": "ur▁",
        "1058": "Willi",
        "1059": "sel",
        "1060": "ort▁",
        "1061": "=\"2\"|-",
        "1062": "appe",
        "1063": "pages▁",
        "1064": "town▁",
        "1065": "named▁",
        "1066": "til",
        "1067": "ester",
        "1068": "0.▁",
        "1069": "Ed",
        "1070": "Ear",
        "1071": "ual▁",
        "1072": "County",
        "1073": "ards▁",
        "1074": "Di",
        "1075": "189",
        "1076": "time",
        "1077": "through▁",
        "1078": "Rob",
        "1079": "times▁",
        "1080": "Ir",
        "1081": "being▁",
        "1082": "cul",
        "1083": "ook",
        "1084": "Re",
        "1085": "191",
        "1086": "ari",
        "1087": "ars▁",
        "1088": "Japanese▁",
        "1089": "Japan▁",
        "1090": "Her",
        "1091": "politician",
        "1092": "ounc",
        "1093": "based▁",
        "1094": "Related▁",
        "1095": "Cor",
        "1096": "seas",
        "1097": "acc",
        "1098": "8.▁",
        "1099": "ax",
        "1100": "Lond",
        "1101": "area▁",
        "1102": "second▁",
        "1103": "Afr",
        "1104": "each▁",
        "1105": "Tex",
        "1106": "ure▁",
        "1107": "rol",
        "1108": "started▁",
        "1109": "ty▁",
        "1110": "writer▁",
        "1111": "son",
        "1112": "cer",
        "1113": "ional▁",
        "1114": "over",
        "1115": "my▁",
        "1116": "gest▁",
        "1117": "present",
        "1118": "Bel",
        "1119": "As▁",
        "1120": "tics▁",
        "1121": "\",▁",
        "1122": "History▁",
        "1123": "organ",
        "1124": "oth",
        "1125": "ft▁",
        "1126": "Ex",
        "1127": "leg",
        "1128": "stor",
        "1129": "even▁",
        "1130": "Deaths▁",
        "1131": "Italian▁",
        "1132": "ens▁",
        "1133": "fiel",
        "1134": "Ne",
        "1135": "number▁",
        "1136": "ou▁",
        "1137": "typ",
        "1138": "him▁",
        "1139": "lead",
        "1140": "against▁",
        "1141": "wom",
        "1142": "giv",
        "1143": "lim",
        "1144": "sci",
        "1145": "tors▁",
        "1146": "ography▁",
        "1147": "How",
        "1148": "6.▁",
        "1149": "her",
        "1150": "13",
        "1151": "Te",
        "1152": "with",
        "1153": "War▁",
        "1154": "oper",
        "1155": "exam",
        "1156": "Scot",
        "1157": "ople",
        "1158": "12",
        "1159": "9.▁",
        "1160": "King",
        "1161": "bre",
        "1162": "Some▁",
        "1163": "He",
        "1164": "before▁",
        "1165": "V▁",
        "1166": "188",
        "1167": "err",
        "1168": "ek▁",
        "1169": "Canadi",
        "1170": "usually▁",
        "1171": "fil",
        "1172": "14",
        "1173": "usin",
        "1174": "ions▁",
        "1175": "bri",
        "1176": "can",
        "1177": "ins▁",
        "1178": "kill",
        "1179": "Be",
        "1180": "well▁",
        "1181": "Sy",
        "1182": "(198",
        "1183": "Chin",
        "1184": "ru",
        "1185": "ds▁",
        "1186": "art▁",
        "1187": "ass▁",
        "1188": "atic▁",
        "1189": "foll",
        "1190": "tre",
        "1191": "both▁",
        "1192": "Mc",
        "1193": "Govern",
        "1194": "department▁",
        "1195": "did▁",
        "1196": "00▁",
        "1197": "aur",
        "1198": "ams▁",
        "1199": "ead▁",
        "1200": "struc",
        "1201": "Wal",
        "1202": "Champion",
        "1203": "everal▁",
        "1204": ",000▁",
        "1205": "anim",
        "1206": "ains▁",
        "1207": "ix",
        "1208": "lig",
        "1209": "vo",
        "1210": "team▁",
        "1211": "|▁",
        "1212": "county▁",
        "1213": "med",
        "1214": "including▁",
        "1215": "ane▁",
        "1216": "ought▁",
        "1217": "onom",
        "1218": "one",
        "1219": "omin",
        "1220": "compos",
        "1221": "high",
        "1222": "place▁",
        "1223": "them",
        "1224": "early▁",
        "1225": "winn",
        "1226": "2010▁",
        "1227": "under▁",
        "1228": "population▁",
        "1229": "best▁",
        "1230": "compl",
        "1231": "sim",
        "1232": "aint",
        "1233": "these▁",
        "1234": "2020",
        "1235": "scho",
        "1236": "These▁",
        "1237": "small▁",
        "1238": "elop",
        "1239": "When▁",
        "1240": "contr",
        "1241": "around▁",
        "1242": "igh▁",
        "1243": "ons",
        "1244": "(201",
        "1245": "could▁",
        "1246": "marri",
        "1247": "ucc",
        "1248": "&▁",
        "1249": "Bo",
        "1250": "War",
        "1251": "ants▁",
        "1252": "186",
        "1253": "hy",
        "1254": "day▁",
        "1255": "aged▁",
        "1256": "main▁",
        "1257": "profess",
        "1258": "century▁",
        "1259": "uk",
        "1260": "life▁",
        "1261": "region▁",
        "1262": "now▁",
        "1263": "career▁",
        "1264": "vis",
        "1265": "Ass",
        "1266": "tak",
        "1267": "hum",
        "1268": "For▁",
        "1269": "fa",
        "1270": "ig▁",
        "1271": "ign▁",
        "1272": "10▁",
        "1273": "Dis",
        "1274": "year▁",
        "1275": "ties▁",
        "1276": "website▁",
        "1277": "part",
        "1278": "get▁",
        "1279": "erg",
        "1280": "group▁",
        "1281": "Pa",
        "1282": "amm",
        "1283": "ket",
        "1284": "Sec",
        "1285": "Dav",
        "1286": "ery▁",
        "1287": "At▁",
        "1288": "ativ",
        "1289": "canc",
        "1290": "said▁",
        "1291": "histor",
        "1292": "Dem",
        "1293": "ors",
        "1294": "estern▁",
        "1295": "Sch",
        "1296": "ret",
        "1297": "import",
        "1298": "mat",
        "1299": "Swed",
        "1300": "let",
        "1301": "ral▁",
        "1302": "rul",
        "1303": "mu",
        "1304": "Canadian▁",
        "1305": "ocr",
        "1306": "tional▁",
        "1307": "Ro",
        "1308": "2020▁",
        "1309": "album",
        "1310": "several▁",
        "1311": "him",
        "1312": "orig",
        "1313": "port▁",
        "1314": "ned▁",
        "1315": "Qu",
        "1316": "lo",
        "1317": "Sup",
        "1318": "eas",
        "1319": "ice",
        "1320": "trans",
        "1321": "Lou",
        "1322": "Bra",
        "1323": "jo",
        "1324": "per▁",
        "1325": "pri",
        "1326": "itt",
        "1327": "Tur",
        "1328": "edi",
        "1329": "io",
        "1330": "stud",
        "1331": "Mun",
        "1332": "curr",
        "1333": "ght",
        "1334": "Ev",
        "1335": "game▁",
        "1336": "T▁",
        "1337": "world",
        "1338": "spe",
        "1339": "adem",
        "1340": "Pet",
        "1341": "/0",
        "1342": "187",
        "1343": "singer▁",
        "1344": "Roman▁",
        "1345": "ator▁",
        "1346": "ems▁",
        "1347": "if▁",
        "1348": "yn",
        "1349": "illion▁",
        "1350": "Phil",
        "1351": "set▁",
        "1352": "German",
        "1353": "ah▁",
        "1354": "district▁",
        "1355": "ica",
        "1356": "ze▁",
        "1357": "ism▁",
        "1358": "ove▁",
        "1359": "ublish",
        "1360": "family▁",
        "1361": "lev",
        "1362": "directed▁",
        "1363": "Dr",
        "1364": "cor",
        "1365": "2019",
        "1366": "buil",
        "1367": "ology▁",
        "1368": "iev",
        "1369": "ke",
        "1370": "stu",
        "1371": "One▁",
        "1372": "progr",
        "1373": "sl",
        "1374": "ana▁",
        "1375": "back▁",
        "1376": "near▁",
        "1377": "International▁",
        "1378": "w▁",
        "1379": "inal▁",
        "1380": "ements▁",
        "1381": "D▁",
        "1382": "itary▁",
        "1383": "municipality▁",
        "1384": "four▁",
        "1385": "zer",
        "1386": "form▁",
        "1387": "west▁",
        "1388": "lived▁",
        "1389": "els▁",
        "1390": "activ",
        "1391": "On",
        "1392": "play▁",
        "1393": "politician▁",
        "1394": "atis",
        "1395": "Cities▁",
        "1396": "ents",
        "1397": "ever▁",
        "1398": "ace",
        "1399": "ourn",
        "1400": "album▁",
        "1401": "follow",
        "1402": "yr",
        "1403": "And",
        "1404": "arch",
        "1405": "person▁",
        "1406": "Minister▁",
        "1407": "ition▁",
        "1408": "actress▁",
        "1409": "games▁",
        "1410": "aut",
        "1411": "water▁",
        "1412": "dio▁",
        "1413": "poin",
        "1414": "Co",
        "1415": "aff",
        "1416": "%▁",
        "1417": "Party▁",
        "1418": "ideo▁",
        "1419": "Dist",
        "1420": "ball▁",
        "1421": "act▁",
        "1422": "succ",
        "1423": "live▁",
        "1424": "William▁",
        "1425": "Dep",
        "1426": "Bu",
        "1427": "ste",
        "1428": "ert▁",
        "1429": "mo",
        "1430": "song▁",
        "1431": "House▁",
        "1432": "sts▁",
        "1433": "band▁",
        "1434": "ats▁",
        "1435": "Hol",
        "1436": "chem",
        "1437": "isti",
        "1438": "ley▁",
        "1439": "Communes▁",
        "1440": "auth",
        "1441": "while▁",
        "1442": "player",
        "1443": "anish▁",
        "1444": "though▁",
        "1445": "language▁",
        "1446": "Official▁",
        "1447": "important▁",
        "1448": "Kingd",
        "1449": "disc",
        "1450": "ire",
        "1451": "Award▁",
        "1452": "ature▁",
        "1453": "formed▁",
        "1454": "chil",
        "1455": "ized▁",
        "1456": "king▁",
        "1457": "Canad",
        "1458": "ak▁",
        "1459": "ning▁",
        "1460": "State▁",
        "1461": "people",
        "1462": "ick▁",
        "1463": "2017▁",
        "1464": "air▁",
        "1465": "The",
        "1466": "arti",
        "1467": "long",
        "1468": "Su",
        "1469": "18▁",
        "1470": "ix▁",
        "1471": "began▁",
        "1472": "E▁",
        "1473": "ary",
        "1474": "ang▁",
        "1475": "Indian▁",
        "1476": "Mal",
        "1477": "out",
        "1478": "chn",
        "1479": "ise▁",
        "1480": "appear",
        "1481": "line▁",
        "1482": "singer",
        "1483": "ier▁",
        "1484": "ung",
        "1485": "ect",
        "1486": "cr",
        "1487": "electr",
        "1488": "countri",
        "1489": "les",
        "1490": "ooks▁",
        "1491": "Australian▁",
        "1492": "ockey▁",
        "1493": "Il",
        "1494": "groups▁",
        "1495": "government▁",
        "1496": "ings",
        "1497": "what▁",
        "1498": "Vi",
        "1499": "fic",
        "1500": "large▁",
        "1501": "minist",
        "1502": "written▁",
        "1503": "Sal",
        "1504": "publish",
        "1505": "phys",
        "1506": "California▁",
        "1507": "Sen",
        "1508": "uck",
        "1509": "band",
        "1510": "King▁",
        "1511": "person",
        "1512": "day",
        "1513": "drama▁",
        "1514": "(2",
        "1515": "Mex",
        "1516": "uses▁",
        "1517": "add",
        "1518": "James▁",
        "1519": "San▁",
        "1520": "moved▁",
        "1521": "develop",
        "1522": "created▁",
        "1523": "Ber",
        "1524": "omb",
        "1525": "hear",
        "1526": "design",
        "1527": "ight",
        "1528": "orge▁",
        "1529": "fri",
        "1530": "||||||||",
        "1531": "Ju",
        "1532": "Angel",
        "1533": "Footb",
        "1534": "Movies▁",
        "1535": "till▁",
        "1536": "embers▁",
        "1537": "Jo",
        "1538": "ef▁",
        "1539": "means▁",
        "1540": "sign",
        "1541": "build",
        "1542": "(197",
        "1543": "Scho",
        "1544": "ied▁",
        "1545": "restl",
        "1546": "Texas▁",
        "1547": "lands▁",
        "1548": "Russian▁",
        "1549": "cy",
        "1550": "show▁",
        "1551": "nec",
        "1552": "ind▁",
        "1553": "Flor",
        "1554": "ird▁",
        "1555": "ajor▁",
        "1556": "ped▁",
        "1557": "ox",
        "1558": "umb",
        "1559": "Fir",
        "1560": "Pal",
        "1561": "vol",
        "1562": "ord▁",
        "1563": "Distric",
        "1564": "Tim",
        "1565": "US▁",
        "1566": "ext",
        "1567": "ony▁",
        "1568": "there",
        "1569": "2018▁",
        "1570": "Christi",
        "1571": "Bro",
        "1572": "busin",
        "1573": "edy▁",
        "1574": "tt",
        "1575": "Bas",
        "1576": "12▁",
        "1577": "stit",
        "1578": "2014▁",
        "1579": "using▁",
        "1580": "years",
        "1581": "ened▁",
        "1582": "ney▁",
        "1583": "largest▁",
        "1584": "ek",
        "1585": "ism",
        "1586": "ank▁",
        "1587": "Jos",
        "1588": "ews▁",
        "1589": "ful▁",
        "1590": "ith▁",
        "1591": "II▁",
        "1592": "bod",
        "1593": "Its▁",
        "1594": "Pak",
        "1595": "ame",
        "1596": ".\"▁",
        "1597": "ock▁",
        "1598": "last▁",
        "1599": "idd",
        "1600": "mag",
        "1601": "famous▁",
        "1602": "Med",
        "1603": "resp",
        "1604": "However",
        "1605": "any",
        "1606": "||1▁",
        "1607": "ches",
        "1608": "Reg",
        "1609": "how▁",
        "1610": "Politic",
        "1611": "country▁",
        "1612": "185",
        "1613": "record",
        "1614": "Spor",
        "1615": "held▁",
        "1616": "ger▁",
        "1617": "ible▁",
        "1618": "West▁",
        "1619": "Ale",
        "1620": "nov",
        "1621": "CO",
        "1622": "Mor",
        "1623": "George▁",
        "1624": "Sm",
        "1625": "ough",
        "1626": "ations",
        "1627": "miss",
        "1628": "read",
        "1629": "rece",
        "1630": "Democr",
        "1631": "||4",
        "1632": "ular▁",
        "1633": "ropical▁",
        "1634": "Sing",
        "1635": "Many▁",
        "1636": "ided▁",
        "1637": "Chic",
        "1638": "ence",
        "1639": "tions",
        "1640": "contin",
        "1641": "15▁",
        "1642": "but",
        "1643": "ith",
        "1644": "ago▁",
        "1645": "offic",
        "1646": "politicians▁",
        "1647": "ipp",
        "1648": "oph",
        "1649": "unc",
        "1650": "ult▁",
        "1651": "gener",
        "1652": "elected▁",
        "1653": "men",
        "1654": "Rich",
        "1655": "bi",
        "1656": "Sum",
        "1657": "capital▁",
        "1658": "long▁",
        "1659": "Rec",
        "1660": "death▁",
        "1661": "11▁",
        "1662": "prot",
        "1663": "Har",
        "1664": "ex▁",
        "1665": "la",
        "1666": "ext▁",
        "1667": "P▁",
        "1668": "war",
        "1669": "Cath",
        "1670": "els",
        "1671": "run",
        "1672": "much▁",
        "1673": "vill",
        "1674": "Sou",
        "1675": "Cap",
        "1676": "Mil",
        "1677": "Fre",
        "1678": "Miss",
        "1679": "Bur",
        "1680": "alist▁",
        "1681": "ended▁",
        "1682": "Kh",
        "1683": "so",
        "1684": "ined▁",
        "1685": "ution▁",
        "1686": "Mo",
        "1687": "France▁",
        "1688": "Wil",
        "1689": "und",
        "1690": "actor",
        "1691": "attle▁",
        "1692": "given▁",
        "1693": "cour",
        "1694": "sch",
        "1695": "Atl",
        "1696": "not",
        "1697": "aw▁",
        "1698": "30▁",
        "1699": "become▁",
        "1700": "European▁",
        "1701": "US",
        "1702": "each",
        "1703": "book▁",
        "1704": "married▁",
        "1705": "ael▁",
        "1706": "–200",
        "1707": "Prime▁",
        "1708": "million▁",
        "1709": "ai▁",
        "1710": "go▁",
        "1711": "still▁",
        "1712": "Braz",
        "1713": "team",
        "1714": "Republ",
        "1715": "served▁",
        "1716": "L▁",
        "1717": "é▁",
        "1718": "guit",
        "1719": "Austri",
        "1720": "right▁",
        "1721": "Most▁",
        "1722": "cens",
        "1723": "B▁",
        "1724": "Air",
        "1725": "living▁",
        "1726": "Spanish▁",
        "1727": "under",
        "1728": "anti",
        "1729": "||0||0||0||",
        "1730": "Tw",
        "1731": "Div",
        "1732": "Sci",
        "1733": "include▁",
        "1734": "my",
        "1735": "wro",
        "1736": "youn",
        "1737": "ivil▁",
        "1738": "Gl",
        "1739": "red▁",
        "1740": "Comp",
        "1741": "ver▁",
        "1742": "oge",
        "1743": "ovi",
        "1744": "ones",
        "1745": "eph",
        "1746": "Republic▁",
        "1747": "Pakist",
        "1748": "eff",
        "1749": "tem",
        "1750": "arry▁",
        "1751": "London▁",
        "1752": "mul",
        "1753": "light▁",
        "1754": "2019▁",
        "1755": "owns▁",
        "1756": "Cam",
        "1757": "forc",
        "1758": "Cr",
        "1759": "see▁",
        "1760": "ful",
        "1761": "north▁",
        "1762": "video▁",
        "1763": "Ap",
        "1764": "Res",
        "1765": "educ",
        "1766": "tain",
        "1767": "went▁",
        "1768": "hav",
        "1769": "system▁",
        "1770": "Bi",
        "1771": "Er",
        "1772": "La▁",
        "1773": "Lib",
        "1774": "ects▁",
        "1775": "rock▁",
        "1776": "atistics▁",
        "1777": "identi",
        "1778": "Du",
        "1779": "Sl",
        "1780": "home▁",
        "1781": "Fil",
        "1782": "happ",
        "1783": "ep▁",
        "1784": "ement",
        "1785": "ient▁",
        "1786": "De",
        "1787": "grow",
        "1788": "ner▁",
        "1789": "East▁",
        "1790": "Mac",
        "1791": "off▁",
        "1792": "ines▁",
        "1793": "First▁",
        "1794": "north",
        "1795": "League",
        "1796": "oss",
        "1797": "All▁",
        "1798": "east",
        "1799": "charac",
        "1800": "ier",
        "1801": "back",
        "1802": "ren▁",
        "1803": "probl",
        "1804": "May",
        "1805": "led▁",
        "1806": "ways▁",
        "1807": "wrote▁",
        "1808": "Kar",
        "1809": "ask",
        "1810": "ived▁",
        "1811": "built▁",
        "1812": "caused▁",
        "1813": "la▁",
        "1814": "partic",
        "1815": "professional▁",
        "1816": "Actors▁",
        "1817": "Los▁",
        "1818": "urric",
        "1819": "Ma",
        "1820": "ount▁",
        "1821": "ington▁",
        "1822": "Ze",
        "1823": "took▁",
        "1824": "popular▁",
        "1825": "cel",
        "1826": "John",
        "1827": "14▁",
        "1828": "Hen",
        "1829": "que▁",
        "1830": "common▁",
        "1831": "ics",
        "1832": "ones▁",
        "1833": "()▁",
        "1834": "fem",
        "1835": "word▁",
        "1836": "ettl",
        "1837": "journ",
        "1838": "less▁",
        "1839": "Lu",
        "1840": "ze",
        "1841": "dia▁",
        "1842": "stand",
        "1843": "footballer▁",
        "1844": "Vir",
        "1845": "ois▁",
        "1846": "ently▁",
        "1847": "Don",
        "1848": "Not",
        "1849": "ri▁",
        "1850": "Sim",
        "1851": "writer",
        "1852": "From▁",
        "1853": "stage▁",
        "1854": "expl",
        "1855": "Georg",
        "1856": "left▁",
        "1857": "ft",
        "1858": "equ",
        "1859": "Kans",
        "1860": "species▁",
        "1861": "vir",
        "1862": "coll",
        "1863": "plays▁",
        "1864": "ve",
        "1865": "came▁",
        "1866": "ches▁",
        "1867": "military▁",
        "1868": "sometimes▁",
        "1869": "fre",
        "1870": "action▁",
        "1871": "political▁",
        "1872": "stat",
        "1873": "another▁",
        "1874": "pass",
        "1875": "Cour",
        "1876": "16▁",
        "1877": "2016▁",
        "1878": "voc",
        "1879": "Thom",
        "1880": "does▁",
        "1881": "univers",
        "1882": "founded▁",
        "1883": "13▁",
        "1884": "gl",
        "1885": "Emp",
        "1886": "members▁",
        "1887": "cas",
        "1888": "di▁",
        "1889": "..",
        "1890": "becom",
        "1891": "net",
        "1892": "Robert▁",
        "1893": "David▁",
        "1894": "Municipal",
        "1895": "Kor",
        "1896": "Sam",
        "1897": "Pers",
        "1898": "2021▁",
        "1899": "child",
        "1900": "Academ",
        "1901": "ani",
        "1902": "sty",
        "1903": "Prov",
        "1904": "cu",
        "1905": "17▁",
        "1906": "tain▁",
        "1907": "During▁",
        "1908": "dren",
        "1909": "ode▁",
        "1910": "writers▁",
        "1911": "VI",
        "1912": "}▁",
        "1913": "Pop",
        "1914": "ittle▁",
        "1915": "worked▁",
        "1916": "BC▁",
        "1917": "field▁",
        "1918": "Ind",
        "1919": "Carol",
        "1920": "announc",
        "1921": "ven",
        "1922": "Rh",
        "1923": "south",
        "1924": "single▁",
        "1925": "An▁",
        "1926": "class",
        "1927": "just▁",
        "1928": "ute▁",
        "1929": "Michael▁",
        "1930": "ob▁",
        "1931": "cell",
        "1932": "ols▁",
        "1933": "ink▁",
        "1934": "pris",
        "1935": "Christ",
        "1936": "Mag",
        "1937": "hor",
        "1938": "ms▁",
        "1939": "Port",
        "1940": "iter",
        "1941": "English",
        "1942": "K▁",
        "1943": "ley",
        "1944": "Illin",
        "1945": "bar",
        "1946": "way",
        "1947": "Wash",
        "1948": "ality▁",
        "1949": "high▁",
        "1950": "lege▁",
        "1951": "rang",
        "1952": "Saint",
        "1953": "Cathol",
        "1954": "official▁",
        "1955": "Best▁",
        "1956": "Mat",
        "1957": "na▁",
        "1958": "tot",
        "1959": "published▁",
        "1960": "ush",
        "1961": "ald▁",
        "1962": "ific",
        "1963": "toge",
        "1964": "site▁",
        "1965": "type▁",
        "1966": "tures▁",
        "1967": "world▁",
        "1968": "Dut",
        "1969": "augh",
        "1970": "ially▁",
        "1971": "western▁",
        "1972": "ety▁",
        "1973": "We",
        "1974": "list▁",
        "1975": "urch▁",
        "1976": "1,",
        "1977": "relig",
        "1978": "Ag",
        "1979": "deb",
        "1980": "Grou",
        "1981": "vari",
        "1982": "ania▁",
        "1983": "manag",
        "1984": "ators▁",
        "1985": "works▁",
        "1986": "ps",
        "1987": "Que",
        "1988": "vot",
        "1989": "All",
        "1990": "TV▁",
        "1991": "Tor",
        "1992": "ministr",
        "1993": "General▁",
        "1994": "ociation▁",
        "1995": "8),▁",
        "1996": "eder",
        "1997": "reas",
        "1998": "Kingdom▁",
        "1999": "retur",
        "2000": "Florid",
        "2001": "ally",
        "2002": "econom",
        "2003": "righ",
        "2004": "descri",
        "2005": "comedy▁",
        "2006": "|}▁",
        "2007": "Germany",
        "2008": "rac",
        "2009": "2000▁",
        "2010": "esh",
        "2011": "2015▁",
        "2012": "club▁",
        "2013": "success",
        "2014": "If▁",
        "2015": "rain",
        "2016": "third▁",
        "2017": "emp",
        "2018": "example",
        "2019": "25▁",
        "2020": "gin",
        "2021": "ite",
        "2022": "itch",
        "2023": "ends▁",
        "2024": "songs▁",
        "2025": "Ter",
        "2026": "phil",
        "2027": "role▁",
        "2028": "seat▁",
        "2029": "ying▁",
        "2030": "famil",
        "2031": "ene",
        "2032": "Sovi",
        "2033": "ator",
        "2034": "ained▁",
        "2035": "ata▁",
        "2036": "England▁",
        "2037": "ept▁",
        "2038": "ower",
        "2039": "Go",
        "2040": "cop",
        "2041": "dge▁",
        "2042": "believ",
        "2043": "business",
        "2044": "ae",
        "2045": "York",
        "2046": "ium▁",
        "2047": "spor",
        "2048": "order▁",
        "2049": "province▁",
        "2050": "184",
        "2051": "river▁",
        "2052": "ty",
        "2053": "hal",
        "2054": "vil",
        "2055": "Bal",
        "2056": "lv",
        "2057": "ance",
        "2058": "peri",
        "2059": "along▁",
        "2060": "ection▁",
        "2061": "Mad",
        "2062": "term▁",
        "2063": "ematic",
        "2064": "21▁",
        "2065": "Arch",
        "2066": "commune",
        "2067": "Europe▁",
        "2068": "Chinese▁",
        "2069": "sen",
        "2070": "1),▁",
        "2071": "Cup▁",
        "2072": "tin▁",
        "2073": "help▁",
        "2074": "thing▁",
        "2075": "Democratic▁",
        "2076": "simil",
        "2077": "major▁",
        "2078": "represent",
        "2079": "5||",
        "2080": "making▁",
        "2081": "Wom",
        "2082": "tar",
        "2083": "ution",
        "2084": "amb",
        "2085": "cast",
        "2086": "=▁",
        "2087": "put▁",
        "2088": "ner",
        "2089": "5),▁",
        "2090": "List▁",
        "2091": "ious▁",
        "2092": "school▁",
        "2093": "Charles▁",
        "2094": "ap▁",
        "2095": "hol",
        "2096": "scre",
        "2097": "Olympic▁",
        "2098": "history▁",
        "2099": "tspeople▁",
        "2100": "2006▁",
        "2101": "state",
        "2102": "har",
        "2103": "census",
        "2104": "wan",
        "2105": "Club▁",
        "2106": "ected▁",
        "2107": "formation▁",
        "2108": "!▁",
        "2109": "(196",
        "2110": "five▁",
        "2111": "side▁",
        "2112": "athematic",
        "2113": "4),▁",
        "2114": "south▁",
        "2115": "atural▁",
        "2116": "Vic",
        "2117": "6),▁",
        "2118": "mean",
        "2119": "well",
        "2120": "ples▁",
        "2121": "ross▁",
        "2122": "Mi",
        "2123": "Fin",
        "2124": "ina",
        "2125": "2007▁",
        "2126": "Brazil",
        "2127": "albums▁",
        "2128": "change▁",
        "2129": "new",
        "2130": "East",
        "2131": "show",
        "2132": "2013▁",
        "2133": "City",
        "2134": "few▁",
        "2135": "Tel",
        "2136": "2011▁",
        "2137": "ry",
        "2138": "se▁",
        "2139": "head",
        "2140": "books▁",
        "2141": "statistics▁",
        "2142": "Writ",
        "2143": "Paul▁",
        "2144": "inst",
        "2145": "Germany▁",
        "2146": "rom",
        "2147": "aver",
        "2148": "peror▁",
        "2149": "America▁",
        "2150": "version▁",
        "2151": "183",
        "2152": "mount",
        "2153": "following▁",
        "2154": "proc",
        "2155": "top▁",
        "2156": "ecture▁",
        "2157": "antic▁",
        "2158": "ks",
        "2159": "2),▁",
        "2160": "Her▁",
        "2161": "down▁",
        "2162": "century",
        "2163": "ale",
        "2164": "voice▁",
        "2165": "killed▁",
        "2166": "ised▁",
        "2167": "Kn",
        "2168": "doc",
        "2169": "hab",
        "2170": "ra▁",
        "2171": "ards",
        "2172": "Eg",
        "2173": "50▁",
        "2174": "gar",
        "2175": "featur",
        "2176": "scienti",
        "2177": "dam",
        "2178": "makes▁",
        "2179": "atives▁",
        "2180": "ago",
        "2181": "exp",
        "2182": "lear",
        "2183": "berg▁",
        "2184": "ward▁",
        "2185": "Vill",
        "2186": "Wind",
        "2187": "sil",
        "2188": "Football▁",
        "2189": "FA▁",
        "2190": "che",
        "2191": "ino▁",
        "2192": "those▁",
        "2193": "cat",
        "2194": "co▁",
        "2195": "7),▁",
        "2196": "got▁",
        "2197": "iss▁",
        "2198": "Roy",
        "2199": "au▁",
        "2200": "heart▁",
        "2201": "ocial▁",
        "2202": "esp",
        "2203": "Park▁",
        "2204": "earch▁",
        "2205": "dem",
        "2206": "season▁",
        "2207": "vic",
        "2208": "every▁",
        "2209": "power▁",
        "2210": "osp",
        "2211": "1||",
        "2212": "Bor",
        "2213": "non",
        "2214": "2012▁",
        "2215": "Soviet▁",
        "2216": "Mu",
        "2217": "Ver",
        "2218": "phot",
        "2219": "tour",
        "2220": "head▁",
        "2221": "Sar",
        "2222": "pi",
        "2223": "pain",
        "2224": "England",
        "2225": "ording▁",
        "2226": "produced▁",
        "2227": "grad",
        "2228": "ouse",
        "2229": "Canada▁",
        "2230": "children",
        "2231": "ta▁",
        "2232": "take▁",
        "2233": "good▁",
        "2234": "guitar",
        "2235": "located▁",
        "2236": "/9",
        "2237": "Kur",
        "2238": "next▁",
        "2239": "Mer",
        "2240": "Turk",
        "2241": "ham▁",
        "2242": "Mexic",
        "2243": "epend",
        "2244": "Greek▁",
        "2245": "complet",
        "2246": "father▁",
        "2247": "independ",
        "2248": "Bec",
        "2249": "0),▁",
        "2250": "men▁",
        "2251": "2008▁",
        "2252": "ground▁",
        "2253": "6||",
        "2254": "charact",
        "2255": "Alex",
        "2256": "ij",
        "2257": "New",
        "2258": "Cong",
        "2259": "ames",
        "2260": "ency▁",
        "2261": "view▁",
        "2262": "cancer▁",
        "2263": "election▁",
        "2264": "ten",
        "2265": "Dutch▁",
        "2266": "parts▁",
        "2267": "director▁",
        "2268": "Hum",
        "2269": "ief▁",
        "2270": "received▁",
        "2271": "alth▁",
        "2272": "without▁",
        "2273": "urricane▁",
        "2274": "mit",
        "2275": "Gold",
        "2276": "yl",
        "2277": "Play",
        "2278": "Pat",
        "2279": "Summer▁",
        "2280": "Championship▁",
        "2281": "flu",
        "2282": "COVI",
        "2283": "reti",
        "2284": "itzer",
        "2285": "pur",
        "2286": "roy",
        "2287": "plan",
        "2288": "2||",
        "2289": "Jew",
        "2290": "evol",
        "2291": "hand",
        "2292": "rog",
        "2293": "9),▁",
        "2294": "placed▁",
        "2295": "Dar",
        "2296": "3),▁",
        "2297": "COVID",
        "2298": "ford▁",
        "2299": "b▁",
        "2300": "Isra",
        "2301": "public▁",
        "2302": "O▁",
        "2303": "100▁",
        "2304": "22▁",
        "2305": "7||",
        "2306": "Met",
        "2307": "Jack",
        "2308": "law▁",
        "2309": "most",
        "2310": "no",
        "2311": "2001▁",
        "2312": "rown▁",
        "2313": "thought▁",
        "2314": "Sk",
        "2315": "ta",
        "2316": "24▁",
        "2317": "Cur",
        "2318": "Great▁",
        "2319": "Union▁",
        "2320": "London",
        "2321": "Ben",
        "2322": "Lif",
        "2323": "Sol",
        "2324": "ides▁",
        "2325": "Academy▁",
        "2326": "Richard▁",
        "2327": "Pic",
        "2328": "Switzer",
        "2329": "announced▁",
        "2330": "WW",
        "2331": "Ros",
        "2332": "ean",
        "2333": "total▁",
        "2334": "related▁",
        "2335": "23▁",
        "2336": "countries▁",
        "2337": "Del",
        "2338": "Penn",
        "2339": "ani▁",
        "2340": "|198",
        "2341": "body▁",
        "2342": "BC",
        "2343": "M▁",
        "2344": "list",
        "2345": "ease▁",
        "2346": "film▁",
        "2347": "Im",
        "2348": "ues▁",
        "2349": "Group▁",
        "2350": "hockey▁",
        "2351": "cal",
        "2352": "km",
        "2353": "Tri",
        "2354": "ants",
        "2355": "epis",
        "2356": "ult",
        "2357": "poss",
        "2358": "ude▁",
        "2359": "war▁",
        "2360": "general▁",
        "2361": "ere",
        "2362": "ox▁",
        "2363": "Republican▁",
        "2364": "Sant",
        "2365": "rights▁",
        "2366": "ket▁",
        "2367": "Kr",
        "2368": "ana",
        "2369": "consid",
        "2370": "short▁",
        "2371": "tical▁",
        "2372": "ag▁",
        "2373": "val",
        "2374": "fail",
        "2375": "25",
        "2376": ".,▁",
        "2377": "Cre",
        "2378": "ma▁",
        "2379": "main",
        "2380": "Music▁",
        "2381": "India",
        "2382": "water",
        "2383": "actress",
        "2384": "similar▁",
        "2385": "appeared▁",
        "2386": "R▁",
        "2387": "Fri",
        "2388": "2004▁",
        "2389": "vent",
        "2390": "country",
        "2391": "Po",
        "2392": "–199",
        "2393": "movie",
        "2394": "1.",
        "2395": "Ca",
        "2396": "wrestl",
        "2397": "you▁",
        "2398": "human▁",
        "2399": "Chicago▁",
        "2400": "viol",
        "2401": "ketball▁",
        "2402": "Lo",
        "2403": "eum▁",
        "2404": "1||0||",
        "2405": "Nob",
        "2406": "ull",
        "2407": "liam",
        "2408": "ject▁",
        "2409": "N▁",
        "2410": "r▁",
        "2411": "African▁",
        "2412": "company▁",
        "2413": "9||",
        "2414": "Mass",
        "2415": "abil",
        "2416": "resent",
        "2417": "Ham",
        "2418": "engine",
        "2419": "Counc",
        "2420": "come▁",
        "2421": "California",
        "2422": "sw",
        "2423": "seen▁",
        "2424": "Central▁",
        "2425": "ities",
        "2426": "School▁",
        "2427": "27▁",
        "2428": "special▁",
        "2429": "Australia▁",
        "2430": "Mur",
        "2431": "ac▁",
        "2432": "gian▁",
        "2433": "Henry▁",
        "2434": "India▁",
        "2435": "Thomas▁",
        "2436": "mostly▁",
        "2437": "things▁",
        "2438": "Oh",
        "2439": "kl",
        "2440": "ger",
        "2441": "ision",
        "2442": "Gir",
        "2443": "footballers▁",
        "2444": "techn",
        "2445": "comes▁",
        "2446": "commune▁",
        "2447": "4||",
        "2448": "2005▁",
        "2449": "eball▁",
        "2450": "Represent",
        "2451": "Jers",
        "2452": "president▁",
        "2453": "Hon",
        "2454": "city",
        "2455": "res▁",
        "2456": "organiz",
        "2457": "Swedish▁",
        "2458": "45",
        "2459": "cant",
        "2460": "reach",
        "2461": "self▁",
        "2462": "8||",
        "2463": "eter",
        "2464": "nomin",
        "2465": "starr",
        "2466": "village▁",
        "2467": "ade",
        "2468": "ander▁",
        "2469": "Kansas▁",
        "2470": "ansp",
        "2471": "international▁",
        "2472": "ha",
        "2473": "inf",
        "2474": "trav",
        "2475": "try▁",
        "2476": "small",
        "2477": "uter▁",
        "2478": "iddle▁",
        "2479": "Catholic▁",
        "2480": "character▁",
        "2481": "Hy",
        "2482": "Op",
        "2483": "Mel",
        "2484": "must▁",
        "2485": "local▁",
        "2486": "Gar",
        "2487": "Zeal",
        "2488": "ated",
        "2489": "Virgin",
        "2490": "ering▁",
        "2491": "pat",
        "2492": "burg",
        "2493": "rap",
        "2494": "ior▁",
        "2495": "Acc",
        "2496": "Alb",
        "2497": "Arg",
        "2498": "Isl",
        "2499": "2009▁",
        "2500": "teach",
        "2501": "leader▁",
        "2502": "ds",
        "2503": "Bir",
        "2504": "ama",
        "2505": "3||",
        "2506": "ental▁",
        "2507": "ships▁",
        "2508": "Li",
        "2509": "dra",
        "2510": "ored▁",
        "2511": "Illinois▁",
        "2512": "Sportspeople▁",
        "2513": "ce",
        "2514": "28▁",
        "2515": "inj",
        "2516": "ogn",
        "2517": "Mont",
        "2518": "four",
        "2519": "alists▁",
        "2520": "record▁",
        "2521": "original▁",
        "2522": "Red▁",
        "2523": "sylv",
        "2524": "east▁",
        "2525": "Scottish▁",
        "2526": "center▁",
        "2527": "Sur",
        "2528": "occ",
        "2529": "Jer",
        "2530": "1990",
        "2531": "tradi",
        "2532": "perform",
        "2533": "Christian▁",
        "2534": "Val",
        "2535": "Web",
        "2536": "udd",
        "2537": "Egyp",
        "2538": "ves▁",
        "2539": "aim",
        "2540": "ash▁",
        "2541": "Hall▁",
        "2542": "Prize▁",
        "2543": "anian▁",
        "2544": "clos",
        "2545": "radi",
        "2546": "dies▁",
        "2547": "modern▁",
        "2548": "tropical▁",
        "2549": "ked▁",
        "2550": "did",
        "2551": "light",
        "2552": "roduc",
        "2553": "includes▁",
        "2554": "Sun",
        "2555": "ip▁",
        "2556": "ka▁",
        "2557": "aster▁",
        "2558": "mathematic",
        "2559": "ei",
        "2560": "ya▁",
        "2561": "Soci",
        "2562": "burg▁",
        "2563": "composer▁",
        "2564": "itiz",
        "2565": "prom",
        "2566": "late▁",
        "2567": "season",
        "2568": "system",
        "2569": "ederal▁",
        "2570": "District▁",
        "2571": "due▁",
        "2572": "star",
        "2573": "win▁",
        "2574": "ology",
        "2575": "China▁",
        "2576": "joined▁",
        "2577": "provinc",
        "2578": "playing▁",
        "2579": "aper▁",
        "2580": "lands",
        "2581": "Writers▁",
        "2582": "FI",
        "2583": "mur",
        "2584": "indu",
        "2585": "2020)▁",
        "2586": "Governor▁",
        "2587": "ory",
        "2588": "epar",
        "2589": "story▁",
        "2590": "Florida▁",
        "2591": "30",
        "2592": "Arab",
        "2593": "ages",
        "2594": "Instit",
        "2595": "stars▁",
        "2596": "West",
        "2597": "lot▁",
        "2598": "sequ",
        "2599": "Asia▁",
        "2600": "daugh",
        "2601": "Peter▁",
        "2602": "established▁",
        "2603": "Jac",
        "2604": "ross",
        "2605": "six▁",
        "2606": "broad",
        "2607": "should▁",
        "2608": "26▁",
        "2609": "lin▁",
        "2610": "Pref",
        "2611": "ales▁",
        "2612": "Pennsylv",
        "2613": "):▁",
        "2614": "ese",
        "2615": "Brit",
        "2616": "anch",
        "2617": "avy▁",
        "2618": "ham",
        "2619": "clim",
        "2620": "eth▁",
        "2621": "ole▁",
        "2622": "fac",
        "2623": "que",
        "2624": "station▁",
        "2625": "GB",
        "2626": "Luc",
        "2627": "big",
        "2628": "hon",
        "2629": "camp",
        "2630": "pian",
        "2631": "within▁",
        "2632": "–201",
        "2633": "Grand▁",
        "2634": "champion",
        "2635": "mb",
        "2636": "ball",
        "2637": "ster",
        "2638": "away▁",
        "2639": "com▁",
        "2640": "physic",
        "2641": "Association▁",
        "2642": "by",
        "2643": "iel",
        "2644": "current▁",
        "2645": "Politicians▁",
        "2646": "li▁",
        "2647": "allow",
        "2648": "gave▁",
        "2649": "29▁",
        "2650": "we▁",
        "2651": "lab",
        "2652": "exec",
        "2653": "ounds▁",
        "2654": "Emperor▁",
        "2655": "cycl",
        "2656": "piec",
        "2657": "America",
        "2658": "changed▁",
        "2659": "natural▁",
        "2660": "winning▁",
        "2661": "position▁",
        "2662": "defe",
        "2663": "ota▁",
        "2664": "series",
        "2665": "Battle▁",
        "2666": "sea▁",
        "2667": "Army▁",
        "2668": "Royal▁",
        "2669": "overed▁",
        "2670": "=\"2\"|-||",
        "2671": "exc",
        "2672": "ids▁",
        "2673": "inds▁",
        "2674": "times",
        "2675": "radio▁",
        "2676": "2002▁",
        "2677": "aves▁",
        "2678": "producer▁",
        "2679": "together▁",
        "2680": "Cup",
        "2681": "ial",
        "2682": "distri",
        "2683": "young▁",
        "2684": "3\"|",
        "2685": "oub",
        "2686": "bed▁",
        "2687": "ler▁",
        "2688": "events▁",
        "2689": "Vol",
        "2690": "dic",
        "2691": "But▁",
        "2692": "appl",
        "2693": "ops▁",
        "2694": "ved▁",
        "2695": "author",
        "2696": "house▁",
        "2697": "Polish▁",
        "2698": "syn",
        "2699": "host",
        "2700": "medi",
        "2701": "stre",
        "2702": "ung▁",
        "2703": "screen",
        "2704": "eastern▁",
        "2705": "(3",
        "2706": "To▁",
        "2707": "ns▁",
        "2708": "un▁",
        "2709": "becomes▁",
        "2710": "Australia",
        "2711": "Des",
        "2712": "Law",
        "2713": "name",
        "2714": "need",
        "2715": "included▁",
        "2716": "Brazilian▁",
        "2717": "No",
        "2718": "Gall",
        "2719": "Park",
        "2720": "ific▁",
        "2721": "ington",
        "2722": "continu",
        "2723": "Angeles▁",
        "2724": "Black▁",
        "2725": "FC▁",
        "2726": "Mah",
        "2727": "=\"3\"|",
        "2728": "ests▁",
        "2729": "Jr",
        "2730": "ots▁",
        "2731": "conduc",
        "2732": "Former▁",
        "2733": "Conf",
        "2734": "administr",
        "2735": "Dev",
        "2736": "bour",
        "2737": "W▁",
        "2738": "180",
        "2739": "ena▁",
        "2740": "shar",
        "2741": "mater",
        "2742": "Early▁",
        "2743": "ara▁",
        "2744": "life",
        "2745": "energ",
        "2746": "fire▁",
        "2747": "characters▁",
        "2748": "/▁",
        "2749": "Ha",
        "2750": "ize▁",
        "2751": "mach",
        "2752": "Louis",
        "2753": "erence▁",
        "2754": "eth",
        "2755": "mem",
        "2756": "sex",
        "2757": "Educ",
        "2758": "issu",
        "2759": "origin",
        "2760": "ott",
        "2761": "multi",
        "2762": "Since▁",
        "2763": "Sa",
        "2764": "\")▁",
        "2765": "cra",
        "2766": "100",
        "2767": "ake",
        "2768": "km▁",
        "2769": "2000",
        "2770": "net▁",
        "2771": "viv",
        "2772": "diss",
        "2773": "ished▁",
        "2774": "shows▁",
        "2775": "aly",
        "2776": "die▁",
        "2777": "production▁",
        "2778": "Municipalities▁",
        "2779": "ma",
        "2780": "(195",
        "2781": "Juli",
        "2782": "separ",
        "2783": "ster▁",
        "2784": "Jewish▁",
        "2785": "island▁",
        "2786": "children▁",
        "2787": "1980",
        "2788": "2010",
        "2789": "bert▁",
        "2790": "habit",
        "2791": "tice▁",
        "2792": "self",
        "2793": "University",
        "2794": "itz",
        "2795": "(193",
        "2796": "dest",
        "2797": "lawy",
        "2798": "ont▁",
        "2799": "requ",
        "2800": "uel▁",
        "2801": "align",
        "2802": "ults▁",
        "2803": "Civil▁",
        "2804": "attack",
        "2805": "ights▁",
        "2806": "College▁",
        "2807": "Sain",
        "2808": "2003▁",
        "2809": "developed▁",
        "2810": "ee▁",
        "2811": "ío▁",
        "2812": "ged▁",
        "2813": "thod",
        "2814": "press",
        "2815": "disease▁",
        "2816": "ines",
        "2817": "Argent",
        "2818": "Nobel▁",
        "2819": "F▁",
        "2820": "omet",
        "2821": "2||0||",
        "2822": "acks▁",
        "2823": "Asian▁",
        "2824": "Empire▁",
        "2825": "By▁",
        "2826": "bab",
        "2827": "liz",
        "2828": "sum",
        "2829": "era▁",
        "2830": "ense▁",
        "2831": "philos",
        "2832": "title▁",
        "2833": "Geography▁",
        "2834": "Pas",
        "2835": "key",
        "2836": "ident",
        "2837": "wood▁",
        "2838": "states▁",
        "2839": "death",
        "2840": "lost▁",
        "2841": "ti▁",
        "2842": "Prem",
        "2843": "ene▁",
        "2844": "Mount",
        "2845": "ices▁",
        "2846": "Western▁",
        "2847": "ais▁",
        "2848": "words▁",
        "2849": "ending▁",
        "2850": "Louis▁",
        "2851": "cities▁",
        "2852": "11",
        "2853": "Awards▁",
        "2854": "Cze",
        "2855": "agre",
        "2856": "func",
        "2857": "taken▁",
        "2858": "control▁",
        "2859": "ettlements▁",
        "2860": "du",
        "2861": "del",
        "2862": "wea",
        "2863": "Day▁",
        "2864": "able",
        "2865": "big▁",
        "2866": "soci",
        "2867": "Towns▁",
        "2868": "Hel",
        "2869": "ink",
        "2870": "event",
        "2871": "least▁",
        "2872": "Because▁",
        "2873": "Stu",
        "2874": "gir",
        "2875": "area",
        "2876": "book",
        "2877": "iod▁",
        "2878": "having▁",
        "2879": "run▁",
        "2880": "ications▁",
        "2881": "cle",
        "2882": "eau",
        "2883": "hold",
        "2884": "ita▁",
        "2885": "Andre",
        "2886": "women",
        "2887": "black▁",
        "2888": "compan",
        "2889": "tro",
        "2890": "cancer",
        "2891": "southern▁",
        "2892": "spir",
        "2893": "Den",
        "2894": "Games▁",
        "2895": "central▁",
        "2896": "Lab",
        "2897": "acy▁",
        "2898": "soldi",
        "2899": "women▁",
        "2900": "places▁",
        "2901": "introduc",
        "2902": "Gal",
        "2903": "ov▁",
        "2904": "astr",
        "2905": "Enter",
        "2906": "winners▁",
        "2907": "ro▁",
        "2908": "wat",
        "2909": "You▁",
        "2910": "problems▁",
        "2911": "ett",
        "2912": "tra",
        "2913": "days▁",
        "2914": "food▁",
        "2915": "other",
        "2916": "Americ",
        "2917": "again▁",
        "2918": "NA",
        "2919": "counties▁",
        "2920": "ological▁",
        "2921": "lines▁",
        "2922": "Prince▁",
        "2923": "active▁",
        "2924": "Carolina▁",
        "2925": "Uk",
        "2926": "ww",
        "2927": "(;▁",
        "2928": "Fam",
        "2929": "Mos",
        "2930": "sych",
        "2931": "ula▁",
        "2932": "face▁",
        "2933": "invol",
        "2934": "rain▁",
        "2935": "transl",
        "2936": "berg",
        "2937": "car▁",
        "2938": "Princ",
        "2939": "Elec",
        "2940": "great▁",
        "2941": "idential▁",
        "2942": "basketball▁",
        "2943": "songwriter▁",
        "2944": "wid",
        "2945": "ported▁",
        "2946": "Pac",
        "2947": "say▁",
        "2948": "Life▁",
        "2949": "god",
        "2950": "its",
        "2951": "lad",
        "2952": "squ",
        "2953": "connec",
        "2954": "considered▁",
        "2955": "ital",
        "2956": "reme▁",
        "2957": "Sil",
        "2958": "money▁",
        "2959": "Bul",
        "2960": "red",
        "2961": "Stev",
        "2962": "anth",
        "2963": "peti",
        "2964": "Michig",
        "2965": "lives▁",
        "2966": "female▁",
        "2967": "(\"",
        "2968": "jud",
        "2969": "ury▁",
        "2970": "uset",
        "2971": "led",
        "2972": "whe",
        "2973": "Land",
        "2974": "Prof",
        "2975": "view",
        "2976": "Court▁",
        "2977": "Victor",
        "2978": "Northern▁",
        "2979": "Switzerland",
        "2980": "ions",
        "2981": "give▁",
        "2982": "Record",
        "2983": "amount▁",
        "2984": "24",
        "2985": "China",
        "2986": "2010,▁",
        "2987": "arded▁",
        "2988": "mother▁",
        "2989": "studied▁",
        "2990": "aster",
        "2991": "gradu",
        "2992": "point▁",
        "2993": "recogn",
        "2994": "information▁",
        "2995": "Ra",
        "2996": "ym",
        "2997": "zz",
        "2998": "kil",
        "2999": "pop▁",
        "3000": "1999▁",
        "3001": "rest▁",
        "3002": "ances▁",
        "3003": "temper",
        "3004": "highest▁",
        "3005": "cle▁",
        "3006": "rail",
        "3007": "tern",
        "3008": "areas▁",
        "3009": "Austrian▁",
        "3010": "building▁",
        "3011": "government",
        "3012": "rip",
        "3013": "common",
        "3014": "author▁",
        "3015": "Settlements▁",
        "3016": "Minn",
        "3017": "med▁",
        "3018": "says▁",
        "3019": "aining▁",
        "3020": "idents▁",
        "3021": "musician▁",
        "3022": "Government▁",
        "3023": "Ori",
        "3024": "Kent",
        "3025": "citiz",
        "3026": "onic▁",
        "3027": "Massach",
        "3028": "almost▁",
        "3029": "better▁",
        "3030": "dition▁",
        "3031": "period▁",
        "3032": "Massachuset",
        "3033": "23",
        "3034": "Bang",
        "3035": "Clar",
        "3036": "High",
        "3037": "Hung",
        "3038": "bass",
        "3039": "numb",
        "3040": "outs",
        "3041": "1988▁",
        "3042": "Islam",
        "3043": "Ur",
        "3044": "Dani",
        "3045": "board▁",
        "3046": "posed▁",
        "3047": "Si",
        "3048": "cir",
        "3049": "top",
        "3050": "find▁",
        "3051": "white▁",
        "3052": "certain▁",
        "3053": "15,▁",
        "3054": "Irish▁",
        "3055": "musicians▁",
        "3056": "ania",
        "3057": "tra▁",
        "3058": "nation",
        "3059": "comb",
        "3060": "Os",
        "3061": "ays",
        "3062": "Big▁",
        "3063": "avar",
        "3064": "ease",
        "3065": "among▁",
        "3066": "Korean▁",
        "3067": "Up",
        "3068": "isl",
        "3069": "liter",
        "3070": "ures▁",
        "3071": "depart",
        "3072": "shire▁",
        "3073": "Council▁",
        "3074": "Washington▁",
        "3075": "1995▁",
        "3076": "High▁",
        "3077": "ishop▁",
        "3078": "study▁",
        "3079": "atin▁",
        "3080": "Church▁",
        "3081": "Prefecture▁",
        "3082": "mid",
        "3083": "Earth",
        "3084": "Star▁",
        "3085": "Missou",
        "3086": "Nether",
        "3087": "above▁",
        "3088": "Ob",
        "3089": "179",
        "3090": "lor",
        "3091": "ont",
        "3092": "azz▁",
        "3093": "open",
        "3094": "Their▁",
        "3095": "inter▁",
        "3096": "singers▁",
        "3097": "countries",
        "3098": "40",
        "3099": "mor",
        "3100": "(192",
        "3101": "1970",
        "3102": "Anim",
        "3103": "Viet",
        "3104": "Italy",
        "3105": "Lake▁",
        "3106": "retired▁",
        "3107": "Youn",
        "3108": "ells▁",
        "3109": "power",
        "3110": "Ukrain",
        "3111": "Río▁",
        "3112": "ropol",
        "3113": "strum",
        "3114": "super",
        "3115": "ences▁",
        "3116": "Center▁",
        "3117": "working▁",
        "3118": "Cri",
        "3119": "Spr",
        "3120": "ums▁",
        "3121": "wood",
        "3122": "osaur",
        "3123": "ender▁",
        "3124": "Francis",
        "3125": "Island▁",
        "3126": "Senate▁",
        "3127": "wanted▁",
        "3128": "musical▁",
        "3129": "northern▁",
        "3130": "leag",
        "3131": "With▁",
        "3132": "read▁",
        "3133": "sent▁",
        "3134": "compet",
        "3135": "fur",
        "3136": "mix",
        "3137": "sour",
        "3138": "uty▁",
        "3139": "takes▁",
        "3140": "always▁",
        "3141": "average▁",
        "3142": "present▁",
        "3143": "Cas",
        "3144": "chan",
        "3145": "canton▁",
        "3146": "science▁",
        "3147": "Cat",
        "3148": "Bern",
        "3149": "Vall",
        "3150": "ucle",
        "3151": "ping▁",
        "3152": "Canada",
        "3153": "Secret",
        "3154": "Pakistan▁",
        "3155": "pen",
        "3156": "Mart",
        "3157": "lead▁",
        "3158": "ques▁",
        "3159": "Mr",
        "3160": "—▁",
        "3161": "UK▁",
        "3162": "|201",
        "3163": "estiv",
        "3164": "ison▁",
        "3165": "2.",
        "3166": "Ky",
        "3167": "oms▁",
        "3168": "Music",
        "3169": "round",
        "3170": "Bre",
        "3171": "Nic",
        "3172": "hom",
        "3173": "oon▁",
        "3174": "aries▁",
        "3175": "ested▁",
        "3176": "iller▁",
        "3177": "Chil",
        "3178": "symb",
        "3179": "1991▁",
        "3180": "ondiss",
        "3181": "social▁",
        "3182": "50",
        "3183": "sn",
        "3184": "Iow",
        "3185": "get",
        "3186": "ado▁",
        "3187": "ford",
        "3188": "left",
        "3189": "1990▁",
        "3190": "either▁",
        "3191": "little▁",
        "3192": "gress",
        "3193": "family",
        "3194": "Division▁",
        "3195": "Ari",
        "3196": "Tok",
        "3197": "lov",
        "3198": "Air▁",
        "3199": "ona▁",
        "3200": "1994▁",
        "3201": "Order▁",
        "3202": "theast▁",
        "3203": "divided▁",
        "3204": "2,",
        "3205": "La",
        "3206": "Mod",
        "3207": "You",
        "3208": "1984▁",
        "3209": "||1||0||",
        "3210": "31▁",
        "3211": "even",
        "3212": "ran▁",
        "3213": "ube▁",
        "3214": "eign▁",
        "3215": "road▁",
        "3216": "Notes▁",
        "3217": "opened▁",
        "3218": "founder▁",
        "3219": "da▁",
        "3220": "town",
        "3221": "goes▁",
        "3222": "sold▁",
        "3223": "Wik",
        "3224": "ams",
        "3225": "oma▁",
        "3226": "rest",
        "3227": "1996▁",
        "3228": "influ",
        "3229": "example▁",
        "3230": "Ke",
        "3231": "ely",
        "3232": "fol",
        "3233": "down",
        "3234": "thre",
        "3235": "gold▁",
        "3236": "wife▁",
        "3237": "Ire",
        "3238": "uel",
        "3239": "eph▁",
        "3240": "oday",
        "3241": "1998▁",
        "3242": "wide▁",
        "3243": "Latin▁",
        "3244": "Minist",
        "3245": "mainly▁",
        "3246": "Es",
        "3247": "Fe",
        "3248": "–198",
        "3249": "names▁",
        "3250": "God",
        "3251": "Hor",
        "3252": "My▁",
        "3253": "ane",
        "3254": "ney",
        "3255": "sal",
        "3256": "Stre",
        "3257": "River",
        "3258": "That▁",
        "3259": "Hockey▁",
        "3260": "Philipp",
        "3261": "”▁",
        "3262": "never▁",
        "3263": "various▁",
        "3264": "Tre",
        "3265": "ny▁",
        "3266": "tural▁",
        "3267": "types▁",
        "3268": "Far",
        "3269": "urb",
        "3270": "forms▁",
        "3271": "territ",
        "3272": "Spec",
        "3273": "ala▁",
        "3274": "ano▁",
        "3275": "speak",
        "3276": "Israel",
        "3277": "Wrestl",
        "3278": "event▁",
        "3279": "Parliam",
        "3280": "1-",
        "3281": "Gh",
        "3282": "ms",
        "3283": "meas",
        "3284": "artic",
        "3285": "newsp",
        "3286": "Joseph▁",
        "3287": "meaning▁",
        "3288": "Entertain",
        "3289": "computer▁",
        "3290": "X▁",
        "3291": "Leg",
        "3292": "den",
        "3293": "cast▁",
        "3294": "viron",
        "3295": "Columb",
        "3296": "ancer▁",
        "3297": "comedi",
        "3298": "Premier▁",
        "3299": "(8",
        "3300": "Som",
        "3301": "ler",
        "3302": "Rang",
        "3303": "ces▁",
        "3304": "row▁",
        "3305": "Virginia▁",
        "3306": "Str",
        "3307": "oul",
        "3308": "1960",
        "3309": "Histor",
        "3310": "ellow▁",
        "3311": "ground",
        "3312": "party▁",
        "3313": "Zealand▁",
        "3314": "district",
        "3315": "Representatives▁",
        "3316": "My",
        "3317": "Sub",
        "3318": "Tot",
        "3319": "daughter▁",
        "3320": "dig",
        "3321": "(194",
        "3322": "1993▁",
        "3323": "Love▁",
        "3324": "Queen▁",
        "3325": "itive▁",
        "3326": "Gra",
        "3327": "agu",
        "3328": "shap",
        "3329": "this",
        "3330": "1980▁",
        "3331": "espec",
        "3332": "Europe",
        "3333": "Lar",
        "3334": "18,▁",
        "3335": "Lee▁",
        "3336": "fact",
        "3337": "ched▁",
        "3338": "atory▁",
        "3339": "close▁",
        "3340": "metal▁",
        "3341": "Jersey▁",
        "3342": "reached▁",
        "3343": "Pu",
        "3344": "ats",
        "3345": "fig",
        "3346": "ates",
        "3347": "Harry▁",
        "3348": "civil▁",
        "3349": "police▁",
        "3350": "Department▁",
        "3351": "Ak",
        "3352": "Ko",
        "3353": "-19",
        "3354": "III▁",
        "3355": "Two▁",
        "3356": "It",
        "3357": "conc",
        "3358": "hit▁",
        "3359": "ius▁",
        "3360": "field",
        "3361": "ren",
        "3362": "iana▁",
        "3363": "teams▁",
        "3364": "Gi",
        "3365": "Hu",
        "3366": "IS",
        "3367": "deg",
        "3368": "pic",
        "3369": "17,▁",
        "3370": "edit",
        "3371": "int▁",
        "3372": "king",
        "3373": "Party",
        "3374": "ness▁",
        "3375": "ynast",
        "3376": "start▁",
        "3377": "respons",
        "3378": "dom",
        "3379": "club",
        "3380": "think▁",
        "3381": "director",
        "3382": "baseball▁",
        "3383": "Ru",
        "3384": "Pan",
        "3385": "sof",
        "3386": "|197",
        "3387": "ason▁",
        "3388": "ours▁",
        "3389": "Super▁",
        "3390": "artist▁",
        "3391": "support▁",
        "3392": "Bab",
        "3393": "Bon",
        "3394": "ials▁",
        "3395": "Africa▁",
        "3396": "Edward▁",
        "3397": "Pre",
        "3398": "fall",
        "3399": "exist",
        "3400": "move▁",
        "3401": "oto▁",
        "3402": "might▁",
        "3403": "Windows▁",
        "3404": "According▁",
        "3405": "40▁",
        "3406": "norm",
        "3407": "especially▁",
        "3408": "á▁",
        "3409": "Bet",
        "3410": "across▁",
        "3411": "enz",
        "3412": "16,▁",
        "3413": "Radi",
        "3414": "Stor",
        "3415": "1981▁",
        "3416": "level",
        "3417": "woman▁",
        "3418": "performed▁",
        "3419": "wal",
        "3420": "ker▁",
        "3421": "idea▁",
        "3422": "cause▁",
        "3423": "instrum",
        "3424": "strong▁",
        "3425": "weight▁",
        "3426": "ges▁",
        "3427": "Busin",
        "3428": "earli",
        "3429": "free▁",
        "3430": "2020,▁",
        "3431": "About▁",
        "3432": "Italy▁",
        "3433": "child▁",
        "3434": "proper",
        "3435": "school",
        "3436": "Olympics▁",
        "3437": "1992▁",
        "3438": "Minnes",
        "3439": "constit",
        "3440": "Ath",
        "3441": "ture",
        "3442": "Year▁",
        "3443": "ority▁",
        "3444": "prison",
        "3445": "ancient▁",
        "3446": "chemical▁",
        "3447": "ium",
        "3448": "Bill▁",
        "3449": "White▁",
        "3450": "Martin▁",
        "3451": "office▁",
        "3452": "replaced▁",
        "3453": "Cast",
        "3454": "game",
        "3455": "too▁",
        "3456": "urch",
        "3457": "antas",
        "3458": "itan▁",
        "3459": "bands▁",
        "3460": "currently▁",
        "3461": "21",
        "3462": "Haut",
        "3463": "laun",
        "3464": "princ",
        "3465": "Institute▁",
        "3466": "Hun",
        "3467": "novel",
        "3468": "ennis▁",
        "3469": "energy▁",
        "3470": "12,▁",
        "3471": "Direc",
        "3472": "need▁",
        "3473": "odes▁",
        "3474": "ters▁",
        "3475": "don",
        "3476": "1997▁",
        "3477": "Steph",
        "3478": "uted▁",
        "3479": "legal▁",
        "3480": "Mexican▁",
        "3481": "recorded▁",
        "3482": "NH",
        "3483": "hu",
        "3484": "opher▁",
        "3485": "Eastern▁",
        "3486": "Okl",
        "3487": "ae▁",
        "3488": "hun",
        "3489": "rid",
        "3490": "Oklah",
        "3491": "2019)▁",
        "3492": "ville▁",
        "3493": "Indones",
        "3494": "fiction▁",
        "3495": "Do",
        "3496": "Tom",
        "3497": "conf",
        "3498": "stro",
        "3499": "Bavar",
        "3500": "akes▁",
        "3501": "2021)▁",
        "3502": "ately▁",
        "3503": "history",
        "3504": "tow",
        "3505": "gets▁",
        "3506": "range▁",
        "3507": "Wis",
        "3508": "final▁",
        "3509": "ensive▁",
        "3510": "1987▁",
        "3511": "North",
        "3512": "case▁",
        "3513": "half▁",
        "3514": "arian▁",
        "3515": "seven▁",
        "3516": "bridge▁",
        "3517": "Southern▁",
        "3518": "Pennsylvania▁",
        "3519": "aij",
        "3520": "Rail",
        "3521": "done▁",
        "3522": "fall▁",
        "3523": "going▁",
        "3524": "Mexico▁",
        "3525": "Tropical▁",
        "3526": "ena",
        "3527": "1986▁",
        "3528": "ature",
        "3529": "color",
        "3530": "ills▁",
        "3531": "race▁",
        "3532": "crime▁",
        "3533": "shown▁",
        "3534": "language",
        "3535": "manager▁",
        "3536": "Bat",
        "3537": "10,▁",
        "3538": "ini▁",
        "3539": "Women",
        "3540": "appro",
        "3541": "divid",
        "3542": "||0||0▁",
        "3543": "municipalities▁",
        "3544": "26",
        "3545": "36",
        "3546": "Jus",
        "3547": "LGB",
        "3548": "Pun",
        "3549": "tun",
        "3550": "14,▁",
        "3551": "ains",
        "3552": "post",
        "3553": "1976▁",
        "3554": "helped▁",
        "3555": "community▁",
        "3556": "27",
        "3557": "Jud",
        "3558": "det",
        "3559": "Some",
        "3560": "Texas",
        "3561": "once▁",
        "3562": "inning▁",
        "3563": "arrondiss",
        "3564": "13,▁",
        "3565": "Harr",
        "3566": "archit",
        "3567": "roles▁",
        "3568": "cannot▁",
        "3569": "sports▁",
        "3570": "ets",
        "3571": "tig",
        "3572": "1975▁",
        "3573": "onia▁",
        "3574": "poet▁",
        "3575": "signed▁",
        "3576": "20,▁",
        "3577": "esh▁",
        "3578": "line",
        "3579": "avail",
        "3580": "hard▁",
        "3581": "model▁",
        "3582": "Musical▁",
        "3583": "changes▁",
        "3584": "ha▁",
        "3585": "igr",
        "3586": "saf",
        "3587": "Frank",
        "3588": "ange▁",
        "3589": "star▁",
        "3590": "178",
        "3591": "Cub",
        "3592": "fif",
        "3593": "1979▁",
        "3594": "ador▁",
        "3595": "abeth▁",
        "3596": "period",
        "3597": "Career▁",
        "3598": "Kentuck",
        "3599": "oldest▁",
        "3600": "pointed▁",
        "3601": "Mic",
        "3602": "ise",
        "3603": "may",
        "3604": "bes▁",
        "3605": "hosp",
        "3606": "1973▁",
        "3607": "invent",
        "3608": "ically▁",
        "3609": "Championship",
        "3610": "orb",
        "3611": "Slov",
        "3612": "look▁",
        "3613": "outside▁",
        "3614": "na",
        "3615": "onto▁",
        "3616": "stop▁",
        "3617": "buted▁",
        "3618": "level▁",
        "3619": "storm▁",
        "3620": "Museum▁",
        "3621": "Second▁",
        "3622": "competi",
        "3623": "Bol",
        "3624": "egg",
        "3625": "Duke▁",
        "3626": "ring▁",
        "3627": "vice▁",
        "3628": "rivers▁",
        "3629": "wa",
        "3630": "Gri",
        "3631": "group",
        "3632": "Av",
        "3633": "Tai",
        "3634": "Ohio▁",
        "3635": "Before▁",
        "3636": "Scienti",
        "3637": "Haw",
        "3638": "Mem",
        "3639": "Ste",
        "3640": "gun",
        "3641": "11,▁",
        "3642": "ady▁",
        "3643": "olf▁",
        "3644": "real▁",
        "3645": "Little▁",
        "3646": "inhabit",
        "3647": "NA▁",
        "3648": "empl",
        "3649": "leng",
        "3650": "let▁",
        "3651": "1989▁",
        "3652": "jazz▁",
        "3653": "Football",
        "3654": "brother▁",
        "3655": "designed▁",
        "3656": ".)▁",
        "3657": "din",
        "3658": "prac",
        "3659": "1948▁",
        "3660": "1982▁",
        "3661": "claim",
        "3662": "every",
        "3663": "house",
        "3664": "Santa▁",
        "3665": "journalist▁",
        "3666": "independent▁",
        "3667": "2-",
        "3668": "CA",
        "3669": "Lov",
        "3670": "Squ",
        "3671": "ni▁",
        "3672": "hous",
        "3673": "plat",
        "3674": "later",
        "3675": "animals▁",
        "3676": "Wrestling▁",
        "3677": "To",
        "3678": "box",
        "3679": "fel",
        "3680": "tics",
        "3681": "Techn",
        "3682": "ston▁",
        "3683": "thers▁",
        "3684": "track▁",
        "3685": "Hal",
        "3686": "how",
        "3687": "Cens",
        "3688": "ply▁",
        "3689": "publ",
        "3690": "1985▁",
        "3691": "carri",
        "3692": "rich▁",
        "3693": "father",
        "3694": "Atlantic▁",
        "3695": "nominated▁",
        "3696": "G▁",
        "3697": "Det",
        "3698": "bul",
        "3699": "los",
        "3700": "ties",
        "3701": "1951▁",
        "3702": "1972▁",
        "3703": "amed▁",
        "3704": "earth",
        "3705": "Saint▁",
        "3706": "28",
        "3707": "dri",
        "3708": "Mary",
        "3709": "Sir▁",
        "3710": "WWE▁",
        "3711": "1969▁",
        "3712": "2019,▁",
        "3713": "forces▁",
        "3714": "ression▁",
        "3715": "Pi",
        "3716": "sug",
        "3717": "Azer",
        "3718": "Kore",
        "3719": "1970▁",
        "3720": "know▁",
        "3721": "previ",
        "3722": "academ",
        "3723": "Belgian▁",
        "3724": "Georgia▁",
        "3725": "Television▁",
        "3726": "5–",
        "3727": "ile",
        "3728": "1978▁",
        "3729": "Book▁",
        "3730": "LGBT▁",
        "3731": "Earth▁",
        "3732": "Biography▁",
        "3733": "7-",
        "3734": "ES",
        "3735": "Anc",
        "3736": "Sel",
        "3737": "eds▁",
        "3738": "sex▁",
        "3739": "1950▁",
        "3740": "orial▁",
        "3741": "through",
        "3742": "possible▁",
        "3743": "Lig",
        "3744": "dor",
        "3745": "Rock",
        "3746": "Stan",
        "3747": "aps▁",
        "3748": "autom",
        "3749": "ennes",
        "3750": "border▁",
        "3751": "ective▁",
        "3752": "elling▁",
        "3753": "fourth▁",
        "3754": "ination▁",
        "3755": "although▁",
        "3756": "mot",
        "3757": "nd▁",
        "3758": "obj",
        "3759": "ump",
        "3760": "Econ",
        "3761": "baij",
        "3762": "stop",
        "3763": "1960▁",
        "3764": "Mary▁",
        "3765": "ette▁",
        "3766": "Czech▁",
        "3767": "depend",
        "3768": "seats▁",
        "3769": "3–",
        "3770": "ano",
        "3771": "mol",
        "3772": "den▁",
        "3773": "posi",
        "3774": "uck▁",
        "3775": "celebr",
        "3776": "second",
        "3777": "returned▁",
        "3778": "Net",
        "3779": "mos",
        "3780": "Iowa▁",
        "3781": "Pope▁",
        "3782": "region",
        "3783": "others▁",
        "3784": "continued▁",
        "3785": "Mir",
        "3786": "ada▁",
        "3787": "tee▁",
        "3788": "kind▁",
        "3789": "instead▁",
        "3790": "commonly▁",
        "3791": "90",
        "3792": "Ark",
        "3793": "19,▁",
        "3794": "titl",
        "3795": "ush▁",
        "3796": "yan▁",
        "3797": "alist",
        "3798": "ites▁",
        "3799": "Chief▁",
        "3800": "Econom",
        "3801": "coach▁",
        "3802": "Constit",
        "3803": "raised▁",
        "3804": "studio▁",
        "3805": "mission▁",
        "3806": "Hurricane▁",
        "3807": "body",
        "3808": "1968▁",
        "3809": "1977▁",
        "3810": "FIFA▁",
        "3811": "short",
        "3812": "allowed▁",
        "3813": "=\"4",
        "3814": "Rog",
        "3815": "ipe",
        "3816": "Bost",
        "3817": "Tom▁",
        "3818": "Year",
        "3819": "ski▁",
        "3820": "Kingdom",
        "3821": "Azerbaij",
        "3822": "Although▁",
        "3823": "starring▁",
        "3824": "Az",
        "3825": "Lam",
        "3826": "San",
        "3827": "dro",
        "3828": "Fran",
        "3829": "west",
        "3830": "Paris",
        "3831": "2018,▁",
        "3832": "writing▁",
        "3833": "department",
        "3834": "something▁",
        "3835": "2–",
        "3836": "5-",
        "3837": "Us",
        "3838": "Rod",
        "3839": "ris",
        "3840": "1||1",
        "3841": "24,▁",
        "3842": "500▁",
        "3843": "Eliz",
        "3844": "fish",
        "3845": "ians",
        "3846": "1974▁",
        "3847": "1983▁",
        "3848": "=\"4\"|",
        "3849": "Black",
        "3850": "break",
        "3851": "mary▁",
        "3852": "erred▁",
        "3853": "friend",
        "3854": "utive▁",
        "3855": "attack▁",
        "3856": "election",
        "3857": "Dun",
        "3858": "Pen",
        "3859": "far",
        "3860": "fer",
        "3861": "ola▁",
        "3862": "Paris▁",
        "3863": "craft▁",
        "3864": "Russia▁",
        "3865": "Wat",
        "3866": "cam",
        "3867": "cou",
        "3868": "ves",
        "3869": "Comm",
        "3870": "Man▁",
        "3871": "ella▁",
        "3872": "Sweden",
        "3873": "erson▁",
        "3874": "At",
        "3875": "ive",
        "3876": "26,▁",
        "3877": "Old▁",
        "3878": "Sand",
        "3879": "low▁",
        "3880": "Spain",
        "3881": "oods▁",
        "3882": "2016,▁",
        "3883": "Spain▁",
        "3884": "ified▁",
        "3885": "style▁",
        "3886": "enough▁",
        "3887": "Bun",
        "3888": "Doc",
        "3889": "||▁",
        "3890": "ari▁",
        "3891": "awa▁",
        "3892": "aine▁",
        "3893": "month",
        "3894": "Human▁",
        "3895": "Smith▁",
        "3896": "Territ",
        "3897": "candid",
        "3898": "novel▁",
        "3899": "decided▁",
        "3900": "21,▁",
        "3901": "1964▁",
        "3902": "Trans",
        "3903": "numbers▁",
        "3904": "release▁",
        "3905": "Dre",
        "3906": "Tam",
        "3907": "ino",
        "3908": "lik",
        "3909": "pun",
        "3910": "23,▁",
        "3911": "Coun",
        "3912": "-19.▁",
        "3913": "Super",
        "3914": "releas",
        "3915": "transp",
        "3916": "Golden▁",
        "3917": "hib",
        "3918": "gust",
        "3919": "look",
        "3920": "1967▁",
        "3921": "1971▁",
        "3922": "Anton",
        "3923": "court▁",
        "3924": "killing▁",
        "3925": "program▁",
        "3926": "service▁",
        "3927": "languages▁",
        "3928": "originally▁",
        "3929": "university▁",
        "3930": "1–",
        "3931": "(,▁",
        "3932": "177",
        "3933": "Ram",
        "3934": "log",
        "3935": "Hear",
        "3936": "Toky",
        "3937": "ular",
        "3938": "acter",
        "3939": "colon",
        "3940": "exper",
        "3941": "psych",
        "3942": "Swiss▁",
        "3943": "added▁",
        "3944": "diffic",
        "3945": "ously▁",
        "3946": "Secretary▁",
        "3947": "3.",
        "3948": "Def",
        "3949": "Kel",
        "3950": "Por",
        "3951": "dar",
        "3952": "ustr",
        "3953": "Chris▁",
        "3954": "Mississ",
        "3955": "individ",
        "3956": "successful▁",
        "3957": "ls▁",
        "3958": "ois",
        "3959": "Alab",
        "3960": "Star",
        "3961": "lies▁",
        "3962": "Assemb",
        "3963": "Pacific▁",
        "3964": "osh",
        "3965": "last",
        "3966": "qual",
        "3967": "Armen",
        "3968": "docum",
        "3969": "introduced▁",
        "3970": "Ven",
        "3971": "gan",
        "3972": "ão▁",
        "3973": "Bill",
        "3974": "Sea▁",
        "3975": "lie▁",
        "3976": "ness",
        "3977": "ember",
        "3978": "itage▁",
        "3979": "smaller▁",
        "3980": "mountain▁",
        "3981": "29",
        "3982": "Ep",
        "3983": "iy",
        "3984": "pa",
        "3985": "Pot",
        "3986": "edy",
        "3987": "fle",
        "3988": "ency",
        "3989": "acts▁",
        "3990": "match▁",
        "3991": "states",
        "3992": "Middle▁",
        "3993": "Wiscons",
        "3994": "species",
        "3995": "vocals▁",
        "3996": "Nations▁",
        "3997": "culture▁",
        "3998": "students▁",
        "3999": "Mississipp",
        "4000": "6-",
        "4001": "So",
        "4002": "foc",
        "4003": "2||1",
        "4004": "ling",
        "4005": "thes",
        "4006": "Greec",
        "4007": "ired▁",
        "4008": "magaz",
        "4009": "2013.▁",
        "4010": "appointed▁",
        "4011": "7–",
        "4012": "ode",
        "4013": "22,▁",
        "4014": "27,▁",
        "4015": "1929▁",
        "4016": "nucle",
        "4017": "2007,▁",
        "4018": "attemp",
        "4019": "inside▁",
        "4020": "ologist▁",
        "4021": "Nig",
        "4022": "ulf",
        "4023": "box▁",
        "4024": "van▁",
        "4025": "hold▁",
        "4026": "scrip",
        "4027": "sound▁",
        "4028": "contains▁",
        "4029": "hurricane▁",
        "4030": "Massachusetts▁",
        "4031": "NS",
        "4032": "Est",
        "4033": "boy",
        "4034": "apol",
        "4035": "Each▁",
        "4036": "earch",
        "4037": "full▁",
        "4038": "quick",
        "4039": "settl",
        "4040": "2011.▁",
        "4041": "Frank▁",
        "4042": "Banglad",
        "4043": "construc",
        "4044": "broadcast",
        "4045": "religious▁",
        "4046": "3-",
        "4047": "Ni",
        "4048": "ni",
        "4049": "Are",
        "4050": "El▁",
        "4051": "abb",
        "4052": "nit",
        "4053": "Phys",
        "4054": "1945▁",
        "4055": "tures",
        "4056": "2017,▁",
        "4057": "Person",
        "4058": "While▁",
        "4059": "Calais▁",
        "4060": "Profess",
        "4061": "longer▁",
        "4062": "himself▁",
        "4063": "mic",
        "4064": "ugu",
        "4065": "ques",
        "4066": "army▁",
        "4067": "recip",
        "4068": "Green▁",
        "4069": "Island",
        "4070": "Vo",
        "4071": "ka",
        "4072": "bon",
        "4073": "Cant",
        "4074": "ardi",
        "4075": "Revol",
        "4076": "Team▁",
        "4077": "Africa",
        "4078": "environ",
        "4079": "Ancient▁",
        "4080": "=\"2\"|-||3",
        "4081": "Michigan▁",
        "4082": "Ox",
        "4083": "No▁",
        "4084": "pul",
        "4085": "-19▁",
        "4086": "met▁",
        "4087": "saw▁",
        "4088": "host▁",
        "4089": "teen▁",
        "4090": "2021,▁",
        "4091": "People",
        "4092": "Tennes",
        "4093": "atest▁",
        "4094": "church▁",
        "4095": "200▁",
        "4096": "Bob▁",
        "4097": "ads▁",
        "4098": "crimin",
        "4099": "experi",
        "4100": "press▁",
        "4101": "ara",
        "4102": "28,▁",
        "4103": "Camp",
        "4104": "oday▁",
        "4105": "illion",
        "4106": "Sports▁",
        "4107": "awarded▁",
        "4108": "particip",
        "4109": "30,▁",
        "4110": "Corn",
        "4111": "far▁",
        "4112": "merc",
        "4113": "ulf▁",
        "4114": "1962▁",
        "4115": "airs▁",
        "4116": "keep▁",
        "4117": "rick▁",
        "4118": "towns▁",
        "4119": "destroy",
        "4120": "themsel",
        "4121": "Congress▁",
        "4122": "0.",
        "4123": ">▁",
        "4124": "TV",
        "4125": "Dor",
        "4126": "Naz",
        "4127": "Arth",
        "4128": "job▁",
        "4129": "Footballers▁",
        "4130": "rey▁",
        "4131": "1946▁",
        "4132": "fish▁",
        "4133": "treat",
        "4134": "Chicago",
        "4135": "biggest▁",
        "4136": "Bah",
        "4137": "Eth",
        "4138": "agn",
        "4139": "ems",
        "4140": "ron▁",
        "4141": "Build",
        "4142": "concer",
        "4143": "Province▁",
        "4144": "Washington",
        "4145": "c▁",
        "4146": "Alp",
        "4147": "lav",
        "4148": "Budd",
        "4149": "Fox▁",
        "4150": "hard",
        "4151": "priv",
        "4152": "rown",
        "4153": "that",
        "4154": "ands▁",
        "4155": "cross",
        "4156": "elle▁",
        "4157": "want▁",
        "4158": "miles▁",
        "4159": "round▁",
        "4160": "Sweden▁",
        "4161": "Francisco▁",
        "4162": "structures▁",
        "4163": "ez",
        "4164": "Tan",
        "4165": "Joe▁",
        "4166": "poet",
        "4167": "ville",
        "4168": "1942▁",
        "4169": "Electr",
        "4170": "force▁",
        "4171": "features▁",
        "4172": "Parliament▁",
        "4173": "6–",
        "4174": "Ann",
        "4175": "Bay",
        "4176": "key▁",
        "4177": "1956▁",
        "4178": "Found",
        "4179": "illy▁",
        "4180": "Commit",
        "4181": "gives▁",
        "4182": "ready▁",
        "4183": "ability▁",
        "4184": "believed▁",
        "4185": "Cel",
        "4186": "Rem",
        "4187": "ker",
        "4188": "six",
        "4189": "1950",
        "4190": "25,▁",
        "4191": "chos",
        "4192": "1928▁",
        "4193": "1939▁",
        "4194": "1952▁",
        "4195": "shot▁",
        "4196": "2010.▁",
        "4197": "Radio▁",
        "4198": "Disney▁",
        "4199": "result▁",
        "4200": "federal▁",
        "4201": "ropolitan▁",
        "4202": "4-",
        "4203": "?▁",
        "4204": "Kenn",
        "4205": "oes▁",
        "4206": "1947▁",
        "4207": "Award",
        "4208": "ling▁",
        "4209": "tian▁",
        "4210": "acted▁",
        "4211": "cells▁",
        "4212": "owned▁",
        "4213": "programs▁",
        "4214": "Alexander▁",
        "4215": "throughout▁",
        "4216": "Jes",
        "4217": "Tit",
        "4218": "see",
        "4219": "ón▁",
        "4220": "occur",
        "4221": "2006,▁",
        "4222": "opera▁",
        "4223": "ential▁",
        "4224": "plants▁",
        "4225": "described▁",
        "4226": "Red",
        "4227": "fro",
        "4228": "raq",
        "4229": "Paul",
        "4230": "1936▁",
        "4231": "right",
        "4232": "2011,▁",
        "4233": "Paraly",
        "4234": "enced▁",
        "4235": "ports▁",
        "4236": "ication▁",
        "4237": "scientists▁",
        "4238": "U▁",
        "4239": "uj",
        "4240": "Cro",
        "4241": "Jim",
        "4242": "Kir",
        "4243": "Nag",
        "4244": "Sav",
        "4245": "Spe",
        "4246": "dia",
        "4247": "ues",
        "4248": "...▁",
        "4249": "Libr",
        "4250": "alth",
        "4251": "drum",
        "4252": "grew▁",
        "4253": "2007.▁",
        "4254": "Arkans",
        "4255": "Death▁",
        "4256": "Major▁",
        "4257": "plant▁",
        "4258": "Paralymp",
        "4259": "episode▁",
        "4260": "]▁",
        "4261": "Tun",
        "4262": "hot",
        "4263": "Prot",
        "4264": "adap",
        "4265": "batt",
        "4266": "fire",
        "4267": "Satur",
        "4268": "2009.▁",
        "4269": "School",
        "4270": "eight▁",
        "4271": "intend",
        "4272": "failure▁",
        "4273": "ization▁",
        "4274": "Oklahoma▁",
        "4275": "60",
        "4276": "Cy",
        "4277": "Lat",
        "4278": "1943▁",
        "4279": "Mark▁",
        "4280": "paint",
        "4281": "Daniel▁",
        "4282": "companies▁",
        "4283": "UE",
        "4284": "Lew",
        "4285": "ety",
        "4286": "adel",
        "4287": "cart",
        "4288": "ders▁",
        "4289": "lower▁",
        "4290": "Christm",
        "4291": "acting▁",
        "4292": "Confeder",
        "4293": "results▁",
        "4294": "presidential▁",
        "4295": "ga",
        "4296": "Boy",
        "4297": "ini",
        "4298": "mir",
        "4299": "ron",
        "4300": "1941▁",
        "4301": "condi",
        "4302": "strong",
        "4303": "relation",
        "4304": "Ka",
        "4305": "ab▁",
        "4306": "adv",
        "4307": "avy",
        "4308": "mel",
        "4309": "Syst",
        "4310": "Wall",
        "4311": "figh",
        "4312": "ror▁",
        "4313": "Last▁",
        "4314": "fied▁",
        "4315": "athlet",
        "4316": "front▁",
        "4317": "ampion▁",
        "4318": "Supreme▁",
        "4319": "Je",
        "4320": "ür",
        "4321": "(19",
        "4322": "Tar",
        "4323": "low",
        "4324": "pow",
        "4325": "29,▁",
        "4326": "BBC▁",
        "4327": "Jim▁",
        "4328": "real",
        "4329": "Time▁",
        "4330": "place",
        "4331": "ories▁",
        "4332": "Gallery▁",
        "4333": "Independ",
        "4334": "Islamic▁",
        "4335": "Society▁",
        "4336": "buildings▁",
        "4337": "Ash",
        "4338": "pref",
        "4339": "quar",
        "4340": "sure▁",
        "4341": "tree▁",
        "4342": "Movie▁",
        "4343": "artist",
        "4344": "Wilson▁",
        "4345": "Another▁",
        "4346": "Musicians▁",
        "4347": "discovered▁",
        "4348": "80",
        "4349": "che▁",
        "4350": "suff",
        "4351": "Film▁",
        "4352": "3||0||",
        "4353": "annel▁",
        "4354": "Donald▁",
        "4355": "available▁",
        "4356": "Ott",
        "4357": "Dall",
        "4358": "Iraq",
        "4359": "bomb",
        "4360": "1924▁",
        "4361": "1957▁",
        "4362": "size▁",
        "4363": "told▁",
        "4364": "associ",
        "4365": "process",
        "4366": "Pakistan",
        "4367": "Station▁",
        "4368": "(7",
        "4369": "8–",
        "4370": "Inc",
        "4371": "akh",
        "4372": "bat",
        "4373": "use",
        "4374": "gas▁",
        "4375": "1937▁",
        "4376": "Domin",
        "4377": "Rock▁",
        "4378": "campa",
        "4379": "enter",
        "4380": "grand",
        "4381": "2008.▁",
        "4382": "2014)▁",
        "4383": "Serie▁",
        "4384": "Provinc",
        "4385": "Republic",
        "4386": "UN",
        "4387": "zo",
        "4388": "(45",
        "4389": "Cul",
        "4390": "cy▁",
        "4391": "sem",
        "4392": "used",
        "4393": "Fame▁",
        "4394": "Feder",
        "4395": "Jack▁",
        "4396": "incre",
        "4397": "male▁",
        "4398": "Young▁",
        "4399": "birth▁",
        "4400": "Heritage▁",
        "4401": "Le▁",
        "4402": "yst",
        "4403": "aka▁",
        "4404": "1933▁",
        "4405": "theat",
        "4406": "2017)▁",
        "4407": "Steve▁",
        "4408": "theory▁",
        "4409": "Kentucky▁",
        "4410": "starting▁",
        "4411": "(4",
        "4412": "Tay",
        "4413": "ief",
        "4414": "gene",
        "4415": "1930▁",
        "4416": "August",
        "4417": "Scott▁",
        "4418": "popular",
        "4419": "becoming▁",
        "4420": "olf",
        "4421": "Tour",
        "4422": "ligh",
        "4423": "myth",
        "4424": "World",
        "4425": "ique▁",
        "4426": "Three▁",
        "4427": "iting▁",
        "4428": "larger▁",
        "4429": "silver▁",
        "4430": "running▁",
        "4431": "character",
        "4432": "selected▁",
        "4433": "Id",
        "4434": "ff▁",
        "4435": "rd▁",
        "4436": "cric",
        "4437": "rock",
        "4438": "hind▁",
        "4439": "class▁",
        "4440": "Poland▁",
        "4441": "Jackson▁",
        "4442": "romantic▁",
        "4443": "Tem",
        "4444": "od▁",
        "4445": "ami▁",
        "4446": "del▁",
        "4447": "style",
        "4448": "commit",
        "4449": "league▁",
        "4450": "tournam",
        "4451": "Internet▁",
        "4452": "Cop",
        "4453": "Lim",
        "4454": "fut",
        "4455": "keep",
        "4456": "ume▁",
        "4457": "1959▁",
        "4458": "cell▁",
        "4459": "mechan",
        "4460": "views▁",
        "4461": "company",
        "4462": "believe▁",
        "4463": "Missouri▁",
        "4464": "research▁",
        "4465": "administrative▁",
        "4466": "4–",
        "4467": "Mul",
        "4468": "Gard",
        "4469": "Pier",
        "4470": "addi",
        "4471": "agon",
        "4472": "ison",
        "4473": "near",
        "4474": "rie▁",
        "4475": "1949▁",
        "4476": "1965▁",
        "4477": "birth",
        "4478": "ouble▁",
        "4479": "District",
        "4480": "someone▁",
        "4481": "Education▁",
        "4482": "northwest▁",
        "4483": "UK",
        "4484": "60▁",
        "4485": "arc",
        "4486": "film",
        "4487": "teen",
        "4488": "1938▁",
        "4489": "neigh",
        "4490": "schol",
        "4491": "ugby▁",
        "4492": "aying▁",
        "4493": "occer▁",
        "4494": "surviv",
        "4495": "causes▁",
        "4496": "mission",
        "4497": "months▁",
        "4498": "Minnesota▁",
        "4499": "distributed▁",
        "4500": "(5",
        "4501": "Mot",
        "4502": "Bell",
        "4503": "migr",
        "4504": "wall",
        "4505": "1940▁",
        "4506": "Common",
        "4507": "Korea▁",
        "4508": "Events▁",
        "4509": "Villages▁",
        "4510": "Elizabeth▁",
        "4511": "structure▁",
        "4512": "officially▁",
        "4513": "9-",
        "4514": "Bh",
        "4515": "ō▁",
        "4516": "Fur",
        "4517": "ody▁",
        "4518": "sky▁",
        "4519": "weap",
        "4520": "anks▁",
        "4521": "ements",
        "4522": "Public▁",
        "4523": "Scientists▁",
        "4524": "//",
        "4525": "8-",
        "4526": "ski",
        "4527": "rank",
        "4528": "von▁",
        "4529": "|196",
        "4530": "Liber",
        "4531": "Total",
        "4532": "shoot",
        "4533": "Connec",
        "4534": "ruled▁",
        "4535": "astronom",
        "4536": "college▁",
        "4537": "parents▁",
        "4538": "animated▁",
        "4539": "standing▁",
        "4540": "historical▁",
        "4541": "Ly",
        "4542": "yg",
        "4543": "://",
        "4544": "Pit",
        "4545": "pot",
        "4546": "2).▁",
        "4547": "Art▁",
        "4548": "draw",
        "4549": "1931▁",
        "4550": "1966▁",
        "4551": "data▁",
        "4552": "open▁",
        "4553": "Winter▁",
        "4554": "bishop▁",
        "4555": "process▁",
        "4556": "districts▁",
        "4557": "traditional▁",
        "4558": "So▁",
        "4559": "Chap",
        "4560": "Curr",
        "4561": "gun▁",
        "4562": "mes▁",
        "4563": "Like▁",
        "4564": "sound",
        "4565": "aught▁",
        "4566": "Nintend",
        "4567": "antasy▁",
        "4568": "higher▁",
        "4569": "guitarist▁",
        "4570": "Ol",
        "4571": "Bib",
        "4572": "Lor",
        "4573": "ata",
        "4574": "htt",
        "4575": "bran",
        "4576": "bron",
        "4577": "care",
        "4578": "uts▁",
        "4579": "1935▁",
        "4580": "1963▁",
        "4581": "Hong▁",
        "4582": "anda▁",
        "4583": "2012.▁",
        "4584": "Brown▁",
        "4585": "erous▁",
        "4586": "except▁",
        "4587": "Israeli▁",
        "4588": "stations▁",
        "4589": "3,",
        "4590": "9–",
        "4591": "Ba",
        "4592": "Fel",
        "4593": "lic",
        "4594": "bad▁",
        "4595": "driv",
        "4596": "ote▁",
        "4597": "ura▁",
        "4598": "week",
        "4599": "ectiv",
        "4600": "incor",
        "4601": "quart",
        "4602": "anned▁",
        "4603": "aving▁",
        "4604": "murder",
        "4605": "others",
        "4606": "mental▁",
        "4607": "actions▁",
        "4608": "business▁",
        "4609": "4||1",
        "4610": "Afgh",
        "4611": "ric▁",
        "4612": "thir",
        "4613": "1954▁",
        "4614": "1961▁",
        "4615": "Live▁",
        "4616": "molec",
        "4617": "Maria▁",
        "4618": "Series▁",
        "4619": "Ku",
        "4620": "Bos",
        "4621": "Gro",
        "4622": "Sab",
        "4623": "Tal",
        "4624": "aps",
        "4625": "utt",
        "4626": "sent",
        "4627": "Class",
        "4628": "Norwe",
        "4629": "Formul",
        "4630": "asked▁",
        "4631": "Ay",
        "4632": "CE",
        "4633": "Cra",
        "4634": "Gab",
        "4635": "oon",
        "4636": "za▁",
        "4637": "Carl",
        "4638": "spok",
        "4639": "1927▁",
        "4640": "rule▁",
        "4641": "allows▁",
        "4642": "isions▁",
        "4643": "painter▁",
        "4644": "beginning▁",
        "4645": "temperature▁",
        "4646": "Mas",
        "4647": "Bay▁",
        "4648": "chlor",
        "4649": "first",
        "4650": "page▁",
        "4651": "river",
        "4652": "legisl",
        "4653": "producer",
        "4654": "directors▁",
        "4655": "Ul",
        "4656": "Der",
        "4657": "Lev",
        "4658": "ily",
        "4659": "sky",
        "4660": "estim",
        "4661": "games",
        "4662": "iant▁",
        "4663": "ured▁",
        "4664": "chemist",
        "4665": "AS",
        "4666": "Cer",
        "4667": "III",
        "4668": "fru",
        "4669": "nic",
        "4670": "Asia",
        "4671": "atom",
        "4672": "perc",
        "4673": "uten",
        "4674": "Color",
        "4675": "Tony▁",
        "4676": "illa▁",
        "4677": "2012,▁",
        "4678": "Empire",
        "4679": "allow▁",
        "4680": "bably▁",
        "4681": "compar",
        "4682": "tried▁",
        "4683": "disease",
        "4684": "idence▁",
        "4685": "surface▁",
        "4686": "finished▁",
        "4687": "Don▁",
        "4688": "Wood",
        "4689": "oot▁",
        "4690": "ull▁",
        "4691": "UEFA▁",
        "4692": "escap",
        "4693": "kept▁",
        "4694": "Cancer▁",
        "4695": "Turkish▁",
        "4696": "aircraft▁",
        "4697": "Ron",
        "4698": "anj",
        "4699": "ec▁",
        "4700": "ope",
        "4701": "ulp",
        "4702": "5||1",
        "4703": "oft▁",
        "4704": "erto▁",
        "4705": "soon▁",
        "4706": "2008,▁",
        "4707": "2015)▁",
        "4708": "Wikipe",
        "4709": "adelph",
        "4710": "employ",
        "4711": "movies",
        "4712": "Alexand",
        "4713": "Formula▁",
        "4714": "discover",
        "4715": "citizens▁",
        "4716": "Political▁",
        "4717": "3:",
        "4718": "CB",
        "4719": "Ta",
        "4720": "ids",
        "4721": "ki▁",
        "4722": "1||2",
        "4723": "Alli",
        "4724": "Exam",
        "4725": "Lead",
        "4726": "1944▁",
        "4727": "Green",
        "4728": "fight▁",
        "4729": "Portugu",
        "4730": "ynasty▁",
        "4731": "Johnson▁",
        "4732": "brought▁",
        "4733": "=\"2\"|-||2",
        "4734": "generally▁",
        "4735": "edd",
        "4736": "mass",
        "4737": "plom",
        "4738": "Detro",
        "4739": "Then▁",
        "4740": "ances",
        "4741": "test▁",
        "4742": "brain▁",
        "4743": "media▁",
        "4744": "Federal▁",
        "4745": "Science▁",
        "4746": "climate▁",
        "4747": "systems▁",
        "4748": "Assembly▁",
        "4749": "Philadelph",
        "4750": "Mid",
        "4751": "fun",
        "4752": "maj",
        "4753": "ador",
        "4754": "dies",
        "4755": "ils▁",
        "4756": "then",
        "4757": "debut▁",
        "4758": "igned▁",
        "4759": "Angeles",
        "4760": "earthqu",
        "4761": "graphy▁",
        "4762": "artists▁",
        "4763": "Nu",
        "4764": "Anth",
        "4765": "Doug",
        "4766": "1958▁",
        "4767": "love▁",
        "4768": "assist",
        "4769": "coast▁",
        "4770": "stein▁",
        "4771": "taking▁",
        "4772": "winner▁",
        "4773": "=\"2\"|-||1",
        "4774": "development▁",
        "4775": "ual",
        "4776": "Laur",
        "4777": "Serb",
        "4778": "alph",
        "4779": "Organ",
        "4780": "arriv",
        "4781": "reduc",
        "4782": "4||0||",
        "4783": "space▁",
        "4784": "worth▁",
        "4785": "native▁",
        "4786": "programm",
        "4787": "province",
        "4788": "reading▁",
        "4789": "regular▁",
        "4790": "ulation▁",
        "4791": "ification▁",
        "4792": "Na",
        "4793": "ny",
        "4794": "Aut",
        "4795": "Fer",
        "4796": "Hom",
        "4797": "Ken",
        "4798": "pal",
        "4799": "two",
        "4800": "ée▁",
        "4801": "Gord",
        "4802": "1934▁",
        "4803": "behav",
        "4804": "frequ",
        "4805": "multiple▁",
        "4806": "Ga",
        "4807": "Day",
        "4808": "Out",
        "4809": "mph",
        "4810": "God▁",
        "4811": "Gram",
        "4812": "days",
        "4813": "ito▁",
        "4814": "ken▁",
        "4815": "1932▁",
        "4816": "Langu",
        "4817": "Russia",
        "4818": "elled▁",
        "4819": "sexual▁",
        "4820": "turned▁",
        "4821": "starred▁",
        "4822": "probably▁",
        "4823": "MP",
        "4824": "(18",
        "4825": "audi",
        "4826": "Press",
        "4827": "revol",
        "4828": "2006.▁",
        "4829": "2009,▁",
        "4830": "2015.▁",
        "4831": "color▁",
        "4832": "refer▁",
        "4833": "tells▁",
        "4834": "battle▁",
        "4835": "middle▁",
        "4836": "Argentine▁",
        "4837": "represented▁",
        "4838": "í▁",
        "4839": "Both▁",
        "4840": "date▁",
        "4841": "ille▁",
        "4842": "occup",
        "4843": "Transp",
        "4844": "medal▁",
        "4845": "Raj",
        "4846": "3||1",
        "4847": "Finn",
        "4848": "farm",
        "4849": "Lord▁",
        "4850": "ayed▁",
        "4851": "blood▁",
        "4852": "Persian▁",
        "4853": "DV",
        "4854": "Bak",
        "4855": "Men",
        "4856": "Syd",
        "4857": "Oper",
        "4858": "Blue▁",
        "4859": "bacter",
        "4860": "former",
        "4861": "heavy▁",
        "4862": "defeated▁",
        "4863": "We▁",
        "4864": "neg",
        "4865": "spl",
        "4866": "Sher",
        "4867": "adop",
        "4868": "aper",
        "4869": "las▁",
        "4870": "Lady▁",
        "4871": "eman▁",
        "4872": "here▁",
        "4873": "mean▁",
        "4874": "thous",
        "4875": "2014,▁",
        "4876": "Medal▁",
        "4877": "declar",
        "4878": "mother",
        "4879": "surround",
        "4880": "Connectic",
        "4881": "Netherlands▁",
        "4882": "uv",
        "4883": "Hou",
        "4884": "ges",
        "4885": "mou",
        "4886": "ony",
        "4887": "Law▁",
        "4888": "Town",
        "4889": "akes",
        "4890": "ural▁",
        "4891": "Mexico",
        "4892": "urity▁",
        "4893": "happened▁",
        "4894": "70",
        "4895": "kh",
        "4896": "Up▁",
        "4897": "1920",
        "4898": "Belg",
        "4899": "6||0▁",
        "4900": "kill▁",
        "4901": "French",
        "4902": "arrang",
        "4903": "create▁",
        "4904": "Columbia▁",
        "4905": "Cir",
        "4906": "ars",
        "4907": "sor",
        "4908": "brid",
        "4909": "Broad",
        "4910": "Niger",
        "4911": "mark▁",
        "4912": "order",
        "4913": "2013,▁",
        "4914": "2014.▁",
        "4915": "Mount▁",
        "4916": "older▁",
        "4917": "Stephen▁",
        "4918": "incorpor",
        "4919": "Municipality▁",
        "4920": "Ty",
        "4921": "Aqu",
        "4922": "she",
        "4923": "7||1",
        "4924": "Hill",
        "4925": "attr",
        "4926": "ning",
        "4927": "oid▁",
        "4928": "spee",
        "4929": "suic",
        "4930": "1925▁",
        "4931": "folk▁",
        "4932": "2018)▁",
        "4933": "ection",
        "4934": "whole▁",
        "4935": "whose▁",
        "4936": "controll",
        "4937": "35",
        "4938": "én",
        "4939": "Ern",
        "4940": "Hir",
        "4941": "Rap",
        "4942": "dog",
        "4943": "och",
        "4944": "Chem",
        "4945": "spac",
        "4946": "emic▁",
        "4947": "Jones▁",
        "4948": "genus▁",
        "4949": "Nintendo▁",
        "4950": "flo",
        "4951": "orn",
        "4952": "Arti",
        "4953": "Song",
        "4954": "1926▁",
        "4955": "Gener",
        "4956": "Long▁",
        "4957": "More▁",
        "4958": "forced▁",
        "4959": "rather▁",
        "4960": "Company▁",
        "4961": "education▁",
        "4962": "IP",
        "4963": "Hay",
        "4964": "hic",
        "4965": "ust",
        "4966": "wa▁",
        "4967": "7).▁",
        "4968": "Vene",
        "4969": "tly▁",
        "4970": "uses",
        "4971": "ives▁",
        "4972": "Produc",
        "4973": "Arthur▁",
        "4974": "nearly▁",
        "4975": "Business",
        "4976": "machine▁",
        "4977": "followed▁",
        "4978": "0||0||0||0||",
        "4979": "CD",
        "4980": "Nev",
        "4981": "gal",
        "4982": "Mosc",
        "4983": "died",
        "4984": "ira▁",
        "4985": "liqu",
        "4986": "efore",
        "4987": "minut",
        "4988": "runs▁",
        "4989": "Bulgar",
        "4990": "owing▁",
        "4991": "public",
        "4992": "getting▁",
        "4993": "together",
        "4994": "Christmas▁",
        "4995": "according▁",
        "4996": "songwriter",
        "4997": "Gil",
        "4998": "bad",
        "4999": "hus",
        "5000": "pan",
        "5001": "des▁",
        "5002": "grav",
        "5003": "1923▁",
        "5004": "Games",
        "5005": "ardin",
        "5006": "call▁",
        "5007": "frog▁",
        "5008": "shire",
        "5009": "Micros",
        "5010": "kilomet",
        "5011": "letter▁",
        "5012": "produce▁",
        "5013": "activist▁",
        "5014": "Jon",
        "5015": "Leb",
        "5016": "Loc",
        "5017": "idi",
        "5018": "Oreg",
        "5019": "eat▁",
        "5020": "Road▁",
        "5021": "fast▁",
        "5022": "grow▁",
        "5023": "medic",
        "5024": "2005.▁",
        "5025": "Portug",
        "5026": "organ▁",
        "5027": "airman▁",
        "5028": "proved▁",
        "5029": "SA",
        "5030": "cli",
        "5031": "fav",
        "5032": "Linc",
        "5033": "anal",
        "5034": "1900▁",
        "5035": "cloth",
        "5036": "const",
        "5037": "Night▁",
        "5038": "critic",
        "5039": "orches",
        "5040": "volcan",
        "5041": "reported▁",
        "5042": "newspaper▁",
        "5043": "producers▁",
        "5044": "80▁",
        "5045": "Dol",
        "5046": "swi",
        "5047": "aki▁",
        "5048": "ble▁",
        "5049": "What▁",
        "5050": "mond▁",
        "5051": "Mayor▁",
        "5052": "clubs▁",
        "5053": "diplom",
        "5054": "piece▁",
        "5055": "rogen▁",
        "5056": "stand▁",
        "5057": "Senator▁",
        "5058": "leading▁",
        "5059": "competed▁",
        "5060": "Norwegian▁",
        "5061": "businessman▁",
        "5062": "(6",
        "5063": "70▁",
        "5064": "Of▁",
        "5065": "Ever",
        "5066": "eva▁",
        "5067": "neum",
        "5068": "1901▁",
        "5069": "Journ",
        "5070": "aded▁",
        "5071": "Church",
        "5072": "Festiv",
        "5073": "Kelly▁",
        "5074": "Storm▁",
        "5075": "award▁",
        "5076": "iding▁",
        "5077": "moving▁",
        "5078": "constitu",
        "5079": "movement▁",
        "5080": "separate▁",
        "5081": "Bad",
        "5082": "Bow",
        "5083": "Kat",
        "5084": "Ret",
        "5085": "(190",
        "5086": "Hard",
        "5087": "Shar",
        "5088": "anny▁",
        "5089": "aska▁",
        "5090": "coast",
        "5091": "chess▁",
        "5092": "lawyer▁",
        "5093": "program",
        "5094": "Iranian▁",
        "5095": "appears▁",
        "5096": "Administr",
        "5097": "Personal▁",
        "5098": "ns",
        "5099": "gas",
        "5100": "www",
        "5101": "Anti",
        "5102": "Kash",
        "5103": "Ther",
        "5104": "aya▁",
        "5105": "pand",
        "5106": "Grand",
        "5107": "Union",
        "5108": "ades▁",
        "5109": "edom▁",
        "5110": "today",
        "5111": "2017.▁",
        "5112": "Colomb",
        "5113": "Force▁",
        "5114": "obile▁",
        "5115": "commerc",
        "5116": "Justice▁",
        "5117": "thriller▁",
        "5118": "professor▁",
        "5119": "J▁",
        "5120": "Rub",
        "5121": "Tro",
        "5122": "lay",
        "5123": "bank",
        "5124": "fic▁",
        "5125": "nam▁",
        "5126": "itch▁",
        "5127": "Brian▁",
        "5128": "number",
        "5129": "Israel▁",
        "5130": "behind▁",
        "5131": "return▁",
        "5132": "spread▁",
        "5133": "Act",
        "5134": "ota",
        "5135": "pil",
        "5136": "Wels",
        "5137": "une▁",
        "5138": "1920▁",
        "5139": "Under",
        "5140": "bass▁",
        "5141": "dish▁",
        "5142": "pitch",
        "5143": "2018.▁",
        "5144": "Lincol",
        "5145": "Tokyo▁",
        "5146": "purpos",
        "5147": "however",
        "5148": "square▁",
        "5149": "leyball▁",
        "5150": "matches▁",
        "5151": "||2||0||",
        "5152": "positive▁",
        "5153": "(0",
        "5154": "ün",
        "5155": "Aff",
        "5156": "Rev",
        "5157": "lege",
        "5158": "pay▁",
        "5159": "Town▁",
        "5160": "anist",
        "5161": "hand▁",
        "5162": "Video▁",
        "5163": "Welsh▁",
        "5164": "aired▁",
        "5165": "merged▁",
        "5166": "starts▁",
        "5167": "industri",
        "5168": "leaders▁",
        "5169": "Louisiana▁",
        "5170": "4.",
        "5171": "'.▁",
        "5172": "Dan",
        "5173": "Sea",
        "5174": "ror",
        "5175": "6||1",
        "5176": "8).▁",
        "5177": "Ariz",
        "5178": "Cham",
        "5179": "cook",
        "5180": "news▁",
        "5181": "Kansas",
        "5182": "friend▁",
        "5183": "listed▁",
        "5184": "passed▁",
        "5185": "railway▁",
        "5186": "schools▁",
        "5187": "Princess▁",
        "5188": "Presidents▁",
        "5189": "176",
        "5190": "rob",
        "5191": "rup",
        "5192": "Calv",
        "5193": "Hall",
        "5194": "dens",
        "5195": "ects",
        "5196": "nel▁",
        "5197": "Charl",
        "5198": "Kong▁",
        "5199": "Song▁",
        "5200": "5||0||",
        "5201": "confir",
        "5202": "tured▁",
        "5203": "write▁",
        "5204": "guitar▁",
        "5205": "medical▁",
        "5206": "engineer▁",
        "5207": "7.",
        "5208": "(24",
        "5209": "..▁",
        "5210": "Lie",
        "5211": "Moh",
        "5212": "St▁",
        "5213": "ali",
        "5214": "hi▁",
        "5215": "sle",
        "5216": "Cart",
        "5217": "Jean",
        "5218": "ope▁",
        "5219": "ump▁",
        "5220": "1922▁",
        "5221": "South",
        "5222": "2005,▁",
        "5223": "eding▁",
        "5224": "Vietnam",
        "5225": "health▁",
        "5226": "industr",
        "5227": "source▁",
        "5228": "towards▁",
        "5229": "cography▁",
        "5230": "electric▁",
        "5231": "involved▁",
        "5232": "She",
        "5233": "ola",
        "5234": "News▁",
        "5235": "rian▁",
        "5236": "terms▁",
        "5237": "union▁",
        "5238": "billion▁",
        "5239": "stories▁",
        "5240": "division▁",
        "5241": "referred▁",
        "5242": "soldiers▁",
        "5243": "45▁",
        "5244": "Ecu",
        "5245": "rep",
        "5246": "Sour",
        "5247": "more",
        "5248": "5||0▁",
        "5249": "Hill▁",
        "5250": "Vienn",
        "5251": "pneum",
        "5252": "polic",
        "5253": "2000.▁",
        "5254": "Later▁",
        "5255": "leader",
        "5256": "scored▁",
        "5257": "tennis▁",
        "5258": "Islands▁",
        "5259": "network▁",
        "5260": "regions▁",
        "5261": "Victoria▁",
        "5262": "material▁",
        "5263": "4:",
        "5264": "wr",
        "5265": "Ren",
        "5266": "sun",
        "5267": "And▁",
        "5268": "enem",
        "5269": "2003.▁",
        "5270": "Corpor",
        "5271": "kinds▁",
        "5272": "tware▁",
        "5273": "Family▁",
        "5274": "Social▁",
        "5275": "animal▁",
        "5276": "passeng",
        "5277": "quickly▁",
        "5278": "Scotland▁",
        "5279": "function▁",
        "5280": "utionary▁",
        "5281": "Entertainment▁",
        "5282": "33",
        "5283": "hr",
        "5284": ");▁",
        "5285": "Sax",
        "5286": "lif",
        "5287": "ato▁",
        "5288": "ett▁",
        "5289": "frog",
        "5290": "oil▁",
        "5291": "past",
        "5292": "fred▁",
        "5293": "2015,▁",
        "5294": "Women▁",
        "5295": "cases▁",
        "5296": "table▁",
        "5297": "fought▁",
        "5298": "needed▁",
        "5299": "Century▁",
        "5300": "Ireland▁",
        "5301": "Special▁",
        "5302": "composed▁",
        "5303": "But",
        "5304": "IV▁",
        "5305": "Mol",
        "5306": "Tak",
        "5307": "Over",
        "5308": "ille",
        "5309": "ria▁",
        "5310": "Brook",
        "5311": "Manip",
        "5312": "bach▁",
        "5313": "Malays",
        "5314": "green▁",
        "5315": "tario▁",
        "5316": "design▁",
        "5317": "Toronto▁",
        "5318": "actually▁",
        "5319": "languages",
        "5320": "Committee▁",
        "5321": "elections▁",
        "5322": "Fa",
        "5323": "NB",
        "5324": "NF",
        "5325": "Dak",
        "5326": "Lin",
        "5327": "ave",
        "5328": "ona",
        "5329": "Bure",
        "5330": "Jess",
        "5331": "ests",
        "5332": "gin▁",
        "5333": "nic▁",
        "5334": "rid▁",
        "5335": "Medic",
        "5336": "Only▁",
        "5337": "rate▁",
        "5338": "comic▁",
        "5339": "fully▁",
        "5340": "Walter▁",
        "5341": "Ontario▁",
        "5342": "philosoph",
        "5343": "Mississippi▁",
        "5344": "incorporated▁",
        "5345": "dy",
        "5346": "ux",
        "5347": "civ",
        "5348": "dre",
        "5349": "8||1",
        "5350": "Mand",
        "5351": "ati▁",
        "5352": "bon▁",
        "5353": "gle▁",
        "5354": "onia",
        "5355": "uce▁",
        "5356": "ward",
        "5357": "Const",
        "5358": "Smith",
        "5359": "coach",
        "5360": "room▁",
        "5361": "Atlant",
        "5362": "illed▁",
        "5363": "stone▁",
        "5364": "length▁",
        "5365": "Austria▁",
        "5366": "Indiana▁",
        "5367": "Olympics",
        "5368": "Singers▁",
        "5369": "association▁",
        "5370": "1940",
        "5371": "cut▁",
        "5372": "goal",
        "5373": "ican",
        "5374": "Korea",
        "5375": "explor",
        "5376": "Valley▁",
        "5377": "conserv",
        "5378": "powerful▁",
        "5379": "Wisconsin▁",
        "5380": "Businesspeople▁",
        "5381": "Da",
        "5382": "Dom",
        "5383": "Les",
        "5384": "Coll",
        "5385": "Harv",
        "5386": "Mill",
        "5387": "Whit",
        "5388": "hot▁",
        "5389": "panc",
        "5390": "proj",
        "5391": "Mike▁",
        "5392": "Miss▁",
        "5393": "Over▁",
        "5394": "after",
        "5395": "board",
        "5396": "onne▁",
        "5397": "2019.▁",
        "5398": "rugby▁",
        "5399": "tellig",
        "5400": "toral▁",
        "5401": "Boston▁",
        "5402": "spoken▁",
        "5403": "travel▁",
        "5404": "designated▁",
        "5405": "ón",
        "5406": "32▁",
        "5407": "Aub",
        "5408": "Cab",
        "5409": "alg",
        "5410": "Film",
        "5411": "Hot▁",
        "5412": "Leon",
        "5413": "edic",
        "5414": "mark",
        "5415": "agan▁",
        "5416": "ving▁",
        "5417": "Wales▁",
        "5418": "cover▁",
        "5419": "Deputy▁",
        "5420": "animals",
        "5421": "horror▁",
        "5422": "officer▁",
        "5423": "Research▁",
        "5424": "elements▁",
        "5425": "medalists▁",
        "5426": "Ry",
        "5427": "pp",
        "5428": "Pur",
        "5429": "alp",
        "5430": "9).▁",
        "5431": "Ball",
        "5432": "Brun",
        "5433": "Lind",
        "5434": "adi▁",
        "5435": "ero▁",
        "5436": "libr",
        "5437": "meet",
        "5438": "odes",
        "5439": "pron",
        "5440": "surv",
        "5441": "2||0▁",
        "5442": "Game▁",
        "5443": "park▁",
        "5444": "vehic",
        "5445": "Mario▁",
        "5446": "break▁",
        "5447": "Francis▁",
        "5448": "Christian",
        "5449": "executive▁",
        "5450": "(▁",
        "5451": "Ah",
        "5452": "Wi",
        "5453": "Nik",
        "5454": "etc",
        "5455": "Jord",
        "5456": "Rome",
        "5457": "Winn",
        "5458": "bott",
        "5459": "1921▁",
        "5460": "1||0▁",
        "5461": "Vice▁",
        "5462": "alphab",
        "5463": "inary▁",
        "5464": "paper▁",
        "5465": "Albert▁",
        "5466": "Conserv",
        "5467": "Members▁",
        "5468": "foreign▁",
        "5469": "seasons▁",
        "5470": "stopped▁",
        "5471": "featured▁",
        "5472": "Microsoft▁",
        "5473": "2:▁",
        "5474": "Fic",
        "5475": "Var",
        "5476": "Way",
        "5477": "ami",
        "5478": "dol",
        "5479": "job",
        "5480": "31,▁",
        "5481": "why▁",
        "5482": "aked▁",
        "5483": "2004.▁",
        "5484": "6||0||",
        "5485": "belong",
        "5486": "train▁",
        "5487": "already▁",
        "5488": "personal",
        "5489": "Buildings▁",
        "5490": "Portuguese▁",
        "5491": ",\"▁",
        "5492": "chi",
        "5493": "lo▁",
        "5494": "Andr",
        "5495": "Oliv",
        "5496": "Ray▁",
        "5497": "bus▁",
        "5498": "hors",
        "5499": "via▁",
        "5500": "ardo▁",
        "5501": "dead▁",
        "5502": "Power▁",
        "5503": "things",
        "5504": "bronze▁",
        "5505": "buried▁",
        "5506": "degree▁",
        "5507": "points▁",
        "5508": "sister▁",
        "5509": "Tennessee▁",
        "5510": "38",
        "5511": "Nep",
        "5512": "Ray",
        "5513": "arg",
        "5514": "du▁",
        "5515": "Lith",
        "5516": "Van▁",
        "5517": "road",
        "5518": "Cast▁",
        "5519": "Home▁",
        "5520": "José▁",
        "5521": "Theat",
        "5522": "tial▁",
        "5523": "tory▁",
        "5524": "Apple▁",
        "5525": "rules▁",
        "5526": "speak▁",
        "5527": "spent▁",
        "5528": "streng",
        "5529": "Philip▁",
        "5530": "showed▁",
        "5531": "islands▁",
        "5532": "Arm",
        "5533": "Max",
        "5534": "1955▁",
        "5535": "stein",
        "5536": "achiev",
        "5537": "altern",
        "5538": "comput",
        "5539": "Health▁",
        "5540": "anthrop",
        "5541": "entire▁",
        "5542": "wealth▁",
        "5543": "private▁",
        "5544": "distance▁",
        "5545": "entertain",
        "5546": "physical▁",
        "5547": "Hungarian▁",
        "5548": "AD",
        "5549": "zh",
        "5550": "Che",
        "5551": "Rav",
        "5552": "win",
        "5553": "Down",
        "5554": "Love",
        "5555": "atch",
        "5556": "food",
        "5557": "Alber",
        "5558": "cover",
        "5559": "laws▁",
        "5560": "mass▁",
        "5561": "talk▁",
        "5562": "wall▁",
        "5563": "Muslim",
        "5564": "month▁",
        "5565": "night▁",
        "5566": "Melbour",
        "5567": "vention▁",
        "5568": "Afghanist",
        "5569": "economic▁",
        "5570": "difficult▁",
        "5571": "Ot",
        "5572": "Sé",
        "5573": "Ut",
        "5574": "ba",
        "5575": "De▁",
        "5576": "Vis",
        "5577": "Lawr",
        "5578": "Sam▁",
        "5579": "crip",
        "5580": "pet▁",
        "5581": "7||0▁",
        "5582": "eter▁",
        "5583": "ograp",
        "5584": "2020.▁",
        "5585": "fifth▁",
        "5586": "method",
        "5587": "Andrew▁",
        "5588": "Records",
        "5589": "prison▁",
        "5590": "Website▁",
        "5591": "chester▁",
        "5592": "businessman",
        "5593": "5.",
        "5594": "Cru",
        "5595": "Sul",
        "5596": "ba▁",
        "5597": "ja▁",
        "5598": "Ice▁",
        "5599": "ann▁",
        "5600": "ule▁",
        "5601": "Ottom",
        "5602": "Show▁",
        "5603": "Stand",
        "5604": "ender",
        "5605": "ufact",
        "5606": "2001.▁",
        "5607": "2016.▁",
        "5608": "Creek▁",
        "5609": "Croati",
        "5610": "contri",
        "5611": "lying▁",
        "5612": "speed▁",
        "5613": "charge▁",
        "5614": "eption▁",
        "5615": "Alabama▁",
        "5616": "complications▁",
        "5617": "/8",
        "5618": "Deb",
        "5619": "Nel",
        "5620": "Non",
        "5621": "Veg",
        "5622": "ero",
        "5623": "ert",
        "5624": "Fair",
        "5625": "ibn▁",
        "5626": "lim▁",
        "5627": "lor▁",
        "5628": "side",
        "5629": "Jean▁",
        "5630": "Wales",
        "5631": "care▁",
        "5632": "upon▁",
        "5633": "Space▁",
        "5634": "chief▁",
        "5635": "overs▁",
        "5636": "damage▁",
        "5637": "market▁",
        "5638": "pieces▁",
        "5639": "symbol▁",
        "5640": "launched▁",
        "5641": "Ri",
        "5642": "Al▁",
        "5643": "Han",
        "5644": "6).▁",
        "5645": "Act▁",
        "5646": "eks▁",
        "5647": "pred",
        "5648": "stra",
        "5649": "una▁",
        "5650": "wide",
        "5651": "Venez",
        "5652": "aces▁",
        "5653": "books",
        "5654": "known",
        "5655": "past▁",
        "5656": "point",
        "5657": "your▁",
        "5658": "2021.▁",
        "5659": "Awards",
        "5660": "ility▁",
        "5661": "sites▁",
        "5662": "tioned▁",
        "5663": "Vietnam▁",
        "5664": "covered▁",
        "5665": "Discography▁",
        "5666": "4,",
        "5667": "Kaz",
        "5668": "ery",
        "5669": "ops",
        "5670": "tax",
        "5671": "2||2",
        "5672": "Greg",
        "5673": "boy▁",
        "5674": "http",
        "5675": "scap",
        "5676": "vall",
        "5677": "web▁",
        "5678": "hood▁",
        "5679": "Bundes",
        "5680": "action",
        "5681": "apers▁",
        "5682": "urban▁",
        "5683": "Railway▁",
        "5684": "itation▁",
        "5685": "Military▁",
        "5686": "eventually▁",
        "5687": "arrondissement▁",
        "5688": "49",
        "5689": "Iv",
        "5690": "Ele",
        "5691": "eat",
        "5692": "sea",
        "5693": "Maur",
        "5694": "ail▁",
        "5695": "aves",
        "5696": "dang",
        "5697": "ela▁",
        "5698": "ret▁",
        "5699": "ring",
        "5700": "Holy▁",
        "5701": "Matth",
        "5702": "micro",
        "5703": "sculp",
        "5704": "||30||",
        "5705": "Florida",
        "5706": "Street▁",
        "5707": "include",
        "5708": "primary▁",
        "5709": "singles▁",
        "5710": "whether▁",
        "5711": "graduated▁",
        "5712": "ky",
        "5713": "rh",
        "5714": "Pok",
        "5715": "alc",
        "5716": "ben",
        "5717": "Brid",
        "5718": "Hind",
        "5719": "How▁",
        "5720": "Marv",
        "5721": "atab",
        "5722": "ices",
        "5723": "sens",
        "5724": "vide",
        "5725": "Buddh",
        "5726": "Ocean",
        "5727": "ears▁",
        "5728": "model",
        "5729": "resul",
        "5730": "stadi",
        "5731": "vote▁",
        "5732": "Loire▁",
        "5733": "career",
        "5734": "Season▁",
        "5735": "likely▁",
        "5736": "Illinois",
        "5737": "hospital▁",
        "5738": "personal▁",
        "5739": "themselves▁",
        "5740": "organization▁",
        "5741": "hur",
        "5742": "ug▁",
        "5743": "ario",
        "5744": "atell",
        "5745": "inson",
        "5746": "nine▁",
        "5747": "Track▁",
        "5748": "Develop",
        "5749": "centre▁",
        "5750": "experim",
        "5751": "recent▁",
        "5752": "utenant▁",
        "5753": "Americans▁",
        "5754": "ographical▁",
        "5755": "Christopher▁",
        "5756": "+▁",
        "5757": "H▁",
        "5758": "dé",
        "5759": "Inf",
        "5760": "Me▁",
        "5761": "Back",
        "5762": "Queb",
        "5763": "São▁",
        "5764": "USA▁",
        "5765": "ingu",
        "5766": "Stock",
        "5767": "base▁",
        "5768": "eauti",
        "5769": "eful▁",
        "5770": "ield▁",
        "5771": "|2003",
        "5772": "calend",
        "5773": "Danish▁",
        "5774": "Grammy▁",
        "5775": "awards▁",
        "5776": "evision",
        "5777": "simply▁",
        "5778": "widely▁",
        "5779": "Douglas▁",
        "5780": "Examples▁",
        "5781": "complete▁",
        "5782": "ographic▁",
        "5783": "standard▁",
        "5784": "compounds▁",
        "5785": "destroyed▁",
        "5786": "175",
        "5787": "Bou",
        "5788": "Tra",
        "5789": "4).▁",
        "5790": "Ben▁",
        "5791": "Cost",
        "5792": "Nord",
        "5793": "Pass",
        "5794": "foss",
        "5795": "prin",
        "5796": "1953▁",
        "5797": "Even▁",
        "5798": "Fred▁",
        "5799": "Holly",
        "5800": "words",
        "5801": "ching▁",
        "5802": "netic▁",
        "5803": "appear▁",
        "5804": "begins▁",
        "5805": "illustr",
        "5806": "letters▁",
        "5807": "composers▁",
        "5808": "recording▁",
        "5809": "Is▁",
        "5810": "Sau",
        "5811": "ky▁",
        "5812": "xim",
        "5813": "300▁",
        "5814": "Fern",
        "5815": "danc",
        "5816": "prec",
        "5817": "Marsh",
        "5818": "agnos",
        "5819": "counc",
        "5820": "ences",
        "5821": "pool▁",
        "5822": "|2004",
        "5823": "|2009",
        "5824": "Ambass",
        "5825": "Montre",
        "5826": "icity▁",
        "5827": "mayor▁",
        "5828": "meant▁",
        "5829": "quite▁",
        "5830": "entary▁",
        "5831": "Bavaria▁",
        "5832": "Carolina",
        "5833": "Stanley▁",
        "5834": "claimed▁",
        "5835": "Baseball▁",
        "5836": "champion▁",
        "5837": "collection▁",
        "5838": "da",
        "5839": "°▁",
        "5840": "Ais",
        "5841": "Ric",
        "5842": "Sud",
        "5843": "avi",
        "5844": "pet",
        "5845": "sam",
        "5846": "1).▁",
        "5847": "Top▁",
        "5848": "iana",
        "5849": "mamm",
        "5850": "Arts▁",
        "5851": "erson",
        "5852": "oppos",
        "5853": "oute▁",
        "5854": "succe",
        "5855": "turn▁",
        "5856": "Engine",
        "5857": "flows▁",
        "5858": "mixed▁",
        "5859": "earned▁",
        "5860": "ologist",
        "5861": "Wy",
        "5862": "án",
        "5863": "Typ",
        "5864": "ior",
        "5865": "tou",
        "5866": "Jeff",
        "5867": "Sun▁",
        "5868": "dial",
        "5869": "oud▁",
        "5870": "Iran▁",
        "5871": "Open▁",
        "5872": "agon▁",
        "5873": "blue▁",
        "5874": "ideas▁",
        "5875": "leave▁",
        "5876": "reach▁",
        "5877": "Greece▁",
        "5878": "Taylor▁",
        "5879": "Library▁",
        "5880": "Records▁",
        "5881": "signific",
        "5882": "communes▁",
        "5883": "Billboard▁",
        "5884": "connected▁",
        "5885": "philanthrop",
        "5886": "asp",
        "5887": "eum",
        "5888": "mpt",
        "5889": "ose",
        "5890": "sus",
        "5891": "6||2",
        "5892": "made",
        "5893": "Manag",
        "5894": "Rome▁",
        "5895": "cerem",
        "5896": "edia▁",
        "5897": "ules▁",
        "5898": "voice",
        "5899": "troops▁",
        "5900": "previous▁",
        "5901": "Professor▁",
        "5902": "classical▁",
        "5903": "performance▁",
        "5904": "yz",
        "5905": "bot",
        "5906": "nob",
        "5907": "meth",
        "5908": "prev",
        "5909": "Liter",
        "5910": "ancy▁",
        "5911": "andy▁",
        "5912": "liber",
        "5913": "tell▁",
        "5914": "|2005",
        "5915": "Percy▁",
        "5916": "leges▁",
        "5917": "Ireland",
        "5918": "capital",
        "5919": "Airlines▁",
        "5920": "President",
        "5921": "Abd",
        "5922": "Lis",
        "5923": "too",
        "5924": "(189",
        "5925": "drug",
        "5926": "godd",
        "5927": "thin",
        "5928": "wind",
        "5929": "Bank▁",
        "5930": "Dave▁",
        "5931": "Jane▁",
        "5932": "arms▁",
        "5933": "goal▁",
        "5934": "stead",
        "5935": "true▁",
        "5936": "unit▁",
        "5937": "wave▁",
        "5938": "Freder",
        "5939": "Jersey",
        "5940": "Upper▁",
        "5941": "festiv",
        "5942": "holds▁",
        "5943": "instit",
        "5944": "ention▁",
        "5945": "parliam",
        "5946": "racing▁",
        "5947": "simple▁",
        "5948": "trying▁",
        "5949": "Anthony▁",
        "5950": "Venezuel",
        "5951": "activist",
        "5952": "distribu",
        "5953": "studies▁",
        "5954": "consists▁",
        "5955": "39",
        "5956": "Kev",
        "5957": "Thr",
        "5958": "Yam",
        "5959": "mom",
        "5960": "siz",
        "5961": "Sri▁",
        "5962": "ides",
        "5963": "oke▁",
        "5964": "ora▁",
        "5965": "stic",
        "5966": "sugg",
        "5967": "Main▁",
        "5968": "ados▁",
        "5969": "Sarah▁",
        "5970": "border",
        "5971": "possib",
        "5972": "atures▁",
        "5973": "houses▁",
        "5974": "humans▁",
        "5975": "southwest▁",
        "5976": "34",
        "5977": "Sem",
        "5978": "ili",
        "5979": "jam",
        "5980": "ori",
        "5981": "tin",
        "5982": "Not▁",
        "5983": "Stra",
        "5984": "inem",
        "5985": "roll",
        "5986": "Anne▁",
        "5987": "divor",
        "5988": "cular▁",
        "5989": "Austria",
        "5990": "Berlin▁",
        "5991": "coming▁",
        "5992": "direct▁",
        "5993": "increas",
        "5994": "normal▁",
        "5995": "Britain▁",
        "5996": "Jacques▁",
        "5997": "Service▁",
        "5998": "venture▁",
        "5999": "governor▁",
        "6000": "Mountains▁",
        "6001": "Ukrainian▁",
        "6002": "journalist",
        "6003": "j▁",
        "6004": "ör",
        "6005": "bs▁",
        "6006": "era",
        "6007": "oo▁",
        "6008": "Ali▁",
        "6009": "Trav",
        "6010": "stom",
        "6011": "Juan▁",
        "6012": "Leban",
        "6013": "March",
        "6014": "bound",
        "6015": "cardi",
        "6016": "iles▁",
        "6017": "lung▁",
        "6018": "Lower▁",
        "6019": "mouth▁",
        "6020": "tribut",
        "6021": "Brazil▁",
        "6022": "avyweight▁",
        "6023": "Pyr",
        "6024": "asc",
        "6025": "án▁",
        "6026": "fash",
        "6027": "god▁",
        "6028": "know",
        "6029": "8||0▁",
        "6030": "Fort▁",
        "6031": "aled▁",
        "6032": "ander",
        "6033": "join▁",
        "6034": "lake▁",
        "6035": "Poland",
        "6036": "Story▁",
        "6037": "royal▁",
        "6038": "Howard▁",
        "6039": "giving▁",
        "6040": "perial▁",
        "6041": "ya",
        "6042": "1:▁",
        "6043": "Dal",
        "6044": "ald",
        "6045": "oes",
        "6046": "3).▁",
        "6047": "scor",
        "6048": "Jews▁",
        "6049": "bury▁",
        "6050": "categ",
        "6051": "Water▁",
        "6052": "ening▁",
        "6053": "groups",
        "6054": "Puerto▁",
        "6055": "refers▁",
        "6056": "fantasy▁",
        "6057": "organism",
        "6058": "Arkansas▁",
        "6059": "fighting▁",
        "6060": "individual▁",
        "6061": "IV",
        "6062": "ko",
        "6063": "35▁",
        "6064": "Dur",
        "6065": "Seg",
        "6066": "Wel",
        "6067": "aug",
        "6068": "pe▁",
        "6069": "Buff",
        "6070": "Ober",
        "6071": "phy▁",
        "6072": "prem",
        "6073": "Your▁",
        "6074": "night",
        "6075": "Jimmy▁",
        "6076": "Singap",
        "6077": "looks▁",
        "6078": "plants",
        "6079": "bought▁",
        "6080": "composer",
        "6081": "earlier▁",
        "6082": "Williams▁",
        "6083": "families▁",
        "6084": "greatest▁",
        "6085": "activists▁",
        "6086": "Depression▁",
        "6087": "universities▁",
        "6088": "Kam",
        "6089": "Nad",
        "6090": "Rol",
        "6091": "bea",
        "6092": "now",
        "6093": "ua▁",
        "6094": "Priv",
        "6095": "guil",
        "6096": "ires▁",
        "6097": "2016)▁",
        "6098": "Allen▁",
        "6099": "oxide▁",
        "6100": "object▁",
        "6101": "friends▁",
        "6102": "quarters▁",
        "6103": "inhabitants",
        "6104": "Constitution▁",
        "6105": "EC",
        "6106": "Arn",
        "6107": "Bob",
        "6108": "Mik",
        "6109": "10||",
        "6110": "ava▁",
        "6111": "cred",
        "6112": "Eric▁",
        "6113": "Gold▁",
        "6114": "Lithu",
        "6115": "Navy▁",
        "6116": "aily▁",
        "6117": "indic",
        "6118": "playw",
        "6119": "basic▁",
        "6120": "chosen▁",
        "6121": "meters▁",
        "6122": "Country▁",
        "6123": "article▁",
        "6124": "edition▁",
        "6125": "nuclear▁",
        "6126": "protect▁",
        "6127": "Azerbaijan▁",
        "6128": "EP",
        "6129": "az▁",
        "6130": "ko▁",
        "6131": "uch",
        "6132": "veg",
        "6133": "NHL▁",
        "6134": "repe",
        "6135": "Offic",
        "6136": "Progr",
        "6137": "crash",
        "6138": "initi",
        "6139": "olas▁",
        "6140": "story",
        "6141": "2004,▁",
        "6142": "Times▁",
        "6143": "Under▁",
        "6144": "wards▁",
        "6145": "Dallas▁",
        "6146": "Ministers▁",
        "6147": "Sometimes▁",
        "6148": "confirmed▁",
        "6149": "supported▁",
        "6150": "responsible▁",
        "6151": "Metropolitan▁",
        "6152": "RA",
        "6153": "ho",
        "6154": "ls",
        "6155": "Adv",
        "6156": "Ton",
        "6157": "Clin",
        "6158": "Iran",
        "6159": "crow",
        "6160": "half",
        "6161": "hamm",
        "6162": "here",
        "6163": "lock",
        "6164": "reli",
        "6165": "2022▁",
        "6166": "Today",
        "6167": "conqu",
        "6168": "|2007",
        "6169": "Census",
        "6170": "cyclop",
        "6171": "Georgia",
        "6172": "Modern▁",
        "6173": "brother",
        "6174": "driver▁",
        "6175": "station",
        "6176": "Ottoman▁",
        "6177": "effects▁",
        "6178": "research",
        "6179": "Egyptian▁",
        "6180": "versions▁",
        "6181": "screenwriter▁",
        "6182": "Gon",
        "6183": "Ped",
        "6184": "cos",
        "6185": "ei▁",
        "6186": "8||2",
        "6187": "dead",
        "6188": "gard",
        "6189": "ited",
        "6190": "reve",
        "6191": "Brown",
        "6192": "Thail",
        "6193": "African",
        "6194": "Alfred▁",
        "6195": "murder▁",
        "6196": "online▁",
        "6197": "complex▁",
        "6198": "entered▁",
        "6199": "minister▁",
        "6200": "candidate▁",
        "6201": "Statistics▁",
        "6202": "Pap",
        "6203": "kW▁",
        "6204": "lem",
        "6205": "(191",
        "6206": "5).▁",
        "6207": "Mach",
        "6208": "aff▁",
        "6209": "alum",
        "6210": "face",
        "6211": "hang",
        "6212": "swim",
        "6213": "ways",
        "6214": "1919▁",
        "6215": "text▁",
        "6216": "Billy▁",
        "6217": "Roger▁",
        "6218": "below▁",
        "6219": "istic▁",
        "6220": "minor▁",
        "6221": "itself▁",
        "6222": "museum▁",
        "6223": "porary▁",
        "6224": "Finnish▁",
        "6225": "historian▁",
        "6226": "PlayStation▁",
        "6227": "',▁",
        "6228": "Pho",
        "6229": "ada",
        "6230": "kin",
        "6231": "nav",
        "6232": "ía▁",
        "6233": "Dan▁",
        "6234": "Scre",
        "6235": "itz▁",
        "6236": "uter",
        "6237": "Anna▁",
        "6238": "Jones",
        "6239": "ister",
        "6240": "upper▁",
        "6241": "Johnny▁",
        "6242": "effect▁",
        "6243": "figure▁",
        "6244": "future▁",
        "6245": "rested▁",
        "6246": "debuted▁",
        "6247": "gressive▁",
        "6248": "wrestling▁",
        "6249": "Netherlands",
        "6250": "Ho",
        "6251": "Gor",
        "6252": "agh",
        "6253": "ark",
        "6254": "Also",
        "6255": "Call",
        "6256": "Jenn",
        "6257": "Nebr",
        "6258": "Plan",
        "6259": "less",
        "6260": "step",
        "6261": "Earl▁",
        "6262": "Four▁",
        "6263": "Maced",
        "6264": "areas",
        "6265": "card▁",
        "6266": "civil",
        "6267": "eggs▁",
        "6268": "obal▁",
        "6269": "oted▁",
        "6270": "stay▁",
        "6271": "2001,▁",
        "6272": "Aisne▁",
        "6273": "Media▁",
        "6274": "Orthod",
        "6275": "build▁",
        "6276": "conver",
        "6277": "kills▁",
        "6278": "observ",
        "6279": "plane▁",
        "6280": "preser",
        "6281": "trade▁",
        "6282": "alized▁",
        "6283": "gender▁",
        "6284": "matter▁",
        "6285": "Encyclop",
        "6286": "Scotland",
        "6287": "further▁",
        "6288": "teacher▁",
        "6289": "Colorado▁",
        "6290": "majority▁",
        "6291": "6.",
        "6292": "TC",
        "6293": "ki",
        "6294": "3:▁",
        "6295": "Cos",
        "6296": "Fox",
        "6297": "iz▁",
        "6298": "mm▁",
        "6299": "1930",
        "6300": "DNA▁",
        "6301": "Hamp",
        "6302": "Hann",
        "6303": "Hell",
        "6304": "elli",
        "6305": "home",
        "6306": "tis▁",
        "6307": "usal",
        "6308": "Haiti",
        "6309": "core▁",
        "6310": "mouth",
        "6311": "works",
        "6312": "1999.▁",
        "6313": "Associ",
        "6314": "Class▁",
        "6315": "helps▁",
        "6316": "resist",
        "6317": "Congress",
        "6318": "limited▁",
        "6319": "fictional▁",
        "6320": "recognized▁",
        "6321": "Commonwealth▁",
        "6322": "Mes",
        "6323": "ca▁",
        "6324": "swe",
        "6325": "Boy▁",
        "6326": "Will",
        "6327": "away",
        "6328": "mess",
        "6329": "slow",
        "6330": "tall",
        "6331": "Emmy▁",
        "6332": "aries",
        "6333": "code▁",
        "6334": "pson▁",
        "6335": "branch▁",
        "6336": "consist",
        "6337": "musician",
        "6338": "profile▁",
        "6339": "broadcast▁",
        "6340": "Connecticut▁",
        "6341": "Cla",
        "6342": "Do▁",
        "6343": "Ker",
        "6344": "Son",
        "6345": "Tol",
        "6346": "mac",
        "6347": "\").▁",
        "6348": "Lank",
        "6349": "Max▁",
        "6350": "don▁",
        "6351": "hatt",
        "6352": "isch",
        "6353": "pati",
        "6354": "wife",
        "6355": "Alan▁",
        "6356": "money",
        "6357": "Orches",
        "6358": "center",
        "6359": "goals▁",
        "6360": "Jerusal",
        "6361": "Office▁",
        "6362": "icipal▁",
        "6363": "leaves▁",
        "6364": "ularly▁",
        "6365": "Antonio▁",
        "6366": "manufact",
        "6367": "magazine▁",
        "6368": "remained▁",
        "6369": "Switzerland▁",
        "6370": "8.",
        "6371": "ć▁",
        "6372": "Dig",
        "6373": "Lyn",
        "6374": "Num",
        "6375": "OS▁",
        "6376": "Pon",
        "6377": "Tat",
        "6378": "tub",
        "6379": "ula",
        "6380": "ute",
        "6381": "Kim▁",
        "6382": "aim▁",
        "6383": "coff",
        "6384": "eff▁",
        "6385": "mar▁",
        "6386": "ters",
        "6387": "|195",
        "6388": "Egypt",
        "6389": "Ford▁",
        "6390": "Later",
        "6391": "ative",
        "6392": "prote",
        "6393": "2002.▁",
        "6394": "Somme▁",
        "6395": "assass",
        "6396": "athan▁",
        "6397": "count▁",
        "6398": "Manhatt",
        "6399": "Airport▁",
        "6400": "Bundeslig",
        "6401": "Cu",
        "6402": "ML",
        "6403": "Gun",
        "6404": "Pir",
        "6405": "Hart",
        "6406": "bach",
        "6407": "fast",
        "6408": "situ",
        "6409": "3||0▁",
        "6410": "House",
        "6411": "galax",
        "6412": "gend▁",
        "6413": "gene▁",
        "6414": "Barcel",
        "6415": "Kevin▁",
        "6416": "ading▁",
        "6417": "cheon▁",
        "6418": "Atlanti",
        "6419": "College",
        "6420": "Jackson",
        "6421": "asters▁",
        "6422": "million",
        "6423": "nearby▁",
        "6424": "airport▁",
        "6425": "serving▁",
        "6426": "ologists▁",
        "6427": "Districts▁",
        "6428": "completed▁",
        "6429": "operation▁",
        "6430": "37",
        "6431": "hp",
        "6432": "je",
        "6433": "=\"5",
        "6434": "Maj",
        "6435": "Nav",
        "6436": "Ont",
        "6437": "Pul",
        "6438": "Sus",
        "6439": "ala",
        "6440": "ram",
        "6441": "acea",
        "6442": "ales",
        "6443": "eau▁",
        "6444": "race",
        "6445": "Hawai",
        "6446": "lobe▁",
        "6447": "nickn",
        "6448": "sympt",
        "6449": "Jerry▁",
        "6450": "anced▁",
        "6451": "comedy",
        "6452": "Bishop▁",
        "6453": "Muslim▁",
        "6454": "Police▁",
        "6455": "Rivers▁",
        "6456": "lasted▁",
        "6457": "taught▁",
        "6458": "Division",
        "6459": "attended▁",
        "6460": "comedian▁",
        "6461": "Bangladesh",
        "6462": "Pakistani▁",
        "6463": "southeast▁",
        "6464": "ju",
        "6465": "USA",
        "6466": "Vel",
        "6467": "ik▁",
        "6468": "kid",
        "6469": "ows",
        "6470": "000▁",
        "6471": "iro▁",
        "6472": "ples",
        "6473": "ston",
        "6474": "uary",
        "6475": "black",
        "6476": "estig",
        "6477": "Egypt▁",
        "6478": "prime▁",
        "6479": "units▁",
        "6480": "Zealand",
        "6481": "organis",
        "6482": "campaign▁",
        "6483": "episodes▁",
        "6484": "marriage▁",
        "6485": "photograph",
        "6486": "territory▁",
        "6487": "generation▁",
        "6488": "philosopher▁",
        "6489": "Ti",
        "6490": "Run",
        "6491": "Sid",
        "6492": "ado",
        "6493": "bal",
        "6494": "mut",
        "6495": "Hosp",
        "6496": "Rach",
        "6497": "Vist",
        "6498": "aven",
        "6499": "inet",
        "6500": "mon▁",
        "6501": "ails▁",
        "6502": "deter",
        "6503": "kins▁",
        "6504": "Compan",
        "6505": "Cross▁",
        "6506": "owner▁",
        "6507": "rovers",
        "6508": "today▁",
        "6509": "Region▁",
        "6510": "ension▁",
        "6511": "orders▁",
        "6512": "neighbor",
        "6513": "formerly▁",
        "6514": "Dominican▁",
        "6515": "background",
        "6516": "population",
        "6517": "associated▁",
        "6518": "controlled▁",
        "6519": "Zh",
        "6520": "48▁",
        "6521": "6:▁",
        "6522": "Rot",
        "6523": "ga▁",
        "6524": "lat",
        "6525": "nes",
        "6526": "ots",
        "6527": "Bour",
        "6528": "ima▁",
        "6529": "ting",
        "6530": "ère▁",
        "6531": "Brand",
        "6532": "olic▁",
        "6533": "plant",
        "6534": "thing",
        "6535": "|1999",
        "6536": "Light▁",
        "6537": "convic",
        "6538": "inger▁",
        "6539": "onian▁",
        "6540": "Disease",
        "6541": "Gordon▁",
        "6542": "Oregon▁",
        "6543": "Soccer▁",
        "6544": "closed▁",
        "6545": "ranked▁",
        "6546": "element▁",
        "6547": "investig",
        "6548": "porting▁",
        "6549": "younger▁",
        "6550": "pressure▁",
        "6551": "wrestler▁",
        "6552": "conductor▁",
        "6553": "Eu",
        "6554": "EE▁",
        "6555": "Esp",
        "6556": "Log",
        "6557": "var",
        "6558": "400▁",
        "6559": "Phot",
        "6560": "Plat",
        "6561": "Vers",
        "6562": "excl",
        "6563": "=\"5\"|",
        "6564": "Camer",
        "6565": "anish",
        "6566": "eded▁",
        "6567": "enne▁",
        "6568": "Margar",
        "6569": "Sloven",
        "6570": "carry▁",
        "6571": "esses▁",
        "6572": "value▁",
        "6573": "Ontario",
        "6574": "Ronald▁",
        "6575": "esting▁",
        "6576": "approxim",
        "6577": "pandemic▁",
        "6578": "specific▁",
        "6579": "scientific▁",
        "6580": "77",
        "6581": "za",
        "6582": "DC▁",
        "6583": "Saf",
        "6584": "isi",
        "6585": "Marl",
        "6586": "Spir",
        "6587": "best",
        "6588": "gold",
        "6589": "tric",
        "6590": "uri▁",
        "6591": "insec",
        "6592": "|2006",
        "6593": "lawyer",
        "6594": "Census▁",
        "6595": "encies▁",
        "6596": "hosted▁",
        "6597": "practic",
        "6598": "Arizona▁",
        "6599": "Captain▁",
        "6600": "Channel▁",
        "6601": "feature▁",
        "6602": "planned▁",
        "6603": "problem▁",
        "6604": "remains▁",
        "6605": "religion▁",
        "6606": "controvers",
        "6607": "mathematician▁",
        "6608": "PA",
        "6609": "Ext",
        "6610": "Hug",
        "6611": "ux▁",
        "6612": "vel",
        "6613": "Good",
        "6614": "1918▁",
        "6615": "Belar",
        "6616": "immun",
        "6617": "inct▁",
        "6618": "natur",
        "6619": "Série▁",
        "6620": "ecture",
        "6621": "financ",
        "6622": "image▁",
        "6623": "solar▁",
        "6624": "cricket",
        "6625": "listing▁",
        "6626": "Memorial▁",
        "6627": "Wikipedia▁",
        "6628": "operating▁",
        "6629": "organized▁",
        "6630": "earthquake▁",
        "6631": "Pennsylvania",
        "6632": "(1",
        "6633": "169",
        "6634": "Ell",
        "6635": "Fac",
        "6636": "Fle",
        "6637": "Fun",
        "6638": "Nar",
        "6639": "cab",
        "6640": "Brad",
        "6641": "Bros",
        "6642": "Fall",
        "6643": "Ohio",
        "6644": "drop",
        "6645": "ori▁",
        "6646": "Gulf▁",
        "6647": "Khan▁",
        "6648": "Water",
        "6649": "reser",
        "6650": "Berlin",
        "6651": "split▁",
        "6652": "really▁",
        "6653": "|2000||",
        "6654": "Rangers▁",
        "6655": "emperor▁",
        "6656": "removed▁",
        "6657": "success▁",
        "6658": "Calvados▁",
        "6659": "Pictures▁",
        "6660": "captured▁",
        "6661": "television",
        "6662": "1||0||0||0||",
        "6663": "Ey",
        "6664": "MP▁",
        "6665": "Rey",
        "6666": "5||2",
        "6667": "ees▁",
        "6668": "evel",
        "6669": "ida▁",
        "6670": "mang",
        "6671": "neur",
        "6672": "Adam▁",
        "6673": "Hamil",
        "6674": "degre",
        "6675": "ently",
        "6676": "eton▁",
        "6677": "mosph",
        "6678": "blues▁",
        "6679": "collec",
        "6680": "correc",
        "6681": "enter▁",
        "6682": "market",
        "6683": "terror",
        "6684": "trial▁",
        "6685": "drogen▁",
        "6686": "easily▁",
        "6687": "express",
        "6688": "sequel▁",
        "6689": "Patrick▁",
        "6690": "adopted▁",
        "6691": "growing▁",
        "6692": "eautiful▁",
        "6693": "personality▁",
        "6694": "Fem",
        "6695": "Hot",
        "6696": "Lav",
        "6697": "eck",
        "6698": "oma",
        "6699": "pay",
        "6700": "Clim",
        "6701": "Dieg",
        "6702": "arm▁",
        "6703": "date",
        "6704": "ila▁",
        "6705": "ival",
        "6706": "ming",
        "6707": "plas",
        "6708": "pret",
        "6709": "Free▁",
        "6710": "Pitts",
        "6711": "exhib",
        "6712": "motor",
        "6713": "2003,▁",
        "6714": "Coast▁",
        "6715": "ising▁",
        "6716": "learn▁",
        "6717": "piano▁",
        "6718": "summer▁",
        "6719": "Virginia",
        "6720": "carried▁",
        "6721": "reviews▁",
        "6722": "||3||0||",
        "6723": "Mountain▁",
        "6724": "Orthodox▁",
        "6725": "describe▁",
        "6726": "Federation▁",
        "6727": "Kal",
        "6728": "Nam",
        "6729": "hem",
        "6730": "obi",
        "6731": "urs",
        "6732": "Orig",
        "6733": "Show",
        "6734": "dog▁",
        "6735": "org▁",
        "6736": "shor",
        "6737": "Fire▁",
        "6738": "Will▁",
        "6739": "anes▁",
        "6740": "girl▁",
        "6741": "lines",
        "6742": "space",
        "6743": "1997.▁",
        "6744": "Muhamm",
        "6745": "birds▁",
        "6746": "equal▁",
        "6747": "usual▁",
        "6748": "anning▁",
        "6749": "parties▁",
        "6750": "Sciences▁",
        "6751": "declared▁",
        "6752": "speaking▁",
        "6753": "physicist▁",
        "6754": "provinces▁",
        "6755": "completely▁",
        "6756": "technology▁",
        "6757": "5,",
        "6758": "Dam",
        "6759": "Now",
        "6760": "sac",
        "6761": "4||2",
        "6762": "Mong",
        "6763": "With",
        "6764": "flic",
        "6765": "Real▁",
        "6766": "anna▁",
        "6767": "bank▁",
        "6768": "bird▁",
        "6769": "lots▁",
        "6770": "track",
        "6771": "2000,▁",
        "6772": "Third▁",
        "6773": "reign▁",
        "6774": "Member▁",
        "6775": "engine▁",
        "6776": "borders▁",
        "6777": "managed▁",
        "6778": "notable▁",
        "6779": "Politics▁",
        "6780": "historic▁",
        "6781": "interview▁",
        "6782": "commercial▁",
        "6783": "communities▁",
        "6784": "||||||||||||||||",
        "6785": "2:",
        "6786": "33▁",
        "6787": "36▁",
        "6788": "Cum",
        "6789": "Ful",
        "6790": "Jar",
        "6791": "put",
        "6792": "Mess",
        "6793": "Pop▁",
        "6794": "Salv",
        "6795": "ask▁",
        "6796": "eck▁",
        "6797": "ours",
        "6798": "voic",
        "6799": "Child",
        "6800": "Good▁",
        "6801": "altit",
        "6802": "tific",
        "6803": "veget",
        "6804": "Marie▁",
        "6805": "ancell",
        "6806": "calcul",
        "6807": "ining▁",
        "6808": "tries▁",
        "6809": "inated▁",
        "6810": "software▁",
        "6811": "transport▁",
        "6812": "Heb",
        "6813": "Jam",
        "6814": "Kum",
        "6815": "Pad",
        "6816": "bes",
        "6817": "ez▁",
        "6818": "imp",
        "6819": "Book",
        "6820": "DVD▁",
        "6821": "cann",
        "6822": "ild▁",
        "6823": "inte",
        "6824": "mir▁",
        "6825": "osph",
        "6826": "aker▁",
        "6827": "chart",
        "6828": "domin",
        "6829": "emerg",
        "6830": "femin",
        "6831": "fort▁",
        "6832": "thers",
        "6833": "broke▁",
        "6834": "immigr",
        "6835": "serve▁",
        "6836": "usion▁",
        "6837": "diagnos",
        "6838": "special",
        "6839": "Director▁",
        "6840": "directly▁",
        "6841": "negative▁",
        "6842": "property▁",
        "6843": "particular▁",
        "6844": "inhabitants▁",
        "6845": "0-",
        "6846": "Dy",
        "6847": "Kö",
        "6848": "Ali",
        "6849": "Ard",
        "6850": "INS",
        "6851": "Kan",
        "6852": "zy▁",
        "6853": "Ferr",
        "6854": "Jama",
        "6855": "Terr",
        "6856": "YouT",
        "6857": "aud▁",
        "6858": "bit▁",
        "6859": "ider",
        "6860": "rich",
        "6861": "wan▁",
        "6862": "Contr",
        "6863": "Land▁",
        "6864": "Napol",
        "6865": "centr",
        "6866": "hydro",
        "6867": "imum▁",
        "6868": "plan▁",
        "6869": "2013)▁",
        "6870": "corpor",
        "6871": "prove▁",
        "6872": "tered▁",
        "6873": "travel",
        "6874": "census▁",
        "6875": "genous▁",
        "6876": "speech▁",
        "6877": "records▁",
        "6878": "Universe▁",
        "6879": "appearance▁",
        "6880": "independence▁",
        "6881": "relationship▁",
        "6882": "99",
        "6883": "CC",
        "6884": "Hit",
        "6885": "NAS",
        "6886": "Nat",
        "6887": "Sof",
        "6888": "Tyr",
        "6889": "acy",
        "6890": "tol",
        "6891": "(188",
        "6892": "18)▁",
        "6893": "Nich",
        "6894": "eman",
        "6895": "pack",
        "6896": "stan",
        "6897": "Rober",
        "6898": "Site▁",
        "6899": "anne▁",
        "6900": "dark▁",
        "6901": "ishes▁",
        "6902": "judge▁",
        "6903": "Sydney▁",
        "6904": "System▁",
        "6905": "comment",
        "6906": "discuss",
        "6907": "Foreign▁",
        "6908": "Houston▁",
        "6909": "density▁",
        "6910": "longest▁",
        "6911": "addition▁",
        "6912": "contract▁",
        "6913": "Y▁",
        "6914": "q▁",
        "6915": "Arc",
        "6916": "Byr",
        "6917": "ase",
        "6918": "ces",
        "6919": "rub",
        "6920": "Caes",
        "6921": "Marc",
        "6922": "Well",
        "6923": "dam▁",
        "6924": "ione",
        "6925": "Luis▁",
        "6926": "drug▁",
        "6927": "oslav",
        "6928": "party",
        "6929": "health",
        "6930": "inform",
        "6931": "review",
        "6932": "Rights▁",
        "6933": "reason▁",
        "6934": "Liberal▁",
        "6935": "Missouri",
        "6936": "Network▁",
        "6937": "suicide▁",
        "6938": "Portugal▁",
        "6939": "Commission",
        "6940": "organizations▁",
        "6941": "55▁",
        "6942": "Beat",
        "6943": "Bosn",
        "6944": "Long",
        "6945": "inet▁",
        "6946": "peror",
        "6947": "solo▁",
        "6948": "three",
        "6949": "Martin",
        "6950": "giant▁",
        "6951": "Bridge▁",
        "6952": "Oxford▁",
        "6953": "Warner▁",
        "6954": "antine▁",
        "6955": "culture",
        "6956": "editor▁",
        "6957": "Kurdish▁",
        "6958": "pianist▁",
        "6959": "provide▁",
        "6960": "section▁",
        "6961": "interest▁",
        "6962": "location▁",
        "6963": "Indonesian▁",
        "6964": "championship▁",
        "6965": "headquarters▁",
        "6966": "representatives▁",
        "6967": "(1▁",
        "6968": "7:▁",
        "6969": "Kon",
        "6970": "Reb",
        "6971": "loy",
        "6972": "su▁",
        "6973": "2||3",
        "6974": "Liga",
        "6975": "Vinc",
        "6976": "acqu",
        "6977": "gran",
        "6978": "oss▁",
        "6979": "thro",
        "6980": "Barbar",
        "6981": "Danny▁",
        "6982": "Ocean▁",
        "6983": "entry▁",
        "6984": "vocals",
        "6985": "votes▁",
        "6986": "(2005)▁",
        "6987": "(2007)▁",
        "6988": "Player▁",
        "6989": "failure",
        "6990": "stroke▁",
        "6991": "synthes",
        "6992": "Pictures",
        "6993": "comedian",
        "6994": "arrested▁",
        "6995": "normally▁",
        "6996": "opposite▁",
        "6997": "services▁",
        "6998": "Community▁",
        "6999": "northeast▁",
        "7000": "Manchester▁",
        "7001": "background▁",
        "7002": "Entertainment",
        "7003": "IA",
        "7004": "Wa",
        "7005": "4:▁",
        "7006": "Key",
        "7007": "Rad",
        "7008": "azz",
        "7009": "yl▁",
        "7010": "Roll",
        "7011": "Roos",
        "7012": "diam",
        "7013": "hers",
        "7014": "indi",
        "7015": "ray▁",
        "7016": "said",
        "7017": "Alex▁",
        "7018": "Carib",
        "7019": "Dark▁",
        "7020": "Jeff▁",
        "7021": "maint",
        "7022": "Clevel",
        "7023": "Globe▁",
        "7024": "adult▁",
        "7025": "dates▁",
        "7026": "glass▁",
        "7027": "saying▁",
        "7028": "Singles▁",
        "7029": "dynasty▁",
        "7030": "happens▁",
        "7031": "opening▁",
        "7032": "variety▁",
        "7033": "Regional▁",
        "7034": "estimated▁",
        "7035": "Foundation▁",
        "7036": "competition▁",
        "7037": "songwriters▁",
        "7038": "Championships▁",
        "7039": "--",
        "7040": "mi",
        "7041": "Pil",
        "7042": "ole",
        "7043": "rot",
        "7044": "ted",
        "7045": "Berg",
        "7046": "Conn",
        "7047": "ali▁",
        "7048": "dry▁",
        "7049": "eda▁",
        "7050": "good",
        "7051": "sulf",
        "7052": "Carl▁",
        "7053": "Relig",
        "7054": "ellow",
        "7055": "feet▁",
        "7056": "ments",
        "7057": "plus▁",
        "7058": "twent",
        "7059": "white",
        "7060": "wins▁",
        "7061": "Sport▁",
        "7062": "embers",
        "7063": "hours▁",
        "7064": "primar",
        "7065": "weeks▁",
        "7066": "Births▁",
        "7067": "Samuel▁",
        "7068": "depress",
        "7069": "titled▁",
        "7070": "workers▁",
        "7071": "Communist▁",
        "7072": "agreement▁",
        "7073": "7,",
        "7074": "Z▁",
        "7075": "alo",
        "7076": "tox",
        "7077": "ys▁",
        "7078": "Ann▁",
        "7079": "Epis",
        "7080": "Les▁",
        "7081": "NBA▁",
        "7082": "case",
        "7083": "mit▁",
        "7084": "Colon",
        "7085": "Wars▁",
        "7086": "cases",
        "7087": "mann▁",
        "7088": "rebel",
        "7089": "storm",
        "7090": "1995.▁",
        "7091": "1999,▁",
        "7092": "Bible▁",
        "7093": "dance▁",
        "7094": "democr",
        "7095": "explos",
        "7096": "owers▁",
        "7097": "(2006)▁",
        "7098": "Bureau▁",
        "7099": "agreed▁",
        "7100": "Michigan",
        "7101": "attacks▁",
        "7102": "=\"2\"|-||4",
        "7103": "academic▁",
        "7104": "compared▁",
        "7105": "creating▁",
        "7106": "ographer▁",
        "7107": "Mathematic",
        "7108": "influence▁",
        "7109": "MS",
        "7110": "(16",
        "7111": "5:▁",
        "7112": "75▁",
        "7113": "Aus",
        "7114": "Cou",
        "7115": "Cow",
        "7116": "aka",
        "7117": "lie",
        "7118": "rig",
        "7119": "Alph",
        "7120": "Bron",
        "7121": "Diff",
        "7122": "Lanc",
        "7123": "Rain",
        "7124": "ists",
        "7125": "rapp",
        "7126": "rati",
        "7127": "tish",
        "7128": "Franç",
        "7129": "Line▁",
        "7130": "chall",
        "7131": "colum",
        "7132": "fact▁",
        "7133": "inger",
        "7134": "paid▁",
        "7135": "whom▁",
        "7136": "yers▁",
        "7137": "Jesus▁",
        "7138": "Nation",
        "7139": "analys",
        "7140": "doing▁",
        "7141": "island",
        "7142": "shape▁",
        "7143": "covers▁",
        "7144": "status▁",
        "7145": "yellow▁",
        "7146": "defined▁",
        "7147": "position",
        "7148": "problems",
        "7149": "Language▁",
        "7150": "Maryland▁",
        "7151": "Champions▁",
        "7152": "Universal▁",
        "7153": "Heavyweight▁",
        "7154": "6,",
        "7155": "Ow",
        "7156": "Ts",
        "7157": "Ug",
        "7158": "47▁",
        "7159": "Ach",
        "7160": "Bed",
        "7161": "Mak",
        "7162": "bio",
        "7163": "emo",
        "7164": "Astr",
        "7165": "Cons",
        "7166": "Kell",
        "7167": "Tag▁",
        "7168": "eigh",
        "7169": "sail",
        "7170": "4||0▁",
        "7171": "Arab▁",
        "7172": "Artic",
        "7173": "Gary▁",
        "7174": "Matt▁",
        "7175": "Meite",
        "7176": "Nazi▁",
        "7177": "Tour▁",
        "7178": "ante▁",
        "7179": "capac",
        "7180": "eing▁",
        "7181": "lyric",
        "7182": "stage",
        "7183": "1994.▁",
        "7184": "INSEE▁",
        "7185": "Kings▁",
        "7186": "eases▁",
        "7187": "eline▁",
        "7188": "killed",
        "7189": "store▁",
        "7190": "Caribbe",
        "7191": "Turkey▁",
        "7192": "bodies▁",
        "7193": "ardinal▁",
        "7194": "Territory▁",
        "7195": "Transport▁",
        "7196": "characters",
        "7197": "footballer",
        "7198": "depression▁",
        "7199": "Philadelphia",
        "7200": "0||0||0||0||0▁",
        "7201": "170",
        "7202": "DS▁",
        "7203": "Swe",
        "7204": "Vik",
        "7205": "Win",
        "7206": "bu▁",
        "7207": "nar",
        "7208": "uth",
        "7209": "3||2",
        "7210": "Cher",
        "7211": "ades",
        "7212": "aut▁",
        "7213": "chur",
        "7214": "dom▁",
        "7215": "vert",
        "7216": "Phoen",
        "7217": "Treat",
        "7218": "anie▁",
        "7219": "court",
        "7220": "meet▁",
        "7221": "1998.▁",
        "7222": "Honor▁",
        "7223": "Lewis▁",
        "7224": "Peace▁",
        "7225": "chair▁",
        "7226": "occurr",
        "7227": "perman",
        "7228": "stery▁",
        "7229": "victim",
        "7230": "Comics▁",
        "7231": "Spanish",
        "7232": "trains▁",
        "7233": "Roosevel",
        "7234": "daughter",
        "7235": "subject▁",
        "7236": "Business▁",
        "7237": "districts",
        "7238": "examples▁",
        "7239": "increase▁",
        "7240": "22",
        "7241": "(89",
        "7242": "Fal",
        "7243": "Him",
        "7244": "Lud",
        "7245": "Oct",
        "7246": "Barr",
        "7247": "Main",
        "7248": "Who▁",
        "7249": "answ",
        "7250": "ete▁",
        "7251": "iber",
        "7252": "susp",
        "7253": "text",
        "7254": "turb",
        "7255": "1913▁",
        "7256": "State",
        "7257": "Tunis",
        "7258": "alcoh",
        "7259": "flag▁",
        "7260": "heat▁",
        "7261": "iano▁",
        "7262": "onde▁",
        "7263": "oper▁",
        "7264": "ords▁",
        "7265": "1993.▁",
        "7266": "Books▁",
        "7267": "Davis▁",
        "7268": "anded▁",
        "7269": "bridge",
        "7270": "extrem",
        "7271": "grown▁",
        "7272": "therap",
        "7273": "Unlike▁",
        "7274": "bright▁",
        "7275": "mitted▁",
        "7276": "American",
        "7277": "digital▁",
        "7278": "intellig",
        "7279": "therine▁",
        "7280": "presents▁",
        "7281": "programming▁",
        "7282": "Bea",
        "7283": "Pom",
        "7284": "Sic",
        "7285": "ria",
        "7286": "10)▁",
        "7287": "Berk",
        "7288": "Emer",
        "7289": "Post",
        "7290": "eon▁",
        "7291": "mont",
        "7292": "Part▁",
        "7293": "Theod",
        "7294": "Xbox▁",
        "7295": "dred▁",
        "7296": "feel▁",
        "7297": "match",
        "7298": "ocks▁",
        "7299": "|2008",
        "7300": "Barry▁",
        "7301": "Philli",
        "7302": "Simon▁",
        "7303": "bring▁",
        "7304": "Britain",
        "7305": "Potter▁",
        "7306": "atmosph",
        "7307": "gained▁",
        "7308": "respond",
        "7309": "stated▁",
        "7310": "movement",
        "7311": "student▁",
        "7312": "cultural▁",
        "7313": "invented▁",
        "7314": "divisions▁",
        "7315": "pneumonia▁",
        "7316": "additional▁",
        "7317": "Philippines▁",
        "7318": "8,",
        "7319": "ér",
        "7320": "Fuk",
        "7321": "Go▁",
        "7322": "Lak",
        "7323": "Oak",
        "7324": "agr",
        "7325": "av▁",
        "7326": "las",
        "7327": "Band",
        "7328": "Icel",
        "7329": "Punj",
        "7330": "Shel",
        "7331": "regn",
        "7332": "Compl",
        "7333": "Down▁",
        "7334": "Gabri",
        "7335": "agric",
        "7336": "aire▁",
        "7337": "beat▁",
        "7338": "mont▁",
        "7339": "osis▁",
        "7340": "Benjam",
        "7341": "antum▁",
        "7342": "needs▁",
        "7343": "single",
        "7344": "sport▁",
        "7345": "termin",
        "7346": "(2008)▁",
        "7347": "members",
        "7348": "parish▁",
        "7349": "restaur",
        "7350": "engineer",
        "7351": "selling▁",
        "7352": "Imperial▁",
        "7353": "evidence▁",
        "7354": "champions▁",
        "7355": "mountains▁",
        "7356": "previously▁",
        "7357": "FA",
        "7358": "90▁",
        "7359": "CO▁",
        "7360": "lit",
        "7361": "fund",
        "7362": "oka▁",
        "7363": "Prix▁",
        "7364": "ators",
        "7365": "deal▁",
        "7366": "uals▁",
        "7367": "8||0||",
        "7368": "Adams▁",
        "7369": "Jason▁",
        "7370": "Queens",
        "7371": "Taiwan",
        "7372": "change",
        "7373": "moves▁",
        "7374": "threat",
        "7375": "wants▁",
        "7376": "double▁",
        "7377": "ession▁",
        "7378": "fellow▁",
        "7379": "version",
        "7380": "Stockhol",
        "7381": "missing▁",
        "7382": "objects▁",
        "7383": "managers▁",
        "7384": "reaction▁",
        "7385": "Educators▁",
        "7386": "southwestern▁",
        "7387": "CC▁",
        "7388": "One",
        "7389": "aph",
        "7390": "bun",
        "7391": "haw",
        "7392": "iat",
        "7393": "uli",
        "7394": "Four",
        "7395": "cach",
        "7396": "rick",
        "7397": "1914▁",
        "7398": "hero▁",
        "7399": "1996.▁",
        "7400": "aming▁",
        "7401": "clear▁",
        "7402": "départ",
        "7403": "itors▁",
        "7404": "receiv",
        "7405": "secret",
        "7406": "transf",
        "7407": "Meitei▁",
        "7408": "Palace▁",
        "7409": "Publish",
        "7410": "search▁",
        "7411": "Climate▁",
        "7412": "Natural▁",
        "7413": "Victoria",
        "7414": "backing▁",
        "7415": "concert▁",
        "7416": "fashion▁",
        "7417": "leaving▁",
        "7418": "prevent▁",
        "7419": "weather▁",
        "7420": "wrestlers▁",
        "7421": "Bangladesh▁",
        "7422": "Lieutenant▁",
        "7423": "understand▁",
        "7424": ")\"▁",
        "7425": "43▁",
        "7426": "8:▁",
        "7427": "Cob",
        "7428": "IS▁",
        "7429": "Lux",
        "7430": "bit",
        "7431": "mis",
        "7432": "nom",
        "7433": "ud▁",
        "7434": "Army",
        "7435": "Bach",
        "7436": "Beng",
        "7437": "Stud",
        "7438": "nes▁",
        "7439": "thor",
        "7440": "urn▁",
        "7441": "Cape▁",
        "7442": "Light",
        "7443": "Mitch",
        "7444": "boys▁",
        "7445": "human",
        "7446": "loss▁",
        "7447": "mine▁",
        "7448": "polo▁",
        "7449": "skin▁",
        "7450": "Depart",
        "7451": "Today▁",
        "7452": "cycle▁",
        "7453": "improv",
        "7454": "predic",
        "7455": "trees▁",
        "7456": "00,000▁",
        "7457": "Temple▁",
        "7458": "copies▁",
        "7459": "shared▁",
        "7460": "Current▁",
        "7461": "assistant▁",
        "7462": "Basketball▁",
        "7463": "translated▁",
        "7464": "construction▁",
        "7465": "BA",
        "7466": "MA",
        "7467": "Rud",
        "7468": "ols",
        "7469": "phr",
        "7470": "seg",
        "7471": "sli",
        "7472": "va▁",
        "7473": "(),▁",
        "7474": "19)▁",
        "7475": "Buen",
        "7476": "Foll",
        "7477": "Game",
        "7478": "Glen",
        "7479": "aga▁",
        "7480": "athe",
        "7481": "cost",
        "7482": "Hans▁",
        "7483": "Liver",
        "7484": "boro▁",
        "7485": "equip",
        "7486": "erra▁",
        "7487": "induc",
        "7488": "injur",
        "7489": "oshim",
        "7490": "sign▁",
        "7491": "week▁",
        "7492": "Peters",
        "7493": "Stone▁",
        "7494": "Works▁",
        "7495": "inner▁",
        "7496": "invest",
        "7497": "prepar",
        "7498": "visit▁",
        "7499": "Johnson",
        "7500": "Knight▁",
        "7501": "earing▁",
        "7502": "relativ",
        "7503": "Theatre▁",
        "7504": "congress",
        "7505": "finally▁",
        "7506": "husband▁",
        "7507": "Development▁",
        "7508": "Information▁",
        "7509": "sportspeople▁",
        "7510": "Od",
        "7511": "ci",
        "7512": "64▁",
        "7513": "Abb",
        "7514": "Att",
        "7515": "Vas",
        "7516": "ils",
        "7517": "mes",
        "7518": "ogg",
        "7519": "15)▁",
        "7520": "16)▁",
        "7521": "NFL▁",
        "7522": "Tim▁",
        "7523": "Trin",
        "7524": "abor",
        "7525": "feel",
        "7526": "kin▁",
        "7527": "0||0▁",
        "7528": "Alpes",
        "7529": "Medit",
        "7530": "cars▁",
        "7531": "decor",
        "7532": "domes",
        "7533": "flow▁",
        "7534": "heim▁",
        "7535": "names",
        "7536": "occas",
        "7537": "schem",
        "7538": "user▁",
        "7539": "wind▁",
        "7540": "Every▁",
        "7541": "Tamil▁",
        "7542": "apped▁",
        "7543": "inspir",
        "7544": "arrest▁",
        "7545": "marine▁",
        "7546": "Between▁",
        "7547": "Detroit▁",
        "7548": "Matthew▁",
        "7549": "atabase▁",
        "7550": "looking▁",
        "7551": "bacteria▁",
        "7552": "earliest▁",
        "7553": "hydrogen▁",
        "7554": "Governors▁",
        "7555": "Corporation▁",
        "7556": "oz",
        "7557": "42▁",
        "7558": "Ban",
        "7559": "Fut",
        "7560": "agg",
        "7561": "fli",
        "7562": "lyn",
        "7563": "Gian",
        "7564": "hop▁",
        "7565": "imer",
        "7566": "orph",
        "7567": "cells",
        "7568": "easy▁",
        "7569": "sched",
        "7570": "wing▁",
        "7571": "Board▁",
        "7572": "Final▁",
        "7573": "ables▁",
        "7574": "(1996)▁",
        "7575": "Ecuador",
        "7576": "dancer▁",
        "7577": "eventh▁",
        "7578": "issues▁",
        "7579": "Further▁",
        "7580": "cardiac▁",
        "7581": "display▁",
        "7582": "activity▁",
        "7583": "brothers▁",
        "7584": "continue▁",
        "7585": "industry▁",
        "7586": "Confederate▁",
        "7587": "CN",
        "7588": "Hab",
        "7589": "Osc",
        "7590": "Syn",
        "7591": "aqu",
        "7592": "ban",
        "7593": "tex",
        "7594": "Las▁",
        "7595": "Roy▁",
        "7596": "Suff",
        "7597": "ova▁",
        "7598": "poly",
        "7599": "Natur",
        "7600": "erran",
        "7601": "ights",
        "7602": "sycho",
        "7603": "Alice▁",
        "7604": "Baltim",
        "7605": "Boris▁",
        "7606": "alism▁",
        "7607": "burgh▁",
        "7608": "infarc",
        "7609": "places",
        "7610": "satell",
        "7611": "Company",
        "7612": "Leader▁",
        "7613": "annual▁",
        "7614": "bigger▁",
        "7615": "general",
        "7616": "highly▁",
        "7617": "Governor",
        "7618": "picture▁",
        "7619": "Lawrence▁",
        "7620": "ortation▁",
        "7621": "describes▁",
        "7622": "Massachusetts",
        "7623": "Ib",
        "7624": "Avi",
        "7625": "Mit",
        "7626": "Sah",
        "7627": "ble",
        "7628": "lea",
        "7629": "opp",
        "7630": "sax",
        "7631": "Benn",
        "7632": "Nick",
        "7633": "Out▁",
        "7634": "bish",
        "7635": "ecra",
        "7636": "han▁",
        "7637": "only",
        "7638": "Catal",
        "7639": "accep",
        "7640": "along",
        "7641": "cold▁",
        "7642": "foot▁",
        "7643": "poor▁",
        "7644": "ships",
        "7645": "stars",
        "7646": "suppl",
        "7647": "thus▁",
        "7648": "divorc",
        "7649": "grade▁",
        "7650": "ynasty",
        "7651": "flight▁",
        "7652": "Affairs▁",
        "7653": "Highway▁",
        "7654": "borough▁",
        "7655": "learned▁",
        "7656": "romance▁",
        "7657": "regional▁",
        "7658": "Melbourne▁",
        "7659": "represent▁",
        "7660": "volleyball▁",
        "7661": "0–",
        "7662": "Tu",
        "7663": "Va",
        "7664": "’▁",
        "7665": "Daw",
        "7666": "Gib",
        "7667": "Kin",
        "7668": "jur",
        "7669": "éné",
        "7670": "Shir",
        "7671": "Stew",
        "7672": "extr",
        "7673": "foot",
        "7674": "push",
        "7675": "Pays▁",
        "7676": "Stadi",
        "7677": "devel",
        "7678": "dorf▁",
        "7679": "eval▁",
        "7680": "fell▁",
        "7681": "ises▁",
        "7682": "radio",
        "7683": "songs",
        "7684": "sport",
        "7685": "where",
        "7686": "|2001",
        "7687": "falls▁",
        "7688": "ingen▁",
        "7689": "inson▁",
        "7690": "Norway▁",
        "7691": "course▁",
        "7692": "looked▁",
        "7693": "sounds▁",
        "7694": "Greater▁",
        "7695": "Sources▁",
        "7696": "attempt▁",
        "7697": "ordered▁",
        "7698": "Margaret▁",
        "7699": "Security▁",
        "7700": "required▁",
        "7701": "Commission▁",
        "7702": "infarction▁",
        "7703": "journalists▁",
        "7704": "representative▁",
        "7705": "DO",
        "7706": "ee",
        "7707": "(79",
        "7708": "34▁",
        "7709": "65▁",
        "7710": "elf",
        "7711": "fra",
        "7712": "kir",
        "7713": "utr",
        "7714": "was",
        "7715": "Adel",
        "7716": "Bad▁",
        "7717": "Poké",
        "7718": "UNES",
        "7719": "chi▁",
        "7720": "ophy",
        "7721": "ott▁",
        "7722": "tha▁",
        "7723": "|2002",
        "7724": "2002,▁",
        "7725": "Bruce▁",
        "7726": "Heart▁",
        "7727": "Penins",
        "7728": "cities",
        "7729": "divers",
        "7730": "poets▁",
        "7731": "(1995)▁",
        "7732": "Lawyers▁",
        "7733": "physics▁",
        "7734": "pitcher▁",
        "7735": "renamed▁",
        "7736": "theatre▁",
        "7737": "Computer▁",
        "7738": "Medicine▁",
        "7739": "Ministry▁",
        "7740": "training▁",
        "7741": "discovery▁",
        "7742": "scientist▁",
        "7743": "personalities▁",
        "7744": "Py",
        "7745": "SS",
        "7746": "182",
        "7747": "Lan",
        "7748": "Rac",
        "7749": "Tob",
        "7750": "WA▁",
        "7751": "Yug",
        "7752": "acu",
        "7753": "ius",
        "7754": "ken",
        "7755": "oms",
        "7756": "oud",
        "7757": "rif",
        "7758": "17)▁",
        "7759": "Abra",
        "7760": "Wars",
        "7761": "ense",
        "7762": "myoc",
        "7763": "perf",
        "7764": "surg",
        "7765": "zen▁",
        "7766": "1916▁",
        "7767": "Plot▁",
        "7768": "Psych",
        "7769": "Studi",
        "7770": "bing▁",
        "7771": "circu",
        "7772": "iron▁",
        "7773": "ustri",
        "7774": "Larry▁",
        "7775": "Observ",
        "7776": "incumb",
        "7777": "saxoph",
        "7778": "growth▁",
        "7779": "method▁",
        "7780": "ography",
        "7781": "planet▁",
        "7782": "report▁",
        "7783": "chairman▁",
        "7784": "tradition",
        "7785": "ventures▁",
        "7786": "chemistry▁",
        "7787": "diagnosed▁",
        "7788": "activities▁",
        "7789": "Um",
        "7790": "Cay",
        "7791": "Din",
        "7792": "Eli",
        "7793": "Kim",
        "7794": "Lea",
        "7795": "iop",
        "7796": "og▁",
        "7797": "rad",
        "7798": "rhy",
        "7799": "set",
        "7800": "thy",
        "7801": "zen",
        "7802": "Mars",
        "7803": "Pro▁",
        "7804": "abol",
        "7805": "ical",
        "7806": "illa",
        "7807": "scen",
        "7808": "torn",
        "7809": "word",
        "7810": "advis",
        "7811": "attle",
        "7812": "edge▁",
        "7813": "ition",
        "7814": "lets▁",
        "7815": "7||0||",
        "7816": "Count▁",
        "7817": "dissol",
        "7818": "drive▁",
        "7819": "fried▁",
        "7820": "twice▁",
        "7821": "Dakota▁",
        "7822": "Marine▁",
        "7823": "Native▁",
        "7824": "Warren▁",
        "7825": "couple▁",
        "7826": "tracks▁",
        "7827": "olution▁",
        "7828": "Frederick▁",
        "7829": "Mediterran",
        "7830": "positions▁",
        "7831": "thousands▁",
        "7832": "conditions▁",
        "7833": "experience▁",
        "7834": "alternative▁",
        "7835": "Dra",
        "7836": "Sak",
        "7837": "Wol",
        "7838": "bow",
        "7839": "ji▁",
        "7840": "jus",
        "7841": "1900",
        "7842": "7||2",
        "7843": "aure",
        "7844": "1917▁",
        "7845": "ably▁",
        "7846": "cost▁",
        "7847": "flood",
        "7848": "wear▁",
        "7849": "worn▁",
        "7850": "Chile▁",
        "7851": "Costa▁",
        "7852": "Saudi▁",
        "7853": "aging▁",
        "7854": "belief",
        "7855": "county",
        "7856": "franch",
        "7857": "liked▁",
        "7858": "(2001)▁",
        "7859": "Chinese",
        "7860": "Geneva▁",
        "7861": "automob",
        "7862": "commiss",
        "7863": "debuts▁",
        "7864": "install",
        "7865": "science",
        "7866": "Industri",
        "7867": "Several▁",
        "7868": "attacked▁",
        "7869": "designer▁",
        "7870": "provides▁",
        "7871": "Companies▁",
        "7872": "mentioned▁",
        "7873": "Filmography▁",
        "7874": "Jur",
        "7875": "Nut",
        "7876": "eld",
        "7877": "ev▁",
        "7878": "\"),▁",
        "7879": "Bart",
        "7880": "Carr",
        "7881": "Life",
        "7882": "Salz",
        "7883": "Sult",
        "7884": "alo▁",
        "7885": "resc",
        "7886": "subj",
        "7887": "elve▁",
        "7888": "pass▁",
        "7889": "tier▁",
        "7890": "tour▁",
        "7891": "Cathed",
        "7892": "aling▁",
        "7893": "noted▁",
        "7894": "princi",
        "7895": "Buenos▁",
        "7896": "Pierre▁",
        "7897": "liquid▁",
        "7898": "utions▁",
        "7899": "Muslims▁",
        "7900": "contain▁",
        "7901": "Benjamin▁",
        "7902": "educator▁",
        "7903": "presented▁",
        "7904": "Technology▁",
        "7905": "significant▁",
        "7906": "Vl",
        "7907": "38▁",
        "7908": "51▁",
        "7909": "Bot",
        "7910": "Fol",
        "7911": "Int",
        "7912": "Sin",
        "7913": "Uru",
        "7914": "eds",
        "7915": "pel",
        "7916": "Addi",
        "7917": "Merc",
        "7918": "Pear",
        "7919": "Sang",
        "7920": "add▁",
        "7921": "does",
        "7922": "mist",
        "7923": "truc",
        "7924": "Chang",
        "7925": "Fried",
        "7926": "Karl▁",
        "7927": "Ross▁",
        "7928": "alty▁",
        "7929": "clear",
        "7930": "load▁",
        "7931": "parts",
        "7932": "traff",
        "7933": "1989.▁",
        "7934": "Indian",
        "7935": "Kyoto▁",
        "7936": "Suffol",
        "7937": "months",
        "7938": "scape▁",
        "7939": "theme▁",
        "7940": "(2004)▁",
        "7941": "Bavaria",
        "7942": "Carlos▁",
        "7943": "castle▁",
        "7944": "defeat▁",
        "7945": "follow▁",
        "7946": "service",
        "7947": "myocardi",
        "7948": "treated▁",
        "7949": "Montreal▁",
        "7950": "Romanian▁",
        "7951": "altitude▁",
        "7952": "*▁",
        "7953": "Cyr",
        "7954": "ho▁",
        "7955": "max",
        "7956": "ped",
        "7957": "pup",
        "7958": "600▁",
        "7959": "elim",
        "7960": "heav",
        "7961": "iko▁",
        "7962": "pick",
        "7963": "till",
        "7964": "uan▁",
        "7965": "Filip",
        "7966": "Port▁",
        "7967": "alia▁",
        "7968": "birds",
        "7969": "chrom",
        "7970": "dium▁",
        "7971": "gang▁",
        "7972": "gods▁",
        "7973": "sung▁",
        "7974": "Street",
        "7975": "before",
        "7976": "replac",
        "7977": "score▁",
        "7978": "Canton▁",
        "7979": "Charlot",
        "7980": "Vienna▁",
        "7981": "ethnic▁",
        "7982": "rapper▁",
        "7983": "stayed▁",
        "7984": "Atlanta▁",
        "7985": "Kennedy▁",
        "7986": "Project▁",
        "7987": "product▁",
        "7988": "Franklin▁",
        "7989": "Fictional▁",
        "7990": "committed▁",
        "7991": "ministers▁",
        "7992": "Conference▁",
        "7993": "Population▁",
        "7994": "electrical▁",
        "7995": "interested▁",
        "7996": "myocardial▁",
        "7997": "FF",
        "7998": "Ig",
        "7999": "är",
        "8000": "Be▁",
        "8001": "Bud",
        "8002": "Goo",
        "8003": "Meg",
        "8004": "Yok",
        "8005": "spr",
        "8006": "urg",
        "8007": "cat▁",
        "8008": "fair",
        "8009": "hall",
        "8010": "1912▁",
        "8011": "9||0▁",
        "8012": "Amend",
        "8013": "Cross",
        "8014": "Krist",
        "8015": "Magaz",
        "8016": "ando▁",
        "8017": "arts▁",
        "8018": "endor",
        "8019": "hyper",
        "8020": "Vista▁",
        "8021": "applic",
        "8022": "batter",
        "8023": "films▁",
        "8024": "label▁",
        "8025": "office",
        "8026": "respir",
        "8027": "ruler▁",
        "8028": "waves▁",
        "8029": "Centre▁",
        "8030": "Labour▁",
        "8031": "Moscow▁",
        "8032": "||3||0▁",
        "8033": "Animals▁",
        "8034": "athlete▁",
        "8035": "religion",
        "8036": "singing▁",
        "8037": "visited▁",
        "8038": "Festival▁",
        "8039": "Muhammad▁",
        "8040": "Nebraska▁",
        "8041": "Original▁",
        "8042": "mythology",
        "8043": "Christians▁",
        "8044": "Historical▁",
        "8045": "difference▁",
[...]
