{
  "version": "1.0",
  "truncation": null,
  "padding": null,
  "added_tokens": [
    {
      "id": 0,
      "content": "<unk>",
      "single_word": false,
      "lstrip": false,
      "rstrip": false,
      "normalized": false,
      "special": true
    },
    {
      "id": 1,
      "content": "<s>",
      "single_word": false,
      "lstrip": false,
      "rstrip": false,
      "normalized": false,
      "special": true
    },
    {
      "id": 2,
      "content": "</s>",
      "single_word": false,
      "lstrip": false,
      "rstrip": false,
      "normalized": false,
      "special": true
    }
  ],
  "normalizer": {
    "type": "NFKC"
  },
  "pre_tokenizer": {
    "type": "Metaspace",
    "replacement": "▁",
    "prepend_scheme": "always",
    "split": true
  },
  "post_processor": null,
  "decoder": {
    "type": "Metaspace",
    "replacement": "▁",
    "prepend_scheme": "always",
    "split": true
  },
  "model": {
    "type": "BPE",
    "dropout": null,
    "unk_token": "<unk>",
    "continuing_subword_prefix": null,
    "end_of_word_suffix": null,
    "fuse_unk": false,
    "byte_fallback": false,
    "ignore_merges": false,
    "vocab": {
      "<unk>": 0,
      "<s>": 1,
      "</s>": 2,
      "\t": 3,
      "\n": 4,
      "!": 5,
      "\"": 6,
      "#": 7,
      "$": 8,
      "%": 9,
      "&": 10,
      "'": 11,
      "(": 12,
      ")": 13,
      "*": 14,
      "+": 15,
      ",": 16,
      "-": 17,
      ".": 18,
      "/": 19,
      "0": 20,
      "1": 21,
      "2": 22,
      "3": 23,
      "4": 24,
      "5": 25,
      "6": 26,
      "7": 27,
      "8": 28,
      "9": 29,
      ":": 30,
      ";": 31,
      "<": 32,
      "=": 33,
      ">": 34,
      "?": 35,
      "@": 36,
      "A": 37,
      "B": 38,
      "C": 39,
      "D": 40,
      "E": 41,
      "F": 42,
      "G": 43,
      "H": 44,
      "I": 45,
      "J": 46,
      "K": 47,
      "L": 48,
      "M": 49,
      "N": 50,
      "O": 51,
      "P": 52,
      "Q": 53,
      "R": 54,
      "S": 55,
      "T": 56,
      "U": 57,
      "V": 58,
      "W": 59,
      "X": 60,
      "Y": 61,
      "Z": 62,
      "[": 63,
      "\\": 64,
      "]": 65,
      "^": 66,
      "_": 67,
      "`": 68,
      "a": 69,
      "b": 70,
      "c": 71,
      "d": 72,
      "e": 73,
      "f": 74,
      "g": 75,
      "h": 76,
      "i": 77,
      "j": 78,
      "k": 79,
      "l": 80,
      "m": 81,
      "n": 82,
      "o": 83,
      "p": 84,
      "q": 85,
      "r": 86,
      "s": 87,
      "t": 88,
      "u": 89,
      "v": 90,
      "w": 91,
      "x": 92,
      "y": 93,
      "z": 94,
      "{": 95,
      "|": 96,
      "}": 97,
      "~": 98,
      "¡": 99,
      "¢": 100,
      "£": 101,
      "¥": 102,
      "§": 103,
      "©": 104,
      "«": 105,
      "­": 106,
      "®": 107,
      "°": 108,
      "±": 109,
      "·": 110,
      "»": 111,
      "¿": 112,
      "À": 113,
      "Á": 114,
      "Â": 115,
      "Ä": 116,
      "Å": 117,
      "Æ": 118,
      "Ç": 119,
      "È": 120,
      "É": 121,
      "Í": 122,
      "Î": 123,
      "Ñ": 124,
      "Ó": 125,
      "Ô": 126,
      "Ö": 127,
      "×": 128,
      "Ø": 129,
      "Ú": 130,
      "Ü": 131,
      "Þ": 132,
      "ß": 133,
      "à": 134,
      "á": 135,
      "â": 136,
      "ã": 137,
      "ä": 138,
      "å": 139,
      "æ": 140,
      "ç": 141,
      "è": 142,
      "é": 143,
      "ê": 144,
      "ë": 145,
      "ì": 146,
      "í": 147,
      "î": 148,
      "ï": 149,
      "ð": 150,
      "ñ": 151,
      "ò": 152,
      "ó": 153,
      "ô": 154,
      "õ": 155,
      "ö": 156,
      "÷": 157,
      "ø": 158,
      "ù": 159,
      "ú": 160,
      "û": 161,
      "ü": 162,
      "ý": 163,
      "þ": 164,
      "ÿ": 165,
      "Ā": 166,
      "ā": 167,
      "ă": 168,
      "ą": 169,
      "Ć": 170,
      "ć": 171,
      "Č": 172,
      "č": 173,
      "Đ": 174,
      "đ": 175,
      "ē": 176,
      "ĕ": 177,
      "ė": 178,
      "ę": 179,
      "ě": 180,
      "ğ": 181,
      "ġ": 182,
      "ħ": 183,
      "ĩ": 184,
      "ī": 185,
      "İ": 186,
      "ı": 187,
      "ľ": 188,
      "Ł": 189,
      "ł": 190,
      "ń": 191,
      "ņ": 192,
      "ň": 193,
      "ŋ": 194,
      "Ō": 195,
      "ō": 196,
      "ŏ": 197,
      "ő": 198,
      "Œ": 199,
      "œ": 200,
      "ř": 201,
      "Ś": 202,
      "ś": 203,
      "Ş": 204,
      "ş": 205,
      "Š": 206,
      "š": 207,
      "Ţ": 208,
      "ţ": 209,
      "ũ": 210,
      "ū": 211,
      "ŭ": 212,
      "ů": 213,
      "ŵ": 214,
      "ź": 215,
      "Ż": 216,
      "ż": 217,
      "Ž": 218,
      "ž": 219,
      "Ɔ": 220,
      "ơ": 221,
      "ư": 222,
      "ǎ": 223,
      "ǐ": 224,
      "ǒ": 225,
      "ǔ": 226,
      "Ș": 227,
      "ș": 228,
      "ț": 229,
      "ɐ": 230,
      "ɑ": 231,
      "ɔ": 232,
      "ɘ": 233,
      "ə": 234,
      "ɛ": 235,
      "ɡ": 236,
      "ɪ": 237,
      "ɾ": 238,
      "ʁ": 239,
      "ʃ": 240,
      "ʊ": 241,
      "ʒ": 242,
      "ʻ": 243,
      "ʼ": 244,
      "ʾ": 245,
      "ʿ": 246,
      "ˈ": 247,
      "ˌ": 248,
      "ː": 249,
      "́": 250,
      "̇": 251,
      "̯": 252,
      "͡": 253,
      "Α": 254,
      "Β": 255,
      "Γ": 256,
      "Δ": 257,
      "Ε": 258,
      "Ι": 259,
      "Κ": 260,
      "Λ": 261,
      "Μ": 262,
      "Π": 263,
      "Σ": 264,
      "Τ": 265,
      "Φ": 266,
      "Ω": 267,
      "ά": 268,
      "έ": 269,
      "ή": 270,
      "ί": 271,
      "α": 272,
      "β": 273,
      "γ": 274,
      "δ": 275,
      "ε": 276,
      "ζ": 277,
      "η": 278,
      "θ": 279,
      "ι": 280,
      "κ": 281,
      "λ": 282,
      "μ": 283,
      "ν": 284,
      "ο": 285,
      "π": 286,
      "ρ": 287,
      "ς": 288,
      "σ": 289,
      "τ": 290,
      "υ": 291,
      "φ": 292,
      "χ": 293,
      "ψ": 294,
      "ω": 295,
      "ό": 296,
      "ύ": 297,
      "ώ": 298,
      "А": 299,
      "Б": 300,
      "В": 301,
      "Г": 302,
      "Д": 303,
      "Е": 304,
      "Ж": 305,
      "З": 306,
      "И": 307,
      "Й": 308,
      "К": 309,
      "Л": 310,
      "М": 311,
      "Н": 312,
      "О": 313,
      "П": 314,
      "Р": 315,
      "С": 316,
      "Т": 317,
      "У": 318,
      "Ф": 319,
      "Х": 320,
      "Ц": 321,
      "Ч": 322,
      "Ш": 323,
      "Э": 324,
      "Ю": 325,
      "Я": 326,
      "а": 327,
      "б": 328,
      "в": 329,
      "г": 330,
      "д": 331,
      "е": 332,
      "ж": 333,
      "з": 334,
      "и": 335,
      "й": 336,
      "к": 337,
      "л": 338,
      "м": 339,
      "н": 340,
      "о": 341,
      "п": 342,
      "р": 343,
      "с": 344,
      "т": 345,
      "у": 346,
      "ф": 347,
      "х": 348,
      "ц": 349,
      "ч": 350,
      "ш": 351,
      "щ": 352,
      "ъ": 353,
      "ы": 354,
      "ь": 355,
      "э": 356,
      "ю": 357,
      "я": 358,
      "ё": 359,
      "і": 360,
      "ї": 361,
      "ј": 362,
      "ћ": 363,
      "ү": 364,
      "ա": 365,
      "ե": 366,
      "ի": 367,
      "յ": 368,
      "ն": 369,
      "ո": 370,
      "ր": 371,
      "א": 372,
      "ב": 373,
      "ג": 374,
      "ד": 375,
      "ה": 376,
      "ו": 377,
      "ז": 378,
      "ח": 379,
      "ט": 380,
      "י": 381,
      "כ": 382,
      "ל": 383,
      "ם": 384,
      "מ": 385,
      "ן": 386,
      "נ": 387,
      "ס": 388,
      "ע": 389,
      "פ": 390,
      "צ": 391,
      "ק": 392,
      "ר": 393,
      "ש": 394,
      "ת": 395,
      "ء": 396,
      "آ": 397,
      "أ": 398,
      "إ": 399,
      "ئ": 400,
      "ا": 401,
      "ب": 402,
      "ة": 403,
      "ت": 404,
      "ث": 405,
      "ج": 406,
      "ح": 407,
      "خ": 408,
      "د": 409,
      "ذ": 410,
      "ر": 411,
      "ز": 412,
      "س": 413,
      "ش": 414,
      "ص": 415,
      "ض": 416,
      "ط": 417,
      "ع": 418,
      "غ": 419,
      "ف": 420,
      "ق": 421,
      "ك": 422,
      "ل": 423,
      "م": 424,
      "ن": 425,
      "ه": 426,
      "و": 427,
      "ى": 428,
      "ي": 429,
      "َ": 430,
      "ُ": 431,
      "ِ": 432,
      "ّ": 433,
      "ْ": 434,
      "ٱ": 435,
      "پ": 436,
      "چ": 437,
      "ک": 438,
      "گ": 439,
      "ہ": 440,
      "ی": 441,
      "ە": 442,
      "އ": 443,
      "މ": 444,
      "ަ": 445,
      "ި": 446,
      "ު": 447,
      "ް": 448,
      "ं": 449,
      "अ": 450,
      "आ": 451,
      "क": 452,
      "ख": 453,
      "ग": 454,
      "च": 455,
      "ज": 456,
      "ट": 457,
      "ड": 458,
      "ण": 459,
      "त": 460,
      "द": 461,
      "ध": 462,
      "न": 463,
      "प": 464,
      "ब": 465,
      "भ": 466,
      "म": 467,
      "य": 468,
      "र": 469,
      "ल": 470,
      "व": 471,
      "श": 472,
      "ष": 473,
      "स": 474,
      "ह": 475,
      "ा": 476,
      "ि": 477,
      "ी": 478,
      "ु": 479,
      "ू": 480,
      "े": 481,
      "ो": 482,
      "्": 483,
      "।": 484,
      "ং": 485,
      "ক": 486,
      "গ": 487,
      "জ": 488,
      "ট": 489,
      "ত": 490,
      "দ": 491,
      "ন": 492,
      "প": 493,
      "ব": 494,
      "ম": 495,
      "য": 496,
      "র": 497,
      "ল": 498,
      "শ": 499,
      "স": 500,
      "হ": 501,
      "়": 502,
      "া": 503,
      "ি": 504,
      "ী": 505,
      "ু": 506,
      "ে": 507,
      "্": 508,
      "க": 509,
      "ச": 510,
      "ட": 511,
      "த": 512,
      "ப": 513,
      "ம": 514,
      "ய": 515,
      "ர": 516,
      "ல": 517,
      "வ": 518,
      "ா": 519,
      "ி": 520,
      "ு": 521,
      "ை": 522,
      "்": 523,
      "്": 524,
      "ර": 525,
      "්": 526,
      "ා": 527,
      "ි": 528,
      "ก": 529,
      "ข": 530,
      "ค": 531,
      "ง": 532,
      "จ": 533,
      "ช": 534,
      "ณ": 535,
      "ด": 536,
      "ต": 537,
      "ท": 538,
      "ธ": 539,
      "น": 540,
      "บ": 541,
      "ป": 542,
      "พ": 543,
      "ม": 544,
      "ย": 545,
      "ร": 546,
      "ล": 547,
      "ว": 548,
      "ศ": 549,
      "ส": 550,
      "ห": 551,
      "อ": 552,
      "ะ": 553,
      "ั": 554,
      "า": 555,
      "ิ": 556,
      "ี": 557,
      "ื": 558,
      "ุ": 559,
      "ู": 560,
      "เ": 561,
      "แ": 562,
      "ไ": 563,
      "่": 564,
      "้": 565,
      "์": 566,
      "ํ": 567,
      "་": 568,
      "်": 569,
      "ა": 570,
      "ე": 571,
      "ი": 572,
      "ḍ": 573,
      "Ḥ": 574,
      "ḥ": 575,
      "ṃ": 576,
      "ṇ": 577,
      "ṉ": 578,
      "ṛ": 579,
      "ṟ": 580,
      "ṣ": 581,
      "Ṭ": 582,
      "ṭ": 583,
      "ṯ": 584,
      "ạ": 585,
      "Ả": 586,
      "ả": 587,
      "ấ": 588,
      "ầ": 589,
      "ẩ": 590,
      "ậ": 591,
      "ế": 592,
      "ề": 593,
      "ễ": 594,
      "ệ": 595,
      "ị": 596,
      "ọ": 597,
      "ố": 598,
      "ồ": 599,
      "ộ": 600,
      "ớ": 601,
      "ờ": 602,
      "ụ": 603,
      "ủ": 604,
      "ứ": 605,
      "ữ": 606,
      "ἀ": 607,
      "​": 608,
      "‌": 609,
      "‎": 610,
      "‏": 611,
      "‐": 612,
      "–": 613,
      "—": 614,
      "―": 615,
      "‘": 616,
      "’": 617,
      "“": 618,
      "”": 619,
      "„": 620,
      "†": 621,
      "‡": 622,
      "•": 623,
      "′": 624,
      "›": 625,
      "⁄": 626,
      "₤": 627,
      "€": 628,
      "₹": 629,
      "←": 630,
      "→": 631,
      "−": 632,
      "∞": 633,
      "≈": 634,
      "≠": 635,
      "≤": 636,
      "│": 637,
      "├": 638,
      "▁": 639,
      "●": 640,
      "♦": 641,
      "♭": 642,
      "♯": 643,
      "⟨": 644,
      "⟩": 645,
      "ⴰ": 646,
      "、": 647,
      "。": 648,
      "〈": 649,
      "〉": 650,
      "《": 651,
      "》": 652,
      "「": 653,
      "」": 654,
      "『": 655,
      "』": 656,
      "あ": 657,
      "い": 658,
      "う": 659,
      "え": 660,
      "お": 661,
      "か": 662,
      "が": 663,
      "き": 664,
      "く": 665,
      "け": 666,
      "こ": 667,
      "さ": 668,
      "し": 669,
      "す": 670,
      "た": 671,
      "だ": 672,
      "ち": 673,
      "っ": 674,
      "て": 675,
      "で": 676,
      "と": 677,
      "な": 678,
      "に": 679,
      "の": 680,
      "は": 681,
      "ば": 682,
      "ま": 683,
      "み": 684,
      "も": 685,
      "や": 686,
      "よ": 687,
      "ら": 688,
      "り": 689,
      "る": 690,
      "れ": 691,
      "わ": 692,
      "を": 693,
      "ん": 694,
      "ア": 695,
      "ィ": 696,
      "イ": 697,
      "ウ": 698,
      "エ": 699,
      "オ": 700,
      "カ": 701,
      "ガ": 702,
      "キ": 703,
      "ク": 704,
      "グ": 705,
      "コ": 706,
      "サ": 707,
      "ザ": 708,
      "シ": 709,
      "ジ": 710,
      "ス": 711,
      "ズ": 712,
      "セ": 713,
      "タ": 714,
      "ダ": 715,
      "チ": 716,
      "ッ": 717,
      "テ": 718,
      "デ": 719,
      "ト": 720,
      "ド": 721,
      "ナ": 722,
      "ニ": 723,
      "ハ": 724,
      "バ": 725,
      "パ": 726,
      "ビ": 727,
      "フ": 728,
      "ブ": 729,
      "プ": 730,
      "ベ": 731,
      "ポ": 732,
      "マ": 733,
      "ミ": 734,
      "ム": 735,
      "メ": 736,
      "モ": 737,
      "ャ": 738,
      "ュ": 739,
      "ョ": 740,
      "ラ": 741,
      "リ": 742,
      "ル": 743,
      "レ": 744,
      "ロ": 745,
      "ン": 746,
      "・": 747,
      "ー": 748,
      "一": 749,
      "三": 750,
      "上": 751,
      "下": 752,
      "不": 753,
      "世": 754,
      "中": 755,
      "之": 756,
      "九": 757,
      "乡": 758,
      "事": 759,
      "二": 760,
      "五": 761,
      "井": 762,
      "京": 763,
      "人": 764,
      "仁": 765,
      "代": 766,
      "会": 767,
      "佐": 768,
      "信": 769,
      "元": 770,
      "光": 771,
      "全": 772,
      "八": 773,
      "公": 774,
      "关": 775,
      "出": 776,
      "前": 777,
      "化": 778,
      "北": 779,
      "区": 780,
      "南": 781,
      "原": 782,
      "县": 783,
      "口": 784,
      "古": 785,
      "台": 786,
      "史": 787,
      "号": 788,
      "司": 789,
      "合": 790,
      "吉": 791,
      "名": 792,
      "命": 793,
      "和": 794,
      "国": 795,
      "國": 796,
      "土": 797,
      "地": 798,
      "城": 799,
      "夜": 800,
      "大": 801,
      "天": 802,
      "太": 803,
      "奇": 804,
      "女": 805,
      "好": 806,
      "子": 807,
      "字": 808,
      "学": 809,
      "學": 810,
      "宇": 811,
      "安": 812,
      "家": 813,
      "小": 814,
      "山": 815,
      "島": 816,
      "川": 817,
      "州": 818,
      "市": 819,
      "平": 820,
      "年": 821,
      "庄": 822,
      "式": 823,
      "後": 824,
      "愛": 825,
      "成": 826,
      "手": 827,
      "文": 828,
      "新": 829,
      "方": 830,
      "族": 831,
      "日": 832,
      "明": 833,
      "星": 834,
      "時": 835,
      "書": 836,
      "有": 837,
      "朝": 838,
      "木": 839,
      "本": 840,
      "李": 841,
      "村": 842,
      "東": 843,
      "松": 844,
      "林": 845,
      "株": 846,
      "正": 847,
      "武": 848,
      "氏": 849,
      "民": 850,
      "水": 851,
      "永": 852,
      "江": 853,
      "河": 854,
      "治": 855,
      "海": 856,
      "物": 857,
      "玉": 858,
      "王": 859,
      "生": 860,
      "田": 861,
      "画": 862,
      "白": 863,
      "的": 864,
      "皇": 865,
      "真": 866,
      "石": 867,
      "社": 868,
      "神": 869,
      "福": 870,
      "美": 871,
      "良": 872,
      "花": 873,
      "英": 874,
      "草": 875,
      "藤": 876,
      "行": 877,
      "街": 878,
      "西": 879,
      "語": 880,
      "越": 881,
      "跡": 882,
      "路": 883,
      "道": 884,
      "郎": 885,
      "部": 886,
      "都": 887,
      "里": 888,
      "野": 889,
      "金": 890,
      "镇": 891,
      "長": 892,
      "阳": 893,
      "阿": 894,
      "院": 895,
      "陽": 896,
      "雄": 897,
      "集": 898,
      "青": 899,
      "音": 900,
      "風": 901,
      "香": 902,
      "馬": 903,
      "駅": 904,
      "马": 905,
      "高": 906,
      "黄": 907,
      "ꯀ": 908,
      "ꯂ": 909,
      "ꯃ": 910,
      "ꯄ": 911,
      "ꯅ": 912,
      "ꯈ": 913,
      "ꯊ": 914,
      "ꯍ": 915,
      "ꯏ": 916,
      "ꯔ": 917,
      "ꯕ": 918,
      "ꯝ": 919,
      "ꯟ": 920,
      "ꯡ": 921,
      "ꯢ": 922,
      "ꯣ": 923,
      "ꯤ": 924,
      "ꯥ": 925,
      "ꯦ": 926,
      "ꯧ": 927,
      "ꯨ": 928,
      "ꯩ": 929,
      "가": 930,
      "강": 931,
      "경": 932,
      "계": 933,
      "고": 934,
      "교": 935,
      "구": 936,
      "국": 937,
      "기": 938,
      "김": 939,
      "나": 940,
      "남": 941,
      "다": 942,
      "당": 943,
      "대": 944,
      "도": 945,
      "동": 946,
      "리": 947,
      "명": 948,
      "무": 949,
      "문": 950,
      "미": 951,
      "민": 952,
      "박": 953,
      "보": 954,
      "부": 955,
      "비": 956,
      "사": 957,
      "산": 958,
      "상": 959,
      "서": 960,
      "선": 961,
      "성": 962,
      "세": 963,
      "소": 964,
      "수": 965,
      "스": 966,
      "시": 967,
      "신": 968,
      "아": 969,
      "양": 970,
      "어": 971,
      "여": 972,
      "연": 973,
      "영": 974,
      "오": 975,
      "우": 976,
      "원": 977,
      "유": 978,
      "의": 979,
      "이": 980,
      "인": 981,
      "일": 982,
      "자": 983,
      "장": 984,
      "재": 985,
      "전": 986,
      "정": 987,
      "제": 988,
      "조": 989,
      "주": 990,
      "지": 991,
      "진": 992,
      "집": 993,
      "천": 994,
      "트": 995,
      "하": 996,
      "학": 997,
      "한": 998,
      "해": 999,
      "현": 1000,
      "호": 1001,
      "화": 1002,
      "▁t": 1003,
      "he": 1004,
      "an": 1005,
      "in": 1006,
      "er": 1007,
      "on": 1008,
      "▁a": 1009,
      "▁the": 1010,
      "es": 1011,
      "or": 1012,
      "is": 1013,
      "en": 1014,
      "ar": 1015,
      "at": 1016,
      "▁o": 1017,
      "▁w": 1018,
      "ed": 1019,
      "▁s": 1020,
      "it": 1021,
      "al": 1022,
      "▁of": 1023,
      "▁in": 1024,
      "▁c": 1025,
      "ic": 1026,
      "and": 1027,
      "▁f": 1028,
      "re": 1029,
      "as": 1030,
      "▁b": 1031,
      "\n\n": 1032,
      "▁p": 1033,
      "ro": 1034,
      "▁m": 1035,
      "▁and": 1036,
      "▁S": 1037,
      "le": 1038,
      "ing": 1039,
      "▁A": 1040,
      "▁1": 1041,
      "▁T": 1042,
      "▁d": 1043,
      "ou": 1044,
      "ion": 1045,
      "▁C": 1046,
      "▁(": 1047,
      "▁to": 1048,
      "il": 1049,
      "▁h": 1050,
      "▁is": 1051,
      "▁M": 1052,
      "am": 1053,
      "ent": 1054,
      ".\n\n": 1055,
      "om": 1056,
      "us": 1057,
      "20": 1058,
      "ol": 1059,
      "el": 1060,
      "▁B": 1061,
      "▁I": 1062,
      "||": 1063,
      "▁H": 1064,
      "▁P": 1065,
      "ct": 1066,
      "▁was": 1067,
      "▁l": 1068,
      "▁19": 1069,
      "ir": 1070,
      "ad": 1071,
      "et": 1072,
      "ur": 1073,
      "▁n": 1074,
      "iv": 1075,
      "un": 1076,
      "▁The": 1077,
      "ers": 1078,
      "ot": 1079,
      "ay": 1080,
      "ch": 1081,
      "st": 1082,
      "▁R": 1083,
      "▁L": 1084,
      "id": 1085,
      "▁th": 1086,
      "ist": 1087,
      "▁F": 1088,
      "▁g": 1089,
      "th": 1090,
      "▁D": 1091,
      "her": 1092,
      "▁G": 1093,
      "ce": 1094,
      "im": 1095,
      "▁20": 1096,
      "▁on": 1097,
      "▁N": 1098,
      "op": 1099,
      "ig": 1100,
      "▁for": 1101,
      "▁J": 1102,
      "ow": 1103,
      "▁e": 1104,
      "▁W": 1105,
      "ov": 1106,
      "ly": 1107,
      "ian": 1108,
      "ation": 1109,
      "19": 1110,
      "rom": 1111,
      "▁E": 1112,
      "ag": 1113,
      "▁re": 1114,
      "▁be": 1115,
      "em": 1116,
      "ut": 1117,
      "▁st": 1118,
      "est": 1119,
      "s\n": 1120,
      "ra": 1121,
      "ies": 1122,
      "▁from": 1123,
      "▁as": 1124,
      "ul": 1125,
      "ia": 1126,
      "os": 1127,
      "mer": 1128,
      "ces": 1129,
      "ter": 1130,
      "all": 1131,
      "um": 1132,
      ")\n": 1133,
      "oun": 1134,
      "▁O": 1135,
      "▁an": 1136,
      "▁al": 1137,
      "▁K": 1138,
      "ith": 1139,
      "▁by": 1140,
      "art": 1141,
      "▁U": 1142,
      "ef": 1143,
      "ber": 1144,
      "ish": 1145,
      "od": 1146,
      "▁are": 1147,
      "\n|": 1148,
      "av": 1149,
      "ican": 1150,
      "▁It": 1151,
      "ck": 1152,
      "res": 1153,
      "▁de": 1154,
      "▁with": 1155,
      "ak": 1156,
      "▁at": 1157,
      "ity": 1158,
      "ill": 1159,
      "▁he": 1160,
      "▁v": 1161,
      "▁He": 1162,
      "ap": 1163,
      "ther": 1164,
      "ain": 1165,
      "▁wh": 1166,
      "▁pl": 1167,
      "▁St": 1168,
      "'s": 1169,
      "if": 1170,
      "▁that": 1171,
      "s,": 1172,
      "▁com": 1173,
      "▁\n": 1174,
      "▁In": 1175,
      "ie": 1176,
      "ab": 1177,
      "▁or": 1178,
      "eop": 1179,
      "s.": 1180,
      "eren": 1181,
      "▁it": 1182,
      "eople": 1183,
      "ip": 1184,
      "ard": 1185,
      "merican": 1186,
      "up": 1187,
      "eb": 1188,
      "erences": 1189,
      "ld": 1190,
      "Ref": 1191,
      "▁\"": 1192,
      "▁201": 1193,
      "References": 1194,
      "▁r": 1195,
      "▁Ch": 1196,
      "▁se": 1197,
      "ant": 1198,
      "e,": 1199,
      "▁–": 1200,
      "▁pro": 1201,
      "▁k": 1202,
      "▁2": 1203,
      "▁-": 1204,
      "ment": 1205,
      "ew": 1206,
      "▁\n\n": 1207,
      "ud": 1208,
      "▁V": 1209,
      "ort": 1210,
      "ri": 1211,
      "ary": 1212,
      "ate": 1213,
      "igh": 1214,
      "ver": 1215,
      "ich": 1216,
      "ong": 1217,
      "rit": 1218,
      "ub": 1219,
      "ame": 1220,
      "ear": 1221,
      "The": 1222,
      "||0": 1223,
      "▁Un": 1224,
      "orn": 1225,
      "▁200": 1226,
      "so": 1227,
      "ep": 1228,
      "▁con": 1229,
      "og": 1230,
      "▁mov": 1231,
      "▁ch": 1232,
      "ust": 1233,
      "ug": 1234,
      "our": 1235,
      "ast": 1236,
      "ount": 1237,
      ".\n": 1238,
      "ran": 1239,
      "▁people": 1240,
      "se": 1241,
      "▁his": 1242,
      "ath": 1243,
      "ated": 1244,
      "▁play": 1245,
      "References\n\n": 1246,
      "end": 1247,
      "ell": 1248,
      "ge": 1249,
      "ost": 1250,
      "pe": 1251,
      "ctor": 1252,
      "ial": 1253,
      "▁us": 1254,
      "ore": 1255,
      "qu": 1256,
      "ord": 1257,
      "oc": 1258,
      "ive": 1259,
      "00": 1260,
      "man": 1261,
      "ere": 1262,
      "ok": 1263,
      "ac": 1264,
      "▁American": 1265,
      "land": 1266,
      "ight": 1267,
      "ine": 1268,
      "own": 1269,
      "ates": 1270,
      "▁te": 1271,
      "▁also": 1272,
      "ork": 1273,
      "▁has": 1274,
      "ical": 1275,
      "sit": 1276,
      "ang": 1277,
      "),": 1278,
      "ited": 1279,
      "▁le": 1280,
      "▁sh": 1281,
      "ry": 1282,
      "▁un": 1283,
      "ave": 1284,
      "▁were": 1285,
      "ire": 1286,
      "▁Th": 1287,
      "ebsit": 1288,
      "▁18": 1289,
      "▁Y": 1290,
      "▁not": 1291,
      "▁ex": 1292,
      "ey": 1293,
      "ern": 1294,
      "ng": 1295,
      "ue": 1296,
      "▁websit": 1297,
      "ure": 1298,
      "▁y": 1299,
      "ack": 1300,
      "irst": 1301,
      "-\n|": 1302,
      "ome": 1303,
      "pan": 1304,
      "▁(b": 1305,
      ".\n\nReferences\n\n": 1306,
      "ess": 1307,
      "age": 1308,
      "200": 1309,
      "out": 1310,
      "ik": 1311,
      "▁bec": 1312,
      "▁bir": 1313,
      "ond": 1314,
      "ction": 1315,
      "▁can": 1316,
      "ff": 1317,
      "▁which": 1318,
      "▁Al": 1319,
      "ric": 1320,
      "▁199": 1321,
      "uc": 1322,
      "ide": 1323,
      "a,": 1324,
      "ember": 1325,
      "▁ab": 1326,
      "hen": 1327,
      "||1": 1328,
      "port": 1329,
      "lish": 1330,
      "▁United": 1331,
      "▁3": 1332,
      "▁birth": 1333,
      "▁first": 1334,
      "Other": 1335,
      "ass": 1336,
      "y,": 1337,
      "amp": 1338,
      "ational": 1339,
      "▁Mar": 1340,
      "▁(19": 1341,
      "▁have": 1342,
      "\n|-\n|": 1343,
      "▁websites": 1344,
      "ied": 1345,
      "ph": 1346,
      "per": 1347,
      "cl": 1348,
      "▁ar": 1349,
      "▁man": 1350,
      "ous": 1351,
      "ach": 1352,
      "aw": 1353,
      "▁births\n": 1354,
      "oot": 1355,
      "ime": 1356,
      "ice": 1357,
      "er,": 1358,
      "ound": 1359,
      "iz": 1360,
      "▁part": 1361,
      "te": 1362,
      "ician": 1363,
      "▁Le": 1364,
      "olit": 1365,
      "In": 1366,
      "fter": 1367,
      "to": 1368,
      "▁States": 1369,
      "ory": 1370,
      "▁An": 1371,
      "und": 1372,
      "sh": 1373,
      "ball": 1374,
      "les": 1375,
      "▁198": 1376,
      "row": 1377,
      "ision": 1378,
      "ne": 1379,
      "▁one": 1380,
      "▁they": 1381,
      "ade": 1382,
      "▁Ar": 1383,
      "▁New": 1384,
      "ob": 1385,
      "▁had": 1386,
      "ru": 1387,
      "ren": 1388,
      "▁kn": 1389,
      "aus": 1390,
      "▁cl": 1391,
      "ree": 1392,
      "▁death": 1393,
      "▁ro": 1394,
      "American": 1395,
      "▁ser": 1396,
      "▁comp": 1397,
      "ib": 1398,
      "ood": 1399,
      "▁other": 1400,
      "▁j": 1401,
      "ign": 1402,
      "orld": 1403,
      "ater": 1404,
      "▁197": 1405,
      "io": 1406,
      "ace": 1407,
      "▁who": 1408,
      "▁their": 1409,
      "ens": 1410,
      "ild": 1411,
      "ind": 1412,
      "▁actor": 1413,
      "201": 1414,
      "ult": 1415,
      "▁She": 1416,
      "ci": 1417,
      "ers\n": 1418,
      "mun": 1419,
      "▁but": 1420,
      "orm": 1421,
      "ally": 1422,
      "old": 1423,
      "▁year": 1424,
      "▁call": 1425,
      "▁tw": 1426,
      "ootball": 1427,
      "ec": 1428,
      "lev": 1429,
      "ward": 1430,
      "iss": 1431,
      "▁ag": 1432,
      "▁her": 1433,
      "pp": 1434,
      "erman": 1435,
      "||2": 1436,
      ".\n\nThe": 1437,
      "ah": 1438,
      "outh": 1439,
      "ect": 1440,
      "es,": 1441,
      "ident": 1442,
      "▁count": 1443,
      "ivers": 1444,
      "=\"": 1445,
      "der": 1446,
      "▁known": 1447,
      "▁this": 1448,
      "ton": 1449,
      "gh": 1450,
      "iving": 1451,
      "▁about": 1452,
      "▁196": 1453,
      "▁Fran": 1454,
      "▁polit": 1455,
      "ark": 1456,
      "ould": 1457,
      "oh": 1458,
      "ook": 1459,
      "ans": 1460,
      "▁used": 1461,
      "orth": 1462,
      "▁all": 1463,
      "▁4": 1464,
      "ies\n": 1465,
      "are": 1466,
      "ition": 1467,
      "▁Eng": 1468,
      "ake": 1469,
      "▁This": 1470,
      "ral": 1471,
      "▁called": 1472,
      "▁They": 1473,
      "▁dis": 1474,
      "ubl": 1475,
      "ince": 1476,
      "▁movie": 1477,
      "▁mus": 1478,
      "hed": 1479,
      "ex": 1480,
      "uch": 1481,
      "ased": 1482,
      "tern": 1483,
      "\"|": 1484,
      "e.": 1485,
      "ock": 1486,
      "ities": 1487,
      "▁De": 1488,
      "▁its": 1489,
      "we": 1490,
      "ery": 1491,
      "er\n": 1492,
      "ugh": 1493,
      ").": 1494,
      "ence": 1495,
      "ram": 1496,
      "ile": 1497,
      "▁work": 1498,
      "▁5": 1499,
      "▁two": 1500,
      "pl": 1501,
      "▁made": 1502,
      "▁As": 1503,
      "▁ad": 1504,
      "▁act": 1505,
      "span": 1506,
      "▁after": 1507,
      "▁7": 1508,
      "199": 1509,
      "ames": 1510,
      "ts": 1511,
      "ten": 1512,
      "▁cont": 1513,
      "▁most": 1514,
      "▁Sh": 1515,
      "▁8": 1516,
      "er.": 1517,
      "y.": 1518,
      "levision": 1519,
      "||0||0": 1520,
      "▁many": 1521,
      "clud": 1522,
      "act": 1523,
      "span=\"": 1524,
      "▁me": 1525,
      "a\n": 1526,
      "one": 1527,
      "ress": 1528,
      ".\n\nC": 1529,
      "wn": 1530,
      "ick": 1531,
      "oy": 1532,
      "▁194": 1533,
      "a.": 1534,
      "▁res": 1535,
      "18": 1536,
      "ments": 1537,
      "apan": 1538,
      "ict": 1539,
      "▁sp": 1540,
      "▁(d": 1541,
      "▁football": 1542,
      "▁195": 1543,
      "▁Ind": 1544,
      "▁sing": 1545,
      "||3": 1546,
      "▁writ": 1547,
      "ron": 1548,
      "olog": 1549,
      "ough": 1550,
      "son": 1551,
      "▁includ": 1552,
      "oll": 1553,
      "uring": 1554,
      "▁born": 1555,
      "▁en": 1556,
      "▁there": 1557,
      "ail": 1558,
      "vent": 1559,
      "ite": 1560,
      "▁German": 1561,
      "▁been": 1562,
      "▁6": 1563,
      "fer": 1564,
      "▁city": 1565,
      "ics": 1566,
      "▁into": 1567,
      "inn": 1568,
      "▁found": 1569,
      "ings": 1570,
      "▁(b.": 1571,
      "ause": 1572,
      "es.": 1573,
      "roup": 1574,
      "▁died": 1575,
      "overn": 1576,
      "▁spe": 1577,
      "▁television": 1578,
      "▁(born": 1579,
      "▁more": 1580,
      "ober": 1581,
      "ike": 1582,
      "az": 1583,
      "gan": 1584,
      "▁politician": 1585,
      "▁im": 1586,
      "▁ele": 1587,
      "▁do": 1588,
      "▁193": 1589,
      "cted": 1590,
      "▁Count": 1591,
      "▁when": 1592,
      "▁Z": 1593,
      "pt": 1594,
      "pr": 1595,
      "▁ac": 1596,
      "▁est": 1597,
      "▁up": 1598,
      "ll": 1599,
      "ons": 1600,
      "ague": 1601,
      "ese": 1602,
      "resident": 1603,
      "che": 1604,
      "▁she": 1605,
      "▁pop": 1606,
      "▁off": 1607,
      "▁per": 1608,
      "||||": 1609,
      "vel": 1610,
      "reat": 1611,
      "▁9": 1612,
      "▁Jan": 1613,
      "▁17": 1614,
      "▁Com": 1615,
      "ool": 1616,
      "▁movies\n": 1617,
      "▁ra": 1618,
      "ash": 1619,
      "o,": 1620,
      "erson": 1621,
      "▁Japan": 1622,
      "▁cent": 1623,
      "ages": 1624,
      "ritish": 1625,
      "▁deaths\n": 1626,
      "ft": 1627,
      "eg": 1628,
      "0,": 1629,
      "▁rec": 1630,
      "▁Aust": 1631,
      "ations": 1632,
      "oin": 1633,
      "enn": 1634,
      "1,": 1635,
      "▁bet": 1636,
      "way": 1637,
      "mp": 1638,
      "▁reg": 1639,
      "▁out": 1640,
      "inist": 1641,
      "▁dire": 1642,
      "▁people\n": 1643,
      "▁them": 1644,
      "here": 1645,
      "round": 1646,
      "▁fam": 1647,
      "▁became": 1648,
      "ix": 1649,
      "▁over": 1650,
      "red": 1651,
      "▁app": 1652,
      "uro": 1653,
      "uary": 1654,
      "▁time": 1655,
      "tle": 1656,
      "ors": 1657,
      "▁Is": 1658,
      "als": 1659,
      "iversity": 1660,
      "urn": 1661,
      "▁War": 1662,
      "ogra": 1663,
      "ance": 1664,
      "▁estab": 1665,
      "ohn": 1666,
      "Living": 1667,
      "▁World": 1668,
      "▁team": 1669,
      "▁some": 1670,
      "▁(d.": 1671,
      "ont": 1672,
      "▁May": 1673,
      "icip": 1674,
      "▁new": 1675,
      "▁fl": 1676,
      "ase": 1677,
      "ept": 1678,
      "▁York": 1679,
      "▁prod": 1680,
      ".\n\nReferences\n\nOther": 1681,
      "▁popul": 1682,
      "▁ph": 1683,
      "▁sy": 1684,
      "ose": 1685,
      "▁dist": 1686,
      "▁group": 1687,
      "ann": 1688,
      "uss": 1689,
      "▁sc": 1690,
      "▁so": 1691,
      "s.\n\n": 1692,
      "▁dif": 1693,
      "▁Pr": 1694,
      "i,": 1695,
      "▁only": 1696,
      "bum": 1697,
      "▁Car": 1698,
      "▁than": 1699,
      "ev": 1700,
      "iet": 1701,
      "une": 1702,
      "ener": 1703,
      "▁col": 1704,
      "ement": 1705,
      "ia,": 1706,
      "ier": 1707,
      "aj": 1708,
      "▁played": 1709,
      "▁France": 1710,
      "▁lar": 1711,
      "198": 1712,
      "ween": 1713,
      "ism": 1714,
      "▁commun": 1715,
      "▁actors\n": 1716,
      "ife": 1717,
      "ever": 1718,
      "5,": 1719,
      "resent": 1720,
      "icial": 1721,
      "▁name": 1722,
      "▁King": 1723,
      "▁January": 1724,
      "▁Pro": 1725,
      "▁des": 1726,
      "21": 1727,
      "▁League": 1728,
      "▁dep": 1729,
      "ia\n": 1730,
      "oth": 1731,
      "▁form": 1732,
      "rict": 1733,
      "▁him": 1734,
      "able": 1735,
      "▁bu": 1736,
      "iam": 1737,
      "▁start": 1738,
      "ship": 1739,
      "2,": 1740,
      "6,": 1741,
      "▁John": 1742,
      "▁bl": 1743,
      "▁att": 1744,
      "rench": 1745,
      "\n\nReferences\n\n": 1746,
      "▁song": 1747,
      "oman": 1748,
      ".\n\nS": 1749,
      "▁rele": 1750,
      "iver": 1751,
      "▁Man": 1752,
      "▁sec": 1753,
      "▁Can": 1754,
      "icipal": 1755,
      "▁British": 1756,
      "▁Cl": 1757,
      "▁Cal": 1758,
      "▁English": 1759,
      "ograph": 1760,
      "air": 1761,
      ".\n\nA": 1762,
      "▁Sw": 1763,
      "▁pr": 1764,
      "rough": 1765,
      "ugust": 1766,
      "uk": 1767,
      "istory": 1768,
      "rib": 1769,
      "▁between": 1770,
      "▁because": 1771,
      "ason": 1772,
      "ury": 1773,
      "4,": 1774,
      "unicipal": 1775,
      "cess": 1776,
      "0s": 1777,
      "iel": 1778,
      "▁album": 1779,
      "\n|-\n|200": 1780,
      "chool": 1781,
      "3,": 1782,
      "▁Col": 1783,
      "inal": 1784,
      "ived": 1785,
      "▁Ju": 1786,
      ".\n\nIn": 1787,
      "ert": 1788,
      ".\n\nH": 1789,
      "▁tra": 1790,
      "ily": 1791,
      ".\n\nReferences": 1792,
      "lishments": 1793,
      "▁very": 1794,
      "rat": 1795,
      "2\"|": 1796,
      "▁University": 1797,
      "ved": 1798,
      "▁192": 1799,
      "angu": 1800,
      "\nS": 1801,
      "rowspan=\"": 1802,
      "col": 1803,
      "ve": 1804,
      "ai": 1805,
      "mber": 1806,
      "▁City": 1807,
      "ys": 1808,
      "▁we": 1809,
      "▁Ph": 1810,
      "▁Par": 1811,
      "other": 1812,
      "ather": 1813,
      "▁At": 1814,
      "rad": 1815,
      "▁state": 1816,
      "mon": 1817,
      "ublic": 1818,
      "▁show": 1819,
      "eptember": 1820,
      "rist": 1821,
      "▁Bl": 1822,
      "▁Q": 1823,
      "▁births\nLiving": 1824,
      "eth": 1825,
      "ution": 1826,
      "ank": 1827,
      "erm": 1828,
      "urr": 1829,
      "▁stud": 1830,
      "ower": 1831,
      "▁mon": 1832,
      "▁go": 1833,
      "ists": 1834,
      "ually": 1835,
      "ale": 1836,
      "▁Euro": 1837,
      "aint": 1838,
      "▁South": 1839,
      "ina": 1840,
      "ctober": 1841,
      "▁again": 1842,
      "▁series": 1843,
      "▁during": 1844,
      "||rowspan=\"": 1845,
      "▁Nov": 1846,
      "▁where": 1847,
      "pril": 1848,
      "ouse": 1849,
      "ital": 1850,
      "▁March": 1851,
      "▁August": 1852,
      "▁sm": 1853,
      "ely": 1854,
      "▁spec": 1855,
      "▁Sc": 1856,
      "▁On": 1857,
      "ins": 1858,
      "▁Rep": 1859,
      "▁pre": 1860,
      "▁ear": 1861,
      "▁may": 1862,
      "til": 1863,
      "▁would": 1864,
      "ferent": 1865,
      "▁Con": 1866,
      "aid": 1867,
      "imes": 1868,
      "7,": 1869,
      "cember": 1870,
      "▁websites\n": 1871,
      "ing,": 1872,
      "▁such": 1873,
      "ays": 1874,
      "anc": 1875,
      "▁like": 1876,
      "▁qu": 1877,
      "au": 1878,
      "form": 1879,
      "ven": 1880,
      "▁num": 1881,
      "emb": 1882,
      "pen": 1883,
      ")\n\n": 1884,
      "ampion": 1885,
      "ia.": 1886,
      "▁rel": 1887,
      "ual": 1888,
      "▁co": 1889,
      "▁end": 1890,
      "ax": 1891,
      "artment": 1892,
      "▁person": 1893,
      "ebru": 1894,
      "ebruary": 1895,
      "▁won": 1896,
      "ink": 1897,
      "▁September": 1898,
      "197": 1899,
      "▁North": 1900,
      "ley": 1901,
      "rop": 1902,
      "▁music": 1903,
      "▁ind": 1904,
      "▁different": 1905,
      "hem": 1906,
      "▁art": 1907,
      "ss": 1908,
      "▁July": 1909,
      "ered": 1910,
      "on,": 1911,
      "▁October": 1912,
      "▁16": 1913,
      "amed": 1914,
      "▁char": 1915,
      "▁will": 1916,
      "▁Ital": 1917,
      "▁Ge": 1918,
      "▁town": 1919,
      "-d": 1920,
      "▁Austral": 1921,
      "ional": 1922,
      "ished": 1923,
      "8,": 1924,
      "▁establishments": 1925,
      "▁three": 1926,
      "▁car": 1927,
      "▁(200": 1928,
      "▁cre": 1929,
      "▁April": 1930,
      "De": 1931,
      "▁Ad": 1932,
      "▁June": 1933,
      "ium": 1934,
      "rans": 1935,
      "▁long": 1936,
      "▁until": 1937,
      "my": 1938,
      "▁Sp": 1939,
      "▁(1": 1940,
      "▁December": 1941,
      "▁cap": 1942,
      "▁years": 1943,
      "ett": 1944,
      "stem": 1945,
      "▁world": 1946,
      "▁November": 1947,
      "▁Award": 1948,
      "▁National": 1949,
      "ox": 1950,
      "ures": 1951,
      "le,": 1952,
      "▁released": 1953,
      "▁mar": 1954,
      "▁then": 1955,
      "▁Fl": 1956,
      "▁For": 1957,
      "▁sup": 1958,
      "▁II": 1959,
      "ott": 1960,
      "▁15": 1961,
      "000": 1962,
      "overnment": 1963,
      "\nP": 1964,
      "ried": 1965,
      "S.": 1966,
      "▁Ed": 1967,
      "ternational": 1968,
      "▁French": 1969,
      "let": 1970,
      "▁second": 1971,
      "▁book": 1972,
      "ives": 1973,
      "▁February": 1974,
      "▁fe": 1975,
      "▁Canad": 1976,
      "▁10": 1977,
      "▁President": 1978,
      "▁lead": 1979,
      "▁dr": 1980,
      "▁Europe": 1981,
      "▁through": 1982,
      ".\n\nR": 1983,
      "\nC": 1984,
      "\nM": 1985,
      "oss": 1986,
      "ung": 1987,
      "▁med": 1988,
      "||4": 1989,
      "▁child": 1990,
      "▁region": 1991,
      "▁Part": 1992,
      "com": 1993,
      "thern": 1994,
      "ious": 1995,
      "▁ne": 1996,
      "▁main": 1997,
      "▁small": 1998,
      "ed.": 1999,
      "ilm": 2000,
      ".S.": 2001,
      "rid": 2002,
      "-s": 2003,
      "ines": 2004,
      "▁Or": 2005,
      "cient": 2006,
      "ced": 2007,
      "▁make": 2008,
      "▁same": 2009,
      "▁websites\n\n": 2010,
      "gest": 2011,
      ".\n\nP": 2012,
      "urg": 2013,
      "cc": 2014,
      "reen": 2015,
      "▁West": 2016,
      "▁Af": 2017,
      "▁age": 2018,
      "▁member": 2019,
      "▁Pl": 2020,
      "▁former": 2021,
      "ull": 2022,
      "ze": 2023,
      "▁care": 2024,
      "ative": 2025,
      "▁mat": 2026,
      "▁kill": 2027,
      "▁sub": 2028,
      "▁number": 2029,
      "▁2020": 2030,
      "ret": 2031,
      "ural": 2032,
      "rand": 2033,
      "▁Se": 2034,
      "omen": 2035,
      "iforn": 2036,
      "lp": 2037,
      "▁loc": 2038,
      "▁am": 2039,
      "▁Be": 2040,
      "▁ret": 2041,
      "erv": 2042,
      "ise": 2043,
      "▁prov": 2044,
      "▁(199": 2045,
      "▁under": 2046,
      "▁four": 2047,
      "ents": 2048,
      "ator": 2049,
      "sp": 2050,
      "\nA": 2051,
      "▁national": 2052,
      "9,": 2053,
      "yl": 2054,
      "ino": 2055,
      "▁There": 2056,
      "▁def": 2057,
      "▁well": 2058,
      "▁His": 2059,
      "▁air": 2060,
      "▁often": 2061,
      "ography": 2062,
      "▁Californ": 2063,
      "fore": 2064,
      "▁use": 2065,
      "▁later": 2066,
      "omet": 2067,
      "▁Mus": 2068,
      "eng": 2069,
      "▁no": 2070,
      "▁Gu": 2071,
      "ries": 2072,
      "▁All": 2073,
      "▁being": 2074,
      "yn": 2075,
      "rest": 2076,
      "▁mod": 2077,
      "ble": 2078,
      "▁department": 2079,
      "ing.": 2080,
      "\",": 2081,
      ".\n\nM": 2082,
      "ollow": 2083,
      "▁bel": 2084,
      "▁cons": 2085,
      "▁Geor": 2086,
      "▁langu": 2087,
      "▁produc": 2088,
      "196": 2089,
      "cent": 2090,
      "iew": 2091,
      "▁met": 2092,
      "akes": 2093,
      "▁2010": 2094,
      "▁band": 2095,
      "fess": 2096,
      "▁system": 2097,
      "▁did": 2098,
      "illion": 2099,
      "▁Russ": 2100,
      "▁municipal": 2101,
      "▁old": 2102,
      "▁back": 2103,
      "eneral": 2104,
      "▁Her": 2105,
      "ield": 2106,
      "ars": 2107,
      "▁record": 2108,
      "▁gu": 2109,
      "\".": 2110,
      "▁Christ": 2111,
      ".\n\nT": 2112,
      "▁named": 2113,
      "▁Bar": 2114,
      "ek": 2115,
      "▁game": 2116,
      "Death": 2117,
      "▁Ab": 2118,
      ".\n\nB": 2119,
      "▁area": 2120,
      "▁Wh": 2121,
      "isc": 2122,
      "▁par": 2123,
      "aur": 2124,
      "▁pages": 2125,
      "▁England": 2126,
      "▁ty": 2127,
      "dom": 2128,
      "▁ed": 2129,
      "ourn": 2130,
      "the": 2131,
      "ular": 2132,
      "▁before": 2133,
      "▁Cent": 2134,
      "▁north": 2135,
      "ject": 2136,
      "ific": 2137,
      "ers,": 2138,
      "▁near": 2139,
      "▁En": 2140,
      "▁Te": 2141,
      "▁Ang": 2142,
      "▁Will": 2143,
      "▁cr": 2144,
      "▁U.S.": 2145,
      "an,": 2146,
      "▁started": 2147,
      "▁own": 2148,
      "▁Minist": 2149,
      "cy": 2150,
      "▁rem": 2151,
      "velop": 2152,
      "▁law": 2153,
      "ald": 2154,
      "o.": 2155,
      "elf": 2156,
      "▁said": 2157,
      "▁any": 2158,
      "It": 2159,
      "▁2019": 2160,
      "▁Am": 2161,
      "▁since": 2162,
      "owever": 2163,
      "▁Har": 2164,
      "▁bas": 2165,
      "ating": 2166,
      "alk": 2167,
      "▁County": 2168,
      "▁bro": 2169,
      "amb": 2170,
      "elated": 2171,
      "▁Lond": 2172,
      "ets": 2173,
      "af": 2174,
      "▁war": 2175,
      ".\n\nOther": 2176,
      "erg": 2177,
      "ica": 2178,
      "▁population": 2179,
      "stit": 2180,
      "ology": 2181,
      "ted": 2182,
      "▁po": 2183,
      "▁place": 2184,
      "ird": 2185,
      "▁against": 2186,
      "lymp": 2187,
      "▁help": 2188,
      "ats": 2189,
      "its": 2190,
      "ove": 2191,
      "▁charact": 2192,
      "en,": 2193,
      "▁follow": 2194,
      ".\n\nReferences\n\n19": 2195,
      "▁best": 2196,
      "▁season": 2197,
      "▁government": 2198,
      "ed,": 2199,
      "▁inter": 2200,
      "▁games": 2201,
      "▁based": 2202,
      "▁12": 2203,
      "4)\n": 2204,
      "con": 2205,
      "▁these": 2206,
      "ature": 2207,
      "▁player": 2208,
      "▁rep": 2209,
      "5)\n": 2210,
      "ions": 2211,
      "ether": 2212,
      "▁191": 2213,
      "▁Roman": 2214,
      "▁sur": 2215,
      "aking": 2216,
      "colspan=\"": 2217,
      "ants": 2218,
      "▁land": 2219,
      "Deaths": 2220,
      "▁mil": 2221,
      "tt": 2222,
      "colspan=\"2\"|": 2223,
      "▁14": 2224,
      "\nThe": 2225,
      "2)\n": 2226,
      "||colspan=\"2\"|": 2227,
      "ists\n": 2228,
      "▁word": 2229,
      "▁ever": 2230,
      "||colspan=\"2\"|-": 2231,
      "▁ent": 2232,
      "▁around": 2233,
      "▁Char": 2234,
      "▁El": 2235,
      "▁dec": 2236,
      "▁Air": 2237,
      "▁trans": 2238,
      "ajor": 2239,
      "gram": 2240,
      "▁water": 2241,
      "▁district": 2242,
      "7)\n": 2243,
      "▁set": 2244,
      "▁could": 2245,
      "▁stat": 2246,
      "▁life": 2247,
      "▁And": 2248,
      "▁sever": 2249,
      "\n|-\n|199": 2250,
      "▁Nor": 2251,
      "ampionship": 2252,
      "ctors": 2253,
      "alt": 2254,
      "▁website": 2255,
      "3)\n": 2256,
      "▁anim": 2257,
      "▁Re": 2258,
      "▁country": 2259,
      "att": 2260,
      "6)\n": 2261,
      "urch": 2262,
      "▁both": 2263,
      "istor": 2264,
      "ilt": 2265,
      "▁appear": 2266,
      "▁13": 2267,
      "ington": 2268,
      "▁including": 2269,
      "▁organ": 2270,
      "▁Indian": 2271,
      "▁Pol": 2272,
      "ham": 2273,
      "▁event": 2274,
      "▁&": 2275,
      "uck": 2276,
      "▁school": 2277,
      "in,": 2278,
      "fl": 2279,
      "-l": 2280,
      "ison": 2281,
      "▁usually": 2282,
      "▁(201": 2283,
      "ange": 2284,
      "▁import": 2285,
      "▁examp": 2286,
      "cer": 2287,
      "rip": 2288,
      "▁11": 2289,
      "rem": 2290,
      "▁US": 2291,
      "▁Olymp": 2292,
      "▁players\n": 2293,
      "People": 2294,
      "▁Em": 2295,
      "▁sk": 2296,
      "▁County,": 2297,
      "ony": 2298,
      "umb": 2299,
      "Ch": 2300,
      "▁Japanese": 2301,
      "▁Amer": 2302,
      "▁\nThe": 2303,
      "▁Party": 2304,
      "ers.": 2305,
      "▁each": 2306,
      "▁caus": 2307,
      "ae": 2308,
      "aul": 2309,
      "▁comed": 2310,
      "▁orig": 2311,
      "Eng": 2312,
      "oon": 2313,
      "iness": 2314,
      "On": 2315,
      "uth": 2316,
      "for": 2317,
      "fficial": 2318,
      "ger": 2319,
      "owever,": 2320,
      "uman": 2321,
      "▁inv": 2322,
      "▁sim": 2323,
      "▁compan": 2324,
      "ideo": 2325,
      "▁day": 2326,
      "▁high": 2327,
      "\nB": 2328,
      "▁career": 2329,
      "▁sl": 2330,
      "els": 2331,
      "▁right": 2332,
      "2.": 2333,
      "|-\n|": 2334,
      "8)\n": 2335,
      "zer": 2336,
      "▁run": 2337,
      "ole": 2338,
      "▁bus": 2339,
      "▁Cup": 2340,
      "▁county": 2341,
      "▁build": 2342,
      "▁develop": 2343,
      "St": 2344,
      ".\n\nE": 2345,
      "int": 2346,
      "▁though": 2347,
      "▁London": 2348,
      "▁profess": 2349,
      "writ": 2350,
      "▁family": 2351,
      "du": 2352,
      "urrent": 2353,
      "▁last": 2354,
      "omin": 2355,
      "▁south": 2356,
      "by": 2357,
      "ful": 2358,
      "aut": 2359,
      "augh": 2360,
      "ney": 2361,
      "ross": 2362,
      "▁compos": 2363,
      "▁children": 2364,
      "▁Bra": 2365,
      "▁several": 2366,
      "us,": 2367,
      "▁serv": 2368,
      "▁add": 2369,
      "1)\n": 2370,
      "▁2017": 2371,
      "▁X": 2372,
      "▁Italian": 2373,
      "\n\nReferences\n\nOther": 2374,
      ":\n": 2375,
      "▁lived": 2376,
      "ized": 2377,
      "oard": 2378,
      "▁Mc": 2379,
      "▁million": 2380,
      "▁After": 2381,
      "▁ob": 2382,
      "▁attack": 2383,
      "hes": 2384,
      "▁Riv": 2385,
      "▁Kingdom": 2386,
      "ille": 2387,
      "▁winn": 2388,
      "▁directed": 2389,
      "▁190": 2390,
      "▁William": 2391,
      "▁began": 2392,
      "▁oper": 2393,
      "▁Mich": 2394,
      "▁inst": 2395,
      "▁important": 2396,
      "▁singer": 2397,
      "▁if": 2398,
      "▁Lou": 2399,
      "ows": 2400,
      "ible": 2401,
      "||5": 2402,
      "▁common": 2403,
      "▁(198": 2404,
      "▁sign": 2405,
      "arn": 2406,
      "ling": 2407,
      "▁term": 2408,
      "rama": 2409,
      "▁program": 2410,
      "▁while": 2411,
      ".\n\nF": 2412,
      "English": 2413,
      "▁list": 2414,
      ").\n": 2415,
      "▁'": 2416,
      "▁(A": 2417,
      "ains": 2418,
      "e-": 2419,
      "rown": 2420,
      "ommun": 2421,
      "rian": 2422,
      "soci": 2423,
      "istan": 2424,
      "9)\n": 2425,
      "lex": 2426,
      "r.": 2427,
      "▁1,": 2428,
      "attle": 2429,
      "▁west": 2430,
      "olic": 2431,
      "ody": 2432,
      "▁large": 2433,
      "cial": 2434,
      "ockey": 2435,
      "▁created": 2436,
      "eder": 2437,
      "▁disc": 2438,
      "ivision": 2439,
      "▁way": 2440,
      "gin": 2441,
      "▁municipality": 2442,
      "/0": 2443,
      "is,": 2444,
      "ode": 2445,
      "▁official": 2446,
      "10": 2447,
      "rew": 2448,
      "▁Me": 2449,
      "-b": 2450,
      "▁Ex": 2451,
      "itary": 2452,
      "aster": 2453,
      "▁(S": 2454,
      "▁These": 2455,
      "▁head": 2456,
      "▁now": 2457,
      "▁chang": 2458,
      "ipp": 2459,
      "▁Minister": 2460,
      "▁club": 2461,
      "adem": 2462,
      "▁produ": 2463,
      "▁em": 2464,
      "s\n\n": 2465,
      "▁popular": 2466,
      "▁live": 2467,
      "▁2014": 2468,
      "es\n": 2469,
      "omb": 2470,
      "▁2018": 2471,
      "▁int": 2472,
      "emoc": 2473,
      "▁rock": 2474,
      "1.": 2475,
      ":\n\n": 2476,
      "||||||||": 2477,
      "idd": 2478,
      "iqu": 2479,
      "195": 2480,
      "ele": 2481,
      "\n\n|-\n|": 2482,
      "▁suc": 2483,
      "▁Phil": 2484,
      "ara": 2485,
      "ster": 2486,
      "arm": 2487,
      "▁(M": 2488,
      "▁Mon": 2489,
      "cept": 2490,
      "embers": 2491,
      "panish": 2492,
      "▁min": 2493,
      "ute": 2494,
      "▁musician": 2495,
      "..": 2496,
      "app": 2497,
      "▁Pet": 2498,
      "▁get": 2499,
      "Un": 2500,
      "5.": 2501,
      "▁acc": 2502,
      "ummer": 2503,
      "▁Bro": 2504,
      "ivil": 2505,
      "17": 2506,
      "▁San": 2507,
      "▁capital": 2508,
      "0.": 2509,
      "3.": 2510,
      "side": 2511,
      "▁\n\nThe": 2512,
      "▁early": 2513,
      "▁design": 2514,
      "▁births\n20": 2515,
      "▁Med": 2516,
      "west": 2517,
      "rol": 2518,
      "▁open": 2519,
      ".\n\nD": 2520,
      "iven": 2521,
      "▁Bel": 2522,
      "▁Swed": 2523,
      ".\n\nG": 2524,
      "yd": 2525,
      "-A": 2526,
      "▁director": 2527,
      "ation,": 2528,
      "oint": 2529,
      "▁Some": 2530,
      "fect": 2531,
      "▁leg": 2532,
      "▁Island": 2533,
      "ourt": 2534,
      "▁include": 2535,
      "▁Park": 2536,
      "▁means": 2537,
      "▁House": 2538,
      "▁Dav": 2539,
      "▁vers": 2540,
      "▁movies": 2541,
      "▁Per": 2542,
      "ene": 2543,
      "ford": 2544,
      "ring": 2545,
      "olution": 2546,
      "ask": 2547,
      "▁species": 2548,
      "chn": 2549,
      "ommunes": 2550,
      "194": 2551,
      "oice": 2552,
      "▁elect": 2553,
      "bert": 2554,
      "▁soc": 2555,
      "ovies": 2556,
      "▁much": 2557,
      "oph": 2558,
      "▁Sec": 2559,
      "▁189": 2560,
      "▁countries": 2561,
      "ean": 2562,
      "ago": 2563,
      "ues": 2564,
      "▁When": 2565,
      "▁Germany": 2566,
      "ama": 2567,
      "||1||0": 2568,
      "▁what": 2569,
      "ple": 2570,
      "ris": 2571,
      "ones": 2572,
      "ke": 2573,
      "ometimes": 2574,
      "iod": 2575,
      "▁Championship": 2576,
      "ired": 2577,
      "ief": 2578,
      "▁ann": 2579,
      "▁Tex": 2580,
      "▁married": 2581,
      "▁Gl": 2582,
      "aces": 2583,
      "▁One": 2584,
      "conom": 2585,
      "▁inc": 2586,
      "▁star": 2587,
      "▁written": 2588,
      "ided": 2589,
      "▁births\n201": 2590,
      "▁Angel": 2591,
      "▁down": 2592,
      "▁ext": 2593,
      "▁home": 2594,
      "ation.": 2595,
      "2000": 2596,
      "▁election": 2597,
      "▁State": 2598,
      "▁ep": 2599,
      "▁left": 2600,
      "mit": 2601,
      "rote": 2602,
      "▁pass": 2603,
      ".\n\nL": 2604,
      "▁La": 2605,
      "▁Sup": 2606,
      "▁fin": 2607,
      "▁film": 2608,
      "6.": 2609,
      "agn": 2610,
      "rog": 2611,
      "▁colle": 2612,
      "nd": 2613,
      "▁Sch": 2614,
      "itar": 2615,
      "▁tr": 2616,
      "▁Chin": 2617,
      "van": 2618,
      "ush": 2619,
      "▁Saint": 2620,
      "▁still": 2621,
      "epend": 2622,
      "▁major": 2623,
      "▁famous": 2624,
      "▁eng": 2625,
      "ansas": 2626,
      "blem": 2627,
      "riend": 2628,
      "0)\n": 2629,
      "ael": 2630,
      "▁River": 2631,
      "inc": 2632,
      "emocrat": 2633,
      "▁Miss": 2634,
      "▁power": 2635,
      "uff": 2636,
      "▁president": 2637,
      "▁built": 2638,
      "▁short": 2639,
      "▁every": 2640,
      "▁(197": 2641,
      "ales": 2642,
      "ior": 2643,
      "berg": 2644,
      "▁Qu": 2645,
      "zil": 2646,
      "▁current": 2647,
      "overnor": 2648,
      "▁activ": 2649,
      "burg": 2650,
      "oung": 2651,
      "rain": 2652,
      "-M": 2653,
      "▁tim": 2654,
      "▁language": 2655,
      "ports": 2656,
      "▁actors\nAmerican": 2657,
      "▁However,": 2658,
      "▁island": 2659,
      "istics": 2660,
      "▁(C": 2661,
      "▁Sen": 2662,
      "istrict": 2663,
      "\nW": 2664,
      "view": 2665,
      "▁var": 2666,
      "▁Flor": 2667,
      "▁video": 2668,
      "arch": 2669,
      "▁Tr": 2670,
      "▁how": 2671,
      "▁Republic": 2672,
      "▁largest": 2673,
      "▁drama": 2674,
      "▁(2": 2675,
      "▁Texas": 2676,
      "▁good": 2677,
      "osp": 2678,
      "orp": 2679,
      "▁does": 2680,
      "▁East": 2681,
      "▁vill": 2682,
      "reek": 2683,
      "▁sold": 2684,
      "alth": 2685,
      "-S": 2686,
      "▁rece": 2687,
      "▁join": 2688,
      "9.": 2689,
      "4.": 2690,
      "▁father": 2691,
      "hel": 2692,
      "▁Rober": 2693,
      "▁another": 2694,
      "▁Ear": 2695,
      "▁ref": 2696,
      "osition": 2697,
      "▁2007": 2698,
      "par": 2699,
      "of": 2700,
      "▁publ": 2701,
      "led": 2702,
      ".\n\nRelated": 2703,
      "ffect": 2704,
      "193": 2705,
      "▁Ac": 2706,
      "iter": 2707,
      "▁Ser": 2708,
      "▁International": 2709,
      "ym": 2710,
      "▁cens": 2711,
      "astern": 2712,
      "||6": 2713,
      "ane": 2714,
      "▁Hol": 2715,
      "uthor": 2716,
      "▁went": 2717,
      "rong": 2718,
      "▁become": 2719,
      "lin": 2720,
      "cience": 2721,
      "▁mean": 2722,
      "▁award": 2723,
      "▁Mex": 2724,
      "▁2008": 2725,
      "▁dise": 2726,
      "▁James": 2727,
      "▁big": 2728,
      "▁wrote": 2729,
      "ana": 2730,
      "▁took": 2731,
      "▁public": 2732,
      "▁Paul": 2733,
      "atural": 2734,
      "▁Chic": 2735,
      "▁manag": 2736,
      "▁history": 2737,
      "▁Ag": 2738,
      "▁women": 2739,
      "▁bre": 2740,
      "▁Br": 2741,
      "▁even": 2742,
      "▁ass": 2743,
      "gy": 2744,
      "▁School": 2745,
      "▁Soc": 2746,
      "▁Pri": 2747,
      "▁need": 2748,
      "ract": 2749,
      "uel": 2750,
      "▁moved": 2751,
      "▁Sm": 2752,
      "ches": 2753,
      "\nT": 2754,
      "▁problem": 2755,
      "▁tit": 2756,
      "▁century": 2757,
      "▁Port": 2758,
      "▁188": 2759,
      "▁Kore": 2760,
      "▁Canadian": 2761,
      "▁deaths": 2762,
      "▁2021": 2763,
      "▁want": 2764,
      "▁class": 2765,
      "ata": 2766,
      "▁phys": 2767,
      "||rowspan=\"2\"|": 2768,
      "▁came": 2769,
      "▁given": 2770,
      "al,": 2771,
      "▁comedy": 2772,
      "▁Vir": 2773,
      "ounc": 2774,
      "▁States.": 2775,
      "▁histor": 2776,
      "▁Union": 2777,
      "▁contin": 2778,
      "▁pol": 2779,
      "day": 2780,
      "▁Rich": 2781,
      "▁la": 2782,
      "ext": 2783,
      "yr": 2784,
      "▁km": 2785,
      "▁held": 2786,
      "▁gen": 2787,
      "▁Co": 2788,
      "▁()": 2789,
      "’s": 2790,
      "▁River\n": 2791,
      "▁Louis": 2792,
      "over": 2793,
      "▁present": 2794,
      "raft": 2795,
      "▁Val": 2796,
      "esh": 2797,
      "rab": 2798,
      "50": 2799,
      "▁=": 2800,
      "▁Its": 2801,
      "▁rad": 2802,
      "ius": 2803,
      "▁represent": 2804,
      "▁186": 2805,
      "▁just": 2806,
      "▁members": 2807,
      "▁Mor": 2808,
      "ij": 2809,
      "ty": 2810,
      "ised": 2811,
      ".\n\nW": 2812,
      "▁Kh": 2813,
      "▁Ill": 2814,
      "ournal": 2815,
      "▁George": 2816,
      "▁professional": 2817,
      "▁Russian": 2818,
      "\n\nC": 2819,
      "work": 2820,
      "▁2016": 2821,
      "icians": 2822,
      "rick": 2823,
      "ner": 2824,
      "▁Official": 2825,
      "ist,": 2826,
      "▁result": 2827,
      "▁Colle": 2828,
      "ler": 2829,
      "▁Democrat": 2830,
      "▁2015": 2831,
      "▁occ": 2832,
      "▁third": 2833,
      "ico": 2834,
      "yle": 2835,
      "▁stage": 2836,
      "▁cult": 2837,
      "-p": 2838,
      "irl": 2839,
      "▁Jack": 2840,
      "▁business": 2841,
      "outhern": 2842,
      "▁political": 2843,
      "▁top": 2844,
      "▁six": 2845,
      "▁nov": 2846,
      "▁desc": 2847,
      "▁(N": 2848,
      "\nL": 2849,
      "16": 2850,
      "oe": 2851,
      "▁We": 2852,
      "ien": 2853,
      "▁Pak": 2854,
      "▁living": 2855,
      "▁Jos": 2856,
      "▁Olympic": 2857,
      "▁my": 2858,
      "▁Rec": 2859,
      "rican": 2860,
      "||0\n|-\n|200": 2861,
      "sc": 2862,
      "▁along": 2863,
      "▁Australian": 2864,
      "2)": 2865,
      "aced": 2866,
      "ility": 2867,
      "▁Los": 2868,
      "▁period": 2869,
      "ead": 2870,
      "▁military": 2871,
      "▁aged": 2872,
      "▁(3": 2873,
      "▁(18": 2874,
      "▁support": 2875,
      "15": 2876,
      "▁Red": 2877,
      "ashington": 2878,
      "tain": 2879,
      "ival": 2880,
      "▁province": 2881,
      "▁human": 2882,
      "ope": 2883,
      "ruct": 2884,
      "osed": 2885,
      "na": 2886,
      "utch": 2887,
      "▁single": 2888,
      "▁son": 2889,
      "aving": 2890,
      "i.": 2891,
      "ctions": 2892,
      "reg": 2893,
      "▁(s": 2894,
      "ides": 2895,
      "▁rul": 2896,
      "duc": 2897,
      "▁seat": 2898,
      "▁tem": 2899,
      "▁Mont": 2900,
      "ument": 2901,
      "ilar": 2902,
      "▁ev": 2903,
      "▁served": 2904,
      "▁using": 2905,
      "Movies": 2906,
      "▁Pal": 2907,
      "▁author": 2908,
      "▁worked": 2909,
      "eum": 2910,
      "▁compet": 2911,
      "▁expl": 2912,
      "▁Christian": 2913,
      "▁25": 2914,
      "▁look": 2915,
      "▁Gr": 2916,
      "▁,": 2917,
      "uter": 2918,
      "\nR": 2919,
      "lant": 2920,
      "▁five": 2921,
      "urk": 2922,
      "▁month": 2923,
      "▁2011": 2924,
      "en.": 2925,
      "▁arr": 2926,
      "▁fem": 2927,
      "amm": 2928,
      "▁Cath": 2929,
      "ission": 2930,
      "▁heart": 2931,
      "▁Robert": 2932,
      "▁trad": 2933,
      "▁2,": 2934,
      "▁success": 2935,
      "▁few": 2936,
      "▁30": 2937,
      "▁exp": 2938,
      "as,": 2939,
      "ump": 2940,
      ".\n\nHistory": 2941,
      "▁187": 2942,
      "co": 2943,
      "ies,": 2944,
      "sk": 2945,
      "▁actres": 2946,
      "ittle": 2947,
      "▁role": 2948,
      "▁(w": 2949,
      "▁published": 2950,
      "ically": 2951,
      "uted": 2952,
      "\nF": 2953,
      "or,": 2954,
      "▁food": 2955,
      "read": 2956,
      "▁Prime": 2957,
      "▁becom": 2958,
      "ured": 2959,
      "ality": 2960,
      "ux": 2961,
      "▁Spanish": 2962,
      "▁.": 2963,
      "▁tog": 2964,
      "▁Pre": 2965,
      "▁California": 2966,
      "||0||0||0||0": 2967,
      "▁100": 2968,
      ".\n\nN": 2969,
      "\nH": 2970,
      "▁European": 2971,
      "ouncil": 2972,
      "▁together": 2973,
      "▁sometimes": 2974,
      "iction": 2975,
      "▁special": 2976,
      "ves": 2977,
      "▁Ne": 2978,
      "▁camp": 2979,
      "arian": 2980,
      "▁lot": 2981,
      "▁light": 2982,
      "▁order": 2983,
      "▁Art": 2984,
      "▁great": 2985,
      "▁ide": 2986,
      "▁following": 2987,
      "-P": 2988,
      "▁epis": 2989,
      "ies.": 2990,
      "▁Georg": 2991,
      "▁Reg": 2992,
      "li": 2993,
      "▁writer": 2994,
      "▁Hen": 2995,
      "▁return": 2996,
      "▁Washington": 2997,
      "ices": 2998,
      "▁High": 2999,
      "▁red": 3000,
      "▁Lat": 3001,
      "▁deb": 3002,
      "ala": 3003,
      "▁equ": 3004,
      "ountain": 3005,
      "12": 3006,
      "ena": 3007,
      "▁Dan": 3008,
      "mpire": 3009,
      "▁Dep": 3010,
      "▁sw": 3011,
      "▁caused": 3012,
      "\nG": 3013,
      "▁David": 3014,
      "3)": 3015,
      "▁founded": 3016,
      "-B": 3017,
      "▁rest": 3018,
      "▁Afric": 3019,
      "▁Day": 3020,
      "▁(P": 3021,
      "-C": 3022,
      "7.": 3023,
      "irc": 3024,
      "▁2000": 3025,
      "▁take": 3026,
      "avy": 3027,
      "▁2006": 3028,
      "▁Black": 3029,
      "▁Illino": 3030,
      "▁Brazil": 3031,
      "lo": 3032,
      "▁actress": 3033,
      "▁Roy": 3034,
      "itzer": 3035,
      "▁hig": 3036,
      "▁Scott": 3037,
      "▁div": 3038,
      "sociation": 3039,
      "▁ter": 3040,
      "eal": 3041,
      "▁put": 3042,
      "▁perform": 3043,
      "rael": 3044,
      "minist": 3045,
      "▁guitar": 3046,
      "▁engine": 3047,
      "▁es": 3048,
      "▁belie": 3049,
      "▁Ber": 3050,
      "\n\nReferences": 3051,
      "▁stop": 3052,
      "30": 3053,
      "▁bi": 3054,
      "▁Que": 3055,
      "||7": 3056,
      "BC": 3057,
      "▁But": 3058,
      "▁Virgin": 3059,
      "▁Mad": 3060,
      "▁Best": 3061,
      "▁Cap": 3062,
      "▁killed": 3063,
      "▁type": 3064,
      "▁version": 3065,
      "▁Don": 3066,
      "▁character": 3067,
      "ander": 3068,
      "▁\n\nC": 3069,
      "▁got": 3070,
      "▁men": 3071,
      "▁typ": 3072,
      "med": 3073,
      "4)": 3074,
      "▁You": 3075,
      "alf": 3076,
      "▁general": 3077,
      "▁Hall": 3078,
      "▁movies\nAmerican": 3079,
      "men": 3080,
      "▁sent": 3081,
      "oul": 3082,
      "▁chem": 3083,
      "▁voice": 3084,
      "erence": 3085,
      "oviet": 3086,
      "▁thought": 3087,
      "unn": 3088,
      "▁Carol": 3089,
      "▁fail": 3090,
      "rov": 3091,
      "▁arch": 3092,
      "ridge": 3093,
      "▁novel": 3094,
      "▁Great": 3095,
      "eep": 3096,
      "\n|}": 3097,
      "▁stand": 3098,
      "▁Thom": 3099,
      "▁scient": 3100,
      "shire": 3101,
      "8.": 3102,
      "▁Tw": 3103,
      "me": 3104,
      "▁Mal": 3105,
      "\nN": 3106,
      "▁People": 3107,
      "▁commune.": 3108,
      "▁Florid": 3109,
      "ropical": 3110,
      "▁body": 3111,
      "▁Church": 3112,
      "▁Ro": 3113,
      "▁sol": 3114,
      "▁next": 3115,
      "iddle": 3116,
      "▁prote": 3117,
      "▁(196": 3118,
      "lic": 3119,
      "iy": 3120,
      "▁parts": 3121,
      "▁groups": 3122,
      "22": 3123,
      "▁America": 3124,
      "▁vot": 3125,
      ".\"": 3126,
      "urb": 3127,
      "▁company": 3128,
      "▁vol": 3129,
      "ording": 3130,
      "portsp": 3131,
      "\nD": 3132,
      "▁|": 3133,
      "stitution": 3134,
      "▁Catholic": 3135,
      "iol": 3136,
      "\n\nS": 3137,
      "▁times": 3138,
      "ream": 3139,
      "14": 3140,
      "▁statistics": 3141,
      "▁repl": 3142,
      "▁plays": 3143,
      "13": 3144,
      "▁find": 3145,
      "▁mother": 3146,
      "ored": 3147,
      "▁hand": 3148,
      "itt": 3149,
      "▁Prov": 3150,
      "▁centur": 3151,
      "peror": 3152,
      "||2||0": 3153,
      "iety": 3154,
      "▁you": 3155,
      "▁gener": 3156,
      "portspeople": 3157,
      "▁deaths\nDeaths": 3158,
      "▁Sl": 3159,
      "▁India": 3160,
      "\n\nOther": 3161,
      "▁Charles": 3162,
      "Actors": 3163,
      "ID": 3164,
      "▁level": 3165,
      "▁Sal": 3166,
      "FA": 3167,
      "▁Mart": 3168,
      "▁imp": 3169,
      "ified": 3170,
      "i-": 3171,
      "▁God": 3172,
      "hest": 3173,
      "▁Mil": 3174,
      "\n\nR": 3175,
      "▁poet": 3176,
      "▁2013": 3177,
      "▁My": 3178,
      "▁Michael": 3179,
      "▁Mary": 3180,
      "▁District": 3181,
      "ula": 3182,
      "▁things": 3183,
      "▁econom": 3184,
      "▁announ": 3185,
      "1)": 3186,
      "▁relig": 3187,
      "▁24": 3188,
      "▁cancer": 3189,
      "▁mark": 3190,
      "▁val": 3191,
      "▁making": 3192,
      "ertain": 3193,
      "▁Illinois": 3194,
      "▁(J": 3195,
      "ization": 3196,
      "most": 3197,
      "▁friend": 3198,
      "ness": 3199,
      "off": 3200,
      "▁politician.": 3201,
      "▁Many": 3202,
      "▁2005": 3203,
      ".\n\nOn": 3204,
      "pecial": 3205,
      "right": 3206,
      "\n\nA": 3207,
      "▁Richard": 3208,
      "ay,": 3209,
      "tal": 3210,
      "▁2009": 3211,
      "▁2012": 3212,
      "ademy": 3213,
      "uke": 3214,
      "▁players": 3215,
      "II": 3216,
      "▁read": 3217,
      "▁similar": 3218,
      "▁Sam": 3219,
      "Th": 3220,
      "▁cell": 3221,
      "▁Pakistan": 3222,
      "ration": 3223,
      "▁Democratic": 3224,
      "▁Spain": 3225,
      "▁paint": 3226,
      "s.\n": 3227,
      "▁allow": 3228,
      "atch": 3229,
      "▁crit": 3230,
      ".\n\nHe": 3231,
      "▁educ": 3232,
      "▁Alex": 3233,
      "▁inf": 3234,
      "▁Grand": 3235,
      "earch": 3236,
      "ize": 3237,
      "'t": 3238,
      "ases": 3239,
      "ude": 3240,
      "\nJ": 3241,
      "▁av": 3242,
      "itional": 3243,
      "mb": 3244,
      "line": 3245,
      "▁grow": 3246,
      "unt": 3247,
      "▁vis": 3248,
      "unk": 3249,
      "-de-": 3250,
      "▁village": 3251,
      "son,": 3252,
      "▁line": 3253,
      "▁makes": 3254,
      "▁feat": 3255,
      "▁received": 3256,
      "▁turn": 3257,
      "▁host": 3258,
      "sy": 3259,
      "▁Pat": 3260,
      "▁Governor": 3261,
      "gian": 3262,
      "▁journal": 3263,
      "▁disease": 3264,
      "▁story": 3265,
      "▁Bas": 3266,
      "▁(B": 3267,
      "itzerland": 3268,
      "ges": 3269,
      "▁station": 3270,
      "6)": 3271,
      "▁Kansas": 3272,
      "ued": 3273,
      "ma": 3274,
      "▁\"The": 3275,
      "▁Most": 3276,
      "||8": 3277,
      "▁Sim": 3278,
      "lear": 3279,
      "any": 3280,
      "iber": 3281,
      "ror": 3282,
      "▁less": 3283,
      "s:": 3284,
      "i\n": 3285,
      "etwork": 3286,
      "olk": 3287,
      "▁modern": 3288,
      "▁phil": 3289,
      "though": 3290,
      "▁Mass": 3291,
      "▁Ben": 3292,
      "▁king": 3293,
      "▁\n\nS": 3294,
      "He": 3295,
      "▁gl": 3296,
      "▁hockey": 3297,
      "▁Greek": 3298,
      "inter": 3299,
      "/9": 3300,
      "▁those": 3301,
      "▁politician,": 3302,
      "eph": 3303,
      "▁2001": 3304,
      "▁ice": 3305,
      "▁Empire": 3306,
      "▁Res": 3307,
      "ist.": 3308,
      "fecture": 3309,
      "▁3,": 3310,
      "▁located": 3311,
      "aken": 3312,
      "7)": 3313,
      "aim": 3314,
      "▁—": 3315,
      "▁see": 3316,
      "▁St.": 3317,
      "liam": 3318,
      "▁pages\n": 3319,
      "ained": 3320,
      "udd": 3321,
      "hemat": 3322,
      "cast": 3323,
      "▁21": 3324,
      "▁black": 3325,
      "▁Ter": 3326,
      "olf": 3327,
      "aff": 3328,
      "overed": 3329,
      "-19": 3330,
      "▁kind": 3331,
      "ly,": 3332,
      "▁aut": 3333,
      "▁should": 3334,
      "▁Switzerland": 3335,
      "▁Jew": 3336,
      "▁control": 3337,
      "▁Frank": 3338,
      "▁consid": 3339,
      "▁General": 3340,
      "▁\"S": 3341,
      "ground": 3342,
      "▁\nA": 3343,
      "ency": 3344,
      "▁conf": 3345,
      "lam": 3346,
      "reet": 3347,
      "▁fight": 3348,
      "▁Soviet": 3349,
      "liament": 3350,
      "5)": 3351,
      "▁states": 3352,
      "▁say": 3353,
      "▁ant": 3354,
      "▁independ": 3355,
      "-R": 3356,
      "▁African": 3357,
      "▁money": 3358,
      "▁Chicago": 3359,
      "gypt": 3360,
      "iro": 3361,
      "▁east": 3362,
      "lim": 3363,
      "▁||": 3364,
      "urrican": 3365,
      "▁(R": 3366,
      "iron": 3367,
      "▁without": 3368,
      "aughter": 3369,
      "formation": 3370,
      "ient": 3371,
      "eh": 3372,
      "▁\n\nA": 3373,
      "▁Penn": 3374,
      "an.": 3375,
      "oz": 3376,
      "▁Cast": 3377,
      "▁Summer": 3378,
      "gent": 3379,
      "uz": 3380,
      "▁origin": 3381,
      "9)": 3382,
      "8)": 3383,
      "ee": 3384,
      "ories": 3385,
      "▁sex": 3386,
      "▁prom": 3387,
      "▁away": 3388,
      "▁describ": 3389,
      "ined": 3390,
      "▁house": 3391,
      "▁works": 3392,
      "urt": 3393,
      "▁strong": 3394,
      "▁Tom": 3395,
      "▁Bill": 3396,
      "ule": 3397,
      "▁river": 3398,
      "▁Franc": 3399,
      "▁Gold": 3400,
      "▁international": 3401,
      "tar": 3402,
      "aly": 3403,
      "ublican": 3404,
      "self": 3405,
      "ians": 3406,
      "▁commune": 3407,
      "▁places": 3408,
      "-f": 3409,
      "-cent": 3410,
      "▁example,": 3411,
      "40": 3412,
      "not": 3413,
      "▁\n\nM": 3414,
      "▁Chinese": 3415,
      "▁dest": 3416,
      "appen": 3417,
      "▁elected": 3418,
      "▁Sant": 3419,
      "ways": 3420,
      "▁Brit": 3421,
      "xt": 3422,
      "▁sit": 3423,
      "▁23": 3424,
      "▁point": 3425,
      "now": 3426,
      "▁formed": 3427,
      "▁plan": 3428,
      "-G": 3429,
      "▁Kar": 3430,
      "▁brother": 3431,
      "wood": 3432,
      "▁led": 3433,
      "▁Rev": 3434,
      "ano": 3435,
      "▁position": 3436,
      "▁fire": 3437,
      "eball": 3438,
      "▁BC": 3439,
      "▁2004": 3440,
      "rish": 3441,
      "era": 3442,
      "▁god": 3443,
      "▁Earth": 3444,
      "▁Israel": 3445,
      "▁TV": 3446,
      "▁must": 3447,
      "▁original": 3448,
      "▁22": 3449,
      "▁player.": 3450,
      "▁Cong": 3451,
      "▁diff": 3452,
      "-t": 3453,
      "▁struct": 3454,
      "\n|-\n|198": 3455,
      "▁Australia": 3456,
      "atives": 3457,
      "▁famil": 3458,
      "▁If": 3459,
      "▁del": 3460,
      "▁exper": 3461,
      "\nE": 3462,
      "▁:": 3463,
      "▁beg": 3464,
      "-L": 3465,
      "▁plant": 3466,
      "▁“": 3467,
      "▁sound": 3468,
      "▁185": 3469,
      "▁First": 3470,
      "▁Met": 3471,
      "riters": 3472,
      "▁poss": 3473,
      "▁resp": 3474,
      "▁Record": 3475,
      "▁pe": 3476,
      "lect": 3477,
      "rel": 3478,
      "▁nomin": 3479,
      "el,": 3480,
      "▁hard": 3481,
      "▁seen": 3482,
      "▁Sing": 3483,
      "▁bord": 3484,
      "▁Academy": 3485,
      "ended": 3486,
      "▁det": 3487,
      "▁CO": 3488,
      "ached": 3489,
      "▁Gra": 3490,
      "▁happen": 3491,
      "▁building": 3492,
      "lad": 3493,
      "ersey": 3494,
      "▁joined": 3495,
      "▁produced": 3496,
      "▁che": 3497,
      "▁think": 3498,
      "field": 3499,
      "▁defe": 3500,
      "pect": 3501,
      "raw": 3502,
      "▁Sk": 3503,
      "▁cant": 3504,
      "▁cities": 3505,
      "▁By": 3506,
      "▁natural": 3507,
      "▁Council": 3508,
      "▁Comm": 3509,
      "asc": 3510,
      "▁el": 3511,
      "▁style": 3512,
      "▁Go": 3513,
      "▁Henry": 3514,
      "▁pat": 3515,
      "▁\"B": 3516,
      "ylvan": 3517,
      "▁side": 3518,
      "▁beh": 3519,
      "J.": 3520,
      "▁due": 3521,
      "ictor": 3522,
      "ared": 3523,
      "ront": 3524,
      "▁week": 3525,
      "▁fun": 3526,
      "▁Americ": 3527,
      "▁total": 3528,
      "▁wrest": 3529,
      "▁cy": 3530,
      "▁Del": 3531,
      "▁Wal": 3532,
      "▁medal": 3533,
      "▁Peter": 3534,
      "▁time,": 3535,
      "icle": 3536,
      "▁$": 3537,
      "ental": 3538,
      "▁Royal": 3539,
      "s\nS": 3540,
      "▁local": 3541,
      "iga": 3542,
      "▁Turk": 3543,
      "iff": 3544,
      "▁songs": 3545,
      "▁Oh": 3546,
      "▁effect": 3547,
      "iers": 3548,
      "ators": 3549,
      "▁Che": 3550,
      "▁science": 3551,
      "osaur": 3552,
      ".\n\nCommunes": 3553,
      "orpor": 3554,
      "oo": 3555,
      "▁lost": 3556,
      "ched": 3557,
      "▁race": 3558,
      "▁Scot": 3559,
      "▁real": 3560,
      "▁comm": 3561,
      "ering": 3562,
      "▁late": 3563,
      "▁Star": 3564,
      "har": 3565,
      "▁gave": 3566,
      "oor": 3567,
      "ript": 3568,
      "▁movies\nMovies": 3569,
      "▁non": 3570,
      "lished": 3571,
      "ston": 3572,
      "▁cor": 3573,
      "▁includes": 3574,
      "▁26": 3575,
      "▁Republican": 3576,
      "▁(L": 3577,
      "▁mostly": 3578,
      "▁Prize": 3579,
      "▁Egypt": 3580,
      "▁title": 3581,
      "▁4,": 3582,
      "▁#": 3583,
      "eland": 3584,
      "gar": 3585,
      "▁site": 3586,
      "▁young": 3587,
      "▁announced": 3588,
      "reed": 3589,
      "etball": 3590,
      "▁Mer": 3591,
      "▁Mac": 3592,
      "▁tell": 3593,
      "||9": 3594,
      "ogn": 3595,
      "ww": 3596,
      "▁field": 3597,
      "▁social": 3598,
      "▁leader": 3599,
      "roy": 3600,
      "▁Arch": 3601,
      "enc": 3602,
      "▁civil": 3603,
      "▁mult": 3604,
      "\n\nThe": 3605,
      "opher": 3606,
      "▁change": 3607,
      "▁radio": 3608,
      "▁1990": 3609,
      "▁Green": 3610,
      "▁Ass": 3611,
      "flu": 3612,
      "▁lif": 3613,
      "bor": 3614,
      "rack": 3615,
      "board": 3616,
      "▁mag": 3617,
      "rey": 3618,
      "▁changed": 3619,
      ".\n\nIt": 3620,
      "ishop": 3621,
      "▁Dutch": 3622,
      "sylvan": 3623,
      "▁Year": 3624,
      "▁(F": 3625,
      "abit": 3626,
      "▁Act": 3627,
      "▁Rock": 3628,
      "anad": 3629,
      "▁hold": 3630,
      "ellow": 3631,
      "\n\nIn": 3632,
      "\n\nM": 3633,
      "ibr": 3634,
      "ders": 3635,
      "aud": 3636,
      "icles": 3637,
      "ergy": 3638,
      "ither": 3639,
      "▁di": 3640,
      "▁1980": 3641,
      "▁Central": 3642,
      "25": 3643,
      "▁During": 3644,
      "▁techn": 3645,
      "imate": 3646,
      "▁China": 3647,
      "ming": 3648,
      "etic": 3649,
      "o\n": 3650,
      "▁appeared": 3651,
      "ón": 3652,
      "▁movement": 3653,
      "lor": 3654,
      "▁broad": 3655,
      "▁example": 3656,
      "owns": 3657,
      "ense": 3658,
      "▁(in": 3659,
      "▁const": 3660,
      "ours": 3661,
      "▁cal": 3662,
      "▁nor": 3663,
      "ks": 3664,
      ".C": 3665,
      "u,": 3666,
      "▁comes": 3667,
      "issement": 3668,
      "▁gold": 3669,
      "▁som": 3670,
      "▁census": 3671,
      "ids": 3672,
      "▁College": 3673,
      "▁ship": 3674,
      "ondissement": 3675,
      "US": 3676,
      "▁(5": 3677,
      "▁Tor": 3678,
      "ederal": 3679,
      "craft": 3680,
      "▁Hill": 3681,
      "urs": 3682,
      "ein": 3683,
      "▁Er": 3684,
      "ari": 3685,
      "▁areas": 3686,
      "▁screen": 3687,
      "cher": 3688,
      "play": 3689,
      "3\"|": 3690,
      "atic": 3691,
      "ville": 3692,
      "▁Ok": 3693,
      "ape": 3694,
      "▁Commun": 3695,
      "23": 3696,
      "▁Atlant": 3697,
      "▁Wil": 3698,
      "anguage": 3699,
      "▁Pennsylvan": 3700,
      "▁phot": 3701,
      "▁test": 3702,
      "▁Dr": 3703,
      "▁2003": 3704,
      "▁final": 3705,
      "▁included": 3706,
      "ge,": 3707,
      "▁port": 3708,
      "▁it.": 3709,
      "▁States\n": 3710,
      "ning": 3711,
      "▁(T": 3712,
      "▁Law": 3713,
      "11": 3714,
      "▁process": 3715,
      "itect": 3716,
      "▁(D": 3717,
      "s\nM": 3718,
      "bon": 3719,
      "▁27": 3720,
      "itor": 3721,
      "▁Mat": 3722,
      "ine,": 3723,
      "▁stars": 3724,
      "▁playing": 3725,
      "▁surv": 3726,
      "aves": 3727,
      "▁Secret": 3728,
      "▁Thomas": 3729,
      "ion,": 3730,
      "▁opp": 3731,
      "▁(G": 3732,
      "▁match": 3733,
      "▁exec": 3734,
      "▁daughter": 3735,
      "▁trib": 3736,
      "-century": 3737,
      "eography": 3738,
      "▁28": 3739,
      "ological": 3740,
      "▁gra": 3741,
      "▁becomes": 3742,
      "osh": 3743,
      "▁To": 3744,
      "part": 3745,
      "▁know": 3746,
      "▁Italy": 3747,
      "▁color": 3748,
      "kn": 3749,
      "▁white": 3750,
      "-American": 3751,
      "▁Nob": 3752,
      "▁canc": 3753,
      "▁(the": 3754,
      "a's": 3755,
      "land,": 3756,
      "age,": 3757,
      "▁adv": 3758,
      "▁Paris": 3759,
      "▁artist": 3760,
      "▁Arab": 3761,
      "otes": 3762,
      "▁Jersey": 3763,
      "▁(or": 3764,
      "▁Bay": 3765,
      "wards": 3766,
      "▁dam": 3767,
      "ait": 3768,
      "▁sil": 3769,
      "▁From": 3770,
      "odes": 3771,
      "amil": 3772,
      "▁within": 3773,
      "▁Division": 3774,
      "▁fall": 3775,
      "▁arm": 3776,
      "▁Min": 3777,
      "▁Pe": 3778,
      "oliticians": 3779,
      "▁Music": 3780,
      "VID": 3781,
      "▁better": 3782,
      "||rowspan=\"3\"|": 3783,
      "ought": 3784,
      "▁learn": 3785,
      "▁Ohio": 3786,
      "||10": 3787,
      "esse": 3788,
      "▁Women": 3789,
      "▁separ": 3790,
      "▁gr": 3791,
      "▁Zeal": 3792,
      "▁\n\nIn": 3793,
      "▁study": 3794,
      "cle": 3795,
      "▁France.\n\nCommunes": 3796,
      "▁offic": 3797,
      "GB": 3798,
      "▁Mic": 3799,
      "ria": 3800,
      "▁half": 3801,
      "▁having": 3802,
      "▁\"M": 3803,
      "United": 3804,
      "▁Rob": 3805,
      "▁conne": 3806,
      "▁z": 3807,
      "go": 3808,
      "VID-19": 3809,
      "▁Prefecture": 3810,
      "▁Zealand": 3811,
      "uit": 3812,
      "▁Other": 3813,
      "▁invol": 3814,
      "▁Cat": 3815,
      "▁card": 3816,
      "er's": 3817,
      "▁Wind": 3818,
      "▁Army": 3819,
      ".\n\nCities": 3820,
      "inning": 3821,
      "▁train": 3822,
      "▁2002": 3823,
      "rie": 3824,
      "▁Iran": 3825,
      "sych": 3826,
      "▁Battle": 3827,
      "▁Games": 3828,
      "▁squ": 3829,
      "▁post": 3830,
      "yp": 3831,
      "ances": 3832,
      "▁5,": 3833,
      "ros": 3834,
      "▁southern": 3835,
      "▁studied": 3836,
      "60": 3837,
      "z,": 3838,
      "–200": 3839,
      "▁mot": 3840,
      "For": 3841,
      "▁Dis": 3842,
      "vil": 3843,
      "apt": 3844,
      "\n\nP": 3845,
      "▁Conf": 3846,
      ".\n\nCl": 3847,
      "24": 3848,
      "itch": 3849,
      "▁computer": 3850,
      "▁wanted": 3851,
      "▁184": 3852,
      "▁party": 3853,
      "▁low": 3854,
      "▁established": 3855,
      "▁space": 3856,
      "▁free": 3857,
      "ar,": 3858,
      "ged": 3859,
      "▁/": 3860,
      "ha": 3861,
      "▁refer": 3862,
      "▁coast": 3863,
      "rial": 3864,
      "man,": 3865,
      "▁Rh": 3866,
      "que": 3867,
      "▁tre": 3868,
      "▁uses": 3869,
      "▁distrib": 3870,
      "▁10,": 3871,
      "▁Ire": 3872,
      "tlements": 3873,
      "roll": 3874,
      "▁COVID-19": 3875,
      "▁says": 3876,
      "▁come": 3877,
      "▁Im": 3878,
      "ocal": 3879,
      "▁tour": 3880,
      "ots": 3881,
      "▁cit": 3882,
      "▁report": 3883,
      "▁Mel": 3884,
      "▁failure": 3885,
      "▁29": 3886,
      "▁List": 3887,
      "▁prison": 3888,
      "▁mathemat": 3889,
      "▁Do": 3890,
      "▁1970": 3891,
      "▁administ": 3892,
      "▁Western": 3893,
      "▁Lo": 3894,
      "ospital": 3895,
      "▁philos": 3896,
      "▁frog": 3897,
      "ate,": 3898,
      "▁fa": 3899,
      "-y": 3900,
      "heim": 3901,
      "oma": 3902,
      "ences": 3903,
      "ecause": 3904,
      "▁model": 3905,
      "▁among": 3906,
      "▁Court": 3907,
      "▁Victor": 3908,
      "achus": 3909,
      "▁there.": 3910,
      "urricane": 3911,
      "▁cop": 3912,
      "▁(H": 3913,
      "▁developed": 3914,
      "aker": 3915,
      "▁mix": 3916,
      "▁Football": 3917,
      "uf": 3918,
      "▁talk": 3919,
      "▁Emperor": 3920,
      "aper": 3921,
      "▁books": 3922,
      "ament": 3923,
      "▁able": 3924,
      "▁grad": 3925,
      "unicipalities": 3926,
      "▁hon": 3927,
      "▁never": 3928,
      "▁shows": 3929,
      "▁Des": 3930,
      "▁Jer": 3931,
      "▁time.": 3932,
      "etherland": 3933,
      "▁keep": 3934,
      "▁Fin": 3935,
      "▁lab": 3936,
      "▁That": 3937,
      "▁Angeles": 3938,
      "heast": 3939,
      "▁Ol": 3940,
      "known": 3941,
      "▁Mag": 3942,
      "cean": 3943,
      "▁viol": 3944,
      "▁Canada": 3945,
      "26": 3946,
      "agon": 3947,
      "▁office": 3948,
      "▁Super": 3949,
      "▁considered": 3950,
      "HL": 3951,
      "ware": 3952,
      "▁statistics\n\n|-\n|": 3953,
      "▁\"A": 3954,
      "ima": 3955,
      "▁eas": 3956,
      "▁Os": 3957,
      "ights": 3958,
      "▁bird": 3959,
      "▁Play": 3960,
      "Football": 3961,
      "▁Sy": 3962,
      "▁tro": 3963,
      "onn": 3964,
      "27": 3965,
      "British": 3966,
      "▁woman": 3967,
      "ination": 3968,
      "▁J.": 3969,
      "▁Kent": 3970,
      "-c": 3971,
      "-w": 3972,
      "▁incre": 3973,
      "de": 3974,
      "▁Bern": 3975,
      "bur": 3976,
      "▁(;": 3977,
      "▁musical": 3978,
      "▁indust": 3979,
      "▁arrondissement": 3980,
      "▁hit": 3981,
      "cul": 3982,
      "▁mountain": 3983,
      "▁influ": 3984,
      "ion.": 3985,
      "▁almost": 3986,
      "s\nAmerican": 3987,
      "aterial": 3988,
      "ouri": 3989,
      "▁UK": 3990,
      "▁Represent": 3991,
      "▁round": 3992,
      "acher": 3993,
      "rodu": 3994,
      "29": 3995,
      "eter": 3996,
      "28": 3997,
      "▁female": 3998,
      "▁Museum": 3999,
      "▁births\n2020": 4000,
      "▁pain": 4001,
      "▁aver": 4002,
      "▁northern": 4003,
      "▁Queen": 4004,
      "▁treat": 4005,
      "▁Massachus": 4006,
      "▁III": 4007,
      "forman": 4008,
      "ih": 4009,
      "▁object": 4010,
      "mar": 4011,
      "isl": 4012,
      "ique": 4013,
      "▁problems": 4014,
      "▁rom": 4015,
      "||3||0": 4016,
      "\nPeople": 4017,
      "▁pie": 4018,
      "▁mass": 4019,
      "▁50": 4020,
      "ic,": 4021,
      "▁Up": 4022,
      "▁animal": 4023,
      "ota": 4024,
      "▁characters": 4025,
      "▁(c": 4026,
      "▁Edward": 4027,
      "iller": 4028,
      "▁coach": 4029,
      "▁Lab": 4030,
      "be": 4031,
      "s\nA": 4032,
      "▁days": 4033,
      "▁Mos": 4034,
      "▁Mark": 4035,
      "▁2010,": 4036,
      "et,": 4037,
      "▁community": 4038,
      "▁Northern": 4039,
      "▁wife": 4040,
      "▁western": 4041,
      "\nIn": 4042,
      "och": 4043,
      "▁White": 4044,
      "▁taken": 4045,
      "ita": 4046,
      ".\n\nO": 4047,
      "▁lives": 4048,
      "▁key": 4049,
      "▁Province": 4050,
      "ister": 4051,
      "▁rail": 4052,
      "▁sea": 4053,
      "▁2020)": 4054,
      "▁6,": 4055,
      "▁highest": 4056,
      "▁iss": 4057,
      "oic": 4058,
      "▁Book": 4059,
      "ado": 4060,
      "▁mur": 4061,
      "▁fish": 4062,
      "ources": 4063,
      "▁done": 4064,
      "▁temper": 4065,
      "▁comb": 4066,
      "▁Av": 4067,
      "▁\nS": 4068,
      "uild": 4069,
      "roduc": 4070,
      "ulf": 4071,
      "▁Association": 4072,
      "▁1999": 4073,
      "▁lik": 4074,
      "||0||0||0": 4075,
      "ador": 4076,
      "▁Tra": 4077,
      "▁culture": 4078,
      "▁rights": 4079,
      "rim": 4080,
      "ongwrit": 4081,
      "▁California\n": 4082,
      "▁action": 4083,
      "vers": 4084,
      "▁ill": 4085,
      "▁full": 4086,
      "▁road": 4087,
      "chest": 4088,
      "▁Stud": 4089,
      "arly": 4090,
      "▁(6": 4091,
      "▁Hockey": 4092,
      "umn": 4093,
      "s)": 4094,
      "▁Cor": 4095,
      "▁Tim": 4096,
      "▁least": 4097,
      "ton,": 4098,
      "▁information": 4099,
      "▁hor": 4100,
      "ugu": 4101,
      "azz": 4102,
      "▁Smith": 4103,
      "anadian": 4104,
      "▁Den": 4105,
      "▁Argent": 4106,
      "▁storm": 4107,
      "gg": 4108,
      "vious": 4109,
      "▁Sun": 4110,
      "ettlements": 4111,
      "▁et": 4112,
      "agu": 4113,
      "▁circ": 4114,
      "▁cond": 4115,
      "▁\nIn": 4116,
      "NA": 4117,
      "ube": 4118,
      "▁No": 4119,
      "70": 4120,
      "▁Cont": 4121,
      "▁Land": 4122,
      "avar": 4123,
      "▁pri": 4124,
      "\n|-": 4125,
      "ender": 4126,
      "▁condu": 4127,
      "▁Lake": 4128,
      "▁Boy": 4129,
      "ani": 4130,
      "▁prim": 4131,
      "–199": 4132,
      "▁Gar": 4133,
      "ka": 4134,
      "▁Bang": 4135,
      "▁give": 4136,
      "rd": 4137,
      "eff": 4138,
      "pher": 4139,
      "▁Mexico": 4140,
      "▁Ros": 4141,
      "ote": 4142,
      "▁conc": 4143,
      "t,": 4144,
      "▁(f": 4145,
      "▁Netherland": 4146,
      "▁Scottish": 4147,
      "▁Jul": 4148,
      "▁Prince": 4149,
      "▁(\"": 4150,
      "▁(4": 4151,
      "▁7,": 4152,
      "▁successful": 4153,
      "▁requ": 4154,
      "▁(p": 4155,
      "\")": 4156,
      "▁complet": 4157,
      "ics,": 4158,
      "▁working": 4159,
      "▁types": 4160,
      "ya": 4161,
      "\"\n": 4162,
      "used": 4163,
      "▁canton": 4164,
      "▁job": 4165,
      "▁With": 4166,
      "▁1960": 4167,
      "n,": 4168,
      "th-century": 4169,
      "▁above": 4170,
      "▁dev": 4171,
      "▁183": 4172,
      "▁cast": 4173,
      "▁winning": 4174,
      "ruction": 4175,
      "-m": 4176,
      "annel": 4177,
      "face": 4178,
      "▁blood": 4179,
      "▁Bo": 4180,
      "▁try": 4181,
      "ater,": 4182,
      "▁cand": 4183,
      "▁Ob": 4184,
      "ini": 4185,
      "lete": 4186,
      "▁meas": 4187,
      "ranch": 4188,
      "▁eat": 4189,
      "▁bask": 4190,
      "▁Stev": 4191,
      "▁metal": 4192,
      "ona": 4193,
      "▁win": 4194,
      "▁0": 4195,
      "▁forces": 4196,
      "▁bad": 4197,
      "▁(m": 4198,
      "▁Lad": 4199,
      "▁Film": 4200,
      "▁(E": 4201,
      "▁pian": 4202,
      "▁himself": 4203,
      "▁takes": 4204,
      "ethod": 4205,
      "ritory": 4206,
      "eld": 4207,
      "▁Lin": 4208,
      ".com": 4209,
      "▁material": 4210,
      "▁FI": 4211,
      "▁wind": 4212,
      "▁bar": 4213,
      "\nAmerican": 4214,
      "nes": 4215,
      "▁Hon": 4216,
      "▁Instit": 4217,
      "▁either": 4218,
      "▁Parliament": 4219,
      "▁amount": 4220,
      "▁lim": 4221,
      "▁cat": 4222,
      "zech": 4223,
      "▁(195": 4224,
      "▁Pan": 4225,
      "▁(al": 4226,
      "▁sug": 4227,
      "▁ground": 4228,
      "▁politicians": 4229,
      "▁service": 4230,
      "▁chemical": 4231,
      "▁Off": 4232,
      "▁travel": 4233,
      "▁Just": 4234,
      "▁meaning": 4235,
      "iation": 4236,
      "▁let": 4237,
      ".\n\nClub": 4238,
      "▁d'": 4239,
      "▁1996": 4240,
      "▁Columb": 4241,
      "▁track": 4242,
      "▁inh": 4243,
      "▁park": 4244,
      "▁(l": 4245,
      "▁Som": 4246,
      "▁cause": 4247,
      "rated": 4248,
      "▁ten": 4249,
      "▁Kn": 4250,
      "ification": 4251,
      "▁Joseph": 4252,
      "▁certain": 4253,
      "▁footballer": 4254,
      "▁pres": 4255,
      "French": 4256,
      "▁A.": 4257,
      "iger": 4258,
      "abeth": 4259,
      "▁composer": 4260,
      "▁champion": 4261,
      "▁counties": 4262,
      "-h": 4263,
      "▁lawy": 4264,
      "▁Ann": 4265,
      "▁1998": 4266,
      "aught": 4267,
      "▁norm": 4268,
      "▁proper": 4269,
      "sel": 4270,
      "ynast": 4271,
      "▁dem": 4272,
      "▁roles": 4273,
      "▁debut": 4274,
      "aign": 4275,
      "ength": 4276,
      "▁Swedish": 4277,
      "▁15,": 4278,
      "atory": 4279,
      "▁opened": 4280,
      "ops": 4281,
      "▁Fox": 4282,
      "▁instead": 4283,
      "▁interest": 4284,
      "-D": 4285,
      "▁er": 4286,
      "eleb": 4287,
      "ras": 4288,
      "itz": 4289,
      "▁center": 4290,
      "pecially": 4291,
      "▁numb": 4292,
      "▁today": 4293,
      "inces": 4294,
      "▁destroy": 4295,
      "▁Korean": 4296,
      "▁court": 4297,
      "▁currently": 4298,
      "ource": 4299,
      "▁too": 4300,
      "▁hom": 4301,
      "):": 4302,
      "▁whe": 4303,
      "▁rank": 4304,
      "▁transl": 4305,
      "▁ast": 4306,
      "▁Ireland": 4307,
      "band": 4308,
      "▁Inter": 4309,
      "▁Their": 4310,
      "▁mainly": 4311,
      "▁202": 4312,
      "igan": 4313,
      "ably": 4314,
      "▁church": 4315,
      "▁8,": 4316,
      "▁minist": 4317,
      "▁Jim": 4318,
      "less": 4319,
      "▁univers": 4320,
      "-songwrit": 4321,
      "▁Rad": 4322,
      "cts": 4323,
      "▁Pict": 4324,
      "▁might": 4325,
      "▁11,": 4326,
      "ato": 4327,
      "alian": 4328,
      "viron": 4329,
      "▁network": 4330,
      "▁Jo": 4331,
      "ricts": 4332,
      "▁Islam": 4333,
      "▁names": 4334,
      "▁ox": 4335,
      "▁Fred": 4336,
      "▁Gen": 4337,
      "▁Ap": 4338,
      "▁retired": 4339,
      "▁girl": 4340,
      "back": 4341,
      "▁Dou": 4342,
      "itive": 4343,
      "▁central": 4344,
      "ccording": 4345,
      "-H": 4346,
      "▁years.": 4347,
      "▁politicians\n": 4348,
      "▁across": 4349,
      "▁Tok": 4350,
      "▁Iow": 4351,
      "\n\nN": 4352,
      "▁Ant": 4353,
      "rich": 4354,
      "▁Haw": 4355,
      "▁20,": 4356,
      "orf": 4357,
      "▁average": 4358,
      "▁Wrest": 4359,
      "ry,": 4360,
      "gl": 4361,
      "\n\nT": 4362,
      "▁basketball": 4363,
      "▁liter": 4364,
      "▁Senate": 4365,
      "▁hum": 4366,
      "▁performed": 4367,
      "amily": 4368,
      "▁Vol": 4369,
      "▁appro": 4370,
      "\nK": 4371,
      "test": 4372,
      "▁always": 4373,
      "80": 4374,
      "▁seven": 4375,
      "▁languages": 4376,
      "ctic": 4377,
      "▁12,": 4378,
      "▁invent": 4379,
      "▁Martin": 4380,
      "▁view": 4381,
      "▁once": 4382,
      "▁claim": 4383,
      "▁(U": 4384,
      "ibrary": 4385,
      "ura": 4386,
      "itions": 4387,
      "▁various": 4388,
      "arg": 4389,
      "▁architect": 4390,
      "▁Carl": 4391,
      "▁production": 4392,
      "\n\nB": 4393,
      "iev": 4394,
      "||11": 4395,
      "▁Missouri": 4396,
      "▁police": 4397,
      "▁Irish": 4398,
      "▁independent": 4399,
      "▁Sol": 4400,
      "▁recogn": 4401,
      "▁inj": 4402,
      "ta": 4403,
      "▁past": 4404,
      "ately": 4405,
      "▁move": 4406,
      "▁recorded": 4407,
      "hip": 4408,
      "▁wid": 4409,
      "emp": 4410,
      "▁crime": 4411,
      "▁Florida": 4412,
      "▁exist": 4413,
      "▁shown": 4414,
      "acy": 4415,
      "▁deg": 4416,
      "aine": 4417,
      "▁Sil": 4418,
      "▁Ma": 4419,
      "▁mid": 4420,
      "oms": 4421,
      "▁Lee": 4422,
      "enz": 4423,
      "▁Sat": 4424,
      "utive": 4425,
      "asons": 4426,
      "-language": 4427,
      "▁Cam": 4428,
      "▁Compan": 4429,
      "▁teams": 4430,
      "yg": 4431,
      "WE": 4432,
      "▁1992": 4433,
      "▁9,": 4434,
      "Sportspeople": 4435,
      "ped": 4436,
      "▁(0": 4437,
      "estival": 4438,
      "reme": 4439,
      "▁1.": 4440,
      "efore": 4441,
      "▁Love": 4442,
      "▁close": 4443,
      "▁words": 4444,
      "yo": 4445,
      "elling": 4446,
      "▁division": 4447,
      "utes": 4448,
      "ivid": 4449,
      "erd": 4450,
      "▁1995": 4451,
      "urther": 4452,
      "▁Street": 4453,
      "▁Group": 4454,
      "oud": 4455,
      "▁little": 4456,
      "▁animals": 4457,
      "▁Stan": 4458,
      "▁helped": 4459,
      ".\n\nReferences\n\n193": 4460,
      "▁1994": 4461,
      "–201": 4462,
      "bour": 4463,
      "▁Sir": 4464,
      "▁thr": 4465,
      "▁far": 4466,
      "▁ge": 4467,
      "▁\"L": 4468,
      "▁prop": 4469,
      "▁citiz": 4470,
      "ething": 4471,
      "▁development": 4472,
      "▁creat": 4473,
      "▁people.": 4474,
      "▁ball": 4475,
      "▁eight": 4476,
      "▁1997": 4477,
      "awa": 4478,
      "▁reached": 4479,
      "vironment": 4480,
      "▁Pres": 4481,
      "org": 4482,
      "\n\nG": 4483,
      "emor": 4484,
      "▁energy": 4485,
      "\n|\n|": 4486,
      "▁So": 4487,
      "▁Nobel": 4488,
      "▁bank": 4489,
      "▁decl": 4490,
      "▁ident": 4491,
      "▁Jean": 4492,
      "remier": 4493,
      "▁Africa": 4494,
      "▁App": 4495,
      "▁Latin": 4496,
      "▁health": 4497,
      "▁Bob": 4498,
      "▁Hung": 4499,
      "us.": 4500,
      "iana": 4501,
      "oid": 4502,
      "▁How": 4503,
      "▁Pac": 4504,
      "mitte": 4505,
      "lah": 4506,
      "▁footballers\n": 4507,
      "▁31": 4508,
      "▁capt": 4509,
      "mark": 4510,
      "adium": 4511,
      "▁battle": 4512,
      "ending": 4513,
      "▁arrest": 4514,
      "▁Brown": 4515,
      "▁\"C": 4516,
      "▁Comp": 4517,
      "▁Bur": 4518,
      "▁1950": 4519,
      "▁direct": 4520,
      "0,000": 4521,
      "▁symb": 4522,
      "▁bod": 4523,
      "▁Secretary": 4524,
      "▁hot": 4525,
      "ette": 4526,
      "▁ask": 4527,
      "▁singer-songwrit": 4528,
      "atre": 4529,
      "▁sports": 4530,
      "▁(W": 4531,
      "▁Leg": 4532,
      "▁seats": 4533,
      "▁them.": 4534,
      "//": 4535,
      "▁Jr.": 4536,
      "ustral": 4537,
      "▁13,": 4538,
      "▁dead": 4539,
      "▁Asian": 4540,
      "color": 4541,
      "▁Sur": 4542,
      ".C.": 4543,
      "▁cannot": 4544,
      "imb": 4545,
      "rig": 4546,
      "aries": 4547,
      "Is": 4548,
      "sw": 4549,
      "▁university": 4550,
      "elt": 4551,
      "▁force": 4552,
      "▁16,": 4553,
      "on.": 4554,
      "||12": 4555,
      "nam": 4556,
      "Ind": 4557,
      "ttp": 4558,
      "ression": 4559,
      "iography": 4560,
      "estab": 4561,
      "▁Polish": 4562,
      "▁footballer\n": 4563,
      "▁England.": 4564,
      "▁Gal": 4565,
      "▁enough": 4566,
      "▁candid": 4567,
      "▁\"W": 4568,
      "▁1993": 4569,
      "▁cross": 4570,
      "▁rev": 4571,
      "can": 4572,
      "▁Cons": 4573,
      "\n|-\n|197": 4574,
      "▁bo": 4575,
      "▁goes": 4576,
      "▁especially": 4577,
      "win": 4578,
      "▁chart": 4579,
      "▁Britain": 4580,
      "AS": 4581,
      "al.": 4582,
      "rate": 4583,
      "▁replaced": 4584,
      "▁Luc": 4585,
      "▁army": 4586,
      "▁ended": 4587,
      "▁studio": 4588,
      "190": 4589,
      "▁Sar": 4590,
      "▁fre": 4591,
      "▁broadcast": 4592,
      "▁press": 4593,
      "▁multip": 4594,
      "▁ancient": 4595,
      "ais": 4596,
      "-g": 4597,
      "▁pract": 4598,
      "▁[": 4599,
      "▁Austrian": 4600,
      "▁Mod": 4601,
      "▁(O": 4602,
      "▁(a": 4603,
      "▁episode": 4604,
      "▁179": 4605,
      "▁soft": 4606,
      "▁Enter": 4607,
      "▁people\nAmerican": 4608,
      "les,": 4609,
      "ternet": 4610,
      "▁night": 4611,
      "▁Congress": 4612,
      "▁1991": 4613,
      "▁outside": 4614,
      "▁clos": 4615,
      "aps": 4616,
      "oto": 4617,
      "idence": 4618,
      "▁municipalities": 4619,
      "▁History": 4620,
      "▁Rom": 4621,
      "▁18,": 4622,
      "▁hous": 4623,
      "otal": 4624,
      "▁MP": 4625,
      "▁Dire": 4626,
      "icular": 4627,
      "uan": 4628,
      "▁signed": 4629,
      ".\n\nReferences\n\nC": 4630,
      "▁(n": 4631,
      "▁fig": 4632,
      "▁Lord": 4633,
      "\n\nF": 4634,
      "ios": 4635,
      "▁14,": 4636,
      "▁20th": 4637,
      "▁stor": 4638,
      "illa": 4639,
      "ites": 4640,
      "▁sele": 4641,
      "▁electron": 4642,
      "▁Civil": 4643,
      "omp": 4644,
      "▁Ur": 4645,
      "45": 4646,
      "▁Alb": 4647,
      "▁Sweden": 4648,
      "▁inside": 4649,
      "azine": 4650,
      "||0\n|-\n|199": 4651,
      "▁Cro": 4652,
      ".\n\nV": 4653,
      "▁Club": 4654,
      "▁(The": 4655,
      "▁Virginia": 4656,
      "▁Jon": 4657,
      "▁decided": 4658,
      "▁ey": 4659,
      "▁Because": 4660,
      "▁events": 4661,
      "▁France.": 4662,
      "Ar": 4663,
      "innes": 4664,
      "-year": 4665,
      "▁tropical": 4666,
      "▁Song": 4667,
      "▁gradu": 4668,
      "▁speak": 4669,
      "▁murder": 4670,
      "etting": 4671,
      "▁Big": 4672,
      "ki": 4673,
      "ovie": 4674,
      "▁board": 4675,
      "ounty": 4676,
      "▁fiction": 4677,
      "▁der": 4678,
      "-born": 4679,
      "▁Dar": 4680,
      "▁pay": 4681,
      "▁Mount": 4682,
      "▁Wood": 4683,
      "ently": 4684,
      "▁baseball": 4685,
      "▁Hot": 4686,
      "▁Scotland": 4687,
      "▁northwest": 4688,
      "▁pow": 4689,
      "▁Francisc": 4690,
      "▁series\n": 4691,
      "▁Duke": 4692,
      "▁Since": 4693,
      "ian,": 4694,
      "ray": 4695,
      "German": 4696,
      "▁jud": 4697,
      "roduced": 4698,
      "▁research": 4699,
      "▁performan": 4700,
      "▁17,": 4701,
      "▁earth": 4702,
      "▁critic": 4703,
      "▁idea": 4704,
      "-N": 4705,
      "ume": 4706,
      "▁prob": 4707,
      "▁40": 4708,
      "▁census,": 4709,
      "s\nP": 4710,
      "ativ": 4711,
      "▁meet": 4712,
      "usiness": 4713,
      "▁related": 4714,
      "▁box": 4715,
      "▁allowed": 4716,
      "▁\nM": 4717,
      "▁nominated": 4718,
      "▁sequ": 4719,
      "▁vir": 4720,
      "head": 4721,
      "▁Sand": 4722,
      "aka": 4723,
      "▁Mo": 4724,
      "▁drug": 4725,
      "ention": 4726,
      "▁Brazilian": 4727,
      "-T": 4728,
      "▁Viet": 4729,
      "aged": 4730,
      "antic": 4731,
      "▁aircraft": 4732,
      "▁Poland": 4733,
      "||13": 4734,
      "▁Hel": 4735,
      "▁1989": 4736,
      "ennis": 4737,
      "▁relation": 4738,
      "▁farm": 4739,
      "ems": 4740,
      "ographer": 4741,
      "||1\n|-\n|200": 4742,
      "▁\"T": 4743,
      "▁vict": 4744,
      "▁electric": 4745,
      "▁bomb": 4746,
      "▁Old": 4747,
      "Writers": 4748,
      "▁player\n": 4749,
      "▁possible": 4750,
      "▁Disney": 4751,
      "▁Muslim": 4752,
      "▁divided": 4753,
      "▁Rail": 4754,
      "rative": 4755,
      "▁2020,": 4756,
      "▁Uk": 4757,
      "▁\"D": 4758,
      "▁writing": 4759,
      "▁McC": 4760,
      "▁returned": 4761,
      "\n|-\n|201": 4762,
      "▁(also": 4763,
      "▁i": 4764,
      "ends": 4765,
      "ame,": 4766,
      "anger": 4767,
      "ity,": 4768,
      "▁Anton": 4769,
      "ologist": 4770,
      "▁symbol": 4771,
      "ointed": 4772,
      "▁sen": 4773,
      "▁rap": 4774,
      "ky": 4775,
      "▁previous": 4776,
      "▁Team": 4777,
      "▁Lu": 4778,
      "at,": 4779,
      "▁25,": 4780,
      "▁Oklah": 4781,
      "▁celeb": 4782,
      "▁ath": 4783,
      "in.": 4784,
      "▁mach": 4785,
      "uty": 4786,
      "▁method": 4787,
      "▁instr": 4788,
      "bit": 4789,
      "▁fif": 4790,
      "▁front": 4791,
      "▁180": 4792,
      "▁added": 4793,
      "▁writers\n": 4794,
      "▁review": 4795,
      "▁others": 4796,
      "ing\n": 4797,
      "▁oldest": 4798,
      "▁southwest": 4799,
      "ny": 4800,
      "▁Arm": 4801,
      "▁fourth": 4802,
      "▁21,": 4803,
      "▁hospital": 4804,
      "▁Life": 4805,
      "▁going": 4806,
      "▁quick": 4807,
      "\n!": 4808,
      "hood": 4809,
      "▁pur": 4810,
      "▁Time": 4811,
      "Italian": 4812,
      "▁1988": 4813,
      "▁Bavar": 4814,
      "▁Jackson": 4815,
      "▁Center": 4816,
      "▁changes": 4817,
      "ola": 4818,
      "||14": 4819,
      "people": 4820,
      "▁Bor": 4821,
      "▁22,": 4822,
      "Japan": 4823,
      "▁stay": 4824,
      "rought": 4825,
      "▁break": 4826,
      "▁Trans": 4827,
      "ladesh": 4828,
      "▁Czech": 4829,
      "▁Jun": 4830,
      "▁inhabit": 4831,
      "▁Kenn": 4832,
      "▁\"P": 4833,
      "▁gun": 4834,
      "ailable": 4835,
      ".\n\nSt": 4836,
      "▁producer": 4837,
      "▁Show": 4838,
      "▁laun": 4839,
      "▁Serv": 4840,
      "lay": 4841,
      "ter,": 4842,
      "▁something": 4843,
      "▁originally": 4844,
      "▁cycl": 4845,
      "akh": 4846,
      "▁tree": 4847,
      "ection": 4848,
      "▁bur": 4849,
      "▁killing": 4850,
      "uj": 4851,
      "esc": 4852,
      "▁Spe": 4853,
      "89": 4854,
      "▁Jud": 4855,
      "▁actress\n": 4856,
      "▁project": 4857,
      "▁Department": 4858,
      "ply": 4859,
      "ards": 4860,
      "▁world.": 4861,
      "▁Adam": 4862,
      "▁1986": 4863,
      "embly": 4864,
      "▁Pers": 4865,
      "allery": 4866,
      "ley,": 4867,
      "▁disestab": 4868,
      "▁ins": 4869,
      "▁Camp": 4870,
      "▁coll": 4871,
      "▁Bad": 4872,
      "ience": 4873,
      "▁grand": 4874,
      "▁discovered": 4875,
      "▁Middle": 4876,
      "-sur": 4877,
      "za": 4878,
      "▁priv": 4879,
      "icult": 4880,
      "▁Town": 4881,
      "▁dig": 4882,
      "▁spok": 4883,
      "▁2019,": 4884,
      "▁19,": 4885,
      "iles": 4886,
      "▁screenwrit": 4887,
      "war": 4888,
      "s\nC": 4889,
      "▁Ark": 4890,
      "action": 4891,
      "▁)": 4892,
      "GBT": 4893,
      "\nO": 4894,
      "wan": 4895,
      "2010s": 4896,
      "ois": 4897,
      "▁eastern": 4898,
      "▁Atlantic": 4899,
      "▁nuc": 4900,
      "▁colon": 4901,
      "▁Russia": 4902,
      "la": 4903,
      "▁suff": 4904,
      "▁ren": 4905,
      "▁Mah": 4906,
      "▁Young": 4907,
      "▁reason": 4908,
      "▁Ke": 4909,
      "▁Two": 4910,
      "▁psych": 4911,
      "▁awarded": 4912,
      "▁function": 4913,
      "||S": 4914,
      "ucky": 4915,
      "▁2.": 4916,
      "▁1987": 4917,
      "▁personal": 4918,
      "▁Institute": 4919,
      "leg": 4920,
      "▁Naz": 4921,
      "▁Camb": 4922,
      ".\n\nEarly": 4923,
      "▁1976": 4924,
      "mond": 4925,
      "▁26,": 4926,
      "cest": 4927,
      "▁compound": 4928,
      "uture": 4929,
      "▁years,": 4930,
      "||4||0": 4931,
      "▁23,": 4932,
      "▁longer": 4933,
      "eds": 4934,
      "ca": 4935,
      "▁24,": 4936,
      "-W": 4937,
      "ech": 4938,
      "▁City,": 4939,
      "ella": 4940,
      "▁dog": 4941,
      "stein": 4942,
      "ias": 4943,
      "atter": 4944,
      "adel": 4945,
      "▁length": 4946,
      "▁campaign": 4947,
      "iment": 4948,
      "▁forest": 4949,
      "c.": 4950,
      "▁\n\nB": 4951,
      "▁27,": 4952,
      "▁Tod": 4953,
      "▁28,": 4954,
      "▁Night": 4955,
      "▁op": 4956,
      "▁lo": 4957,
      "▁believed": 4958,
      "enth": 4959,
      "▁1920": 4960,
      "lav": 4961,
      "▁Pas": 4962,
      "▁Society": 4963,
      "ity.": 4964,
      "ulation": 4965,
      "ils": 4966,
      "edy": 4967,
      "tario": 4968,
      "▁Philipp": 4969,
      "▁theory": 4970,
      "thur": 4971,
      "ada": 4972,
      "▁Mur": 4973,
      "▁Second": 4974,
      "▁available": 4975,
      "related": 4976,
      "istic": 4977,
      "aij": 4978,
      "▁Int": 4979,
      "▁1979": 4980,
      "▁Haut": 4981,
      "▁2016,": 4982,
      "▁actor,": 4983,
      "incip": 4984,
      "▁flow": 4985,
      "well": 4986,
      "▁Spr": 4987,
      "▁Are": 4988,
      "▁Gh": 4989,
      "ce,": 4990,
      "▁wood": 4991,
      "rik": 4992,
      "ho": 4993,
      "▁Ram": 4994,
      "▁Max": 4995,
      "et.": 4996,
      "ential": 4997,
      "ensive": 4998,
      "▁designed": 4999,
      "▁Hind": 5000,
      "iant": 5001,
      "▁Sea": 5002,
      "▁boy": 5003,
      "▁Georgia": 5004,
      "▁doc": 5005,
      "▁lower": 5006,
      "▁regular": 5007,
      "os,": 5008,
      "▁albums": 5009,
      "▁Pacific": 5010,
      "edia": 5011,
      "ie,": 5012,
      "▁contains": 5013,
      "▁shoot": 5014,
      "▁newsp": 5015,
      "bach": 5016,
      "...": 5017,
      "▁cut": 5018,
      "▁2007,": 5019,
      "▁Alab": 5020,
      "izabeth": 5021,
      "▁case": 5022,
      "▁surface": 5023,
      "▁Airport": 5024,
      "▁pred": 5025,
      "▁numbers": 5026,
      "▁\"I": 5027,
      "▁Univers": 5028,
      "▁States,": 5029,
      "▁thing": 5030,
      "▁Ele": 5031,
      "\n\nRelated": 5032,
      "yan": 5033,
      "ify": 5034,
      "CA": 5035,
      "▁Bal": 5036,
      "▁causes": 5037,
      "▁1983": 5038,
      "tainment": 5039,
      "\n\nE": 5040,
      "37": 5041,
      "▁Minnes": 5042,
      "▁Fame": 5043,
      "▁Bost": 5044,
      "▁Tenn": 5045,
      "▁Jac": 5046,
      "isher": 5047,
      "ancer": 5048,
      "add": 5049,
      "▁astron": 5050,
      "▁super": 5051,
      "▁Out": 5052,
      "▁1981": 5053,
      "▁continued": 5054,
      "▁Bab": 5055,
      "▁Government": 5056,
      "▁Step": 5057,
      "▁wor": 5058,
      "onald": 5059,
      "ournament": 5060,
      "mir": 5061,
      "▁Far": 5062,
      "▁Charl": 5063,
      "lishment": 5064,
      "intend": 5065,
      "▁finished": 5066,
      "or.": 5067,
      "▁1984": 5068,
      "▁gets": 5069,
      "▁Over": 5070,
      "▁(7": 5071,
      "etro": 5072,
      "▁Id": 5073,
      "2),": 5074,
      "ulture": 5075,
      "▁Wrestling": 5076,
      "uic": 5077,
      ".\n\nK": 5078,
      "▁1975": 5079,
      "▁1985": 5080,
      "▁deaths\nAmerican": 5081,
      "▁cur": 5082,
      "▁data": 5083,
      "iot": 5084,
      "▁themsel": 5085,
      "wa": 5086,
      "▁Wall": 5087,
      "▁Es": 5088,
      "▁shot": 5089,
      "-de-C": 5090,
      ".\n\nThere": 5091,
      "-F": 5092,
      "▁adult": 5093,
      "▁told": 5094,
      "\n\nD": 5095,
      "ide,": 5096,
      "▁individ": 5097,
      "▁Kong": 5098,
      "▁Ak": 5099,
      "▁rac": 5100,
      "ipl": 5101,
      "onia": 5102,
      "▁(I": 5103,
      "▁lay": 5104,
      "▁Way": 5105,
      "▁conv": 5106,
      "▁Class": 5107,
      "illy": 5108,
      "||15": 5109,
      "aining": 5110,
      "\n\"": 5111,
      "▁particular": 5112,
      "▁ang": 5113,
      "▁smaller": 5114,
      "▁Pop": 5115,
      "ua": 5116,
      "▁philosopher": 5117,
      "▁tried": 5118,
      "▁Bank": 5119,
      "obile": 5120,
      "▁Rome": 5121,
      "▁Order": 5122,
      "▁Michigan": 5123,
      "Former": 5124,
      "ising": 5125,
      "▁miss": 5126,
      "mittee": 5127,
      "▁30,": 5128,
      "2000s": 5129,
      ".\n\nGeography": 5130,
      "▁starring": 5131,
      "▁pict": 5132,
      "emic": 5133,
      "▁Cub": 5134,
      "▁Squ": 5135,
      "▁cover": 5136,
      "▁Tour": 5137,
      "▁text": 5138,
      "ey,": 5139,
      "umer": 5140,
      "▁Southern": 5141,
      "▁happ": 5142,
      "▁gas": 5143,
      "▁animated": 5144,
      "upt": 5145,
      "ussian": 5146,
      "▁complic": 5147,
      "ictional": 5148,
      "47": 5149,
      "yth": 5150,
      "33": 5151,
      "▁Under": 5152,
      "▁unders": 5153,
      "▁Representatives": 5154,
      "cel": 5155,
      "hi": 5156,
      "▁Tre": 5157,
      "90": 5158,
      "riz": 5159,
      "▁Jewish": 5160,
      "▁Revolution": 5161,
      "▁Olympics": 5162,
      "inary": 5163,
      "asy": 5164,
      "▁Li": 5165,
      "▁plants": 5166,
      "▁\"H": 5167,
      "▁Chief": 5168,
      "acter": 5169,
      "onto": 5170,
      "is.": 5171,
      "▁har": 5172,
      "▁\"G": 5173,
      "▁Albert": 5174,
      "agan": 5175,
      "4\"|": 5176,
      "▁tax": 5177,
      "▁release": 5178,
      "▁FIFA": 5179,
      "use": 5180,
      "throp": 5181,
      "▁\nB": 5182,
      "▁miles": 5183,
      "▁religious": 5184,
      "empt": 5185,
      "▁Social": 5186,
      "▁brought": 5187,
      "incess": 5188,
      "chan": 5189,
      "▁green": 5190,
      "▁range": 5191,
      "▁introduced": 5192,
      "▁Carolina": 5193,
      "oints": 5194,
      "sex": 5195,
      "▁sport": 5196,
      "▁Ever": 5197,
      "▁pen": 5198,
      "▁Cr": 5199,
      "usband": 5200,
      "||30": 5201,
      "▁difficult": 5202,
      "▁Pope": 5203,
      "An": 5204,
      "ice,": 5205,
      "▁(K": 5206,
      "▁Women's": 5207,
      "olitan": 5208,
      "omer": 5209,
      "▁journalist": 5210,
      "ali": 5211,
      "▁except": 5212,
      "▁belong": 5213,
      "\nV": 5214,
      "ands": 5215,
      "uge": 5216,
      "▁ran": 5217,
      "roduction": 5218,
      "▁although": 5219,
      "▁Eastern": 5220,
      "▁(20": 5221,
      "▁Jes": 5222,
      "–198": 5223,
      "▁cou": 5224,
      "▁Chile": 5225,
      "burgh": 5226,
      "gcolor": 5227,
      "▁2017,": 5228,
      "▁Ontario": 5229,
      "▁Tro": 5230,
      "▁here": 5231,
      "▁(,": 5232,
      "▁temperature": 5233,
      "▁itself": 5234,
      ".\n\nCare": 5235,
      "86": 5236,
      "▁described": 5237,
      "▁teacher": 5238,
      "▁grew": 5239,
      "▁Fort": 5240,
      "▁(17": 5241,
      ".\n\nAfter": 5242,
      "alais": 5243,
      "▁Ca": 5244,
      "▁Girl": 5245,
      "▁egg": 5246,
      "issipp": 5247,
      "▁Long": 5248,
      "▁Bul": 5249,
      "-st": 5250,
      "||rowspan=\"4\"|": 5251,
      "file": 5252,
      "▁\"R": 5253,
      "▁middle": 5254,
      "▁obs": 5255,
      "ja": 5256,
      "▁(t": 5257,
      "▁spread": 5258,
      "▁hyd": 5259,
      "▁sch": 5260,
      "ift": 5261,
      "▁autom": 5262,
      "een": 5263,
      "▁aud": 5264,
      "▁Little": 5265,
      "ly.": 5266,
      "▁Asia": 5267,
      "riage": 5268,
      "▁Road": 5269,
      "35": 5270,
      "▁sn": 5271,
      "▁reb": 5272,
      "▁Us": 5273,
      "ploy": 5274,
      "▁Histor": 5275,
      "▁league": 5276,
      "▁goal": 5277,
      "▁cer": 5278,
      "▁cost": 5279,
      "iding": 5280,
      "▁Ev": 5281,
      "▁championship": 5282,
      "▁accident": 5283,
      "onst": 5284,
      "▁male": 5285,
      "▁Elizabeth": 5286,
      "▁cas": 5287,
      "▁Of": 5288,
      "arden": 5289,
      "▁Good": 5290,
      "▁Jeff": 5291,
      "▁physic": 5292,
      "▁S.": 5293,
      "elle": 5294,
      "ine.": 5295,
      "kin": 5296,
      "ür": 5297,
      "▁USA": 5298,
      "-related": 5299,
      "Official": 5300,
      "▁Ta": 5301,
      "▁Nic": 5302,
      "▁invest": 5303,
      "English-language": 5304,
      "▁Ray": 5305,
      "▁believe": 5306,
      "▁Champion": 5307,
      "▁presidential": 5308,
      "▁(with": 5309,
      "ida": 5310,
      "ustralian": 5311,
      "▁ap": 5312,
      "||16": 5313,
      "hib": 5314,
      "his": 5315,
      "▁singers\n": 5316,
      "▁structures": 5317,
      "-up": 5318,
      "▁Mario": 5319,
      "e\n": 5320,
      "▁buildings": 5321,
      "Canadian": 5322,
      "▁du": 5323,
      "▁O'": 5324,
      "▁weap": 5325,
      "▁Ty": 5326,
      "▁29,": 5327,
      "▁him.": 5328,
      "eel": 5329,
      "▁page": 5330,
      "▁1974": 5331,
      "▁\n\nE": 5332,
      "▁births\n2021": 5333,
      "erb": 5334,
      "▁2018,": 5335,
      "▁vocal": 5336,
      "▁Tennesse": 5337,
      "uments": 5338,
      "▁student": 5339,
      "▁1982": 5340,
      "ruck": 5341,
      "▁Ox": 5342,
      "▁raised": 5343,
      "▁traditional": 5344,
      "aki": 5345,
      "New": 5346,
      "sen": 5347,
      "ard,": 5348,
      "▁youn": 5349,
      "\nI": 5350,
      "▁1972": 5351,
      "▁actors\nActors": 5352,
      "▁border": 5353,
      "▁Sa": 5354,
      "▁affect": 5355,
      "anda": 5356,
      "anding": 5357,
      "▁people,": 5358,
      "ffair": 5359,
      "uer": 5360,
      "esl": 5361,
      "▁Alexander": 5362,
      ".\n\nI": 5363,
      "iac": 5364,
      "▁Golden": 5365,
      "▁distributed": 5366,
      "-de-Calais": 5367,
      "▁someone": 5368,
      "▁fast": 5369,
      "▁relationship": 5370,
      "▁subject": 5371,
      "▁Entertainment": 5372,
      "▁\nC": 5373,
      "▁leaders": 5374,
      "▁commonly": 5375,
      "▁medical": 5376,
      "▁Add": 5377,
      "▁Barb": 5378,
      "iscons": 5379,
      "zerb": 5380,
      "inet": 5381,
      "▁academ": 5382,
      "adelph": 5383,
      "mas": 5384,
      "▁love": 5385,
      "▁1930": 5386,
      "▁manager": 5387,
      "▁dou": 5388,
      "BS": 5389,
      "alymp": 5390,
      "▁Bangladesh": 5391,
      "amin": 5392,
      "▁larger": 5393,
      "s'": 5394,
      "▁Game": 5395,
      "imated": 5396,
      "▁2011,": 5397,
      "uy": 5398,
      "▁Rog": 5399,
      "Al": 5400,
      "ned": 5401,
      "▁unit": 5402,
      "▁Mexican": 5403,
      "▁higher": 5404,
      "n't": 5405,
      "▁saw": 5406,
      "▁date": 5407,
      "▁oil": 5408,
      "▁actor.": 5409,
      "▁feel": 5410,
      "irit": 5411,
      "▁market": 5412,
      "▁C.": 5413,
      "▁Van": 5414,
      "ingers": 5415,
      "ken": 5416,
      "\n|-\n!": 5417,
      "▁wall": 5418,
      "▁rain": 5419,
      "\n\n|-\n|200": 5420,
      "BA": 5421,
      "▁Mir": 5422,
      "▁Bell": 5423,
      "▁months": 5424,
      "▁Maria": 5425,
      "▁actor\n": 5426,
      "zerbaij": 5427,
      "-E": 5428,
      "FC": 5429,
      "aval": 5430,
      "▁centre": 5431,
      "▁biggest": 5432,
      "ider": 5433,
      "▁1940": 5434,
      "▁this,": 5435,
      "▁2021)": 5436,
      "irth": 5437,
      "▁husband": 5438,
      "▁M.": 5439,
      "▁FC": 5440,
      "obe": 5441,
      "ropolitan": 5442,
      "▁students": 5443,
      "▁create": 5444,
      "▁BBC": 5445,
      "▁Municipal": 5446,
      "▁myth": 5447,
      "▁About": 5448,
      "▁features": 5449,
      "||18": 5450,
      "||29": 5451,
      "▁1968": 5452,
      "▁silver": 5453,
      "▁brain": 5454,
      "ynasty": 5455,
      "▁beginning": 5456,
      "▁1973": 5457,
      "▁Mu": 5458,
      "▁fac": 5459,
      "▁fact": 5460,
      "▁remov": 5461,
      "▁particip": 5462,
      "▁size": 5463,
      "uv": 5464,
      "range": 5465,
      "▁comput": 5466,
      "▁competition": 5467,
      "▁19th": 5468,
      "▁1900": 5469,
      "▁college": 5470,
      "itage": 5471,
      "ills": 5472,
      "illages": 5473,
      "▁Winter": 5474,
      "▁forms": 5475,
      "▁Iowa": 5476,
      "43": 5477,
      "erie": 5478,
      "This": 5479,
      "intendo": 5480,
      "▁Paralymp": 5481,
      "onne": 5482,
      "▁romantic": 5483,
      "-e": 5484,
      "49": 5485,
      "▁block": 5486,
      "48": 5487,
      "ability": 5488,
      "▁1964": 5489,
      "▁Daniel": 5490,
      "▁Mot": 5491,
      "▁Germany.": 5492,
      "▁environment": 5493,
      "▁suggest": 5494,
      "▁Ocean": 5495,
      "elled": 5496,
      "▁merg": 5497,
      "▁Armen": 5498,
      "▁magn": 5499,
      "▁Mississipp": 5500,
      "Total": 5501,
      "t.": 5502,
      "▁Die": 5503,
      "▁rule": 5504,
      "▁climate": 5505,
      "le.": 5506,
      "▁winners\n": 5507,
      "▁pot": 5508,
      "▁Joe": 5509,
      "a)": 5510,
      "arter": 5511,
      "▁reported": 5512,
      "lines": 5513,
      "▁kil": 5514,
      "cow": 5515,
      "▁occur": 5516,
      "▁Wiscons": 5517,
      "cientists": 5518,
      "▁entire": 5519,
      "▁Berlin": 5520,
      "▁Assembly": 5521,
      "oir": 5522,
      "rance": 5523,
      "Footballers": 5524,
      "rap": 5525,
      "▁Also": 5526,
      "46": 5527,
      "▁defeated": 5528,
      "urity": 5529,
      "k,": 5530,
      "orary": 5531,
      "▁Ep": 5532,
      "▁Hor": 5533,
      "▁Belg": 5534,
      "chestra": 5535,
      "▁Dr.": 5536,
      "s\nB": 5537,
      "▁heavy": 5538,
      "overs": 5539,
      "▁Series": 5540,
      "▁1st": 5541,
      "▁Found": 5542,
      "▁1971": 5543,
      "▁Vill": 5544,
      "aching": 5545,
      "▁1978": 5546,
      "▁foc": 5547,
      "▁soon": 5548,
      "▁Carolin": 5549,
      "▁Director": 5550,
      "ateg": 5551,
      "▁Arkansas": 5552,
      "▁qual": 5553,
      "▁Major": 5554,
      "▁Harry": 5555,
      "airman": 5556,
      "roke": 5557,
      "▁parents": 5558,
      "▁Ha": 5559,
      "▁rivers": 5560,
      "▁communes": 5561,
      "▁Santa": 5562,
      "igned": 5563,
      "▁Then": 5564,
      "▁gives": 5565,
      "▁blue": 5566,
      "onic": 5567,
      "ruit": 5568,
      "umm": 5569,
      "▁laws": 5570,
      "▁Joh": 5571,
      "▁source": 5572,
      "▁actors": 5573,
      "\n\nL": 5574,
      "||17": 5575,
      "undred": 5576,
      "▁Color": 5577,
      "▁Not": 5578,
      "▁W.": 5579,
      "neum": 5580,
      "▁century.": 5581,
      "▁Corn": 5582,
      "▁Leon": 5583,
      "▁\n|": 5584,
      "▁cart": 5585,
      "▁Ven": 5586,
      "||28": 5587,
      "\n18": 5588,
      "hold": 5589,
      "▁secret": 5590,
      "▁Force": 5591,
      "-V": 5592,
      "▁WWE": 5593,
      "wegian": 5594,
      "ourg": 5595,
      "ée": 5596,
      "usical": 5597,
      "▁Awards": 5598,
      "inger": 5599,
      "w.": 5600,
      "itan": 5601,
      "▁Form": 5602,
      "▁Budd": 5603,
      "▁1977": 5604,
      "▁throughout": 5605,
      "án": 5606,
      "▁hol": 5607,
      "▁\n\nP": 5608,
      "▁1969": 5609,
      "▁(v": 5610,
      ",000": 5611,
      "ires": 5612,
      "▁songwrit": 5613,
      "▁towns": 5614,
      "ez": 5615,
      "▁\n\nT": 5616,
      "▁esc": 5617,
      "▁sexual": 5618,
      "▁respons": 5619,
      "rang": 5620,
      "▁opera": 5621,
      "▁women's": 5622,
      "-1": 5623,
      "▁AD": 5624,
      "usicians": 5625,
      "▁link": 5626,
      "▁kept": 5627,
      "▁(died": 5628,
      "ism,": 5629,
      "87": 5630,
      "6),": 5631,
      "inct": 5632,
      "ore,": 5633,
      "vert": 5634,
      "ingu": 5635,
      "uten": 5636,
      "mercial": 5637,
      "omy": 5638,
      "▁pos": 5639,
      "▁syn": 5640,
      "▁followed": 5641,
      "▁organization": 5642,
      "▁Lar": 5643,
      "▁Sub": 5644,
      "▁2008,": 5645,
      "nic": 5646,
      "▁Gree": 5647,
      "▁table": 5648,
      "▁below": 5649,
      "▁programs": 5650,
      "▁Conne": 5651,
      "▁Alf": 5652,
      "▁Bru": 5653,
      "erst": 5654,
      "istant": 5655,
      "▁von": 5656,
      "▁year.": 5657,
      "▁selected": 5658,
      "▁Child": 5659,
      "▁System": 5660,
      "▁Def": 5661,
      "▁burn": 5662,
      "▁accept": 5663,
      "▁;": 5664,
      "▁Water": 5665,
      "▁Wild": 5666,
      "▁tells": 5667,
      "-in": 5668,
      "ghan": 5669,
      "55": 5670,
      "▁billion": 5671,
      "▁Andrew": 5672,
      "▁Mr.": 5673,
      "▁owned": 5674,
      "▁Francisco": 5675,
      "ving": 5676,
      "leep": 5677,
      "ication": 5678,
      "▁saf": 5679,
      "istry": 5680,
      "▁Arthur": 5681,
      "▁active": 5682,
      "▁quest": 5683,
      "ensus": 5684,
      "▁painter": 5685,
      "1990s": 5686,
      "://": 5687,
      "▁dark": 5688,
      "▁Austria": 5689,
      "▁multiple": 5690,
      "inson": 5691,
      "▁Est": 5692,
      "ttp://": 5693,
      "\n|-\n!Total": 5694,
      "▁sat": 5695,
      "road": 5696,
      "▁ideas": 5697,
      "▁Brook": 5698,
      "▁Asia\n": 5699,
      "▁Blue": 5700,
      "▁plann": 5701,
      "▁Constitution": 5702,
      "▁Vietnam": 5703,
      "▁Wales": 5704,
      "▁Ell": 5705,
      "enced": 5706,
      "▁Kim": 5707,
      "▁collection": 5708,
      "▁behav": 5709,
      "▁2014,": 5710,
      "99": 5711,
      "ics\n": 5712,
      "▁visit": 5713,
      "het": 5714,
      "4),": 5715,
      "▁surround": 5716,
      "bre": 5717,
      "ira": 5718,
      "olar": 5719,
      "▁1967": 5720,
      "urd": 5721,
      "▁Bol": 5722,
      "phy": 5723,
      "▁Indones": 5724,
      "▁Po": 5725,
      "▁governor": 5726,
      "▁polic": 5727,
      "▁\"F": 5728,
      "▁transport": 5729,
      "▁Senator": 5730,
      "▁Fre": 5731,
      "▁enem": 5732,
      "▁happened": 5733,
      "▁occup": 5734,
      "▁Ken": 5735,
      "▁lung": 5736,
      "▁Kentucky": 5737,
      "▁Rod": 5738,
      "TV": 5739,
      "ré": 5740,
      "▁2006,": 5741,
      "▁appointed": 5742,
      "▁passeng": 5743,
      "▁probably": 5744,
      ".\nThe": 5745,
      "▁Swiss": 5746,
      "▁Ham": 5747,
      "▁drink": 5748,
      "▁Kel": 5749,
      "||27": 5750,
      "▁wear": 5751,
      "▁neigh": 5752,
      "▁minor": 5753,
      "\n|}\n\nReferences\n\n": 5754,
      "ally,": 5755,
      "▁cancer\n": 5756,
      "▁Ba": 5757,
      "▁Moscow": 5758,
      "5),": 5759,
      "TA": 5760,
      "▁Ash": 5761,
      "▁actress.": 5762,
      "Japanese": 5763,
      "▁year,": 5764,
      "outheast": 5765,
      "▁While": 5766,
      "▁Stephen": 5767,
      "▁albums\n": 5768,
      "▁product": 5769,
      "▁Gre": 5770,
      "alm": 5771,
      "▁starting": 5772,
      "–18": 5773,
      "lands": 5774,
      "enty": 5775,
      "abad": 5776,
      "▁soldiers": 5777,
      "▁becoming": 5778,
      "▁Lady": 5779,
      "align": 5780,
      "icated": 5781,
      "▁Bh": 5782,
      "▁founder": 5783,
      "ero": 5784,
      "ydney": 5785,
      "ciences": 5786,
      "▁promot": 5787,
      "ened": 5788,
      "▁historian": 5789,
      "▁Dak": 5790,
      "▁fly": 5791,
      "ouch": 5792,
      "▁leading": 5793,
      "||26": 5794,
      "▁flag": 5795,
      "▁Korea": 5796,
      "ienn": 5797,
      "\n\nH": 5798,
      "▁asked": 5799,
      "ora": 5800,
      "ersonal": 5801,
      "▁\"the": 5802,
      "▁Az": 5803,
      "EFA": 5804,
      "▁Mayor": 5805,
      "min": 5806,
      "▁H.": 5807,
      "▁2012,": 5808,
      "▁document": 5809,
      "hol": 5810,
      "ics.": 5811,
      "▁museum": 5812,
      "▁century,": 5813,
      "▁associ": 5814,
      "▁companies": 5815,
      "▁Commission": 5816,
      "▁tall": 5817,
      "▁mole": 5818,
      "||33": 5819,
      "venture": 5820,
      ".\n\nShe": 5821,
      "imal": 5822,
      "ebec": 5823,
      "▁Const": 5824,
      "▁Washington,": 5825,
      "dess": 5826,
      "▁Liber": 5827,
      "||34": 5828,
      "▁Men": 5829,
      "▁Philip": 5830,
      "▁arg": 5831,
      "les.": 5832,
      "▁Cy": 5833,
      "▁Public": 5834,
      "▁60": 5835,
      "▁legal": 5836,
      "▁leave": 5837,
      "▁magazine": 5838,
      "▁eth": 5839,
      "olitical": 5840,
      "85": 5841,
      "▁federal": 5842,
      "▁Science": 5843,
      "▁Bre": 5844,
      "▁officially": 5845,
      "mitted": 5846,
      "▁pneum": 5847,
      "▁Sav": 5848,
      "▁Techn": 5849,
      "▁tournament": 5850,
      "▁Each": 5851,
      "itude": 5852,
      "ela": 5853,
      "▁protect": 5854,
      "ilities": 5855,
      "▁2013,": 5856,
      "▁3:": 5857,
      "emorial": 5858,
      "1),": 5859,
      "teen": 5860,
      "▁Ul": 5861,
      "ophy": 5862,
      "▁don": 5863,
      "▁NHL": 5864,
      "ebr": 5865,
      "oper": 5866,
      "▁Phys": 5867,
      "mad": 5868,
      "▁Mid": 5869,
      "▁businessman": 5870,
      "▁clear": 5871,
      "▁fought": 5872,
      "▁Library": 5873,
      "▁Pictures": 5874,
      "▁your": 5875,
      "▁Castle": 5876,
      "uguese": 5877,
      "ronze": 5878,
      "▁Toronto": 5879,
      "▁pil": 5880,
      "▁Profess": 5881,
      "ready": 5882,
      "▁behind": 5883,
      "s\"": 5884,
      "▁cancer.\n": 5885,
      "▁bass": 5886,
      "▁2021,": 5887,
      "▁private": 5888,
      "▁standard": 5889,
      "▁Jane": 5890,
      "▁log": 5891,
      "▁Websit": 5892,
      "▁Federal": 5893,
      "▁E.": 5894,
      "▁generally": 5895,
      "▁Sax": 5896,
      "-J": 5897,
      "▁web": 5898,
      "▁points": 5899,
      "▁nort": 5900,
      "▁sett": 5901,
      "▁Nap": 5902,
      "▁France,": 5903,
      "▁Fall": 5904,
      "iplom": 5905,
      "▁whole": 5906,
      "▁Space": 5907,
      "▁railway": 5908,
      "3),": 5909,
      "reedom": 5910,
      "▁2009,": 5911,
      "||20": 5912,
      "▁Nord": 5913,
      "▁Calv": 5914,
      "▁running": 5915,
      "pson": 5916,
      "▁sem": 5917,
      "▁write": 5918,
      "▁Company": 5919,
      "▁element": 5920,
      "▁Bat": 5921,
      "aches": 5922,
      "▁slow": 5923,
      "▁Azerbaij": 5924,
      "▁Cop": 5925,
      "én": 5926,
      "▁Ver": 5927,
      "▁true": 5928,
      "▁damage": 5929,
      "▁2015,": 5930,
      "\nPoliticians": 5931,
      "etroit": 5932,
      "▁summer": 5933,
      "▁Top": 5934,
      "▁B.": 5935,
      "||32": 5936,
      "▁feet": 5937,
      "hedral": 5938,
      "ames,": 5939,
      "hat": 5940,
      "▁pand": 5941,
      "▁Sel": 5942,
      "▁Oper": 5943,
      "▁Massachusett": 5944,
      "▁Rang": 5945,
      "▁crim": 5946,
      "FL": 5947,
      "▁According": 5948,
      "▁spent": 5949,
      "ache": 5950,
      "www.": 5951,
      "▁Before": 5952,
      "▁lett": 5953,
      "▁Ott": 5954,
      "||5||0": 5955,
      "▁rather": 5956,
      "||22": 5957,
      "ville,": 5958,
      "36": 5959,
      "▁Light": 5960,
      "▁Tay": 5961,
      "▁hurricane": 5962,
      "▁album,": 5963,
      "▁Philadelph": 5964,
      "▁square": 5965,
      "▁purp": 5966,
      "▁comedian": 5967,
      "ES": 5968,
      "hin": 5969,
      "▁taking": 5970,
      "▁runs": 5971,
      "▁powerful": 5972,
      "▁degree": 5973,
      "▁inhabitants": 5974,
      "elevision": 5975,
      "ère": 5976,
      "▁70": 5977,
      "▁services": 5978,
      "▁walk": 5979,
      "ewish": 5980,
      "▁interview": 5981,
      "▁districts": 5982,
      "▁self": 5983,
      "▁cong": 5984,
      "▁step": 5985,
      "endar": 5986,
      "ell,": 5987,
      "▁jazz": 5988,
      "ierre": 5989,
      "▁addition": 5990,
      "▁Ah": 5991,
      "▁veh": 5992,
      "▁needed": 5993,
      "▁Ast": 5994,
      "▁Belgian": 5995,
      "eral": 5996,
      "etts": 5997,
      "▁stories": 5998,
      "44": 5999,
      "edd": 6000,
      "▁thous": 6001,
      "▁Independ": 6002,
      "▁90": 6003,
      "▁Tokyo": 6004,
      "▁movie.": 6005,
      "▁deep": 6006,
      "▁sym": 6007,
      "75": 6008,
      "ishes": 6009,
      "▁involved": 6010,
      "||25": 6011,
      "▁1918": 6012,
      "▁Line": 6013,
      "▁legisl": 6014,
      "▁genus": 6015,
      "▁performance": 6016,
      "at.": 6017,
      "fall": 6018,
      "ugg": 6019,
      "▁D.": 6020,
      "▁winner": 6021,
      "▁disestablishments": 6022,
      "\n\nInternational": 6023,
      "▁Pen": 6024,
      "▁Lind": 6025,
      "▁neg": 6026,
      "ry.": 6027,
      "lem": 6028,
      "▁Di": 6029,
      "▁Windows": 6030,
      "9/": 6031,
      "▁spl": 6032,
      "iov": 6033,
      "▁news": 6034,
      "88": 6035,
      "den": 6036,
      "▁R.": 6037,
      "s\nThe": 6038,
      "▁Fire": 6039,
      "▁Nations": 6040,
      "▁rules": 6041,
      "||J.": 6042,
      "▁mathematician": 6043,
      "▁Mun": 6044,
      "ardin": 6045,
      "inem": 6046,
      "▁future": 6047,
      "▁Oklahoma": 6048,
      "▁Confeder": 6049,
      "▁Pit": 6050,
      "ism.": 6051,
      "▁Portug": 6052,
      "cticut": 6053,
      "icro": 6054,
      "uh": 6055,
      "vention": 6056,
      "||31": 6057,
      "▁acid": 6058,
      "7),": 6059,
      "▁Valley": 6060,
      "icine": 6061,
      "oven": 6062,
      "▁attempt": 6063,
      "▁already": 6064,
      "antasy": 6065,
      "▁ruled": 6066,
      "▁Sund": 6067,
      "▁goals": 6068,
      "▁Serb": 6069,
      "▁ly": 6070,
      "▁Four": 6071,
      "asion": 6072,
      "isk": 6073,
      "▁bal": 6074,
      "▁controll": 6075,
      "▁professor": 6076,
      "▁pick": 6077,
      "▁Lew": 6078,
      "▁Pennsylvania": 6079,
      "▁Sydney": 6080,
      "▁Wel": 6081,
      "i's": 6082,
      "wide": 6083,
      "▁plat": 6084,
      "chester": 6085,
      "▁Chicag": 6086,
      "▁wrestl": 6087,
      "iny": 6088,
      "andy": 6089,
      "\n200": 6090,
      "▁0.": 6091,
      "weight": 6092,
      "alled": 6093,
      "ito": 6094,
      "▁Bah": 6095,
      "apore": 6096,
      "▁letter": 6097,
      "▁Main": 6098,
      "ipur": 6099,
      "▁turned": 6100,
      "raq": 6101,
      "▁protest": 6102,
      "▁confir": 6103,
      "▁condition": 6104,
      "▁adop": 6105,
      "▁establishment": 6106,
      "▁Afghan": 6107,
      "▁1945": 6108,
      "ba": 6109,
      "▁80": 6110,
      "orporated": 6111,
      "erc": 6112,
      "▁organiz": 6113,
      "▁access": 6114,
      "▁decision": 6115,
      "▁episodes": 6116,
      "athan": 6117,
      "arl": 6118,
      "▁Att": 6119,
      "err": 6120,
      "pected": 6121,
      "8),": 6122,
      "▁Hal": 6123,
      "||24": 6124,
      "▁scored": 6125,
      "▁separate": 6126,
      "-200": 6127,
      "▁dance": 6128,
      "▁structure": 6129,
      "▁Bet": 6130,
      "▁native": 6131,
      "idae": 6132,
      "thing": 6133,
      "▁\n\n198": 6134,
      "▁France.\n\nReferences": 6135,
      "▁territory": 6136,
      "ription": 6137,
      "▁Nick": 6138,
      "▁births\n2019": 6139,
      "▁themselves": 6140,
      "\n\nW": 6141,
      "▁towards": 6142,
      "▁2nd": 6143,
      "▁500": 6144,
      "▁instrument": 6145,
      "▁Ball": 6146,
      "▁whose": 6147,
      "put": 6148,
      "▁Family": 6149,
      "▁Johnson": 6150,
      "▁underst": 6151,
      "uation": 6152,
      "ores": 6153,
      "icted": 6154,
      "▁\n\nCommunes": 6155,
      "vis": 6156,
      "one,": 6157,
      "us\n": 6158,
      "▁1966": 6159,
      "aux": 6160,
      "▁our": 6161,
      "ive,": 6162,
      "▁meant": 6163,
      "▁Sab": 6164,
      "▁older": 6165,
      "▁activist": 6166,
      "▁citizens": 6167,
      "ises": 6168,
      "▁stations": 6169,
      "▁historical": 6170,
      "▁forced": 6171,
      "▁however,": 6172,
      "▁speed": 6173,
      "▁Greg": 6174,
      "▁Pun": 6175,
      "▁Wat": 6176,
      "▁Committee": 6177,
      "\n|-\n|196": 6178,
      "▁systems": 6179,
      "iology": 6180,
      "▁cour": 6181,
      "▁Ut": 6182,
      "||21": 6183,
      "▁software": 6184,
      "▁pers": 6185,
      "▁seasons": 6186,
      "▁Connecticut": 6187,
      "▁II,": 6188,
      "▁News": 6189,
      "▁Feder": 6190,
      "ology,": 6191,
      "am,": 6192,
      "▁States.\n\nCities": 6193,
      "▁kinds": 6194,
      "iab": 6195,
      "state": 6196,
      "||23": 6197,
      "erve": 6198,
      "ati": 6199,
      "ão": 6200,
      "ili": 6201,
      "▁Fe": 6202,
      "▁Gram": 6203,
      "▁education": 6204,
      "▁offer": 6205,
      "as.": 6206,
      "42": 6207,
      ".\n\nJ": 6208,
      "▁Now": 6209,
      "▁Chris": 6210,
      "▁govern": 6211,
      "gn": 6212,
      "▁Work": 6213,
      "aven": 6214,
      "ibb": 6215,
      "▁Princess": 6216,
      "▁Ger": 6217,
      "ceed": 6218,
      "▁2019)": 6219,
      "cott": 6220,
      "▁fore": 6221,
      "▁media": 6222,
      "▁Century": 6223,
      "uses": 6224,
      "lean": 6225,
      "▁Lead": 6226,
      "▁Domin": 6227,
      "▁placed": 6228,
      "▁carry": 6229,
      "▁executive": 6230,
      "▁(8": 6231,
      "istance": 6232,
      "▁chief": 6233,
      "▁edition": 6234,
      "▁people\nFootballers": 6235,
      "▁births\n2017": 6236,
      "bass": 6237,
      "▁independence": 6238,
      "''": 6239,
      "▁Ts": 6240,
      "▁commercial": 6241,
      "▁Oxford": 6242,
      "eor": 6243,
      "▁London,": 6244,
      "▁thriller": 6245,
      "▁Cas": 6246,
      "▁doctor": 6247,
      "ufact": 6248,
      "▁fav": 6249,
      "▁foss": 6250,
      "▁Sus": 6251,
      "▁re-": 6252,
      "gcolor=\"": 6253,
      "▁Abb": 6254,
      "▁Raj": 6255,
      "▁Lor": 6256,
      "▁Gab": 6257,
      "▁mem": 6258,
      "▁danc": 6259,
      "▁Hy": 6260,
      "▁primary": 6261,
      "amber": 6262,
      "ively": 6263,
      "▁Ret": 6264,
      "▁Wik": 6265,
      "▁enc": 6266,
      "▁sister": 6267,
      "||19": 6268,
      "ades": 6269,
      "▁Laur": 6270,
      "▁Americans": 6271,
      "▁Coast": 6272,
      "▁Medal": 6273,
      "▁Supreme": 6274,
      "vest": 6275,
      "▁(for": 6276,
      "gress": 6277,
      "ić": 6278,
      "▁abs": 6279,
      "▁\n\nHe": 6280,
      "▁31,": 6281,
      "▁ways": 6282,
      "||colspan=\"2\"|-||colspan=\"2\"|-": 6283,
      "▁trade": 6284,
      "▁swim": 6285,
      "ko": 6286,
      "real": 6287,
      "ieuten": 6288,
      "▁\"N": 6289,
      "▁\n\n19": 6290,
      "ate.": 6291,
      "uicide": 6292,
      "▁F.": 6293,
      "▁sal": 6294,
      "▁cases": 6295,
      "sec": 6296,
      "inosaur": 6297,
      "s\nPeople": 6298,
      "▁cold": 6299,
      "▁\n\nH": 6300,
      "pa": 6301,
      "▁Web": 6302,
      "▁California.": 6303,
      "▁administrative": 6304,
      "–197": 6305,
      "▁wide": 6306,
      "▁1919": 6307,
      "▁Common": 6308,
      "usc": 6309,
      "▁Bu": 6310,
      "obal": 6311,
      "eful": 6312,
      "▁Wars": 6313,
      "ados": 6314,
      "65": 6315,
      "▁motor": 6316,
      "Related": 6317,
      "▁Hart": 6318,
      "▁van": 6319,
      "amples": 6320,
      "▁2005,": 6321,
      "▁complex": 6322,
      "▁normal": 6323,
      "9),": 6324,
      "▁los": 6325,
      "▁Gro": 6326,
      "▁Hong": 6327,
      "umber": 6328,
      "▁Although": 6329,
      "▁Brad": 6330,
      "▁carbon": 6331,
      "▁Loire": 6332,
      "▁Mas": 6333,
      "▁Nev": 6334,
      "▁Norway": 6335,
      "▁kilomet": 6336,
      "▁IV": 6337,
      "▁nar": 6338,
      "SE": 6339,
      "ii": 6340,
      "▁Network": 6341,
      "▁draw": 6342,
      "▁quickly": 6343,
      "▁editor": 6344,
      "▁season.": 6345,
      "▁passed": 6346,
      "▁according": 6347,
      "41": 6348,
      "▁poor": 6349,
      "▁stadium": 6350,
      "▁flight": 6351,
      "▁fifth": 6352,
      "▁1956": 6353,
      "\nU": 6354,
      "esign": 6355,
      "▁1965": 6356,
      "▁Radio": 6357,
      "▁eventually": 6358,
      "orter": 6359,
      "▁Human": 6360,
      "▁Navy": 6361,
      "▁Marc": 6362,
      "▁1947": 6363,
      "▁Region": 6364,
      "▁lov": 6365,
      "reng": 6366,
      "▁Bow": 6367,
      "▁\nP": 6368,
      "ffic": 6369,
      "▁Kir": 6370,
      "▁mayor": 6371,
      "▁Les": 6372,
      "▁roy": 6373,
      "▁hop": 6374,
      "▁nine": 6375,
      "▁Elect": 6376,
      "▁1948": 6377,
      "▁Dougl": 6378,
      "▁starts": 6379,
      "ricket": 6380,
      "iat": 6381,
      "uly": 6382,
      "▁Tai": 6383,
      "▁Fa": 6384,
      "uther": 6385,
      "\nCh": 6386,
      "ares": 6387,
      "▁diplom": 6388,
      "▁Cross": 6389,
      "▁starred": 6390,
      "▁peace": 6391,
      "urban": 6392,
      "▁Vice": 6393,
      "▁1963": 6394,
      "cu": 6395,
      "▁den": 6396,
      "▁Three": 6397,
      "Station": 6398,
      "▁hundred": 6399,
      "tlant": 6400,
      "usic": 6401,
      "▁2017)": 6402,
      "ension": 6403,
      "▁177": 6404,
      "▁1921": 6405,
      "rence": 6406,
      "▁Mill": 6407,
      "▁Lim": 6408,
      "▁contract": 6409,
      "gcolor=\"#": 6410,
      "▁Stock": 6411,
      "lan": 6412,
      "▁Billboard": 6413,
      "▁factor": 6414,
      "ps": 6415,
      "▁sun": 6416,
      "▁Another": 6417,
      "▁individual": 6418,
      "ieutenant": 6419,
      "▁\n\nMunicipalities": 6420,
      "▁sus": 6421,
      "▁princip": 6422,
      "▁pressure": 6423,
      "erick": 6424,
      "ugby": 6425,
      "▁destroyed": 6426,
      "▁hair": 6427,
      "▁emer": 6428,
      "▁India.": 6429,
      "▁nearly": 6430,
      "▁diss": 6431,
      "▁Hay": 6432,
      "▁Greece": 6433,
      "▁mess": 6434,
      "▁Both": 6435,
      "▁acting": 6436,
      "wed": 6437,
      "▁getting": 6438,
      "▁association": 6439,
      "▁mechan": 6440,
      "▁Massachusetts": 6441,
      "soft": 6442,
      "um,": 6443,
      "ellig": 6444,
      "▁End": 6445,
      "▁Donald": 6446,
      "▁code": 6447,
      "▁Heritage": 6448,
      "▁Ky": 6449,
      "▁yellow": 6450,
      "key": 6451,
      "-time": 6452,
      "light": 6453,
      "▁Micro": 6454,
      "▁Columbia": 6455,
      "Le": 6456,
      "Or": 6457,
      "▁Han": 6458,
      "teg": 6459,
      "▁frequ": 6460,
      "\n|-\n|2000": 6461,
      "va": 6462,
      "▁prevent": 6463,
      "ila": 6464,
      "▁employ": 6465,
      "▁merged": 6466,
      "ulpt": 6467,
      "▁showed": 6468,
      "u.": 6469,
      "▁Moh": 6470,
      "th,": 6471,
      "▁singer\n": 6472,
      "▁nick": 6473,
      "▁stopped": 6474,
      "▁vote": 6475,
      "▁supported": 6476,
      "▁\"s": 6477,
      "▁bridge": 6478,
      "▁matches": 6479,
      "▁figure": 6480,
      "anuary": 6481,
      "ting": 6482,
      "▁Ford": 6483,
      "▁dom": 6484,
      "▁competed": 6485,
      "▁elev": 6486,
      "▁positive": 6487,
      "▁Death": 6488,
      "cycl": 6489,
      "▁Sweden.": 6490,
      "-0": 6491,
      "39": 6492,
      "▁Aut": 6493,
      "-known": 6494,
      "▁Balt": 6495,
      "▁theor": 6496,
      "▁Live": 6497,
      "▁world's": 6498,
      "▁marriage": 6499,
      "▁É": 6500,
      "astic": 6501,
      "▁Open": 6502,
      "▁Wisconsin": 6503,
      "text": 6504,
      ".\n\nAn": 6505,
      "▁further": 6506,
      "▁nuclear": 6507,
      "▁Bir": 6508,
      "▁lake": 6509,
      "▁Lincol": 6510,
      "▁x": 6511,
      "▁later,": 6512,
      "lywood": 6513,
      "land.": 6514,
      "▁Municipality": 6515,
      "▁foot": 6516,
      "▁More": 6517,
      "▁Ly": 6518,
      "▁Justice": 6519,
      "▁universities": 6520,
      "▁+": 6521,
      "inated": 6522,
      "uts": 6523,
      "ikh": 6524,
      "▁humans": 6525,
      "▁anal": 6526,
      "▁Internet": 6527,
      "uildings": 6528,
      "▁Map": 6529,
      "▁kid": 6530,
      "▁piece": 6531,
      "▁Colomb": 6532,
      "▁Australia.": 6533,
      "▁pandemic": 6534,
      "▁Festival": 6535,
      "▁Down": 6536,
      "▁Niger": 6537,
      "ava": 6538,
      "▁religion": 6539,
      "▁Mike": 6540,
      "▁Broad": 6541,
      "berg,": 6542,
      "▁horror": 6543,
      "▁Aqu": 6544,
      "perial": 6545,
      "▁mission": 6546,
      "▁pun": 6547,
      "▁Stanley": 6548,
      "||2\n|-\n|200": 6549,
      "▁Norwegian": 6550,
      "reement": 6551,
      "▁disord": 6552,
      "▁produce": 6553,
      "▁spoken": 6554,
      "rical": 6555,
      "▁Airlines": 6556,
      "▁featured": 6557,
      "▁Belgium": 6558,
      "▁br": 6559,
      "▁room": 6560,
      "▁represented": 6561,
      "▁Marsh": 6562,
      "coh": 6563,
      "overy": 6564,
      "▁1946": 6565,
      "▁islands": 6566,
      "▁L.": 6567,
      "aya": 6568,
      "ings,": 6569,
      "▁Oreg": 6570,
      "▁\"E": 6571,
      "▁1961": 6572,
      "ifican": 6573,
      "razil": 6574,
      "▁that,": 6575,
      "▁it,": 6576,
      "usinesspeople": 6577,
      "zy": 6578,
      "▁Pot": 6579,
      "ists\nAmerican": 6580,
      "-day": 6581,
      "▁California,": 6582,
      "aska": 6583,
      "▁nature": 6584,
      "▁section": 6585,
      "▁pieces": 6586,
      "VD": 6587,
      "▁Home": 6588,
      "▁1962": 6589,
      ".\n\nCh": 6590,
      "▁Div": 6591,
      "▁Heart": 6592,
      "▁tradition": 6593,
      "ra,": 6594,
      "osen": 6595,
      "▁recent": 6596,
      "▁Clark": 6597,
      "▁schools": 6598,
      "P)": 6599,
      "▁Dun": 6600,
      "▁Ariz": 6601,
      "▁covered": 6602,
      "ols": 6603,
      "▁conductor": 6604,
      "▁face": 6605,
      "Politicians": 6606,
      "▁hour": 6607,
      "▁reign": 6608,
      "▁listed": 6609,
      "m.": 6610,
      "▁Post": 6611,
      "ternal": 6612,
      "▁Steve": 6613,
      "▁Dev": 6614,
      "▁charge": 6615,
      "▁terms": 6616,
      "▁officer": 6617,
      "lier": 6618,
      "▁Fore": 6619,
      "66": 6620,
      "▁Mountain": 6621,
      "▁moving": 6622,
      "ji": 6623,
      "▁deal": 6624,
      "ashion": 6625,
      "▁People's": 6626,
      "▁command": 6627,
      "▁Nar": 6628,
      "iful": 6629,
      "▁cells": 6630,
      "ancy": 6631,
      "▁Christmas": 6632,
      "▁beaut": 6633,
      "▁Flight": 6634,
      "▁1952": 6635,
      "▁Nag": 6636,
      "\nDeaths": 6637,
      "\n201": 6638,
      "rime": 6639,
      "pped": 6640,
      "31": 6641,
      "▁Iraq": 6642,
      "▁foreign": 6643,
      "▁UN": 6644,
      "▁Walter": 6645,
      "▁Anne": 6646,
      "▁nation": 6647,
      "▁respect": 6648,
      "ovak": 6649,
      "▁Anth": 6650,
      "▁guitarist": 6651,
      "32": 6652,
      "▁fruit": 6653,
      "▁Band": 6654,
      "▁simply": 6655,
      "▁friends": 6656,
      "▁Jesus": 6657,
      "▁Econom": 6658,
      "▁minister": 6659,
      "▁Cab": 6660,
      "▁\nT": 6661,
      "▁actors\nEnglish": 6662,
      "present": 6663,
      "▁No.": 6664,
      "▁singer,": 6665,
      "han": 6666,
      "▁cust": 6667,
      "leyball": 6668,
      "ervative": 6669,
      "▁1936": 6670,
      "▁3.": 6671,
      "▁bab": 6672,
      "iginal": 6673,
      "▁style=\"": 6674,
      "▁measure": 6675,
      "▁Coll": 6676,
      "▁scientists": 6677,
      "▁planet": 6678,
      "onent": 6679,
      "▁artists": 6680,
      "enez": 6681,
      "▁Turkey": 6682,
      "▁physical": 6683,
      "▁Last": 6684,
      "▁composed": 6685,
      "like": 6686,
      "aring": 6687,
      "book": 6688,
      "▁Croat": 6689,
      "▁base": 6690,
      "▁priest": 6691,
      "raine": 6692,
      "▁atom": 6693,
      "▁why": 6694,
      "▁Storm": 6695,
      "▁1942": 6696,
      "-7": 6697,
      "▁Tem": 6698,
      "&B": 6699,
      "▁wat": 6700,
      "▁init": 6701,
      "isation": 6702,
      "▁Sher": 6703,
      "▁Gall": 6704,
      "▁Victoria": 6705,
      "en\n": 6706,
      "▁Tony": 6707,
      "▁channel": 6708,
      "▁Liga": 6709,
      "ips": 6710,
      "▁article": 6711,
      "illed": 6712,
      "▁Hard": 6713,
      "emon": 6714,
      "ye": 6715,
      "ish,": 6716,
      "▁provinces": 6717,
      "▁wild": 6718,
      "▁Whit": 6719,
      "bury": 6720,
      "ping": 6721,
      "▁Service": 6722,
      "▁(V": 6723,
      "▁Holy": 6724,
      "▁complications": 6725,
      "▁ach": 6726,
      "▁Pap": 6727,
      "▁temp": 6728,
      "▁divor": 6729,
      "▁\n\nD": 6730,
      "exual": 6731,
      "▁(district": 6732,
      "500": 6733,
      "▁Dor": 6734,
      "▁sculpt": 6735,
      "▁launched": 6736,
      "59": 6737,
      "▁folk": 6738,
      "ashi": 6739,
      "ervation": 6740,
      "▁Walk": 6741,
      "acc": 6742,
      "rin": 6743,
      "▁Finn": 6744,
      "▁colour": 6745,
      "▁bring": 6746,
      "▁singles": 6747,
      "ographic": 6748,
      "▁Premier": 6749,
      "||0\n": 6750,
      "▁sail": 6751,
      "▁Times": 6752,
      "2020": 6753,
      "▁value": 6754,
      "▁complete": 6755,
      "▁airport": 6756,
      "▁Od": 6757,
      "▁distance": 6758,
      "▁Educ": 6759,
      "h,": 6760,
      "▁appearance": 6761,
      "▁bacter": 6762,
      "box": 6763,
      "change": 6764,
      "▁Website": 6765,
      "▁ancest": 6766,
      "▁births\n2018": 6767,
      "▁Madrid": 6768,
      "hich": 6769,
      "io,": 6770,
      "▁Detroit": 6771,
      "▁contrib": 6772,
      "▁flows": 6773,
      "▁Hamp": 6774,
      "ault": 6775,
      "ga": 6776,
      "▁Bon": 6777,
      "▁Channel": 6778,
      "undesl": 6779,
      "56": 6780,
      "aped": 6781,
      "57": 6782,
      "oke": 6783,
      "▁footballers": 6784,
      "▁1954": 6785,
      "▁\nH": 6786,
      "▁meters": 6787,
      "ymph": 6788,
      "▁Wolf": 6789,
      "ov,": 6790,
      "▁Islamic": 6791,
      "s.\n\nIn": 6792,
      "▁buried": 6793,
      "▁Hom": 6794,
      "▁\nW": 6795,
      "au,": 6796,
      "▁Alexand": 6797,
      "▁mixed": 6798,
      "▁series.": 6799,
      "▁bronze": 6800,
      "▁account": 6801,
      "▁tennis": 6802,
      "▁inse": 6803,
      "▁rat": 6804,
      "▁Ais": 6805,
      "ountains": 6806,
      "▁literature": 6807,
      "m,": 6808,
      "▁Kat": 6809,
      "▁contest": 6810,
      "val": 6811,
      "wo": 6812,
      "aled": 6813,
      "▁Bos": 6814,
      "▁reach": 6815,
      "aked": 6816,
      "▁Ancient": 6817,
      "▁1958": 6818,
      "▁simple": 6819,
      "▁lines": 6820,
      "▁und": 6821,
      "▁Pic": 6822,
      "▁Jones": 6823,
      "ant,": 6824,
      "▁Power": 6825,
      "▁Abd": 6826,
      "▁Tennessee": 6827,
      "▁branch": 6828,
      "▁weight": 6829,
      "▁Pas-de-Calais": 6830,
      "▁stroke": 6831,
      "▁results": 6832,
      "▁kingdom": 6833,
      "▁threat": 6834,
      "leveland": 6835,
      "▁drum": 6836,
      "\nWriters": 6837,
      "enh": 6838,
      "▁liqu": 6839,
      "▁Vienn": 6840,
      "▁prem": 6841,
      "▁referred": 6842,
      "▁\n\n197": 6843,
      "▁children.": 6844,
      "▁1939": 6845,
      "▁Argentine": 6846,
      "▁actually": 6847,
      "▁1949": 6848,
      "▁Ern": 6849,
      "oiced": 6850,
      "▁Eth": 6851,
      "▁Records": 6852,
      "Indian": 6853,
      "g.": 6854,
      "wright": 6855,
      "▁Corpor": 6856,
      "▁racing": 6857,
      "p.": 6858,
      "▁personality": 6859,
      "ients": 6860,
      "▁Tar": 6861,
      "▁entertain": 6862,
      "▁evolution": 6863,
      "iop": 6864,
      "rac": 6865,
      "▁Inst": 6866,
      "rogen": 6867,
      "eam": 6868,
      "nel": 6869,
      "▁1941": 6870,
      "38": 6871,
      "▁Dam": 6872,
      "A.": 6873,
      "▁Research": 6874,
      "▁die": 6875,
      "▁Your": 6876,
      "▁1944": 6877,
      "▁country.": 6878,
      "▁troops": 6879,
      "met": 6880,
      "upp": 6881,
      ".\n\nReferences\n\nCities": 6882,
      "▁Cur": 6883,
      "onde": 6884,
      "▁begins": 6885,
      "▁Hawai": 6886,
      "▁Berg": 6887,
      "▁upon": 6888,
      "▁dial": 6889,
      "velopment": 6890,
      "▁Khan": 6891,
      "oration": 6892,
      "isa": 6893,
      "▁Rem": 6894,
      "▁streng": 6895,
      "aph": 6896,
      "▁Beach": 6897,
      "▁Boston": 6898,
      "▁cras": 6899,
      "atin": 6900,
      "▁fle": 6901,
      "▁(2000": 6902,
      "▁Nintendo": 6903,
      "▁memb": 6904,
      "▁Bridge": 6905,
      ".\n\nBiography": 6906,
      "▁voc": 6907,
      "▁earthqu": 6908,
      "una": 6909,
      "▁flu": 6910,
      "▁Queens": 6911,
      "▁\n\nF": 6912,
      "▁headqu": 6913,
      "▁taught": 6914,
      "▁Ir": 6915,
      "▁online": 6916,
      "▁flood": 6917,
      "▁Trump": 6918,
      "▁bit": 6919,
      "▁CD": 6920,
      "▁widely": 6921,
      "▁Kaz": 6922,
      "aily": 6923,
      "eget": 6924,
      "igen": 6925,
      "▁imm": 6926,
      "▁Gir": 6927,
      "▁families": 6928,
      "-le": 6929,
      "▁brand": 6930,
      "igg": 6931,
      ".\n\nAs": 6932,
      "▁Singapore": 6933,
      "67": 6934,
      "▁manufact": 6935,
      "▁(),": 6936,
      "▁Bull": 6937,
      "ques": 6938,
      "phab": 6939,
      "▁economic": 6940,
      "▁Denmark": 6941,
      "III": 6942,
      "heastern": 6943,
      "▁altern": 6944,
      "asing": 6945,
      "▁Dream": 6946,
      "ressed": 6947,
      "▁poll": 6948,
      "▁NAS": 6949,
      "ransit": 6950,
      "▁contain": 6951,
      "▁Television": 6952,
      "▁concert": 6953,
      "-9": 6954,
      "▁2018)": 6955,
      "▁Israeli": 6956,
      "▁Conference": 6957,
      "▁Rac": 6958,
      "▁Vin": 6959,
      "▁Michel": 6960,
      "▁Chap": 6961,
      "▁monarch": 6962,
      "▁Fair": 6963,
      "▁significan": 6964,
      "-K": 6965,
      "chen": 6966,
      "▁\nD": 6967,
      "▁resident": 6968,
      "▁Egyptian": 6969,
      "▁Arts": 6970,
      "▁team.": 6971,
      "▁recording": 6972,
      "▁whether": 6973,
      "▁Johann": 6974,
      "▁2004,": 6975,
      "▁leaves": 6976,
      "▁likely": 6977,
      "▁Special": 6978,
      "▁beat": 6979,
      "▁allows": 6980,
      "▁supp": 6981,
      "▁regions": 6982,
      "-Alp": 6983,
      "▁ess": 6984,
      "ania": 6985,
      "\n|}\n\nInternational": 6986,
      "▁Card": 6987,
      "▁studies": 6988,
      "▁Quebec": 6989,
      "▁Gord": 6990,
      "▁1959": 6991,
      "rainian": 6992,
      "▁fund": 6993,
      "▁family.": 6994,
      "frican": 6995,
      "▁UEFA": 6996,
      "▁goddess": 6997,
      "--": 6998,
      "iques": 6999,
      "olle": 7000,
      "▁skin": 7001,
      "▁reading": 7002,
      "jab": 7003,
      "ori": 7004,
      "▁Ot": 7005,
      "▁Tal": 7006,
      "▁parties": 7007,
      "▁website\n\n": 7008,
      "▁children's": 7009,
      "oen": 7010,
      "ipe": 7011,
      "▁writer,": 7012,
      "▁Australia\n": 7013,
      "▁life.": 7014,
      "▁Win": 7015,
      "▁Kal": 7016,
      "▁doing": 7017,
      "▁1933": 7018,
      "▁Brother": 7019,
      "s\nR": 7020,
      "▁1957": 7021,
      "rant": 7022,
      "▁Territory": 7023,
      "▁Mand": 7024,
      "▁Organ": 7025,
      "▁cho": 7026,
      "▁Nep": 7027,
      "▁Beat": 7028,
      "▁fighting": 7029,
      "-Ch": 7030,
      "onom": 7031,
      "▁Brian": 7032,
      "▁Jord": 7033,
      "one.": 7034,
      "▁bul": 7035,
      "▁\n\nR": 7036,
      "ottom": 7037,
      "▁parliament": 7038,
      "▁\"J": 7039,
      "▁\n\n193": 7040,
      "ighter": 7041,
      "ms": 7042,
      "ami": 7043,
      "▁1929": 7044,
      "▁label": 7045,
      "34": 7046,
      "érie": 7047,
      "▁Later": 7048,
      ".\n\nTowns": 7049,
      "pite": 7050,
      "▁bought": 7051,
      "▁dé": 7052,
      "▁gal": 7053,
      "▁Gil": 7054,
      "erved": 7055,
      "▁Marie": 7056,
      "rovers": 7057,
      "▁Lincoln": 7058,
      "rav": 7059,
      "–0": 7060,
      "▁4:": 7061,
      "weet": 7062,
      "▁Bavaria": 7063,
      "▁Buddh": 7064,
      "▁area.": 7065,
      "ovember": 7066,
      "▁Ministers": 7067,
      "▁confirmed": 7068,
      "▁teen": 7069,
      "arp": 7070,
      "ocol": 7071,
      "▁City.": 7072,
      "▁Patrick": 7073,
      "▁music.": 7074,
      "water": 7075,
      "▁bishop": 7076,
      "ivor": 7077,
      "▁strip": 7078,
      "▁Baseball": 7079,
      "ardo": 7080,
      "▁earlier": 7081,
      "▁territ": 7082,
      "▁Aisne": 7083,
      "▁danger": 7084,
      "▁union": 7085,
      "1980s": 7086,
      "▁refers": 7087,
      "f\"|": 7088,
      "▁\n\n194": 7089,
      "▁Bush": 7090,
      "▁Lyn": 7091,
      "residents": 7092,
      "▁(district)": 7093,
      "▁sell": 7094,
      "rows": 7095,
      "▁lawyer": 7096,
      "2019": 7097,
      "arters": 7098,
      "||6||0": 7099,
      "▁Harv": 7100,
      "▁Francis": 7101,
      "CO": 7102,
      "▁Cost": 7103,
      "\n|b": 7104,
      "–present": 7105,
      "▁winter": 7106,
      "cha": 7107,
      "▁Office": 7108,
      "▁Hungarian": 7109,
      "y\n": 7110,
      "▁Bi": 7111,
      "rak": 7112,
      "rice": 7113,
      "ers\nAmerican": 7114,
      "▁surg": 7115,
      "ounter": 7116,
      "▁Free": 7117,
      "ager": 7118,
      "▁appl": 7119,
      "▁Palace": 7120,
      "-Alpes": 7121,
      "▁bor": 7122,
      "▁evidence": 7123,
      "iance": 7124,
      "▁1955": 7125,
      "▁José": 7126,
      "ht": 7127,
      "-like": 7128,
      "ent,": 7129,
      "▁York,": 7130,
      "▁1928": 7131,
      "▁appears": 7132,
      "▁Affair": 7133,
      "▁Nik": 7134,
      "▁elements": 7135,
      "vin": 7136,
      "▁majority": 7137,
      "▁graph": 7138,
      "iform": 7139,
      "||1\n|-\n|199": 7140,
      "▁candidate": 7141,
      "▁newspaper": 7142,
      "December": 7143,
      "▁engineer": 7144,
      "▁begin": 7145,
      "▁Islands": 7146,
      "▁fir": 7147,
      "ment,": 7148,
      "▁Arn": 7149,
      "▁2:": 7150,
      "▁unknown": 7151,
      "▁trying": 7152,
      "▁greatest": 7153,
      "▁Rel": 7154,
      "▁comic": 7155,
      "▁weather": 7156,
      "▁cab": 7157,
      "▁pair": 7158,
      "▁hours": 7159,
      "▁Hans": 7160,
      ".\nM": 7161,
      "▁nob": 7162,
      "▁influence": 7163,
      "usion": 7164,
      "▁Ref": 7165,
      "ultural": 7166,
      "▁map": 7167,
      "▁Sev": 7168,
      "raction": 7169,
      "▁Christopher": 7170,
      "▁1951": 7171,
      "ancial": 7172,
      "▁oppos": 7173,
      "▁birds": 7174,
      "▁Ho": 7175,
      "▁Head": 7176,
      "▁emperor": 7177,
      "▁categ": 7178,
      "▁mamm": 7179,
      "▁3rd": 7180,
      "▁Chicago,": 7181,
      "olved": 7182,
      "▁America.": 7183,
      "Jewish": 7184,
      "alem": 7185,
      "▁reaction": 7186,
      "ubb": 7187,
      "▁Doctor": 7188,
      "i)": 7189,
      "▁Burn": 7190,
      "▁entered": 7191,
      "ttp://www.": 7192,
      "aga": 7193,
      "▁helps": 7194,
      "▁35": 7195,
      ".\n\nAl": 7196,
      "isease": 7197,
      "▁determ": 7198,
      "ione": 7199,
      "▁Like": 7200,
      "▁comment": 7201,
      "▁subst": 7202,
      "liest": 7203,
      "▁cred": 7204,
      "▁remains": 7205,
      "▁machine": 7206,
      "razilian": 7207,
      "5\"|": 7208,
      "itation": 7209,
      "▁units": 7210,
      "▁Exp": 7211,
      "▁completed": 7212,
      "▁Hu": 7213,
      "▁dro": 7214,
      "▁belief": 7215,
      "ham,": 7216,
      "▁1943": 7217,
      "▁Party.": 7218,
      "||||||||||||||||": 7219,
      "▁Portuguese": 7220,
      "▁suicide": 7221,
      "ities\n": 7222,
      "▁hero": 7223,
      "ary,": 7224,
      "▁Circ": 7225,
      "s.\n\nS": 7226,
      "▁(10": 7227,
      "zo": 7228,
      "all,": 7229,
      "▁\n\nW": 7230,
      "▁178": 7231,
      "▁water.": 7232,
      "▁Jenn": 7233,
      "▁nickn": 7234,
      "feld": 7235,
      "▁Ard": 7236,
      "▁cook": 7237,
      "▁rob": 7238,
      "▁Stat": 7239,
      "▁buy": 7240,
      "▁Mississippi": 7241,
      "y's": 7242,
      "▁worldwide": 7243,
      "▁Wilson": 7244,
      "▁England,": 7245,
      "▁educator": 7246,
      "rison": 7247,
      "▁Tan": 7248,
      "ch,": 7249,
      "▁1934": 7250,
      "▁communities": 7251,
      "▁athlet": 7252,
      "-n": 7253,
      "utt": 7254,
      "\n199": 7255,
      "▁Board": 7256,
      "ensity": 7257,
      "mann": 7258,
      "▁feature": 7259,
      "▁Even": 7260,
      "awn": 7261,
      "▁reve": 7262,
      "▁Stand": 7263,
      "▁applic": 7264,
      "▁calendar": 7265,
      "ier,": 7266,
      "▁ending": 7267,
      "▁Kan": 7268,
      "▁Douglas": 7269,
      "▁1935": 7270,
      "\nSt": 7271,
      "▁Only": 7272,
      "▁(since": 7273,
      ";\n": 7274,
      "Up": 7275,
      "▁Creek": 7276,
      "ryst": 7277,
      "▁direction": 7278,
      "▁Hun": 7279,
      "▁winners": 7280,
      "Australian": 7281,
      "ban": 7282,
      "▁disp": 7283,
      "▁Louisian": 7284,
      "▁theatre": 7285,
      "-based": 7286,
      "undesliga": 7287,
      "gen": 7288,
      "▁scientific": 7289,
      "aded": 7290,
      "partement": 7291,
      "▁Professor": 7292,
      "house": 7293,
      "omm": 7294,
      "▁Bishop": 7295,
      "▁closed": 7296,
      "▁1932": 7297,
      "69": 7298,
      "Ph": 7299,
      "ures.": 7300,
      "dam": 7301,
      "onse": 7302,
      "▁day,": 7303,
      "wer": 7304,
      "▁pap": 7305,
      "▁numer": 7306,
      "▁Centre": 7307,
      "burg,": 7308,
      "o's": 7309,
      "▁construction": 7310,
      "▁fictional": 7311,
      "▁painting": 7312,
      "▁Story": 7313,
      "▁consist": 7314,
      "▁Mexic": 7315,
      "center": 7316,
      "▁plane": 7317,
      "▁\"b": 7318,
      "▁Shah": 7319,
      "▁speech": 7320,
      ".\n\nThis": 7321,
      "▁Turkish": 7322,
      "▁statistics\n\n|-\n|199": 7323,
      "on\n": 7324,
      "▁graduated": 7325,
      "cyclop": 7326,
      "pool": 7327,
      "▁cam": 7328,
      "▁profile": 7329,
      "▁cloth": 7330,
      "▁equal": 7331,
      "▁victim": 7332,
      "▁Winn": 7333,
      "▁solid": 7334,
      "▁Sports": 7335,
      "▁1931": 7336,
      "▁giving": 7337,
      "▁Dark": 7338,
      ".\n\nSome": 7339,
      "▁council": 7340,
      "▁micro": 7341,
      "resh": 7342,
      "ledge": 7343,
      "▁Health": 7344,
      "▁city.": 7345,
      "▁dry": 7346,
      "▁ring": 7347,
      "▁1926": 7348,
      "▁Deputy": 7349,
      "OS": 7350,
      "vi": 7351,
      "rupt": 7352,
      "a\nC": 7353,
      "▁consists": 7354,
      "uerto": 7355,
      "▁alcoh": 7356,
      "▁specific": 7357,
      "▁\n\n18": 7358,
      "▁Plan": 7359,
      "ova": 7360,
      "▁impro": 7361,
      "▁heat": 7362,
      "▁2000,": 7363,
      "▁quite": 7364,
      "die": 7365,
      "ford,": 7366,
      "orb": 7367,
      "aro": 7368,
      "▁\n\nL": 7369,
      "vents": 7370,
      "▁remained": 7371,
      "iscography": 7372,
      "gu": 7373,
      "▁trip": 7374,
      "▁\nL": 7375,
      "orning": 7376,
      "ception": 7377,
      "▁solo": 7378,
      "dorf": 7379,
      "▁paper": 7380,
      "▁Hurricane": 7381,
      "▁spirit": 7382,
      "▁upper": 7383,
      "-18": 7384,
      "▁Angeles,": 7385,
      "▁Test": 7386,
      "▁P.": 7387,
      "▁loss": 7388,
      "▁Na": 7389,
      "ic.": 7390,
      "▁chosen": 7391,
      "▁season,": 7392,
      "▁(which": 7393,
      "enezuel": 7394,
      "rag": 7395,
      "worth": 7396,
      "▁Der": 7397,
      "▁Dog": 7398,
      "oca": 7399,
      "▁activities": 7400,
      "\n\n19": 7401,
      "▁Earl": 7402,
      "▁cultural": 7403,
      "fort": 7404,
      "2010": 7405,
      "▁1938": 7406,
      "▁percent": 7407,
      "||rowspan=\"5\"|": 7408,
      "68": 7409,
      "hatt": 7410,
      "alle": 7411,
      "▁Yam": 7412,
      "-design": 7413,
      "pe,": 7414,
      "olas": 7415,
      "▁Hit": 7416,
      "▁groups\n": 7417,
      "▁investig": 7418,
      "▁letters": 7419,
      "▁mouth": 7420,
      "uki": 7421,
      "▁fair": 7422,
      "▁Tamil": 7423,
      ".\n\nReferences\n\n196": 7424,
      "▁replace": 7425,
      "▁Da": 7426,
      "ika": 7427,
      "ographical": 7428,
      "-2": 7429,
      "▁lin": 7430,
      "▁Karl": 7431,
      "▁brown": 7432,
      "▁1937": 7433,
      "▁basic": 7434,
      "▁singer-songwriter": 7435,
      "▁Su": 7436,
      "car": 7437,
      "▁parish": 7438,
      "▁lyric": 7439,
      "▁split": 7440,
      "▁Tak": 7441,
      "ent.": 7442,
      "da": 7443,
      "▁Master": 7444,
      "ages.": 7445,
      "▁rich": 7446,
      "▁1953": 7447,
      "▁attacked": 7448,
      "▁Roll": 7449,
      "▁insp": 7450,
      ".\n\nPl": 7451,
      "illeg": 7452,
      "Spanish": 7453,
      "ör": 7454,
      "ife,": 7455,
      "rief": 7456,
      "▁constitution": 7457,
      "evin": 7458,
      "▁1927": 7459,
      ".\n\nPersonal": 7460,
      "▁double": 7461,
      "▁Chem": 7462,
      "▁confl": 7463,
      "▁regard": 7464,
      "anced": 7465,
      "58": 7466,
      "▁Hug": 7467,
      "anna": 7468,
      "▁exact": 7469,
      "▁younger": 7470,
      "▁react": 7471,
      "▁northeast": 7472,
      "▁Tag": 7473,
      "▁Hou": 7474,
      "ontin": 7475,
      "▁longest": 7476,
      "▁crash": 7477,
      "rect": 7478,
      "▁alg": 7479,
      "▁Beng": 7480,
      "▁Field": 7481,
      "▁Upper": 7482,
      "▁Alfred": 7483,
      "▁Microsoft": 7484,
      "wick": 7485,
      "\nMovies": 7486,
      "▁2010.": 7487,
      "thod": 7488,
      "rank": 7489,
      "▁Spring": 7490,
      "▁versions": 7491,
      "-to": 7492,
      "▁Sciences": 7493,
      "oyd": 7494,
      "▁Somme": 7495,
      "▁batt": 7496,
      "▁Brand": 7497,
      "ures,": 7498,
      "▁associated": 7499,
      "ive.": 7500,
      "bourne": 7501,
      "▁Moon": 7502,
      "▁really": 7503,
      "▁Ali": 7504,
      "▁operating": 7505,
      "▁declared": 7506,
      "▁Cra": 7507,
      "▁Mov": 7508,
      "▁Kash": 7509,
      "▁Germany,": 7510,
      "▁London.": 7511,
      "▁Louisiana": 7512,
      "-O": 7513,
      "▁IS": 7514,
      "anga": 7515,
      "▁series,": 7516,
      "town": 7517,
      "▁Peace": 7518,
      "shire,": 7519,
      "▁website\n": 7520,
      "▁connected": 7521,
      "▁département": 7522,
      "Qu": 7523,
      "tsburgh": 7524,
      "▁War.": 7525,
      "rator": 7526,
      "▁1925": 7527,
      "▁illust": 7528,
      "-St": 7529,
      "0)": 7530,
      "D.": 7531,
      "ilip": 7532,
      "imately": 7533,
      "-designated": 7534,
      "isi": 7535,
      "▁Prix": 7536,
      "▁bound": 7537,
      "▁Wy": 7538,
      "lyn": 7539,
      "▁defin": 7540,
      "mouth": 7541,
      "atab": 7542,
      "▁Ren": 7543,
      "iano": 7544,
      "▁detail": 7545,
      "ance,": 7546,
      "▁prime": 7547,
      "▁oxyg": 7548,
      "▁earned": 7549,
      "▁Formula": 7550,
      "▁Theatre": 7551,
      "▁Ra": 7552,
      "s\nL": 7553,
      "medi": 7554,
      "51": 7555,
      "▁Sn": 7556,
      "▁2001,": 7557,
      "▁Alabama": 7558,
      "▁Well": 7559,
      "ology.": 7560,
      "▁settle": 7561,
      "▁pal": 7562,
      "▁str": 7563,
      "▁royal": 7564,
      "ates,": 7565,
      "▁2007.": 7566,
      "▁needs": 7567,
      "▁Railway": 7568,
      "mission": 7569,
      "je": 7570,
      "an\n": 7571,
      "▁\"O": 7572,
      "▁Minnesota": 7573,
      "ations.": 7574,
      "s\nD": 7575,
      "▁Lawrence": 7576,
      "rt": 7577,
      "▁southeast": 7578,
      "▁2011.": 7579,
      "ante": 7580,
      "ence,": 7581,
      "mont": 7582,
      "▁recognized": 7583,
      "▁Lower": 7584,
      "▁actress,": 7585,
      "▁2003,": 7586,
      "▁urban": 7587,
      "▁Inf": 7588,
      "▁exc": 7589,
      "▁Bros.": 7590,
      "▁DNA": 7591,
      "comp": 7592,
      "▁Malays": 7593,
      "▁Metropolitan": 7594,
      "eline": 7595,
      "▁conqu": 7596,
      "▁pilot": 7597,
      ".\nS": 7598,
      "▁births\n2014": 7599,
      "▁diseas": 7600,
      "▁Afghanistan": 7601,
      "▁Netherlands": 7602,
      "ysis": 7603,
      "▁explor": 7604,
      "▁looks": 7605,
      "▁tribut": 7606,
      "▁copies": 7607,
      "▁movie,": 7608,
      "stitu": 7609,
      "▁platform": 7610,
      "▁tail": 7611,
      "▁opt": 7612,
      "▁minutes": 7613,
      "54": 7614,
      "National": 7615,
      "–1": 7616,
      "▁mention": 7617,
      "asters": 7618,
      "itting": 7619,
      "ina,": 7620,
      "rell": 7621,
      "ads": 7622,
      "▁2009.": 7623,
      "▁unc": 7624,
      "▁serving": 7625,
      "▁Anthony": 7626,
      "celand": 7627,
      "▁Maur": 7628,
      "▁crew": 7629,
      "arily": 7630,
      "ando": 7631,
      "▁responsible": 7632,
      "▁(se": 7633,
      "▁fort": 7634,
      "ublish": 7635,
      "ía": 7636,
      "▁Native": 7637,
      "▁Var": 7638,
      "▁Forest": 7639,
      "rait": 7640,
      "s.\n\nA": 7641,
      "▁industry": 7642,
      "▁Walt": 7643,
      "▁athlete": 7644,
      "ations,": 7645,
      "▁Margar": 7646,
      "▁Project": 7647,
      "▁Modern": 7648,
      "▁sequel": 7649,
      "▁Pur": 7650,
      "oka": 7651,
      "▁roll": 7652,
      "▁nearby": 7653,
      ".\n\nWhen": 7654,
      "▁Calvados": 7655,
      "\n19": 7656,
      "▁sleep": 7657,
      "▁Ronald": 7658,
      "las": 7659,
      "▁\nF": 7660,
      "▁University.": 7661,
      "▁criminal": 7662,
      "▁world,": 7663,
      "▁G.": 7664,
      "▁diagn": 7665,
      "otte": 7666,
      "bro": 7667,
      "▁Lux": 7668,
      ".\n\nCareer": 7669,
      "zen": 7670,
      "▁row": 7671,
      "urope": 7672,
      "▁What": 7673,
      "\n|bgcolor=\"#": 7674,
      "▁Jam": 7675,
      "▁technology": 7676,
      "▁Frederick": 7677,
      "▁Ath": 7678,
      "▁Bure": 7679,
      "▁Alan": 7680,
      "-en": 7681,
      "▁\"K": 7682,
      "▁2008.": 7683,
      "▁Foundation": 7684,
      "▁fix": 7685,
      "▁Tun": 7686,
      "▁Back": 7687,
      "▁column": 7688,
      "▁scientist": 7689,
      "lock": 7690,
      "▁rate": 7691,
      "C)": 7692,
      "▁iron": 7693,
      "alo": 7694,
      "▁covers": 7695,
      "▁stream": 7696,
      "▁\"c": 7697,
      "osphere": 7698,
      "▁Iranian": 7699,
      "ears": 7700,
      "istricts": 7701,
      "▁Manipur": 7702,
      "▁provide": 7703,
      "adesh": 7704,
      "thodox": 7705,
      "▁path": 7706,
      "▁hunt": 7707,
      "▁concent": 7708,
      "▁treatment": 7709,
      "AA": 7710,
      "get": 7711,
      "▁Dall": 7712,
      "▁km2": 7713,
      "wedish": 7714,
      "ully": 7715,
      "▁Welsh": 7716,
      "▁illeg": 7717,
      "▁America,": 7718,
      "▁removed": 7719,
      "▁Taylor": 7720,
      "▁alphab": 7721,
      "ure,": 7722,
      "▁Produ": 7723,
      "▁books\n": 7724,
      "▁Il": 7725,
      "oslav": 7726,
      "▁aired": 7727,
      "▁system.": 7728,
      "kins": 7729,
      "lack": 7730,
      ".\n\nCast": 7731,
      "eding": 7732,
      "▁Gulf": 7733,
      "▁\n\nG": 7734,
      "▁happens": 7735,
      "▁\nG": 7736,
      "sey": 7737,
      "▁Guard": 7738,
      "▁musicians": 7739,
      "▁ranked": 7740,
      "▁Also,": 7741,
      "▁vide": 7742,
      "▁\"f": 7743,
      "▁keyboard": 7744,
      "-old": 7745,
      "▁prot": 7746,
      "orney": 7747,
      "▁restaur": 7748,
      ".\nA": 7749,
      "▁2014)": 7750,
      "▁saying": 7751,
      "▁Bart": 7752,
      "▁background": 7753,
      "▁neighbor": 7754,
      "77": 7755,
      "atar": 7756,
      "Premier": 7757,
      "▁Anna": 7758,
      "▁Australia,": 7759,
      "▁Disc": 7760,
      "▁them,": 7761,
      "rees": 7762,
      "▁Records\n": 7763,
      "▁2013.": 7764,
      "ibility": 7765,
      "▁writers": 7766,
      "▁terror": 7767,
      "▁training": 7768,
      "53": 7769,
      "IV": 7770,
      "▁Lov": 7771,
      "▁street": 7772,
      "▁Andre": 7773,
      "onder": 7774,
      ".\n\nU": 7775,
      ")\nM": 7776,
      "ah,": 7777,
      "inth": 7778,
      "▁Globe": 7779,
      "▁leaving": 7780,
      "▁1924": 7781,
      "▁awards": 7782,
      "ône": 7783,
      "▁Eric": 7784,
      "▁\n\n196": 7785,
      "▁director,": 7786,
      "▁orbit": 7787,
      "▁Memorial": 7788,
      ".\n\nReferences\n\nM": 7789,
      "▁opening": 7790,
      "▁defeat": 7791,
      "isease-related": 7792,
      "kh": 7793,
      "▁Boe": 7794,
      "▁deaths\nC": 7795,
      "▁ends": 7796,
      "▁carried": 7797,
      "▁holds": 7798,
      "▁wants": 7799,
      "ale,": 7800,
      "orph": 7801,
      "▁CE": 7802,
      "stan": 7803,
      "usalem": 7804,
      "20th": 7805,
      "▁assistant": 7806,
      "atures": 7807,
      "▁death.": 7808,
      "▁Danish": 7809,
      "ue,": 7810,
      "▁University,": 7811,
      "▁(16": 7812,
      "▁physician": 7813,
      "▁Italy.": 7814,
      "▁festival": 7815,
      "▁Rap": 7816,
      "▁Jay": 7817,
      "▁\"d": 7818,
      "▁succeed": 7819,
      "▁Nazi": 7820,
      "▁significant": 7821,
      "La": 7822,
      "▁Ross": 7823,
      "▁\n\n195": 7824,
      "▁twice": 7825,
      "▁episod": 7826,
      "▁Six": 7827,
      "▁extra": 7828,
      "▁Punjab": 7829,
      "▁indic": 7830,
      "▁liquid": 7831,
      "▁Matt": 7832,
      "▁ability": 7833,
      "rm": 7834,
      "▁whom": 7835,
      "▁shape": 7836,
      "iamond": 7837,
      "▁captured": 7838,
      "▁Colorado": 7839,
      "▁births\n200": 7840,
      "▁Guine": 7841,
      "hammad": 7842,
      "▁countries.": 7843,
      "▁watch": 7844,
      "▁Persian": 7845,
      "▁adopted": 7846,
      "el.": 7847,
      "▁driver": 7848,
      "iya": 7849,
      "▁houses": 7850,
      "▁Philippines": 7851,
      "▁Roger": 7852,
      "cano": 7853,
      "▁pack": 7854,
      "ages,": 7855,
      "▁rh": 7856,
      "▁Dead": 7857,
      "▁Pass": 7858,
      "▁Dick": 7859,
      "20th-century": 7860,
      "▁display": 7861,
      "▁limited": 7862,
      "▁understand": 7863,
      "▁Grammy": 7864,
      "▁herb": 7865,
      "▁Portugal": 7866,
      "▁galax": 7867,
      "▁Williams": 7868,
      "▁Site": 7869,
      "▁\nR": 7870,
      "▁Age": 7871,
      ".\n\nNotes": 7872,
      "▁mo": 7873,
      "olph": 7874,
      "s\nE": 7875,
      "▁YouT": 7876,
      "▁\"p": 7877,
      "▁recip": 7878,
      "▁cm": 7879,
      "▁fashion": 7880,
      "ables": 7881,
      "▁serious": 7882,
      "ön": 7883,
      "▁moon": 7884,
      "otten": 7885,
      "||35": 7886,
      "▁Hollywood": 7887,
      "▁Hindu": 7888,
      "▁Bak": 7889,
      "▁Austr": 7890,
      "▁Sometimes": 7891,
      "▁Bible": 7892,
      "imum": 7893,
      "izes": 7894,
      "▁Catal": 7895,
      "▁propert": 7896,
      "▁directly": 7897,
      "AR": 7898,
      "▁Ric": 7899,
      "ista": 7900,
      "▁jump": 7901,
      "ristian": 7902,
      "History": 7903,
      "rum": 7904,
      "▁veget": 7905,
      "▁renamed": 7906,
      "▁Movie": 7907,
      "ifer": 7908,
      "||0||1||0": 7909,
      "▁easily": 7910,
      "▁exhib": 7911,
      "▁wrestling": 7912,
      "▁Howard": 7913,
      "▁master": 7914,
      "▁Hamil": 7915,
      "▁store": 7916,
      "ascular": 7917,
      "▁Federation": 7918,
      "▁Hell": 7919,
      "▁dinosaur": 7920,
      "▁sevent": 7921,
      "▁Japan\n": 7922,
      "▁search": 7923,
      "▁trees": 7924,
      "▁Cambridge": 7925,
      "▁corn": 7926,
      "▁Treat": 7927,
      "ès": 7928,
      "eries": 7929,
      "▁(U.S.": 7930,
      "▁da": 7931,
      "estic": 7932,
      "▁Ker": 7933,
      "▁Clin": 7934,
      "▁transfer": 7935,
      "100": 7936,
      "ees": 7937,
      "irty": 7938,
      "▁sources": 7939,
      "▁flat": 7940,
      "▁Foreign": 7941,
      "52": 7942,
      "oj": 7943,
      "y\"": 7944,
      "rot": 7945,
      "▁Mr": 7946,
      "▁Lank": 7947,
      "▁1923": 7948,
      "▁Pennsylvania\n": 7949,
      "▁paid": 7950,
      "s\nT": 7951,
      "osis": 7952,
      "▁increased": 7953,
      "-sh": 7954,
      "▁playwright": 7955,
      "▁physicist": 7956,
      "▁score": 7957,
      "ymn": 7958,
      "stone": 7959,
      "▁name.": 7960,
      "▁Captain": 7961,
      "lé": 7962,
      "▁twenty": 7963,
      "thew": 7964,
      "▁industrial": 7965,
      "▁tal": 7966,
      "▁adventure": 7967,
      "▁Turn": 7968,
      "▁ord": 7969,
      "▁concept": 7970,
      "\n\n|-\n|199": 7971,
      "▁describe": 7972,
      "▁calcul": 7973,
      "▁Rey": 7974,
      "▁Nebr": 7975,
      "▁300": 7976,
      "▁Juan": 7977,
      "▁status": 7978,
      "▁notable": 7979,
      "▁hosted": 7980,
      "ners": 7981,
      "room": 7982,
      "▁claimed": 7983,
      "ayan": 7984,
      "▁Oak": 7985,
      "▁controvers": 7986,
      "||36": 7987,
      "▁Maryland": 7988,
      "▁trial": 7989,
      "anthrop": 7990,
      "▁Mit": 7991,
      "▁Nich": 7992,
      "raight": 7993,
      "▁remain": 7994,
      "▁broke": 7995,
      "time": 7996,
      "▁couple": 7997,
      "▁1922": 7998,
      "▁examples": 7999,
      "▁sum": 8000,
      "ogen": 8001,
      "▁32": 8002,
      "fit": 8003,
      "▁Labor": 8004,
      "Sh": 8005,
      "▁Bou": 8006,
      "uls": 8007,
      "▁weeks": 8008,
      "▁print": 8009,
      "▁150": 8010,
      "▁practice": 8011,
      "ín": 8012,
      "▁Fern": 8013,
      "▁kills": 8014,
      "ynam": 8015,
      "▁organism": 8016,
      "▁Cant": 8017,
      "▁Album": 8018,
      "▁races": 8019,
      "▁effects": 8020,
      "▁arrested": 8021,
      "▁Ay": 8022,
      "▁Japan.": 8023,
      "64": 8024,
      "bishop": 8025,
      "▁chall": 8026,
      "sequ": 8027,
      "▁attacks": 8028,
      "▁discuss": 8029,
      "▁countries,": 8030,
      "▁variety": 8031,
      "▁Cape": 8032,
      "▁sac": 8033,
      "▁ded": 8034,
      "▁2006.": 8035,
      "overnors": 8036,
      "▁pattern": 8037,
      "▁•": 8038,
      "arth": 8039,
      "▁Jerusalem": 8040,
      "▁approx": 8041,
      "isp": 8042,
      "▁Kl": 8043,
      "▁riv": 8044,
      "iko": 8045,
      "▁trains": 8046,
      "antine": 8047,
      "▁lasted": 8048,
      "▁Cook": 8049,
      "▁Census": 8050,
      "awy": 8051,
      "▁planned": 8052,
      "▁Member": 8053,
      "▁Puerto": 8054,
      "▁image": 8055,
      "▁guest": 8056,
      "▁ships": 8057,
      "▁Ten": 8058,
      "▁prec": 8059,
      ".\n\nDuring": 8060,
      "▁managed": 8061,
      "▁completely": 8062,
      "▁Cher": 8063,
      "organ": 8064,
      "▁sand": 8065,
      "▁Sid": 8066,
      "▁I,": 8067,
      "▁45": 8068,
      "▁people\nP": 8069,
      "▁relativ": 8070,
      "irt": 8071,
      "▁Rose": 8072,
      "▁Venezuel": 8073,
      "▁times.": 8074,
      "bar": 8075,
      "▁Tri": 8076,
      "▁forward": 8077,
      "▁stated": 8078,
      "▁2005.": 8079,
      "apol": 8080,
      "▁Stone": 8081,
      "▁\n\n199": 8082,
      "orts": 8083,
      "bassador": 8084,
      "▁Sri": 8085,
      "▁Deb": 8086,
      "anny": 8087,
      "▁Corp": 8088,
      "▁75": 8089,
      "cules": 8090,
      "▁question": 8091,
      "inals": 8092,
      "▁cool": 8093,
      "▁Pow": 8094,
      "ington,": 8095,
      "▁ski": 8096,
      "▁debuted": 8097,
      "▁Munich": 8098,
      "▁mom": 8099,
      "ety": 8100,
      "▁2012.": 8101,
      "▁distribution": 8102,
      "▁Ale": 8103,
      "▁\nE": 8104,
      "▁classical": 8105,
      "▁normally": 8106,
      "▁academic": 8107,
      "▁controlled": 8108,
      "▁Pa": 8109,
      "▁government.": 8110,
      "▁tries": 8111,
      "▁pit": 8112,
      "▁Tel": 8113,
      "izing": 8114,
      "▁Oregon": 8115,
      "ins,": 8116,
      "▁mer": 8117,
      "▁Norm": 8118,
      "▁rugby": 8119,
      "▁Orthodox": 8120,
      "\nUS": 8121,
      "▁4th": 8122,
      "▁York.": 8123,
      "-199": 8124,
      "ronic": 8125,
      "▁previously": 8126,
      "83": 8127,
      "▁Press": 8128,
      "▁kW": 8129,
      "▁ocean": 8130,
      "amous": 8131,
      "ayer": 8132,
      "▁defend": 8133,
      "low": 8134,
      "▁(Ch": 8135,
      "▁household": 8136,
      "81": 8137,
      "▁Son": 8138,
      "▁Sud": 8139,
      "ially": 8140,
      "▁shark": 8141,
      "▁Europe,": 8142,
      "62": 8143,
      "ronoun": 8144,
      "▁politician\n": 8145,
      "▁society": 8146,
      "▁Kelly": 8147,
      "'A": 8148,
      "▁coming": 8149,
      "▁estimated": 8150,
      "▁Labour": 8151,
      "▁Sever": 8152,
      "ers'": 8153,
      "▁Engine": 8154,
      "▁Kennedy": 8155,
      "84": 8156,
      "anded": 8157,
      "il,": 8158,
      "ad,": 8159,
      "▁vert": 8160,
      "▁matter": 8161,
      "▁wrestler": 8162,
      "▁.\n": 8163,
      "alia": 8164,
      "▁dies": 8165,
      "▁Leb": 8166,
      "▁DVD": 8167,
      "▁parent": 8168,
      "aria": 8169,
      "▁Cle": 8170,
      "▁2002,": 8171,
      "-Atlant": 8172,
      "▁Minnesot": 8173,
      "▁ethnic": 8174,
      ".\n\nFor": 8175,
      "▁rid": 8176,
      "▁Alp": 8177,
      "▁Dh": 8178,
      "▁creation": 8179,
      "▁increase": 8180,
      "▁coin": 8181,
      "elve": 8182,
      "▁reviews": 8183,
      "roc": 8184,
      "▁Rick": 8185,
      "▁ordered": 8186,
      "▁Simpson": 8187,
      "–9": 8188,
      "▁Sound": 8189,
      "▁elections": 8190,
      "ün": 8191,
      "▁Brid": 8192,
      "imore": 8193,
      "ocard": 8194,
      "▁piano": 8195,
      "▁revolution": 8196,
      "▁Alabam": 8197,
      "▁sist": 8198,
      "▁Cru": 8199,
      "▁Kam": 8200,
      "▁Athen": 8201,
      "▁explos": 8202,
      "WA": 8203,
      "▁births\n2015": 8204,
      "▁non-": 8205,
      "▁device": 8206,
      "▁Muhammad": 8207,
      "▁snow": 8208,
      "otic": 8209,
      "▁Luxemb": 8210,
      "▁wrong": 8211,
      "▁articles": 8212,
      "▁growth": 8213,
      "▁Rio": 8214,
      "▁infection": 8215,
      "▁Vers": 8216,
      "angel": 8217,
      "▁shop": 8218,
      "▁invented": 8219,
      "▁fantasy": 8220,
      "▁Nel": 8221,
      "▁Ka": 8222,
      "▁Heavy": 8223,
      "▁finally": 8224,
      "▁salt": 8225,
      "ega": 8226,
      "▁websites\nOfficial": 8227,
      "▁Kevin": 8228,
      "▁births\n18": 8229,
      "▁dynasty": 8230,
      "cting": 8231,
      "▁Osc": 8232,
      "▁Vik": 8233,
      "▁attended": 8234,
      "▁times,": 8235,
      "▁statistics\n\n|-\n|200": 8236,
      "▁victory": 8237,
      "▁DC": 8238,
      "▁Manhatt": 8239,
      "63": 8240,
      "▁(one": 8241,
      "▁serve": 8242,
      "umbent": 8243,
      "▁Simon": 8244,
      "▁cricket": 8245,
      "ingham": 8246,
      "▁Hiro": 8247,
      "agh": 8248,
      "▁borders": 8249,
      "▁Azerbaijan": 8250,
      "J1": 8251,
      "omed": 8252,
      "rypt": 8253,
      "aceous": 8254,
      "▁Additional": 8255,
      "-off": 8256,
      "ouver": 8257,
      "▁agreement": 8258,
      "▁language.": 8259,
      "▁Ry": 8260,
      "eman": 8261,
      "ancell": 8262,
      "▁acted": 8263,
      "hile": 8264,
      "▁2014.": 8265,
      "▁T.": 8266,
      "▁Call": 8267,
      "ste": 8268,
      "▁India,": 8269,
      "▁finish": 8270,
      "▁genetic": 8271,
      "▁infar": 8272,
      "▁sympt": 8273,
      "▁Mong": 8274,
      "ur,": 8275,
      "▁Barcel": 8276,
      "▁Cleveland": 8277,
      "ighth": 8278,
      "ailand": 8279,
      "▁Teh": 8280,
      "▁Merc": 8281,
      "▁Antonio": 8282,
      "SR": 8283,
      "uals": 8284,
      "▁habit": 8285,
      "▁War,": 8286,
      "▁Bruce": 8287,
      "▁Lewis": 8288,
      "▁infarction": 8289,
      "▁rang": 8290,
      "ologists": 8291,
      "▁Florida\n": 8292,
      "▁America\n": 8293,
      "▁ir": 8294,
      "▁concern": 8295,
      "▁injur": 8296,
      "uffolk": 8297,
      "▁judge": 8298,
      "elligence": 8299,
      "▁son,": 8300,
      "asp": 8301,
      "▁deaths\nA": 8302,
      "▁team.\n\nClub": 8303,
      "▁Park,": 8304,
      "▁Jimmy": 8305,
      ");": 8306,
      "tha": 8307,
      "▁Shin": 8308,
      "▁Administ": 8309,
      "▁II.": 8310,
      "▁Children": 8311,
      "▁hp": 8312,
      "▁gre": 8313,
      "wealth": 8314,
      "▁records": 8315,
      "▁Anderson": 8316,
      "▁emerg": 8317,
      "rast": 8318,
      "Year": 8319,
      "▁location": 8320,
      "▁lic": 8321,
      "ay.": 8322,
      "▁Nad": 8323,
      "abb": 8324,
      "▁2004.": 8325,
      "ates.": 8326,
      "▁18th": 8327,
      "atherine": 8328,
      "-Mar": 8329,
      "▁sixth": 8330,
      "▁fossil": 8331,
      "wig": 8332,
      "▁R&B": 8333,
      "▁music,": 8334,
      "▁China.": 8335,
      "▁vocals": 8336,
      "▁Dom": 8337,
      "61": 8338,
      "82": 8339,
      "rine": 8340,
      "▁Community": 8341,
      "-3": 8342,
      "▁Bry": 8343,
      "▁mind": 8344,
      "▁Bus": 8345,
      "▁Billy": 8346,
      "▁(194": 8347,
      "||2||1": 8348,
      "▁enter": 8349,
      "▁bottom": 8350,
      "▁state.": 8351,
      "▁tri": 8352,
      "▁Fle": 8353,
      "▁Fried": 8354,
      "▁share": 8355,
      "▁alcohol": 8356,
      "oa": 8357,
      "▁mig": 8358,
      "ar.": 8359,
      "othes": 8360,
      "▁alt": 8361,
      "▁Indust": 8362,
      "▁scen": 8363,
      "▁myocard": 8364,
      "s.\n\nReferences": 8365,
      "▁lots": 8366,
      "▁Square": 8367,
      "zburg": 8368,
      "olish": 8369,
      "▁Rub": 8370,
      "lying": 8371,
      "ibli": 8372,
      "▁Las": 8373,
      "▁LGBT": 8374,
      "▁answ": 8375,
      "▁wing": 8376,
      "▁fuel": 8377,
      "▁(193": 8378,
      "▁Phill": 8379,
      "▁(21": 8380,
      "▁quarter": 8381,
      "▁honor": 8382,
      "▁Jacob": 8383,
      "▁establishments\n": 8384,
      "uku": 8385,
      "\nCounty": 8386,
      "▁Police": 8387,
      "haw": 8388,
      "▁Magn": 8389,
      "ill,": 8390,
      "place": 8391,
      "itei": 8392,
      "▁earthquake": 8393,
      "▁apart": 8394,
      "▁Cre": 8395,
      "▁metres": 8396,
      "asketball": 8397,
      "bb": 8398,
      "▁perman": 8399,
      "▁Hem": 8400,
      "▁movies\nEnglish-language": 8401,
      "▁Phoen": 8402,
      "▁Reagan": 8403,
      "▁Boeing": 8404,
      "ake,": 8405,
      "▁chess": 8406,
      "▁headquarters": 8407,
      "lets": 8408,
      "iled": 8409,
      "▁hy": 8410,
      "ithuan": 8411,
      "anted": 8412,
      "▁huge": 8413,
      "▁Lang": 8414,
      "▁agreed": 8415,
      "AF": 8416,
      "▁India\n": 8417,
      "▁Ext": 8418,
      "▁history.": 8419,
      "▁ple": 8420,
      "▁poem": 8421,
      "sch": 8422,
      "▁Lib": 8423,
      "▁Nat": 8424,
      "assic": 8425,
      "▁Apple": 8426,
      "IS": 8427,
      "enburg": 8428,
      ".\n\nAt": 8429,
      "▁Highway": 8430,
      "▁staff": 8431,
      "rah": 8432,
      "▁Key": 8433,
      "▁Development": 8434,
      "▁Manchester": 8435,
      "▁provided": 8436,
      "▁Honor": 8437,
      "▁myocardial": 8438,
      "ler,": 8439,
      "anj": 8440,
      ".\n\nReferences\n\nT": 8441,
      "▁experience": 8442,
      "▁property": 8443,
      "lers": 8444,
      "är": 8445,
      "on's": 8446,
      "▁Fel": 8447,
      "▁Gard": 8448,
      "▁Who": 8449,
      "▁2015)": 8450,
      "▁Ukrainian": 8451,
      "ibbean": 8452,
      "▁Tur": 8453,
      "▁Ecu": 8454,
      "▁aff": 8455,
      "arus": 8456,
      "▁Actor": 8457,
      "ment.": 8458,
      "▁suburb": 8459,
      "▁Cret": 8460,
      "▁eggs": 8461,
      "▁Pays": 8462,
      "umin": 8463,
      ".\nB": 8464,
      "▁people\nB": 8465,
      "▁Canada.": 8466,
      "▁behavior": 8467,
      "mund": 8468,
      "▁Cour": 8469,
      "ist\n": 8470,
      "▁400": 8471,
      "incorporated": 8472,
      "▁eff": 8473,
      "riculture": 8474,
      "▁continu": 8475,
      "▁redu": 8476,
      "umni": 8477,
      "▁pneumonia": 8478,
      "ti": 8479,
      "▁Trip": 8480,
      "ester": 8481,
      "▁programming": 8482,
      "▁targ": 8483,
      "▁library": 8484,
      "▁repe": 8485,
      "▁shell": 8486,
      "▁Margaret": 8487,
      "aire": 8488,
      "▁Ped": 8489,
      "iva": 8490,
      "▁Canada,": 8491,
      "▁Europe.": 8492,
      "AT": 8493,
      ")\nS": 8494,
      "▁well-known": 8495,
      "▁bands": 8496,
      "tic": 8497,
      "iba": 8498,
      "▁medalists\n": 8499,
      "▁Mol": 8500,
      "▁growing": 8501,
      "▁Junior": 8502,
      "▁opposite": 8503,
      "79": 8504,
      "Villages": 8505,
      "▁Kings": 8506,
      "▁clubs": 8507,
      "▁name,": 8508,
      "▁script": 8509,
      "▁climb": 8510,
      "▁Samuel": 8511,
      "▁inform": 8512,
      "▁Cart": 8513,
      "▁Iceland": 8514,
      "sky": 8515,
      "▁influenced": 8516,
      "▁cartoon": 8517,
      "▁ben": 8518,
      "▁Station": 8519,
      "▁Knight": 8520,
      "background": 8521,
      "-year-old": 8522,
      "▁Finnish": 8523,
      "in'": 8524,
      "▁pull": 8525,
      "▁overall": 8526,
      "▁presented": 8527,
      "▁Imperial": 8528,
      "ogle": 8529,
      "▁earliest": 8530,
      "▁MPs": 8531,
      "Musicians": 8532,
      "▁Pierre": 8533,
      "ctoral": 8534,
      "▁Brun": 8535,
      "▁citizen": 8536,
      "more": 8537,
      "▁Bud": 8538,
      "▁(190": 8539,
      "▁compared": 8540,
      "▁looking": 8541,
      "▁dialect": 8542,
      "▁sure": 8543,
      "▁sportspeople": 8544,
      "▁Liter": 8545,
      "▁Idah": 8546,
      "▁picture": 8547,
      "▁Friend": 8548,
      "▁orchestra": 8549,
      ".\n\n18": 8550,
      "ers\nPeople": 8551,
      "▁generation": 8552,
      "bs": 8553,
      "iang": 8554,
      "▁height": 8555,
      "▁warm": 8556,
      "▁digital": 8557,
      "joy": 8558,
      "▁hors": 8559,
      "▁Ni": 8560,
      "▁VI": 8561,
      "▁Jerry": 8562,
      "▁Press,": 8563,
      "▁Rud": 8564,
      "rier": 8565,
      "▁Cup.": 8566,
      "▁etc.": 8567,
      "NSE": 8568,
      "ous,": 8569,
      "▁lands": 8570,
      "▁Taiwan": 8571,
      "▁4.": 8572,
      "▁extrem": 8573,
      "▁memory": 8574,
      "▁mountains": 8575,
      "ancouver": 8576,
      "▁financial": 8577,
      "▁difference": 8578,
      "▁(now": 8579,
      "▁issue": 8580,
      "▁Tropical": 8581,
      "akers": 8582,
      "▁highly": 8583,
      "\"),": 8584,
      "First": 8585,
      "▁thick": 8586,
      "▁ones": 8587,
      "art,": 8588,
      "▁Op": 8589,
      "▁Stadium": 8590,
      "▁continue": 8591,
      "▁chairman": 8592,
      "▁legend": 8593,
      "▁representatives": 8594,
      "ker": 8595,
      "▁Lam": 8596,
      "▁easy": 8597,
      "▁Pittsburgh": 8598,
      "▁conflict": 8599,
      "▁Nam": 8600,
      "▁density": 8601,
      "▁immig": 8602,
      "▁era": 8603,
      "▁(and": 8604,
      "▁Hous": 8605,
      "▁\"t": 8606,
      "▁Camer": 8607,
      "▁thousands": 8608,
      "▁Bureau": 8609,
      "ån": 8610,
      "illiam": 8611,
      "▁Communist": 8612,
      "78": 8613,
      "▁Burg": 8614,
      "▁gained": 8615,
      "▁lack": 8616,
      "▁learned": 8617,
      "▁scholar": 8618,
      "▁weapon": 8619,
      "▁crown": 8620,
      "▁(as": 8621,
      "||3\n|-\n|200": 8622,
      "zh": 8623,
      "enge": 8624,
      "▁pan": 8625,
      "adow": 8626,
      "ements": 8627,
      "▁appearances": 8628,
      "▁sitcom": 8629,
      "▁death,": 8630,
      "▁rapper": 8631,
      "▁stayed": 8632,
      "▁bright": 8633,
      "▁Country": 8634,
      "▁Finland": 8635,
      "▁newspap": 8636,
      "▁wound": 8637,
      "▁chain": 8638,
      "▁floor": 8639,
      "ducators": 8640,
      "▁reduc": 8641,
      "▁passengers": 8642,
      "▁Mach": 8643,
      "▁Matthew": 8644,
      "agg": 8645,
      "▁Japan,": 8646,
      ".\n\nHis": 8647,
      "▁owner": 8648,
      "ous.": 8649,
      "▁Jews": 8650,
      "oro": 8651,
      "emet": 8652,
      "▁(9": 8653,
      "▁Rain": 8654,
      "▁Du": 8655,
      "▁160": 8656,
      "▁objects": 8657,
      "oles": 8658,
      "▁sty": 8659,
      "se.": 8660,
      "▁Zh": 8661,
      "-201": 8662,
      "icy": 8663,
      "uri": 8664,
      "ompan": 8665,
      "▁Pok": 8666,
      "▁D.C.": 8667,
      "▁stone": 8668,
      "▁domin": 8669,
      "▁via": 8670,
      "▁constitu": 8671,
      "ourney": 8672,
      "mes": 8673,
      "▁tru": 8674,
      "▁Essex": 8675,
      "▁Gironde": 8676,
      "▁heav": 8677,
      "▁182": 8678,
      "John": 8679,
      "▁tele": 8680,
      "aware": 8681,
      "s.\n\nP": 8682,
      "irds": 8683,
      "||37": 8684,
      "▁retire": 8685,
      "zheim": 8686,
      "▁5th": 8687,
      "s.\n\nM": 8688,
      "▁him,": 8689,
      "▁Buck": 8690,
      "▁Ow": 8691,
      "pec": 8692,
      "▁Paris,": 8693,
      "▁Cathedral": 8694,
      "▁draft": 8695,
      "s\nG": 8696,
      "▁chur": 8697,
      "\nAn": 8698,
      "iterran": 8699,
      "▁romance": 8700,
      "NSEE": 8701,
      "ugoslav": 8702,
      "audi": 8703,
      "re,": 8704,
      "▁Education": 8705,
      "SL": 8706,
      "oses": 8707,
      "▁chlor": 8708,
      "▁Ze": 8709,
      "▁McD": 8710,
      ".\n\nFrom": 8711,
      "▁Tam": 8712,
      "▁Orchestra": 8713,
      "▁separated": 8714,
      "nia": 8715,
      "▁Miam": 8716,
      "▁prepar": 8717,
      "▁\n\nCities": 8718,
      "▁weapons": 8719,
      "▁fell": 8720,
      "osm": 8721,
      "▁36": 8722,
      "▁her.": 8723,
      "▁guard": 8724,
      "edal": 8725,
      "iverpool": 8726,
      "▁equip": 8727,
      "inese": 8728,
      "▁Hop": 8729,
      "▁Heb": 8730,
      "▁rare": 8731,
      "▁Trin": 8732,
      "▁solution": 8733,
      "istan,": 8734,
      "▁economy": 8735,
      "▁(July": 8736,
      "▁missing": 8737,
      "iting": 8738,
      "▁(h": 8739,
      "▁polo": 8740,
      "▁Roc": 8741,
      "▁societ": 8742,
      "▁Kashmir": 8743,
      "oes": 8744,
      "▁wave": 8745,
      "▁(state": 8746,
      "▁translated": 8747,
      "▁bond": 8748,
      "▁maint": 8749,
      "▁Pad": 8750,
      "▁Associ": 8751,
      "▁slav": 8752,
      "▁sides": 8753,
      "rod": 8754,
      "▁contact": 8755,
      "▁Later,": 8756,
      "▁pet": 8757,
      "iki": 8758,
      "▁Lev": 8759,
      "under": 8760,
      "▁weak": 8761,
      "net": 8762,
      "▁Front": 8763,
      "▁Om": 8764,
      "||0||0||0||0||0||0||0||0": 8765,
      "born": 8766,
      "e's": 8767,
      "▁Sin": 8768,
      "▁Cass": 8769,
      "▁co-": 8770,
      "▁Harris": 8771,
      "▁meeting": 8772,
      "▁institution": 8773,
      "▁hyp": 8774,
      "▁Raw": 8775,
      "id,": 8776,
      "▁Dynasty": 8777,
      "imals": 8778,
      "ant.": 8779,
      ".\n\nReferences\n\nF": 8780,
      "▁quant": 8781,
      "\n\nCommunes": 8782,
      "▁philanthrop": 8783,
      "▁wins": 8784,
      "▁F.C.": 8785,
      "▁Inn": 8786,
      "ords": 8787,
      "▁yet": 8788,
      "▁workers": 8789,
      "▁organized": 8790,
      "uzz": 8791,
      "▁compounds": 8792,
      "▁integ": 8793,
      "▁day.": 8794,
      "▁births\n2016": 8795,
      "▁Luxembourg": 8796,
      "▁Suffolk": 8797,
      "▁Colon": 8798,
      "▁Salv": 8799,
      "▁negative": 8800,
      "char": 8801,
      "▁Chamber": 8802,
      "ism\n": 8803,
      "friend": 8804,
      "▁Dec": 8805,
      "age.": 8806,
      "▁Hospital": 8807,
      "▁Allen": 8808,
      "▁Mess": 8809,
      "1970s": 8810,
      "▁long.": 8811,
      "▁(April": 8812,
      "sa": 8813,
      "wald": 8814,
      "▁fit": 8815,
      "▁mel": 8816,
      "▁writer.": 8817,
      "▁neut": 8818,
      "▁Norman": 8819,
      "alty": 8820,
      "▁River.": 8821,
      "ite,": 8822,
      "engu": 8823,
      "▁annual": 8824,
      "▁engineering": 8825,
      ".\n\nCareer\n": 8826,
      "-17": 8827,
      "▁liber": 8828,
      "▁\n\nIt": 8829,
      "▁catch": 8830,
      "▁hang": 8831,
      "1980": 8832,
      "▁reform": 8833,
      "osaurus": 8834,
      "–196": 8835,
      "hess": 8836,
      "omot": 8837,
      "▁Stew": 8838,
      "▁d'A": 8839,
      "dd": 8840,
      "ooth": 8841,
      "ventures": 8842,
      "▁McG": 8843,
      "▁products": 8844,
      "▁giant": 8845,
      "▁Dig": 8846,
      "active": 8847,
      "▁cars": 8848,
      "▁senior": 8849,
      "▁brief": 8850,
      "▁mut": 8851,
      "▁Fal": 8852,
      "▁Nav": 8853,
      "▁regional": 8854,
      "▁Protest": 8855,
      "▁region.": 8856,
      "▁listing": 8857,
      "▁electronic": 8858,
      "▁Temple": 8859,
      "last": 8860,
      "▁Vis": 8861,
      "▁(May": 8862,
      "▁Armenian": 8863,
      "ères": 8864,
      "▁Mem": 8865,
      "▁onto": 8866,
      "▁captain": 8867,
      "rene": 8868,
      "▁sched": 8869,
      "▁Montreal": 8870,
      "▁Sky": 8871,
      "▁oxygen": 8872,
      "▁Ivan": 8873,
      "▁Final": 8874,
      "ample": 8875,
      "exican": 8876,
      "▁avoid": 8877,
      "▁births\n199": 8878,
      "▁adapt": 8879,
      "▁accom": 8880,
      "▁drive": 8881,
      "▁Osaka": 8882,
      "éné": 8883,
      "-et": 8884,
      "enne": 8885,
      "▁Occ": 8886,
      "▁clean": 8887,
      "▁Thailand": 8888,
      "▁(January": 8889,
      "▁respir": 8890,
      "▁beautiful": 8891,
      "AN": 8892,
      "▁panc": 8893,
      "s\nF": 8894,
      "▁ago": 8895,
      "▁Switzerland.": 8896,
      "bul": 8897,
      "agement": 8898,
      "▁moves": 8899,
      "▁follows": 8900,
      "atabase": 8901,
      "▁touch": 8902,
      "▁doll": 8903,
      "||0||0\n|-\n|200": 8904,
      "||3||1": 8905,
      "▁arrived": 8906,
      "▁Benj": 8907,
      "▁virus": 8908,
      "▁Ukraine": 8909,
      "down": 8910,
      "ications": 8911,
      "acing": 8912,
      "▁experien": 8913,
      "▁bodies": 8914,
      "▁Aven": 8915,
      "▁stick": 8916,
      "▁people\nS": 8917,
      "▁Johnny": 8918,
      "▁southwestern": 8919,
      "\n\n193": 8920,
      "▁ec": 8921,
      "ach,": 8922,
      "▁64": 8923,
      "▁\n\nSettlements": 8924,
      "uilding": 8925,
      "/06": 8926,
      "▁issues": 8927,
      "▁Luther": 8928,
      "▁Inc": 8929,
      "▁teeth": 8930,
      "▁singer.": 8931,
      "▁producer,": 8932,
      "▁assass": 8933,
      "▁creating": 8934,
      "▁focus": 8935,
      "RT": 8936,
      "ario": 8937,
      "▁Jur": 8938,
      "▁remember": 8939,
      "▁Hungary": 8940,
      "osa": 8941,
      "ducation": 8942,
      "▁Independence": 8943,
      "avel": 8944,
      "▁2015.": 8945,
      "eller": 8946,
      "▁Franklin": 8947,
      "\"\n|": 8948,
      "l,": 8949,
      "ely,": 8950,
      "olden": 8951,
      ")\n\nS": 8952,
      "▁liked": 8953,
      "ythm": 8954,
      "▁accepted": 8955,
      "▁Gon": 8956,
      "▁Garden": 8957,
      "▁resign": 8958,
      "chell": 8959,
      "▁Adv": 8960,
      ".\n\nGallery": 8961,
      "field,": 8962,
      "▁sense": 8963,
      "▁Low": 8964,
      "▁father,": 8965,
      "▁architecture": 8966,
      "rade": 8967,
      "ston,": 8968,
      "raham": 8969,
      "▁route": 8970,
      "▁well.": 8971,
      "▁additional": 8972,
      "▁Palest": 8973,
      "▁Dominican": 8974,
      "▁Jordan": 8975,
      "▁mist": 8976,
      "ingen": 8977,
      "▁Rangers": 8978,
      "iovascular": 8979,
      "▁Hunt": 8980,
      "▁favor": 8981,
      "u\n": 8982,
      "▁Let": 8983,
      "iday": 8984,
      "▁Journal": 8985,
      "verse": 8986,
      "▁congress": 8987,
      "▁Ethiop": 8988,
      "\nActors": 8989,
      "▁2017.": 8990,
      "▁sick": 8991,
      "▁Trib": 8992,
      "▁levels": 8993,
      "▁life,": 8994,
      "▁Jama": 8995,
      "▁plans": 8996,
      "▁singing": 8997,
      "▁anti-": 8998,
      "A)": 8999,
      "ines,": 9000,
      "▁soul": 9001,
      "▁acts": 9002,
      "1901": 9003,
      "ello": 9004,
      "▁peak": 9005,
      "▁vehicles": 9006,
      "▁Movement": 9007,
      "▁and,": 9008,
      "▁Buff": 9009,
      "▁grown": 9010,
      "▁Eston": 9011,
      "▁1800": 9012,
      "/07": 9013,
      "hite": 9014,
      "oral": 9015,
      "ovich": 9016,
      "▁straight": 9017,
      "▁K.": 9018,
      "boy": 9019,
      "▁stock": 9020,
      "resp": 9021,
      "▁grav": 9022,
      "▁Ottoman": 9023,
      "',": 9024,
      "▁fat": 9025,
      "▁teach": 9026,
      "▁youth": 9027,
      "econd": 9028,
      "▁Canada\n": 9029,
      "▁5.": 9030,
      "▁Spain.": 9031,
      "▁Corporation": 9032,
      "olt": 9033,
      "▁required": 9034,
      "'.": 9035,
      "sm": 9036,
      "wich": 9037,
      "▁ax": 9038,
      "▁\n\nN": 9039,
      "1988": 9040,
      "▁Real": 9041,
      "▁players\nSportspeople": 9042,
      "▁crashes": 9043,
      "▁1999,": 9044,
      "▁Indiana": 9045,
      "▁Melbourne": 9046,
      "oria": 9047,
      "▁mart": 9048,
      "agen": 9049,
      "\nJapan": 9050,
      "▁Gordon": 9051,
      "BE": 9052,
      "▁Russell": 9053,
      "▁2016)": 9054,
      "▁treated": 9055,
      "▁Bour": 9056,
      "▁Alzheim": 9057,
      "▁security": 9058,
      "▁Every": 9059,
      "97": 9060,
      "is\n": 9061,
      "▁Mes": 9062,
      "▁again.": 9063,
      "▁Emmy": 9064,
      "▁Mediterran": 9065,
      "▁volleyball": 9066,
      "ieval": 9067,
      "As": 9068,
      "Settlements": 9069,
      "auc": 9070,
      "▁game.": 9071,
      "/05": 9072,
      "▁require": 9073,
      "▁Commonwealth": 9074,
      "aron": 9075,
      "▁bow": 9076,
      "▁Syr": 9077,
      "▁hall": 9078,
      "▁2019.": 9079,
      "▁Romanian": 9080,
      "idden": 9081,
      "▁labor": 9082,
      "▁Toy": 9083,
      "chi": 9084,
      "▁Lanc": 9085,
      "▁Dal": 9086,
      "▁Kurd": 9087,
      "▁Wikip": 9088,
      "rh": 9089,
      "enos": 9090,
      "▁River,": 9091,
      "▁Champions": 9092,
      "aug": 9093,
      "▁Verm": 9094,
      "1984": 9095,
      "||rowspan=\"2\"|S": 9096,
      "Russian": 9097,
      "▁sav": 9098,
      "rec": 9099,
      "isted": 9100,
      "▁response": 9101,
      "CW": 9102,
      "ao": 9103,
      "▁disapp": 9104,
      "▁old.": 9105,
      "0),": 9106,
      "▁Point": 9107,
      "▁atm": 9108,
      "▁theme": 9109,
      "▁management": 9110,
      "ying": 9111,
      "▁Rights": 9112,
      "▁Jason": 9113,
      "illes": 9114,
      "uper": 9115,
      "▁particles": 9116,
      "etty": 9117,
      "onym": 9118,
      "▁(September": 9119,
      "ague,": 9120,
      "itals": 9121,
      "▁Sem": 9122,
      "▁shap": 9123,
      "▁incident": 9124,
      "▁Aud": 9125,
      "▁Tower": 9126,
      "▁lies": 9127,
      "▁spect": 9128,
      "▁16th": 9129,
      "amba": 9130,
      "rix": 9131,
      "olitics": 9132,
      "▁depart": 9133,
      "▁Baron": 9134,
      "▁1917": 9135,
      "▁China,": 9136,
      "▁paintings": 9137,
      "▁experiment": 9138,
      "▁heard": 9139,
      "▁slight": 9140,
      "▁(August": 9141,
      "▁Robin": 9142,
      "▁Argentina": 9143,
      "▁(October": 9144,
      "▁NFL": 9145,
      "▁jun": 9146,
      "▁proposed": 9147,
      "▁suffered": 9148,
      "▁Rena": 9149,
      "earcher": 9150,
      "2008": 9151,
      "▁molec": 9152,
      "os.": 9153,
      "▁2003.": 9154,
      "▁divorced": 9155,
      "▁(March": 9156,
      "▁Soccer": 9157,
      "▁dram": 9158,
      "||38": 9159,
      "||Serie": 9160,
      "▁file": 9161,
      "▁Ll": 9162,
      "▁Guy": 9163,
      ".\n\nEx": 9164,
      "▁freedom": 9165,
      "▁Hum": 9166,
      "▁Ober": 9167,
      "||||||||||||": 9168,
      "▁particularly": 9169,
      "uw": 9170,
      "▁resigned": 9171,
      "▁personnel": 9172,
      "▁powers": 9173,
      "lin,": 9174,
      "▁(th": 9175,
      "▁Iron": 9176,
      "▁Gun": 9177,
      "▁\"Y": 9178,
      "▁Clar": 9179,
      "\n|-\n|2010": 9180,
      "▁enjoy": 9181,
      "▁conditions": 9182,
      "▁Utah": 9183,
      "▁seem": 9184,
      "▁Marin": 9185,
      "▁Media": 9186,
      "▁Phoenix": 9187,
      "names": 9188,
      "▁risk": 9189,
      "▁Penins": 9190,
      "stad": 9191,
      "ultan": 9192,
      "▁acqu": 9193,
      "▁Encyclop": 9194,
      "▁save": 9195,
      "otan": 9196,
      "aging": 9197,
      "▁uns": 9198,
      "▁33": 9199,
      "▁trav": 9200,
      "▁Again": 9201,
      "92": 9202,
      "▁hurt": 9203,
      "clus": 9204,
      "▁bigger": 9205,
      "ening": 9206,
      "ogether": 9207,
      "ex:": 9208,
      "▁enemy": 9209,
      "caster": 9210,
      "ete": 9211,
      "▁65": 9212,
      "▁poison": 9213,
      "▁Texas.": 9214,
      "ui": 9215,
      "ck,": 9216,
      "▁emb": 9217,
      "▁everyone": 9218,
      "▁cod": 9219,
      "▁Fer": 9220,
      "▁Dave": 9221,
      "▁formerly": 9222,
      "igenous": 9223,
      "▁franch": 9224,
      "▁pra": 9225,
      "man.": 9226,
      "▁correct": 9227,
      "▁organizations": 9228,
      "ner,": 9229,
      "▁Hamilton": 9230,
      "CC": 9231,
      "▁vice": 9232,
      "▁\nK": 9233,
      "▁custom": 9234,
      "yt": 9235,
      "▁Bac": 9236,
      "order": 9237,
      "▁Caribbean": 9238,
      "▁combined": 9239,
      "▁(from": 9240,
      "uropean": 9241,
      "▁(December": 9242,
      "▁Lud": 9243,
      "▁2001.": 9244,
      "▁2000.": 9245,
      "ession": 9246,
      "-drama": 9247,
      ".\n\nList": 9248,
      "▁School,": 9249,
      "▁sites": 9250,
      "▁Steven": 9251,
      "awyers": 9252,
      "▁user": 9253,
      "▁wheel": 9254,
      "▁Liberal": 9255,
      "km": 9256,
      "▁sulf": 9257,
      "▁Tib": 9258,
      "allow": 9259,
      "▁Peters": 9260,
      "▁occurs": 9261,
      "cles": 9262,
      "▁spin": 9263,
      "GB:": 9264,
      "hard": 9265,
      "▁is,": 9266,
      "▁\"m": 9267,
      "▁Pakistan.": 9268,
      "▁visited": 9269,
      "▁consider": 9270,
      "▁grass": 9271,
      "atistics": 9272,
      "▁\nN": 9273,
      "▁showing": 9274,
      "▁prisoners": 9275,
      "adi": 9276,
      "▁Third": 9277,
      "▁77": 9278,
      "▁driv": 9279,
      "/08": 9280,
      "▁activity": 9281,
      "▁body.": 9282,
      "inted": 9283,
      "▁Ald": 9284,
      "ilitary": 9285,
      "▁Bed": 9286,
      "ot,": 9287,
      "▁Alzheimer's": 9288,
      "és": 9289,
      ".\n\nLife": 9290,
      "||7||0": 9291,
      "▁Jefferson": 9292,
      "father": 9293,
      "▁Program": 9294,
      "▁defined": 9295,
      "▁hip": 9296,
      "▁Eug": 9297,
      "▁rot": 9298,
      "1986": 9299,
      "/04": 9300,
      "load": 9301,
      "▁finds": 9302,
      "heel": 9303,
      "▁Kr": 9304,
      "ogue": 9305,
      "▁English,": 9306,
      "ransport": 9307,
      "▁system,": 9308,
      "5/06": 9309,
      ":00": 9310,
      "pre": 9311,
      "▁(November": 9312,
      "▁worship": 9313,
      "▁pictures": 9314,
      "–19": 9315,
      "▁Vlad": 9316,
      "▁noted": 9317,
      "▁17th": 9318,
      "▁Carlos": 9319,
      "▁Sardin": 9320,
      "▁Staff": 9321,
      "▁2002.": 9322,
      "▁Carter": 9323,
      "ually,": 9324,
      "▁(RGB:": 9325,
      "▁convicted": 9326,
      "▁85": 9327,
      "▁170": 9328,
      "s.\n\nB": 9329,
      "▁screenwriter": 9330,
      "▁mal": 9331,
      ".\n\nDeath": 9332,
      "▁(February": 9333,
      "▁insect": 9334,
      "▁sens": 9335,
      "▁Nash": 9336,
      "▁work.": 9337,
      "▁provides": 9338,
      "▁inventor": 9339,
      "▁diagnosed": 9340,
      "hr": 9341,
      "oli": 9342,
      "obi": 9343,
      "▁\nThere": 9344,
      "▁Percy": 9345,
      "▁votes": 9346,
      "▁(Hex:": 9347,
      "▁Gabri": 9348,
      "▁water,": 9349,
      "▁faster": 9350,
      "\n\nCh": 9351,
      "▁comune": 9352,
      "▁images": 9353,
      "▁Morgan": 9354,
      "▁protection": 9355,
      "▁Hampshire": 9356,
      "▁YouTube": 9357,
      "ompanies": 9358,
      "▁dates": 9359,
      "thes": 9360,
      "▁borough": 9361,
      "no": 9362,
      "isch": 9363,
      "▁remaining": 9364,
      "▁Dakot": 9365,
      "▁°": 9366,
      "▁game,": 9367,
      "▁Monte": 9368,
      "▁Sarah": 9369,
      "▁affected": 9370,
      "▁Ice": 9371,
      "aver": 9372,
      "▁Inc.": 9373,
      "▁subs": 9374,
      "-General": 9375,
      "▁automob": 9376,
      "fish": 9377,
      "▁NBC": 9378,
      "▁Alger": 9379,
      "Israel": 9380,
      "▁Information": 9381,
      "▁users": 9382,
      "▁birthday": 9383,
      "▁eyes": 9384,
      "ibly": 9385,
      "▁Benn": 9386,
      "▁Yugoslav": 9387,
      "pert": 9388,
      "1983": 9389,
      "▁dedicated": 9390,
      "4/05": 9391,
      "6/07": 9392,
      "roph": 9393,
      "▁Dur": 9394,
      "▁scor": 9395,
      "▁causing": 9396,
      "▁valley": 9397,
      "▁knowledge": 9398,
      "▁Youth": 9399,
      "▁3D": 9400,
      "▁quality": 9401,
      "||colspan=\"2\"|-||4": 9402,
      "▁Stockhol": 9403,
      "MS": 9404,
      "ni": 9405,
      "▁Murr": 9406,
      "▁Hand": 9407,
      "▁falls": 9408,
      "▁necess": 9409,
      "ilmography": 9410,
      "▁batter": 9411,
      "ade,": 9412,
      "etime": 9413,
      "▁Ult": 9414,
      "▁Mediterranean": 9415,
      ").\n\nThe": 9416,
      "▁NBA": 9417,
      "▁Wright": 9418,
      "▁shared": 9419,
      "▁movies.": 9420,
      "▁Lieutenant": 9421,
      "ussia": 9422,
      "▁Pradesh": 9423,
      "▁glass": 9424,
      "▁promoted": 9425,
      "AC": 9426,
      "wall": 9427,
      "▁strik": 9428,
      "ogy": 9429,
      "▁Conc": 9430,
      "▁Championships": 9431,
      "bo": 9432,
      "▁Tit": 9433,
      "▁Napole": 9434,
      "▁bra": 9435,
      "▁Ban": 9436,
      "▁Video": 9437,
      "▁Europe\n": 9438,
      "▁Charlie": 9439,
      "ica,": 9440,
      "▁nom": 9441,
      "oster": 9442,
      "▁agent": 9443,
      "▁Carolina\n": 9444,
      "sil": 9445,
      "rep": 9446,
      "▁CBS": 9447,
      "▁string": 9448,
      "▁pregn": 9449,
      "▁men's": 9450,
      "▁mentioned": 9451,
      "▁Chairman": 9452,
      "▁horse": 9453,
      "itter": 9454,
      "▁fan": 9455,
      "stery": 9456,
      "▁reality": 9457,
      "porting": 9458,
      "▁6th": 9459,
      "▁youngest": 9460,
      "isión": 9461,
      "▁Ins": 9462,
      "▁together.": 9463,
      "\n\nGroup": 9464,
      "▁approximately": 9465,
      "76": 9466,
      "don": 9467,
      "▁hem": 9468,
      "▁attention": 9469,
      "▁feed": 9470,
      "▁war,": 9471,
      "isode": 9472,
      "▁send": 9473,
      "ady": 9474,
      "▁photographer": 9475,
      "▁Philadelphia": 9476,
      "▁Treaty": 9477,
      "iest": 9478,
      "▁Mak": 9479,
      "▁rough": 9480,
      "▁immedi": 9481,
      "▁temple": 9482,
      "▁voted": 9483,
      "▁nucle": 9484,
      "▁tank": 9485,
      "▁teaching": 9486,
      "ide.": 9487,
      "▁Africa.": 9488,
      "▁inn": 9489,
      "▁Cold": 9490,
      "▁Moz": 9491,
      "iden": 9492,
      "▁Vancouver": 9493,
      "▁inspired": 9494,
      "▁useful": 9495,
      "▁League.": 9496,
      "▁player.\n\nClub": 9497,
      "▁Security": 9498,
      "emporary": 9499,
      "73": 9500,
      "▁Nort": 9501,
      "1987": 9502,
      "▁course": 9503,
      "▁bann": 9504,
      "▁Pir": 9505,
      "▁88": 9506,
      "▁(June": 9507,
      "▁Dakota": 9508,
      "71": 9509,
      "▁hits": 9510,
      "▁Pont": 9511,
      "▁181": 9512,
      ".\n\nReferences\n\n197": 9513,
      "▁businesspeople": 9514,
      "▁Athlet": 9515,
      "▁Has": 9516,
      "▁It's": 9517,
      "▁chrom": 9518,
      "▁County.": 9519,
      "\n\nO": 9520,
      "1982": 9521,
      "▁desert": 9522,
      "-Rh": 9523,
      "raph": 9524,
      "▁are:\n\n": 9525,
      "▁Alt": 9526,
      "▁other.": 9527,
      "▁occurred": 9528,
      "oom": 9529,
      "arb": 9530,
      "▁Ton": 9531,
      "▁people.\n": 9532,
      "▁Silver": 9533,
      "▁pig": 9534,
      "▁flower": 9535,
      "▁Delaware": 9536,
      "▁Libert": 9537,
      "▁Benjamin": 9538,
      "▁http://www.": 9539,
      "▁\n\n|-\n|": 9540,
      "2006": 9541,
      "▁Baltimore": 9542,
      "WF": 9543,
      "grad": 9544,
      "▁titled": 9545,
      "▁Affairs": 9546,
      "▁Dem": 9547,
      "▁Ga": 9548,
      "▁chose": 9549,
      "ellite": 9550,
      "▁49": 9551,
      "▁7th": 9552,
      "anese": 9553,
      "▁São": 9554,
      "▁committed": 9555,
[...]
