<unk>	0
<s>	0
</s>	0
e▁	-0
s▁	-1
n▁	-2
th	-3
er	-4
d▁	-5
an	-6
t▁	-7
.▁	-8
,▁	-9
in	-10
or	-11
the▁	-12
ar	-13
y▁	-14
al	-15
en	-16
a▁	-17
of	-18
on	-19
ti	-20
ed▁	-21
of▁	-22
er▁	-23
in▁	-24
o▁	-25
es▁	-26
ic	-27
es	-28
and▁	-29
is	-30
ou	-31
is▁	-32
an▁	-33
om	-34
on▁	-35
as▁	-36
ing	-37
it	-38
19	-39
re	-40
at	-41
el	-42
Th	-43
am	-44
ol	-45
il	-46
ch	-47
st	-48
to▁	-49
ing▁	-50
20	-51
al▁	-52
or▁	-53
||	-54
ur	-55
)▁	-56
ac	-57
as	-58
ir	-59
pl	-60
was▁	-61
ro	-62
us	-63
ec	-64
em	-65
The▁	-66
ati	-67
th▁	-68
at▁	-69
ri	-70
di	-71
ag	-72
all	-73
ow	-74
en▁	-75
un	-76
ov	-77
ent	-78
h▁	-79
ad	-80
om▁	-81
fr	-82
et	-83
li	-84
k▁	-85
os	-86
ul	-87
oun	-88
ap	-89
le	-90
from▁	-91
id	-92
ist	-93
for▁	-94
ab	-95
ay	-96
wh	-97
ef	-98
ig	-99
op	-100
iv	-101
enc	-102
ent▁	-103
um	-104
ers▁	-105
200	-106
ev	-107
ed	-108
av	-109
by▁	-110
-▁	-111
res	-112
ot	-113
201	-114
wi	-115
mer	-116
0▁	-117
pe	-118
sh	-119
ep	-120
St	-121
im	-122
com	-123
are▁	-124
ch▁	-125
ther▁	-126
ea	-127
ers	-128
Ch	-129
oc	-130
ican▁	-131
Amer	-132
and	-133
with▁	-134
eb	-135
ey▁	-136
tic	-137
ere▁	-138
ak	-139
l▁	-140
It▁	-141
He▁	-142
tr	-143
ar▁	-144
ple▁	-145
ew	-146
:▁	-147
that▁	-148
ation	-149
erenc	-150
ex	-151
American▁	-152
Ref	-153
he▁	-154
–▁	-155
erences▁	-156
ay▁	-157
ic▁	-158
for	-159
References▁	-160
uc	-161
sp	-162
ter	-163
ly▁	-164
ber▁	-165
i▁	-166
ity▁	-167
199	-168
Un	-169
le▁	-170
con	-171
ople▁	-172
18	-173
1▁	-174
pro	-175
ation▁	-176
od	-177
ths▁	-178
it▁	-179
ts▁	-180
ain	-181
ub	-182
gr	-183
ian▁	-184
anc	-185
inc	-186
ies▁	-187
g▁	-188
),▁	-189
bor	-190
all▁	-191
ter▁	-192
mov	-193
ip	-194
our	-195
In▁	-196
ion▁	-197
so▁	-198
ot▁	-199
2▁	-200
ear	-201
ary▁	-202
st▁	-203
people▁	-204
art	-205
0||	-206
ia▁	-207
ame▁	-208
198	-209
est▁	-210
ang	-211
act	-212
se	-213
up	-214
tion▁	-215
In	-216
"▁	-217
qu	-218
lis	-219
ate▁	-220
ud	-221
his▁	-222
ut	-223
play	-224
5▁	-225
ra	-226
man	-227
oo	-228
born▁	-229
4▁	-230
be	-231
wor	-232
ew▁	-233
sit	-234
ated▁	-235
3▁	-236
ion	-237
gh	-238
Fr	-239
own▁	-240
ad▁	-241
7▁	-242
est	-243
one▁	-244
tion	-245
6▁	-246
also▁	-247
ember▁	-248
el▁	-249
rec	-250
be▁	-251
ian	-252
197	-253
Mar	-254
has▁	-255
ir▁	-256
pr	-257
m▁	-258
bu	-259
og	-260
ited▁	-261
ave▁	-262
web	-263
An	-264
ich▁	-265
Al	-266
8▁	-267
ld▁	-268
out▁	-269
age▁	-270
ff	-271
|-▁	-272
ill	-273
fir	-274
par	-275
websit	-276
rit	-277
were▁	-278
ents▁	-279
end	-280
aw	-281
ount	-282
me	-283
igh	-284
ob	-285
En	-286
str	-287
A▁	-288
Ar	-289
bir	-290
the	-291
196	-292
United▁	-293
et▁	-294
ess	-295
bec	-296
am▁	-297
ted▁	-298
per	-299
not▁	-300
).▁	-301
Other▁	-302
which▁	-303
ors▁	-304
ve▁	-305
por	-306
pol	-307
ore▁	-308
ass	-309
ie▁	-310
ph	-311
mun	-312
ell	-313
ard	-314
ow▁	-315
ome▁	-316
kn	-317
il▁	-318
9▁	-319
Au	-320
iti	-321
first▁	-322
have▁	-323
cl	-324
ost▁	-325
websites▁	-326
Stat	-327
te	-328
form	-329
ational▁	-330
ther	-331
ia	-332
ric	-333
ser	-334
births▁	-335
ong	-336
other▁	-337
195	-338
ese▁	-339
Le	-340
194	-341
us▁	-342
f▁	-343
tur	-344
dea	-345
ally▁	-346
ine▁	-347
ard▁	-348
itic	-349
au	-350
ast	-351
duc	-352
row	-353
tim	-354
ial▁	-355
Eng	-356
ast▁	-357
ern	-358
dis	-359
used▁	-360
ne	-361
ical▁	-362
oot	-363
we	-364
ment▁	-365
New▁	-366
they▁	-367
af	-368
ist▁	-369
ong▁	-370
lish	-371
sc	-372
ge▁	-373
ant	-374
can▁	-375
col	-376
had▁	-377
ound▁	-378
ain▁	-379
land	-380
Sh	-381
193	-382
use▁	-383
Com	-384
ord	-385
are	-386
tw	-387
writ	-388
su	-389
uary▁	-390
ory▁	-391
ib	-392
ade▁	-393
||0||	-394
their▁	-395
its▁	-396
mus	-397
who▁	-398
ue▁	-399
This▁	-400
ks▁	-401
;▁	-402
man▁	-403
known▁	-404
comp	-405
ootb	-406
um▁	-407
ver	-408
ens	-409
ish▁	-410
ke▁	-411
oh	-412
pres	-413
She▁	-414
politic	-415
iz	-416
eg	-417
ice▁	-418
her▁	-419
p▁	-420
call	-421
Ger	-422
but▁	-423
bo	-424
ind	-425
ound	-426
id▁	-427
sy	-428
dr	-429
="	-430
to	-431
ision▁	-432
about▁	-433
mon	-434
sing	-435
cent	-436
many▁	-437
ant▁	-438
ly	-439
ach	-440
att	-441
ans	-442
called▁	-443
tis	-444
Nor	-445
They▁	-446
ann	-447
192	-448
land▁	-449
Par	-450
||1	-451
ever	-452
Riv	-453
ber	-454
Bri	-455
span	-456
deaths▁	-457
po	-458
tel	-459
if	-460
"|	-461
ous▁	-462
bl	-463
ich	-464
died▁	-465
ack▁	-466
amp	-467
x▁	-468
States▁	-469
ack	-470
movies▁	-471
ake▁	-472
ivers	-473
oug	-474
made▁	-475
00	-476
ts	-477
most▁	-478
ince▁	-479
this▁	-480
ould▁	-481
17	-482
Wor	-483
ign	-484
reg	-485
ased▁	-486
year	-487
ous	-488
ess▁	-489
mar	-490
elec	-491
ill▁	-492
der▁	-493
min	-494
incl	-495
em▁	-496
illi	-497
footb	-498
ace▁	-499
two▁	-500
Jap	-501
ater▁	-502
ght▁	-503
movie▁	-504
ities▁	-505
gu	-506
includ	-507
lar	-508
tl	-509
Sp	-510
nam	-511
fl	-512
Con	-513
ship	-514
ough▁	-515
into▁	-516
co	-517
Wh	-518
after▁	-519
pop	-520
inn	-521
Franc	-522
arr	-523
ol▁	-524
adi	-525
ath	-526
Liv	-527
tish▁	-528
Jan	-529
Gr	-530
Ac	-531
ish	-532
ity	-533
off	-534
outh▁	-535
ah	-536
atur	-537
overn	-538
u▁	-539
Sc	-540
ree▁	-541
tal	-542
Joh	-543
gen	-544
I▁	-545
Count	-546
been▁	-547
ust▁	-548
evision▁	-549
als▁	-550
dist	-551
national▁	-552
ans▁	-553
River▁	-554
ey	-555
grap	-556
olog	-557
ablish	-558
ide▁	-559
up▁	-560
ten▁	-561
Pe	-562
lin	-563
az	-564
1,▁	-565
establish	-566
enti	-567
produc	-568
own	-569
mp	-570
ause▁	-571
ments▁	-572
ubl	-573
||||	-574
more▁	-575
liv	-576
ond	-577
ell▁	-578
direc	-579
when▁	-580
Col	-581
|200	-582
As	-583
enn	-584
sec	-585
bet	-586
Can	-587
lish▁	-588
ence▁	-589
ide	-590
10	-591
our▁	-592
air	-593
any▁	-594
||2	-595
uring▁	-596
iss	-597
dep	-598
ings▁	-599
Pres	-600
pos	-601
he	-602
television▁	-603
org	-604
fam	-605
English▁	-606
ians▁	-607
ations▁	-608
city▁	-609
Is	-610
Leag	-611
Oc	-612
des	-613
cho	-614
Indi	-615
Car	-616
||0▁	-617
graph	-618
de▁	-619
vi	-620
Ph	-621
ages▁	-622
Yor	-623
ebr	-624
Gre	-625
January▁	-626
British▁	-627
Univers	-628
actors▁	-629
grou	-630
became▁	-631
ies	-632
os▁	-633
im▁	-634
ail	-635
Living▁	-636
Pol	-637
part▁	-638
16	-639
World▁	-640
Ge	-641
ood▁	-642
uss	-643
ames▁	-644
old▁	-645
hel	-646
nor	-647
tic▁	-648
son▁	-649
ne▁	-650
popul	-651
ash	-652
ok	-653
der	-654
serv	-655
coun	-656
count	-657
Tr	-658
ock	-659
Cal	-660
diff	-661
ook▁	-662
C▁	-663
yp	-664
eng	-665
ik	-666
icip	-667
20▁	-668
Pr	-669
cont	-670
rem	-671
Jun	-672
she▁	-673
ight▁	-674
oll	-675
ive▁	-676
15	-677
than▁	-678
played▁	-679
ild	-680
ome	-681
Rep	-682
ists▁	-683
fe	-684
ile▁	-685
sk	-686
ident▁	-687
ple	-688
tit	-689
For	-690
ept	-691
aj	-692
cre	-693
Sw	-694
Cl	-695
rele	-696
over▁	-697
2"|	-698
establishments▁	-699
oy	-700
only▁	-701
(200	-702
Br	-703
les▁	-704
like▁	-705
Bl	-706
spec	-707
="2"|	-708
Fren	-709
sur	-710
4,▁	-711
2,▁	-712
commun	-713
old	-714
ween▁	-715
able▁	-716
Mus	-717
ance▁	-718
cri	-719
pers	-720
Pro	-721
ost	-722
icipal	-723
ean▁	-724
fi	-725
alb	-726
some▁	-727
br	-728
z▁	-729
Ital	-730
S▁	-731
inter	-732
char	-733
ton▁	-734
March▁	-735
3,▁	-736
1)▁	-737
very▁	-738
pre	-739
ograph	-740
bur	-741
ment	-742
op▁	-743
de	-744
tiv	-745
Nov	-746
riv	-747
ut▁	-748
".▁	-749
ine	-750
sm	-751
Dec	-752
thr	-753
May▁	-754
between▁	-755
Pl	-756
ays▁	-757
ite▁	-758
ue	-759
Apr	-760
Chr	-761
ry▁	-762
cap	-763
Ad	-764
num	-765
Eur	-766
rowspan	-767
time▁	-768
National▁	-769
ug	-770
name▁	-771
prov	-772
eral▁	-773
atic	-774
People▁	-775
||3	-776
Sept	-777
ting▁	-778
On▁	-779
tor	-780
April▁	-781
oci	-782
angu	-783
0||0||	-784
ase▁	-785
French▁	-786
South▁	-787
because▁	-788
tions▁	-789
190	-790
ys	-791
7,▁	-792
John▁	-793
Austr	-794
4)▁	-795
Austral	-796
Or	-797
ate	-798
3)▁	-799
June▁	-800
6,▁	-801
ul▁	-802
Min	-803
there▁	-804
Aw	-805
work	-806
Jul	-807
ose▁	-808
ond▁	-809
Pri	-810
cons	-811
202	-812
8,▁	-813
September▁	-814
ood	-815
Aug	-816
me▁	-817
ered▁	-818
2)▁	-819
such▁	-820
istory▁	-821
tober▁	-822
October▁	-823
where▁	-824
state▁	-825
8)▁	-826
There▁	-827
ina▁	-828
7)▁	-829
York▁	-830
Mon	-831
centur	-832
ative▁	-833
Inter	-834
August▁	-835
5)▁	-836
fin	-837
Af	-838
German▁	-839
te▁	-840
til▁	-841
5,▁	-842
Europ	-843
Japan	-844
December▁	-845
during▁	-846
ros	-847
July▁	-848
Rom	-849
ress	-850
19▁	-851
ater	-852
differ	-853
found▁	-854
ture▁	-855
'▁	-856
Fl	-857
ates▁	-858
chang	-859
won▁	-860
Febr	-861
will▁	-862
cur	-863
November▁	-864
ure	-865
ually▁	-866
football▁	-867
6)▁	-868
League▁	-869
io▁	-870
govern	-871
ton	-872
ily▁	-873
Gu	-874
ick	-875
langu	-876
ely▁	-877
new▁	-878
icial▁	-879
distric	-880
Rel	-881
February▁	-882
until▁	-883
(199	-884
emb	-885
song	-886
North▁	-887
way▁	-888
rel	-889
go	-890
ear▁	-891
players▁	-892
bas	-893
Russ	-894
ce▁	-895
dec	-896
member▁	-897
Dea	-898
port	-899
University▁	-900
former▁	-901
ort	-902
would▁	-903
sa	-904
1.▁	-905
series▁	-906
div	-907
States	-908
Man	-909
start	-910
may▁	-911
ampion	-912
ons▁	-913
years▁	-914
ps▁	-915
0,▁	-916
ship▁	-917
released▁	-918
mer▁	-919
do	-920
Am	-921
2.▁	-922
ire▁	-923
9,▁	-924
int	-925
ress▁	-926
ement▁	-927
different▁	-928
ge	-929
efore▁	-930
sup	-931
ern▁	-932
end▁	-933
bel	-934
ref	-935
re▁	-936
ie	-937
ama▁	-938
comm	-939
then▁	-940
artment▁	-941
ouse▁	-942
law	-943
beg	-944
loc	-945
ics▁	-946
tor▁	-947
9)▁	-948
arm	-949
ank	-950
three▁	-951
ins	-952
mil	-953
bro	-954
|199	-955
ublic▁	-956
El	-957
ale▁	-958
plac	-959
ister▁	-960
age	-961
ital▁	-962
Ser	-963
sol	-964
ower▁	-965
President▁	-966
ld	-967
Bar	-968
His▁	-969
inv	-970
mod	-971
fe▁	-972
car	-973
mak	-974
gre	-975
thern▁	-976
Cent	-977
0)▁	-978
tri	-979
ets▁	-980
ica▁	-981
Char	-982
since▁	-983
syst	-984
municipal	-985
again	-986
ai	-987
rop	-988
found	-989
sub	-990
make▁	-991
ifor	-992
II	-993
same▁	-994
ect▁	-995
def	-996
Commun	-997
3.▁	-998
app	-999
no▁	-1000
ows▁	-1001
sou	-1002
stri	-1003
istor	-1004
Mich	-1005
work▁	-1006
player▁	-1007
Gen	-1008
County▁	-1009
,00	-1010
iforn	-1011
France	-1012
tive▁	-1013
Em	-1014
some	-1015
do▁	-1016
areer▁	-1017
Californ	-1018
Se	-1019
vers	-1020
football	-1021
ating▁	-1022
Ab	-1023
Off	-1024
lymp	-1025
City▁	-1026
prof	-1027
ore	-1028
Ang	-1029
Olymp	-1030
ub▁	-1031
colspan	-1032
After▁	-1033
later▁	-1034
music	-1035
them▁	-1036
ca	-1037
Me	-1038
dev	-1039
met	-1040
4.▁	-1041
als	-1042
ach▁	-1043
Part	-1044
5.▁	-1045
Mov	-1046
7.▁	-1047
countr	-1048
roc	-1049
music▁	-1050
often▁	-1051
Per	-1052
actor▁	-1053
ur▁	-1054
Willi	-1055
sel	-1056
ort▁	-1057
="2"|-	-1058
appe	-1059
pages▁	-1060
town▁	-1061
named▁	-1062
til	-1063
ester	-1064
0.▁	-1065
Ed	-1066
Ear	-1067
ual▁	-1068
County	-1069
ards▁	-1070
Di	-1071
189	-1072
time	-1073
through▁	-1074
Rob	-1075
times▁	-1076
Ir	-1077
being▁	-1078
cul	-1079
ook	-1080
Re	-1081
191	-1082
ari	-1083
ars▁	-1084
Japanese▁	-1085
Japan▁	-1086
Her	-1087
politician	-1088
ounc	-1089
based▁	-1090
Related▁	-1091
Cor	-1092
seas	-1093
acc	-1094
8.▁	-1095
ax	-1096
Lond	-1097
area▁	-1098
second▁	-1099
Afr	-1100
each▁	-1101
Tex	-1102
ure▁	-1103
rol	-1104
started▁	-1105
ty▁	-1106
writer▁	-1107
son	-1108
cer	-1109
ional▁	-1110
over	-1111
my▁	-1112
gest▁	-1113
present	-1114
Bel	-1115
As▁	-1116
tics▁	-1117
",▁	-1118
History▁	-1119
organ	-1120
oth	-1121
ft▁	-1122
Ex	-1123
leg	-1124
stor	-1125
even▁	-1126
Deaths▁	-1127
Italian▁	-1128
ens▁	-1129
fiel	-1130
Ne	-1131
number▁	-1132
ou▁	-1133
typ	-1134
him▁	-1135
lead	-1136
against▁	-1137
wom	-1138
giv	-1139
lim	-1140
sci	-1141
tors▁	-1142
ography▁	-1143
How	-1144
6.▁	-1145
her	-1146
13	-1147
Te	-1148
with	-1149
War▁	-1150
oper	-1151
exam	-1152
Scot	-1153
ople	-1154
12	-1155
9.▁	-1156
King	-1157
bre	-1158
Some▁	-1159
He	-1160
before▁	-1161
V▁	-1162
188	-1163
err	-1164
ek▁	-1165
Canadi	-1166
usually▁	-1167
fil	-1168
14	-1169
usin	-1170
ions▁	-1171
bri	-1172
can	-1173
ins▁	-1174
kill	-1175
Be	-1176
well▁	-1177
Sy	-1178
(198	-1179
Chin	-1180
ru	-1181
ds▁	-1182
art▁	-1183
ass▁	-1184
atic▁	-1185
foll	-1186
tre	-1187
both▁	-1188
Mc	-1189
Govern	-1190
department▁	-1191
did▁	-1192
00▁	-1193
aur	-1194
ams▁	-1195
ead▁	-1196
struc	-1197
Wal	-1198
Champion	-1199
everal▁	-1200
,000▁	-1201
anim	-1202
ains▁	-1203
ix	-1204
lig	-1205
vo	-1206
team▁	-1207
|▁	-1208
county▁	-1209
med	-1210
including▁	-1211
ane▁	-1212
ought▁	-1213
onom	-1214
one	-1215
omin	-1216
compos	-1217
high	-1218
place▁	-1219
them	-1220
early▁	-1221
winn	-1222
2010▁	-1223
under▁	-1224
population▁	-1225
best▁	-1226
compl	-1227
sim	-1228
aint	-1229
these▁	-1230
2020	-1231
scho	-1232
These▁	-1233
small▁	-1234
elop	-1235
When▁	-1236
contr	-1237
around▁	-1238
igh▁	-1239
ons	-1240
(201	-1241
could▁	-1242
marri	-1243
ucc	-1244
&▁	-1245
Bo	-1246
War	-1247
ants▁	-1248
186	-1249
hy	-1250
day▁	-1251
aged▁	-1252
main▁	-1253
profess	-1254
century▁	-1255
uk	-1256
life▁	-1257
region▁	-1258
now▁	-1259
career▁	-1260
vis	-1261
Ass	-1262
tak	-1263
hum	-1264
For▁	-1265
fa	-1266
ig▁	-1267
ign▁	-1268
10▁	-1269
Dis	-1270
year▁	-1271
ties▁	-1272
website▁	-1273
part	-1274
get▁	-1275
erg	-1276
group▁	-1277
Pa	-1278
amm	-1279
ket	-1280
Sec	-1281
Dav	-1282
ery▁	-1283
At▁	-1284
ativ	-1285
canc	-1286
said▁	-1287
histor	-1288
Dem	-1289
ors	-1290
estern▁	-1291
Sch	-1292
ret	-1293
import	-1294
mat	-1295
Swed	-1296
let	-1297
ral▁	-1298
rul	-1299
mu	-1300
Canadian▁	-1301
ocr	-1302
tional▁	-1303
Ro	-1304
2020▁	-1305
album	-1306
several▁	-1307
him	-1308
orig	-1309
port▁	-1310
ned▁	-1311
Qu	-1312
lo	-1313
Sup	-1314
eas	-1315
ice	-1316
trans	-1317
Lou	-1318
Bra	-1319
jo	-1320
per▁	-1321
pri	-1322
itt	-1323
Tur	-1324
edi	-1325
io	-1326
stud	-1327
Mun	-1328
curr	-1329
ght	-1330
Ev	-1331
game▁	-1332
T▁	-1333
world	-1334
spe	-1335
adem	-1336
Pet	-1337
/0	-1338
187	-1339
singer▁	-1340
Roman▁	-1341
ator▁	-1342
ems▁	-1343
if▁	-1344
yn	-1345
illion▁	-1346
Phil	-1347
set▁	-1348
German	-1349
ah▁	-1350
district▁	-1351
ica	-1352
ze▁	-1353
ism▁	-1354
ove▁	-1355
ublish	-1356
family▁	-1357
lev	-1358
directed▁	-1359
Dr	-1360
cor	-1361
2019	-1362
buil	-1363
ology▁	-1364
iev	-1365
ke	-1366
stu	-1367
One▁	-1368
progr	-1369
sl	-1370
ana▁	-1371
back▁	-1372
near▁	-1373
International▁	-1374
w▁	-1375
inal▁	-1376
ements▁	-1377
D▁	-1378
itary▁	-1379
municipality▁	-1380
four▁	-1381
zer	-1382
form▁	-1383
west▁	-1384
lived▁	-1385
els▁	-1386
activ	-1387
On	-1388
play▁	-1389
politician▁	-1390
atis	-1391
Cities▁	-1392
ents	-1393
ever▁	-1394
ace	-1395
ourn	-1396
album▁	-1397
follow	-1398
yr	-1399
And	-1400
arch	-1401
person▁	-1402
Minister▁	-1403
ition▁	-1404
actress▁	-1405
games▁	-1406
aut	-1407
water▁	-1408
dio▁	-1409
poin	-1410
Co	-1411
aff	-1412
%▁	-1413
Party▁	-1414
ideo▁	-1415
Dist	-1416
ball▁	-1417
act▁	-1418
succ	-1419
live▁	-1420
William▁	-1421
Dep	-1422
Bu	-1423
ste	-1424
ert▁	-1425
mo	-1426
song▁	-1427
House▁	-1428
sts▁	-1429
band▁	-1430
ats▁	-1431
Hol	-1432
chem	-1433
isti	-1434
ley▁	-1435
Communes▁	-1436
auth	-1437
while▁	-1438
player	-1439
anish▁	-1440
though▁	-1441
language▁	-1442
Official▁	-1443
important▁	-1444
Kingd	-1445
disc	-1446
ire	-1447
Award▁	-1448
ature▁	-1449
formed▁	-1450
chil	-1451
ized▁	-1452
king▁	-1453
Canad	-1454
ak▁	-1455
ning▁	-1456
State▁	-1457
people	-1458
ick▁	-1459
2017▁	-1460
air▁	-1461
The	-1462
arti	-1463
long	-1464
Su	-1465
18▁	-1466
ix▁	-1467
began▁	-1468
E▁	-1469
ary	-1470
ang▁	-1471
Indian▁	-1472
Mal	-1473
out	-1474
chn	-1475
ise▁	-1476
appear	-1477
line▁	-1478
singer	-1479
ier▁	-1480
ung	-1481
ect	-1482
cr	-1483
electr	-1484
countri	-1485
les	-1486
ooks▁	-1487
Australian▁	-1488
ockey▁	-1489
Il	-1490
groups▁	-1491
government▁	-1492
ings	-1493
what▁	-1494
Vi	-1495
fic	-1496
large▁	-1497
minist	-1498
written▁	-1499
Sal	-1500
publish	-1501
phys	-1502
California▁	-1503
Sen	-1504
uck	-1505
band	-1506
King▁	-1507
person	-1508
day	-1509
drama▁	-1510
(2	-1511
Mex	-1512
uses▁	-1513
add	-1514
James▁	-1515
San▁	-1516
moved▁	-1517
develop	-1518
created▁	-1519
Ber	-1520
omb	-1521
hear	-1522
design	-1523
ight	-1524
orge▁	-1525
fri	-1526
||||||||	-1527
Ju	-1528
Angel	-1529
Footb	-1530
Movies▁	-1531
till▁	-1532
embers▁	-1533
Jo	-1534
ef▁	-1535
means▁	-1536
sign	-1537
build	-1538
(197	-1539
Scho	-1540
ied▁	-1541
restl	-1542
Texas▁	-1543
lands▁	-1544
Russian▁	-1545
cy	-1546
show▁	-1547
nec	-1548
ind▁	-1549
Flor	-1550
ird▁	-1551
ajor▁	-1552
ped▁	-1553
ox	-1554
umb	-1555
Fir	-1556
Pal	-1557
vol	-1558
ord▁	-1559
Distric	-1560
Tim	-1561
US▁	-1562
ext	-1563
ony▁	-1564
there	-1565
2018▁	-1566
Christi	-1567
Bro	-1568
busin	-1569
edy▁	-1570
tt	-1571
Bas	-1572
12▁	-1573
stit	-1574
2014▁	-1575
using▁	-1576
years	-1577
ened▁	-1578
ney▁	-1579
largest▁	-1580
ek	-1581
ism	-1582
ank▁	-1583
Jos	-1584
ews▁	-1585
ful▁	-1586
ith▁	-1587
II▁	-1588
bod	-1589
Its▁	-1590
Pak	-1591
ame	-1592
."▁	-1593
ock▁	-1594
last▁	-1595
idd	-1596
mag	-1597
famous▁	-1598
Med	-1599
resp	-1600
However	-1601
any	-1602
||1▁	-1603
ches	-1604
Reg	-1605
how▁	-1606
Politic	-1607
country▁	-1608
185	-1609
record	-1610
Spor	-1611
held▁	-1612
ger▁	-1613
ible▁	-1614
West▁	-1615
Ale	-1616
nov	-1617
CO	-1618
Mor	-1619
George▁	-1620
Sm	-1621
ough	-1622
ations	-1623
miss	-1624
read	-1625
rece	-1626
Democr	-1627
||4	-1628
ular▁	-1629
ropical▁	-1630
Sing	-1631
Many▁	-1632
ided▁	-1633
Chic	-1634
ence	-1635
tions	-1636
contin	-1637
15▁	-1638
but	-1639
ith	-1640
ago▁	-1641
offic	-1642
politicians▁	-1643
ipp	-1644
oph	-1645
unc	-1646
ult▁	-1647
gener	-1648
elected▁	-1649
men	-1650
Rich	-1651
bi	-1652
Sum	-1653
capital▁	-1654
long▁	-1655
Rec	-1656
death▁	-1657
11▁	-1658
prot	-1659
Har	-1660
ex▁	-1661
la	-1662
ext▁	-1663
P▁	-1664
war	-1665
Cath	-1666
els	-1667
run	-1668
much▁	-1669
vill	-1670
Sou	-1671
Cap	-1672
Mil	-1673
Fre	-1674
Miss	-1675
Bur	-1676
alist▁	-1677
ended▁	-1678
Kh	-1679
so	-1680
ined▁	-1681
ution▁	-1682
Mo	-1683
France▁	-1684
Wil	-1685
und	-1686
actor	-1687
attle▁	-1688
given▁	-1689
cour	-1690
sch	-1691
Atl	-1692
not	-1693
aw▁	-1694
30▁	-1695
become▁	-1696
European▁	-1697
US	-1698
each	-1699
book▁	-1700
married▁	-1701
ael▁	-1702
–200	-1703
Prime▁	-1704
million▁	-1705
ai▁	-1706
go▁	-1707
still▁	-1708
Braz	-1709
team	-1710
Republ	-1711
served▁	-1712
L▁	-1713
é▁	-1714
guit	-1715
Austri	-1716
right▁	-1717
Most▁	-1718
cens	-1719
B▁	-1720
Air	-1721
living▁	-1722
Spanish▁	-1723
under	-1724
anti	-1725
||0||0||0||	-1726
Tw	-1727
Div	-1728
Sci	-1729
include▁	-1730
my	-1731
wro	-1732
youn	-1733
ivil▁	-1734
Gl	-1735
red▁	-1736
Comp	-1737
ver▁	-1738
oge	-1739
ovi	-1740
ones	-1741
eph	-1742
Republic▁	-1743
Pakist	-1744
eff	-1745
tem	-1746
arry▁	-1747
London▁	-1748
mul	-1749
light▁	-1750
2019▁	-1751
owns▁	-1752
Cam	-1753
forc	-1754
Cr	-1755
see▁	-1756
ful	-1757
north▁	-1758
video▁	-1759
Ap	-1760
Res	-1761
educ	-1762
tain	-1763
went▁	-1764
hav	-1765
system▁	-1766
Bi	-1767
Er	-1768
La▁	-1769
Lib	-1770
ects▁	-1771
rock▁	-1772
atistics▁	-1773
identi	-1774
Du	-1775
Sl	-1776
home▁	-1777
Fil	-1778
happ	-1779
ep▁	-1780
ement	-1781
ient▁	-1782
De	-1783
grow	-1784
ner▁	-1785
East▁	-1786
Mac	-1787
off▁	-1788
ines▁	-1789
First▁	-1790
north	-1791
League	-1792
oss	-1793
All▁	-1794
east	-1795
charac	-1796
ier	-1797
back	-1798
ren▁	-1799
probl	-1800
May	-1801
led▁	-1802
ways▁	-1803
wrote▁	-1804
Kar	-1805
ask	-1806
ived▁	-1807
built▁	-1808
caused▁	-1809
la▁	-1810
partic	-1811
professional▁	-1812
Actors▁	-1813
Los▁	-1814
urric	-1815
Ma	-1816
ount▁	-1817
ington▁	-1818
Ze	-1819
took▁	-1820
popular▁	-1821
cel	-1822
John	-1823
14▁	-1824
Hen	-1825
que▁	-1826
common▁	-1827
ics	-1828
ones▁	-1829
()▁	-1830
fem	-1831
word▁	-1832
ettl	-1833
journ	-1834
less▁	-1835
Lu	-1836
ze	-1837
dia▁	-1838
stand	-1839
footballer▁	-1840
Vir	-1841
ois▁	-1842
ently▁	-1843
Don	-1844
Not	-1845
ri▁	-1846
Sim	-1847
writer	-1848
From▁	-1849
stage▁	-1850
expl	-1851
Georg	-1852
left▁	-1853
ft	-1854
equ	-1855
Kans	-1856
species▁	-1857
vir	-1858
coll	-1859
plays▁	-1860
ve	-1861
came▁	-1862
ches▁	-1863
military▁	-1864
sometimes▁	-1865
fre	-1866
action▁	-1867
political▁	-1868
stat	-1869
another▁	-1870
pass	-1871
Cour	-1872
16▁	-1873
2016▁	-1874
voc	-1875
Thom	-1876
does▁	-1877
univers	-1878
founded▁	-1879
13▁	-1880
gl	-1881
Emp	-1882
members▁	-1883
cas	-1884
di▁	-1885
..	-1886
becom	-1887
net	-1888
Robert▁	-1889
David▁	-1890
Municipal	-1891
Kor	-1892
Sam	-1893
Pers	-1894
2021▁	-1895
child	-1896
Academ	-1897
ani	-1898
sty	-1899
Prov	-1900
cu	-1901
17▁	-1902
tain▁	-1903
During▁	-1904
dren	-1905
ode▁	-1906
writers▁	-1907
VI	-1908
}▁	-1909
Pop	-1910
ittle▁	-1911
worked▁	-1912
BC▁	-1913
field▁	-1914
Ind	-1915
Carol	-1916
announc	-1917
ven	-1918
Rh	-1919
south	-1920
single▁	-1921
An▁	-1922
class	-1923
just▁	-1924
ute▁	-1925
Michael▁	-1926
ob▁	-1927
cell	-1928
ols▁	-1929
ink▁	-1930
pris	-1931
Christ	-1932
Mag	-1933
hor	-1934
ms▁	-1935
Port	-1936
iter	-1937
English	-1938
K▁	-1939
ley	-1940
Illin	-1941
bar	-1942
way	-1943
Wash	-1944
ality▁	-1945
high▁	-1946
lege▁	-1947
rang	-1948
Saint	-1949
Cathol	-1950
official▁	-1951
Best▁	-1952
Mat	-1953
na▁	-1954
tot	-1955
published▁	-1956
ush	-1957
ald▁	-1958
ific	-1959
toge	-1960
site▁	-1961
type▁	-1962
tures▁	-1963
world▁	-1964
Dut	-1965
augh	-1966
ially▁	-1967
western▁	-1968
ety▁	-1969
We	-1970
list▁	-1971
urch▁	-1972
1,	-1973
relig	-1974
Ag	-1975
deb	-1976
Grou	-1977
vari	-1978
ania▁	-1979
manag	-1980
ators▁	-1981
works▁	-1982
ps	-1983
Que	-1984
vot	-1985
All	-1986
TV▁	-1987
Tor	-1988
ministr	-1989
General▁	-1990
ociation▁	-1991
8),▁	-1992
eder	-1993
reas	-1994
Kingdom▁	-1995
retur	-1996
Florid	-1997
ally	-1998
econom	-1999
righ	-2000
descri	-2001
comedy▁	-2002
|}▁	-2003
Germany	-2004
rac	-2005
2000▁	-2006
esh	-2007
2015▁	-2008
club▁	-2009
success	-2010
If▁	-2011
rain	-2012
third▁	-2013
emp	-2014
example	-2015
25▁	-2016
gin	-2017
ite	-2018
itch	-2019
ends▁	-2020
songs▁	-2021
Ter	-2022
phil	-2023
role▁	-2024
seat▁	-2025
ying▁	-2026
famil	-2027
ene	-2028
Sovi	-2029
ator	-2030
ained▁	-2031
ata▁	-2032
England▁	-2033
ept▁	-2034
ower	-2035
Go	-2036
cop	-2037
dge▁	-2038
believ	-2039
business	-2040
ae	-2041
York	-2042
ium▁	-2043
spor	-2044
order▁	-2045
province▁	-2046
184	-2047
river▁	-2048
ty	-2049
hal	-2050
vil	-2051
Bal	-2052
lv	-2053
ance	-2054
peri	-2055
along▁	-2056
ection▁	-2057
Mad	-2058
term▁	-2059
ematic	-2060
21▁	-2061
Arch	-2062
commune	-2063
Europe▁	-2064
Chinese▁	-2065
sen	-2066
1),▁	-2067
Cup▁	-2068
tin▁	-2069
help▁	-2070
thing▁	-2071
Democratic▁	-2072
simil	-2073
major▁	-2074
represent	-2075
5||	-2076
making▁	-2077
Wom	-2078
tar	-2079
ution	-2080
amb	-2081
cast	-2082
=▁	-2083
put▁	-2084
ner	-2085
5),▁	-2086
List▁	-2087
ious▁	-2088
school▁	-2089
Charles▁	-2090
ap▁	-2091
hol	-2092
scre	-2093
Olympic▁	-2094
history▁	-2095
tspeople▁	-2096
2006▁	-2097
state	-2098
har	-2099
census	-2100
wan	-2101
Club▁	-2102
ected▁	-2103
formation▁	-2104
!▁	-2105
(196	-2106
five▁	-2107
side▁	-2108
athematic	-2109
4),▁	-2110
south▁	-2111
atural▁	-2112
Vic	-2113
6),▁	-2114
mean	-2115
well	-2116
ples▁	-2117
ross▁	-2118
Mi	-2119
Fin	-2120
ina	-2121
2007▁	-2122
Brazil	-2123
albums▁	-2124
change▁	-2125
new	-2126
East	-2127
show	-2128
2013▁	-2129
City	-2130
few▁	-2131
Tel	-2132
2011▁	-2133
ry	-2134
se▁	-2135
head	-2136
books▁	-2137
statistics▁	-2138
Writ	-2139
Paul▁	-2140
inst	-2141
Germany▁	-2142
rom	-2143
aver	-2144
peror▁	-2145
America▁	-2146
version▁	-2147
183	-2148
mount	-2149
following▁	-2150
proc	-2151
top▁	-2152
ecture▁	-2153
antic▁	-2154
ks	-2155
2),▁	-2156
Her▁	-2157
down▁	-2158
century	-2159
ale	-2160
voice▁	-2161
killed▁	-2162
ised▁	-2163
Kn	-2164
doc	-2165
hab	-2166
ra▁	-2167
ards	-2168
Eg	-2169
50▁	-2170
gar	-2171
featur	-2172
scienti	-2173
dam	-2174
makes▁	-2175
atives▁	-2176
ago	-2177
exp	-2178
lear	-2179
berg▁	-2180
ward▁	-2181
Vill	-2182
Wind	-2183
sil	-2184
Football▁	-2185
FA▁	-2186
che	-2187
ino▁	-2188
those▁	-2189
cat	-2190
co▁	-2191
7),▁	-2192
got▁	-2193
iss▁	-2194
Roy	-2195
au▁	-2196
heart▁	-2197
ocial▁	-2198
esp	-2199
Park▁	-2200
earch▁	-2201
dem	-2202
season▁	-2203
vic	-2204
every▁	-2205
power▁	-2206
osp	-2207
1||	-2208
Bor	-2209
non	-2210
2012▁	-2211
Soviet▁	-2212
Mu	-2213
Ver	-2214
phot	-2215
tour	-2216
head▁	-2217
Sar	-2218
pi	-2219
pain	-2220
England	-2221
ording▁	-2222
produced▁	-2223
grad	-2224
ouse	-2225
Canada▁	-2226
children	-2227
ta▁	-2228
take▁	-2229
good▁	-2230
guitar	-2231
located▁	-2232
/9	-2233
Kur	-2234
next▁	-2235
Mer	-2236
Turk	-2237
ham▁	-2238
Mexic	-2239
epend	-2240
Greek▁	-2241
complet	-2242
father▁	-2243
independ	-2244
Bec	-2245
0),▁	-2246
men▁	-2247
2008▁	-2248
ground▁	-2249
6||	-2250
charact	-2251
Alex	-2252
ij	-2253
New	-2254
Cong	-2255
ames	-2256
ency▁	-2257
view▁	-2258
cancer▁	-2259
election▁	-2260
ten	-2261
Dutch▁	-2262
parts▁	-2263
director▁	-2264
Hum	-2265
ief▁	-2266
received▁	-2267
alth▁	-2268
without▁	-2269
urricane▁	-2270
mit	-2271
Gold	-2272
yl	-2273
Play	-2274
Pat	-2275
Summer▁	-2276
Championship▁	-2277
flu	-2278
COVI	-2279
reti	-2280
itzer	-2281
pur	-2282
roy	-2283
plan	-2284
2||	-2285
Jew	-2286
evol	-2287
hand	-2288
rog	-2289
9),▁	-2290
placed▁	-2291
Dar	-2292
3),▁	-2293
COVID	-2294
ford▁	-2295
b▁	-2296
Isra	-2297
public▁	-2298
O▁	-2299
100▁	-2300
22▁	-2301
7||	-2302
Met	-2303
Jack	-2304
law▁	-2305
most	-2306
no	-2307
2001▁	-2308
rown▁	-2309
thought▁	-2310
Sk	-2311
ta	-2312
24▁	-2313
Cur	-2314
Great▁	-2315
Union▁	-2316
London	-2317
Ben	-2318
Lif	-2319
Sol	-2320
ides▁	-2321
Academy▁	-2322
Richard▁	-2323
Pic	-2324
Switzer	-2325
announced▁	-2326
WW	-2327
Ros	-2328
ean	-2329
total▁	-2330
related▁	-2331
23▁	-2332
countries▁	-2333
Del	-2334
Penn	-2335
ani▁	-2336
|198	-2337
body▁	-2338
BC	-2339
M▁	-2340
list	-2341
ease▁	-2342
film▁	-2343
Im	-2344
ues▁	-2345
Group▁	-2346
hockey▁	-2347
cal	-2348
km	-2349
Tri	-2350
ants	-2351
epis	-2352
ult	-2353
poss	-2354
ude▁	-2355
war▁	-2356
general▁	-2357
ere	-2358
ox▁	-2359
Republican▁	-2360
Sant	-2361
rights▁	-2362
ket▁	-2363
Kr	-2364
ana	-2365
consid	-2366
short▁	-2367
tical▁	-2368
ag▁	-2369
val	-2370
fail	-2371
25	-2372
.,▁	-2373
Cre	-2374
ma▁	-2375
main	-2376
Music▁	-2377
India	-2378
water	-2379
actress	-2380
similar▁	-2381
appeared▁	-2382
R▁	-2383
Fri	-2384
2004▁	-2385
vent	-2386
country	-2387
Po	-2388
–199	-2389
movie	-2390
1.	-2391
Ca	-2392
wrestl	-2393
you▁	-2394
human▁	-2395
Chicago▁	-2396
viol	-2397
ketball▁	-2398
Lo	-2399
eum▁	-2400
1||0||	-2401
Nob	-2402
ull	-2403
liam	-2404
ject▁	-2405
N▁	-2406
r▁	-2407
African▁	-2408
company▁	-2409
9||	-2410
Mass	-2411
abil	-2412
resent	-2413
Ham	-2414
engine	-2415
Counc	-2416
come▁	-2417
California	-2418
sw	-2419
seen▁	-2420
Central▁	-2421
ities	-2422
School▁	-2423
27▁	-2424
special▁	-2425
Australia▁	-2426
Mur	-2427
ac▁	-2428
gian▁	-2429
Henry▁	-2430
India▁	-2431
Thomas▁	-2432
mostly▁	-2433
things▁	-2434
Oh	-2435
kl	-2436
ger	-2437
ision	-2438
Gir	-2439
footballers▁	-2440
techn	-2441
comes▁	-2442
commune▁	-2443
4||	-2444
2005▁	-2445
eball▁	-2446
Represent	-2447
Jers	-2448
president▁	-2449
Hon	-2450
city	-2451
res▁	-2452
organiz	-2453
Swedish▁	-2454
45	-2455
cant	-2456
reach	-2457
self▁	-2458
8||	-2459
eter	-2460
nomin	-2461
starr	-2462
village▁	-2463
ade	-2464
ander▁	-2465
Kansas▁	-2466
ansp	-2467
international▁	-2468
ha	-2469
inf	-2470
trav	-2471
try▁	-2472
small	-2473
uter▁	-2474
iddle▁	-2475
Catholic▁	-2476
character▁	-2477
Hy	-2478
Op	-2479
Mel	-2480
must▁	-2481
local▁	-2482
Gar	-2483
Zeal	-2484
ated	-2485
Virgin	-2486
ering▁	-2487
pat	-2488
burg	-2489
rap	-2490
ior▁	-2491
Acc	-2492
Alb	-2493
Arg	-2494
Isl	-2495
2009▁	-2496
teach	-2497
leader▁	-2498
ds	-2499
Bir	-2500
ama	-2501
3||	-2502
ental▁	-2503
ships▁	-2504
Li	-2505
dra	-2506
ored▁	-2507
Illinois▁	-2508
Sportspeople▁	-2509
ce	-2510
28▁	-2511
inj	-2512
ogn	-2513
Mont	-2514
four	-2515
alists▁	-2516
record▁	-2517
original▁	-2518
Red▁	-2519
sylv	-2520
east▁	-2521
Scottish▁	-2522
center▁	-2523
Sur	-2524
occ	-2525
Jer	-2526
1990	-2527
tradi	-2528
perform	-2529
Christian▁	-2530
Val	-2531
Web	-2532
udd	-2533
Egyp	-2534
ves▁	-2535
aim	-2536
ash▁	-2537
Hall▁	-2538
Prize▁	-2539
anian▁	-2540
clos	-2541
radi	-2542
dies▁	-2543
modern▁	-2544
tropical▁	-2545
ked▁	-2546
did	-2547
light	-2548
roduc	-2549
includes▁	-2550
Sun	-2551
ip▁	-2552
ka▁	-2553
aster▁	-2554
mathematic	-2555
ei	-2556
ya▁	-2557
Soci	-2558
burg▁	-2559
composer▁	-2560
itiz	-2561
prom	-2562
late▁	-2563
season	-2564
system	-2565
ederal▁	-2566
District▁	-2567
due▁	-2568
star	-2569
win▁	-2570
ology	-2571
China▁	-2572
joined▁	-2573
provinc	-2574
playing▁	-2575
aper▁	-2576
lands	-2577
Writers▁	-2578
FI	-2579
mur	-2580
indu	-2581
2020)▁	-2582
Governor▁	-2583
ory	-2584
epar	-2585
story▁	-2586
Florida▁	-2587
30	-2588
Arab	-2589
ages	-2590
Instit	-2591
stars▁	-2592
West	-2593
lot▁	-2594
sequ	-2595
Asia▁	-2596
daugh	-2597
Peter▁	-2598
established▁	-2599
Jac	-2600
ross	-2601
six▁	-2602
broad	-2603
should▁	-2604
26▁	-2605
lin▁	-2606
Pref	-2607
ales▁	-2608
Pennsylv	-2609
):▁	-2610
ese	-2611
Brit	-2612
anch	-2613
avy▁	-2614
ham	-2615
clim	-2616
eth▁	-2617
ole▁	-2618
fac	-2619
que	-2620
station▁	-2621
GB	-2622
Luc	-2623
big	-2624
hon	-2625
camp	-2626
pian	-2627
within▁	-2628
–201	-2629
Grand▁	-2630
champion	-2631
mb	-2632
ball	-2633
ster	-2634
away▁	-2635
com▁	-2636
physic	-2637
Association▁	-2638
by	-2639
iel	-2640
current▁	-2641
Politicians▁	-2642
li▁	-2643
allow	-2644
gave▁	-2645
29▁	-2646
we▁	-2647
lab	-2648
exec	-2649
ounds▁	-2650
Emperor▁	-2651
cycl	-2652
piec	-2653
America	-2654
changed▁	-2655
natural▁	-2656
winning▁	-2657
position▁	-2658
defe	-2659
ota▁	-2660
series	-2661
Battle▁	-2662
sea▁	-2663
Army▁	-2664
Royal▁	-2665
overed▁	-2666
="2"|-||	-2667
exc	-2668
ids▁	-2669
inds▁	-2670
times	-2671
radio▁	-2672
2002▁	-2673
aves▁	-2674
producer▁	-2675
together▁	-2676
Cup	-2677
ial	-2678
distri	-2679
young▁	-2680
3"|	-2681
oub	-2682
bed▁	-2683
ler▁	-2684
events▁	-2685
Vol	-2686
dic	-2687
But▁	-2688
appl	-2689
ops▁	-2690
ved▁	-2691
author	-2692
house▁	-2693
Polish▁	-2694
syn	-2695
host	-2696
medi	-2697
stre	-2698
ung▁	-2699
screen	-2700
eastern▁	-2701
(3	-2702
To▁	-2703
ns▁	-2704
un▁	-2705
becomes▁	-2706
Australia	-2707
Des	-2708
Law	-2709
name	-2710
need	-2711
included▁	-2712
Brazilian▁	-2713
No	-2714
Gall	-2715
Park	-2716
ific▁	-2717
ington	-2718
continu	-2719
Angeles▁	-2720
Black▁	-2721
FC▁	-2722
Mah	-2723
="3"|	-2724
ests▁	-2725
Jr	-2726
ots▁	-2727
conduc	-2728
Former▁	-2729
Conf	-2730
administr	-2731
Dev	-2732
bour	-2733
W▁	-2734
180	-2735
ena▁	-2736
shar	-2737
mater	-2738
Early▁	-2739
ara▁	-2740
life	-2741
energ	-2742
fire▁	-2743
characters▁	-2744
/▁	-2745
Ha	-2746
ize▁	-2747
mach	-2748
Louis	-2749
erence▁	-2750
eth	-2751
mem	-2752
sex	-2753
Educ	-2754
issu	-2755
origin	-2756
ott	-2757
multi	-2758
Since▁	-2759
Sa	-2760
")▁	-2761
cra	-2762
100	-2763
ake	-2764
km▁	-2765
2000	-2766
net▁	-2767
viv	-2768
diss	-2769
ished▁	-2770
shows▁	-2771
aly	-2772
die▁	-2773
production▁	-2774
Municipalities▁	-2775
ma	-2776
(195	-2777
Juli	-2778
separ	-2779
ster▁	-2780
Jewish▁	-2781
island▁	-2782
children▁	-2783
1980	-2784
2010	-2785
bert▁	-2786
habit	-2787
tice▁	-2788
self	-2789
University	-2790
itz	-2791
(193	-2792
dest	-2793
lawy	-2794
ont▁	-2795
requ	-2796
uel▁	-2797
align	-2798
ults▁	-2799
Civil▁	-2800
attack	-2801
ights▁	-2802
College▁	-2803
Sain	-2804
2003▁	-2805
developed▁	-2806
ee▁	-2807
ío▁	-2808
ged▁	-2809
thod	-2810
press	-2811
disease▁	-2812
ines	-2813
Argent	-2814
Nobel▁	-2815
F▁	-2816
omet	-2817
2||0||	-2818
acks▁	-2819
Asian▁	-2820
Empire▁	-2821
By▁	-2822
bab	-2823
liz	-2824
sum	-2825
era▁	-2826
ense▁	-2827
philos	-2828
title▁	-2829
Geography▁	-2830
Pas	-2831
key	-2832
ident	-2833
wood▁	-2834
states▁	-2835
death	-2836
lost▁	-2837
ti▁	-2838
Prem	-2839
ene▁	-2840
Mount	-2841
ices▁	-2842
Western▁	-2843
ais▁	-2844
words▁	-2845
ending▁	-2846
Louis▁	-2847
cities▁	-2848
11	-2849
Awards▁	-2850
Cze	-2851
agre	-2852
func	-2853
taken▁	-2854
control▁	-2855
ettlements▁	-2856
du	-2857
del	-2858
wea	-2859
Day▁	-2860
able	-2861
big▁	-2862
soci	-2863
Towns▁	-2864
Hel	-2865
ink	-2866
event	-2867
least▁	-2868
Because▁	-2869
Stu	-2870
gir	-2871
area	-2872
book	-2873
iod▁	-2874
having▁	-2875
run▁	-2876
ications▁	-2877
cle	-2878
eau	-2879
hold	-2880
ita▁	-2881
Andre	-2882
women	-2883
black▁	-2884
compan	-2885
tro	-2886
cancer	-2887
southern▁	-2888
spir	-2889
Den	-2890
Games▁	-2891
central▁	-2892
Lab	-2893
acy▁	-2894
soldi	-2895
women▁	-2896
places▁	-2897
introduc	-2898
Gal	-2899
ov▁	-2900
astr	-2901
Enter	-2902
winners▁	-2903
ro▁	-2904
wat	-2905
You▁	-2906
problems▁	-2907
ett	-2908
tra	-2909
days▁	-2910
food▁	-2911
other	-2912
Americ	-2913
again▁	-2914
NA	-2915
counties▁	-2916
ological▁	-2917
lines▁	-2918
Prince▁	-2919
active▁	-2920
Carolina▁	-2921
Uk	-2922
ww	-2923
(;▁	-2924
Fam	-2925
Mos	-2926
sych	-2927
ula▁	-2928
face▁	-2929
invol	-2930
rain▁	-2931
transl	-2932
berg	-2933
car▁	-2934
Princ	-2935
Elec	-2936
great▁	-2937
idential▁	-2938
basketball▁	-2939
songwriter▁	-2940
wid	-2941
ported▁	-2942
Pac	-2943
say▁	-2944
Life▁	-2945
god	-2946
its	-2947
lad	-2948
squ	-2949
connec	-2950
considered▁	-2951
ital	-2952
reme▁	-2953
Sil	-2954
money▁	-2955
Bul	-2956
red	-2957
Stev	-2958
anth	-2959
peti	-2960
Michig	-2961
lives▁	-2962
female▁	-2963
("	-2964
jud	-2965
ury▁	-2966
uset	-2967
led	-2968
whe	-2969
Land	-2970
Prof	-2971
view	-2972
Court▁	-2973
Victor	-2974
Northern▁	-2975
Switzerland	-2976
ions	-2977
give▁	-2978
Record	-2979
amount▁	-2980
24	-2981
China	-2982
2010,▁	-2983
arded▁	-2984
mother▁	-2985
studied▁	-2986
aster	-2987
gradu	-2988
point▁	-2989
recogn	-2990
information▁	-2991
Ra	-2992
ym	-2993
zz	-2994
kil	-2995
pop▁	-2996
1999▁	-2997
rest▁	-2998
ances▁	-2999
temper	-3000
highest▁	-3001
cle▁	-3002
rail	-3003
tern	-3004
areas▁	-3005
Austrian▁	-3006
building▁	-3007
government	-3008
rip	-3009
common	-3010
author▁	-3011
Settlements▁	-3012
Minn	-3013
med▁	-3014
says▁	-3015
aining▁	-3016
idents▁	-3017
musician▁	-3018
Government▁	-3019
Ori	-3020
Kent	-3021
citiz	-3022
onic▁	-3023
Massach	-3024
almost▁	-3025
better▁	-3026
dition▁	-3027
period▁	-3028
Massachuset	-3029
23	-3030
Bang	-3031
Clar	-3032
High	-3033
Hung	-3034
bass	-3035
numb	-3036
outs	-3037
1988▁	-3038
Islam	-3039
Ur	-3040
Dani	-3041
board▁	-3042
posed▁	-3043
Si	-3044
cir	-3045
top	-3046
find▁	-3047
white▁	-3048
certain▁	-3049
15,▁	-3050
Irish▁	-3051
musicians▁	-3052
ania	-3053
tra▁	-3054
nation	-3055
comb	-3056
Os	-3057
ays	-3058
Big▁	-3059
avar	-3060
ease	-3061
among▁	-3062
Korean▁	-3063
Up	-3064
isl	-3065
liter	-3066
ures▁	-3067
depart	-3068
shire▁	-3069
Council▁	-3070
Washington▁	-3071
1995▁	-3072
High▁	-3073
ishop▁	-3074
study▁	-3075
atin▁	-3076
Church▁	-3077
Prefecture▁	-3078
mid	-3079
Earth	-3080
Star▁	-3081
Missou	-3082
Nether	-3083
above▁	-3084
Ob	-3085
179	-3086
lor	-3087
ont	-3088
azz▁	-3089
open	-3090
Their▁	-3091
inter▁	-3092
singers▁	-3093
countries	-3094
40	-3095
mor	-3096
(192	-3097
1970	-3098
Anim	-3099
Viet	-3100
Italy	-3101
Lake▁	-3102
retired▁	-3103
Youn	-3104
ells▁	-3105
power	-3106
Ukrain	-3107
Río▁	-3108
ropol	-3109
strum	-3110
super	-3111
ences▁	-3112
Center▁	-3113
working▁	-3114
Cri	-3115
Spr	-3116
ums▁	-3117
wood	-3118
osaur	-3119
ender▁	-3120
Francis	-3121
Island▁	-3122
Senate▁	-3123
wanted▁	-3124
musical▁	-3125
northern▁	-3126
leag	-3127
With▁	-3128
read▁	-3129
sent▁	-3130
compet	-3131
fur	-3132
mix	-3133
sour	-3134
uty▁	-3135
takes▁	-3136
always▁	-3137
average▁	-3138
present▁	-3139
Cas	-3140
chan	-3141
canton▁	-3142
science▁	-3143
Cat	-3144
Bern	-3145
Vall	-3146
ucle	-3147
ping▁	-3148
Canada	-3149
Secret	-3150
Pakistan▁	-3151
pen	-3152
Mart	-3153
lead▁	-3154
ques▁	-3155
Mr	-3156
—▁	-3157
UK▁	-3158
|201	-3159
estiv	-3160
ison▁	-3161
2.	-3162
Ky	-3163
oms▁	-3164
Music	-3165
round	-3166
Bre	-3167
Nic	-3168
hom	-3169
oon▁	-3170
aries▁	-3171
ested▁	-3172
iller▁	-3173
Chil	-3174
symb	-3175
1991▁	-3176
ondiss	-3177
social▁	-3178
50	-3179
sn	-3180
Iow	-3181
get	-3182
ado▁	-3183
ford	-3184
left	-3185
1990▁	-3186
either▁	-3187
little▁	-3188
gress	-3189
family	-3190
Division▁	-3191
Ari	-3192
Tok	-3193
lov	-3194
Air▁	-3195
ona▁	-3196
1994▁	-3197
Order▁	-3198
theast▁	-3199
divided▁	-3200
2,	-3201
La	-3202
Mod	-3203
You	-3204
1984▁	-3205
||1||0||	-3206
31▁	-3207
even	-3208
ran▁	-3209
ube▁	-3210
eign▁	-3211
road▁	-3212
Notes▁	-3213
opened▁	-3214
founder▁	-3215
da▁	-3216
town	-3217
goes▁	-3218
sold▁	-3219
Wik	-3220
ams	-3221
oma▁	-3222
rest	-3223
1996▁	-3224
influ	-3225
example▁	-3226
Ke	-3227
ely	-3228
fol	-3229
down	-3230
thre	-3231
gold▁	-3232
wife▁	-3233
Ire	-3234
uel	-3235
eph▁	-3236
oday	-3237
1998▁	-3238
wide▁	-3239
Latin▁	-3240
Minist	-3241
mainly▁	-3242
Es	-3243
Fe	-3244
–198	-3245
names▁	-3246
God	-3247
Hor	-3248
My▁	-3249
ane	-3250
ney	-3251
sal	-3252
Stre	-3253
River	-3254
That▁	-3255
Hockey▁	-3256
Philipp	-3257
”▁	-3258
never▁	-3259
various▁	-3260
Tre	-3261
ny▁	-3262
tural▁	-3263
types▁	-3264
Far	-3265
urb	-3266
forms▁	-3267
territ	-3268
Spec	-3269
ala▁	-3270
ano▁	-3271
speak	-3272
Israel	-3273
Wrestl	-3274
event▁	-3275
Parliam	-3276
1-	-3277
Gh	-3278
ms	-3279
meas	-3280
artic	-3281
newsp	-3282
Joseph▁	-3283
meaning▁	-3284
Entertain	-3285
computer▁	-3286
X▁	-3287
Leg	-3288
den	-3289
cast▁	-3290
viron	-3291
Columb	-3292
ancer▁	-3293
comedi	-3294
Premier▁	-3295
(8	-3296
Som	-3297
ler	-3298
Rang	-3299
ces▁	-3300
row▁	-3301
Virginia▁	-3302
Str	-3303
oul	-3304
1960	-3305
Histor	-3306
ellow▁	-3307
ground	-3308
party▁	-3309
Zealand▁	-3310
district	-3311
Representatives▁	-3312
My	-3313
Sub	-3314
Tot	-3315
daughter▁	-3316
dig	-3317
(194	-3318
1993▁	-3319
Love▁	-3320
Queen▁	-3321
itive▁	-3322
Gra	-3323
agu	-3324
shap	-3325
this	-3326
1980▁	-3327
espec	-3328
Europe	-3329
Lar	-3330
18,▁	-3331
Lee▁	-3332
fact	-3333
ched▁	-3334
atory▁	-3335
close▁	-3336
metal▁	-3337
Jersey▁	-3338
reached▁	-3339
Pu	-3340
ats	-3341
fig	-3342
ates	-3343
Harry▁	-3344
civil▁	-3345
police▁	-3346
Department▁	-3347
Ak	-3348
Ko	-3349
-19	-3350
III▁	-3351
Two▁	-3352
It	-3353
conc	-3354
hit▁	-3355
ius▁	-3356
field	-3357
ren	-3358
iana▁	-3359
teams▁	-3360
Gi	-3361
Hu	-3362
IS	-3363
deg	-3364
pic	-3365
17,▁	-3366
edit	-3367
int▁	-3368
king	-3369
Party	-3370
ness▁	-3371
ynast	-3372
start▁	-3373
respons	-3374
dom	-3375
club	-3376
think▁	-3377
director	-3378
baseball▁	-3379
Ru	-3380
Pan	-3381
sof	-3382
|197	-3383
ason▁	-3384
ours▁	-3385
Super▁	-3386
artist▁	-3387
support▁	-3388
Bab	-3389
Bon	-3390
ials▁	-3391
Africa▁	-3392
Edward▁	-3393
Pre	-3394
fall	-3395
exist	-3396
move▁	-3397
oto▁	-3398
might▁	-3399
Windows▁	-3400
According▁	-3401
40▁	-3402
norm	-3403
especially▁	-3404
á▁	-3405
Bet	-3406
across▁	-3407
enz	-3408
16,▁	-3409
Radi	-3410
Stor	-3411
1981▁	-3412
level	-3413
woman▁	-3414
performed▁	-3415
wal	-3416
ker▁	-3417
idea▁	-3418
cause▁	-3419
instrum	-3420
strong▁	-3421
weight▁	-3422
ges▁	-3423
Busin	-3424
earli	-3425
free▁	-3426
2020,▁	-3427
About▁	-3428
Italy▁	-3429
child▁	-3430
proper	-3431
school	-3432
Olympics▁	-3433
1992▁	-3434
Minnes	-3435
constit	-3436
Ath	-3437
ture	-3438
Year▁	-3439
ority▁	-3440
prison	-3441
ancient▁	-3442
chemical▁	-3443
ium	-3444
Bill▁	-3445
White▁	-3446
Martin▁	-3447
office▁	-3448
replaced▁	-3449
Cast	-3450
game	-3451
too▁	-3452
urch	-3453
antas	-3454
itan▁	-3455
bands▁	-3456
currently▁	-3457
21	-3458
Haut	-3459
laun	-3460
princ	-3461
Institute▁	-3462
Hun	-3463
novel	-3464
ennis▁	-3465
energy▁	-3466
12,▁	-3467
Direc	-3468
need▁	-3469
odes▁	-3470
ters▁	-3471
don	-3472
1997▁	-3473
Steph	-3474
uted▁	-3475
legal▁	-3476
Mexican▁	-3477
recorded▁	-3478
NH	-3479
hu	-3480
opher▁	-3481
Eastern▁	-3482
Okl	-3483
ae▁	-3484
hun	-3485
rid	-3486
Oklah	-3487
2019)▁	-3488
ville▁	-3489
Indones	-3490
fiction▁	-3491
Do	-3492
Tom	-3493
conf	-3494
stro	-3495
Bavar	-3496
akes▁	-3497
2021)▁	-3498
ately▁	-3499
history	-3500
tow	-3501
gets▁	-3502
range▁	-3503
Wis	-3504
final▁	-3505
ensive▁	-3506
1987▁	-3507
North	-3508
case▁	-3509
half▁	-3510
arian▁	-3511
seven▁	-3512
bridge▁	-3513
Southern▁	-3514
Pennsylvania▁	-3515
aij	-3516
Rail	-3517
done▁	-3518
fall▁	-3519
going▁	-3520
Mexico▁	-3521
Tropical▁	-3522
ena	-3523
1986▁	-3524
ature	-3525
color	-3526
ills▁	-3527
race▁	-3528
crime▁	-3529
shown▁	-3530
language	-3531
manager▁	-3532
Bat	-3533
10,▁	-3534
ini▁	-3535
Women	-3536
appro	-3537
divid	-3538
||0||0▁	-3539
municipalities▁	-3540
26	-3541
36	-3542
Jus	-3543
LGB	-3544
Pun	-3545
tun	-3546
14,▁	-3547
ains	-3548
post	-3549
1976▁	-3550
helped▁	-3551
community▁	-3552
27	-3553
Jud	-3554
det	-3555
Some	-3556
Texas	-3557
once▁	-3558
inning▁	-3559
arrondiss	-3560
13,▁	-3561
Harr	-3562
archit	-3563
roles▁	-3564
cannot▁	-3565
sports▁	-3566
ets	-3567
tig	-3568
1975▁	-3569
onia▁	-3570
poet▁	-3571
signed▁	-3572
20,▁	-3573
esh▁	-3574
line	-3575
avail	-3576
hard▁	-3577
model▁	-3578
Musical▁	-3579
changes▁	-3580
ha▁	-3581
igr	-3582
saf	-3583
Frank	-3584
ange▁	-3585
star▁	-3586
178	-3587
Cub	-3588
fif	-3589
1979▁	-3590
ador▁	-3591
abeth▁	-3592
period	-3593
Career▁	-3594
Kentuck	-3595
oldest▁	-3596
pointed▁	-3597
Mic	-3598
ise	-3599
may	-3600
bes▁	-3601
hosp	-3602
1973▁	-3603
invent	-3604
ically▁	-3605
Championship	-3606
orb	-3607
Slov	-3608
look▁	-3609
outside▁	-3610
na	-3611
onto▁	-3612
stop▁	-3613
buted▁	-3614
level▁	-3615
storm▁	-3616
Museum▁	-3617
Second▁	-3618
competi	-3619
Bol	-3620
egg	-3621
Duke▁	-3622
ring▁	-3623
vice▁	-3624
rivers▁	-3625
wa	-3626
Gri	-3627
group	-3628
Av	-3629
Tai	-3630
Ohio▁	-3631
Before▁	-3632
Scienti	-3633
Haw	-3634
Mem	-3635
Ste	-3636
gun	-3637
11,▁	-3638
ady▁	-3639
olf▁	-3640
real▁	-3641
Little▁	-3642
inhabit	-3643
NA▁	-3644
empl	-3645
leng	-3646
let▁	-3647
1989▁	-3648
jazz▁	-3649
Football	-3650
brother▁	-3651
designed▁	-3652
.)▁	-3653
din	-3654
prac	-3655
1948▁	-3656
1982▁	-3657
claim	-3658
every	-3659
house	-3660
Santa▁	-3661
journalist▁	-3662
independent▁	-3663
2-	-3664
CA	-3665
Lov	-3666
Squ	-3667
ni▁	-3668
hous	-3669
plat	-3670
later	-3671
animals▁	-3672
Wrestling▁	-3673
To	-3674
box	-3675
fel	-3676
tics	-3677
Techn	-3678
ston▁	-3679
thers▁	-3680
track▁	-3681
Hal	-3682
how	-3683
Cens	-3684
ply▁	-3685
publ	-3686
1985▁	-3687
carri	-3688
rich▁	-3689
father	-3690
Atlantic▁	-3691
nominated▁	-3692
G▁	-3693
Det	-3694
bul	-3695
los	-3696
ties	-3697
1951▁	-3698
1972▁	-3699
amed▁	-3700
earth	-3701
Saint▁	-3702
28	-3703
dri	-3704
Mary	-3705
Sir▁	-3706
WWE▁	-3707
1969▁	-3708
2019,▁	-3709
forces▁	-3710
ression▁	-3711
Pi	-3712
sug	-3713
Azer	-3714
Kore	-3715
1970▁	-3716
know▁	-3717
previ	-3718
academ	-3719
Belgian▁	-3720
Georgia▁	-3721
Television▁	-3722
5–	-3723
ile	-3724
1978▁	-3725
Book▁	-3726
LGBT▁	-3727
Earth▁	-3728
Biography▁	-3729
7-	-3730
ES	-3731
Anc	-3732
Sel	-3733
eds▁	-3734
sex▁	-3735
1950▁	-3736
orial▁	-3737
through	-3738
possible▁	-3739
Lig	-3740
dor	-3741
Rock	-3742
Stan	-3743
aps▁	-3744
autom	-3745
ennes	-3746
border▁	-3747
ective▁	-3748
elling▁	-3749
fourth▁	-3750
ination▁	-3751
although▁	-3752
mot	-3753
nd▁	-3754
obj	-3755
ump	-3756
Econ	-3757
baij	-3758
stop	-3759
1960▁	-3760
Mary▁	-3761
ette▁	-3762
Czech▁	-3763
depend	-3764
seats▁	-3765
3–	-3766
ano	-3767
mol	-3768
den▁	-3769
posi	-3770
uck▁	-3771
celebr	-3772
second	-3773
returned▁	-3774
Net	-3775
mos	-3776
Iowa▁	-3777
Pope▁	-3778
region	-3779
others▁	-3780
continued▁	-3781
Mir	-3782
ada▁	-3783
tee▁	-3784
kind▁	-3785
instead▁	-3786
commonly▁	-3787
90	-3788
Ark	-3789
19,▁	-3790
titl	-3791
ush▁	-3792
yan▁	-3793
alist	-3794
ites▁	-3795
Chief▁	-3796
Econom	-3797
coach▁	-3798
Constit	-3799
raised▁	-3800
studio▁	-3801
mission▁	-3802
Hurricane▁	-3803
body	-3804
1968▁	-3805
1977▁	-3806
FIFA▁	-3807
short	-3808
allowed▁	-3809
="4	-3810
Rog	-3811
ipe	-3812
Bost	-3813
Tom▁	-3814
Year	-3815
ski▁	-3816
Kingdom	-3817
Azerbaij	-3818
Although▁	-3819
starring▁	-3820
Az	-3821
Lam	-3822
San	-3823
dro	-3824
Fran	-3825
west	-3826
Paris	-3827
2018,▁	-3828
writing▁	-3829
department	-3830
something▁	-3831
2–	-3832
5-	-3833
Us	-3834
Rod	-3835
ris	-3836
1||1	-3837
24,▁	-3838
500▁	-3839
Eliz	-3840
fish	-3841
ians	-3842
1974▁	-3843
1983▁	-3844
="4"|	-3845
Black	-3846
break	-3847
mary▁	-3848
erred▁	-3849
friend	-3850
utive▁	-3851
attack▁	-3852
election	-3853
Dun	-3854
Pen	-3855
far	-3856
fer	-3857
ola▁	-3858
Paris▁	-3859
craft▁	-3860
Russia▁	-3861
Wat	-3862
cam	-3863
cou	-3864
ves	-3865
Comm	-3866
Man▁	-3867
ella▁	-3868
Sweden	-3869
erson▁	-3870
At	-3871
ive	-3872
26,▁	-3873
Old▁	-3874
Sand	-3875
low▁	-3876
Spain	-3877
oods▁	-3878
2016,▁	-3879
Spain▁	-3880
ified▁	-3881
style▁	-3882
enough▁	-3883
Bun	-3884
Doc	-3885
||▁	-3886
ari▁	-3887
awa▁	-3888
aine▁	-3889
month	-3890
Human▁	-3891
Smith▁	-3892
Territ	-3893
candid	-3894
novel▁	-3895
decided▁	-3896
21,▁	-3897
1964▁	-3898
Trans	-3899
numbers▁	-3900
release▁	-3901
Dre	-3902
Tam	-3903
ino	-3904
lik	-3905
pun	-3906
23,▁	-3907
Coun	-3908
-19.▁	-3909
Super	-3910
releas	-3911
transp	-3912
Golden▁	-3913
hib	-3914
gust	-3915
look	-3916
1967▁	-3917
1971▁	-3918
Anton	-3919
court▁	-3920
killing▁	-3921
program▁	-3922
service▁	-3923
languages▁	-3924
originally▁	-3925
university▁	-3926
1–	-3927
(,▁	-3928
177	-3929
Ram	-3930
log	-3931
Hear	-3932
Toky	-3933
ular	-3934
acter	-3935
colon	-3936
exper	-3937
psych	-3938
Swiss▁	-3939
added▁	-3940
diffic	-3941
ously▁	-3942
Secretary▁	-3943
3.	-3944
Def	-3945
Kel	-3946
Por	-3947
dar	-3948
ustr	-3949
Chris▁	-3950
Mississ	-3951
individ	-3952
successful▁	-3953
ls▁	-3954
ois	-3955
Alab	-3956
Star	-3957
lies▁	-3958
Assemb	-3959
Pacific▁	-3960
osh	-3961
last	-3962
qual	-3963
Armen	-3964
docum	-3965
introduced▁	-3966
Ven	-3967
gan	-3968
ão▁	-3969
Bill	-3970
Sea▁	-3971
lie▁	-3972
ness	-3973
ember	-3974
itage▁	-3975
smaller▁	-3976
mountain▁	-3977
29	-3978
Ep	-3979
iy	-3980
pa	-3981
Pot	-3982
edy	-3983
fle	-3984
ency	-3985
acts▁	-3986
match▁	-3987
states	-3988
Middle▁	-3989
Wiscons	-3990
species	-3991
vocals▁	-3992
Nations▁	-3993
culture▁	-3994
students▁	-3995
Mississipp	-3996
6-	-3997
So	-3998
foc	-3999
2||1	-4000
ling	-4001
thes	-4002
Greec	-4003
ired▁	-4004
magaz	-4005
2013.▁	-4006
appointed▁	-4007
7–	-4008
ode	-4009
22,▁	-4010
27,▁	-4011
1929▁	-4012
nucle	-4013
2007,▁	-4014
attemp	-4015
inside▁	-4016
ologist▁	-4017
Nig	-4018
ulf	-4019
box▁	-4020
van▁	-4021
hold▁	-4022
scrip	-4023
sound▁	-4024
contains▁	-4025
hurricane▁	-4026
Massachusetts▁	-4027
NS	-4028
Est	-4029
boy	-4030
apol	-4031
Each▁	-4032
earch	-4033
full▁	-4034
quick	-4035
settl	-4036
2011.▁	-4037
Frank▁	-4038
Banglad	-4039
construc	-4040
broadcast	-4041
religious▁	-4042
3-	-4043
Ni	-4044
ni	-4045
Are	-4046
El▁	-4047
abb	-4048
nit	-4049
Phys	-4050
1945▁	-4051
tures	-4052
2017,▁	-4053
Person	-4054
While▁	-4055
Calais▁	-4056
Profess	-4057
longer▁	-4058
himself▁	-4059
mic	-4060
ugu	-4061
ques	-4062
army▁	-4063
recip	-4064
Green▁	-4065
Island	-4066
Vo	-4067
ka	-4068
bon	-4069
Cant	-4070
ardi	-4071
Revol	-4072
Team▁	-4073
Africa	-4074
environ	-4075
Ancient▁	-4076
="2"|-||3	-4077
Michigan▁	-4078
Ox	-4079
No▁	-4080
pul	-4081
-19▁	-4082
met▁	-4083
saw▁	-4084
host▁	-4085
teen▁	-4086
2021,▁	-4087
People	-4088
Tennes	-4089
atest▁	-4090
church▁	-4091
200▁	-4092
Bob▁	-4093
ads▁	-4094
crimin	-4095
experi	-4096
press▁	-4097
ara	-4098
28,▁	-4099
Camp	-4100
oday▁	-4101
illion	-4102
Sports▁	-4103
awarded▁	-4104
particip	-4105
30,▁	-4106
Corn	-4107
far▁	-4108
merc	-4109
ulf▁	-4110
1962▁	-4111
airs▁	-4112
keep▁	-4113
rick▁	-4114
towns▁	-4115
destroy	-4116
themsel	-4117
Congress▁	-4118
0.	-4119
>▁	-4120
TV	-4121
Dor	-4122
Naz	-4123
Arth	-4124
job▁	-4125
Footballers▁	-4126
rey▁	-4127
1946▁	-4128
fish▁	-4129
treat	-4130
Chicago	-4131
biggest▁	-4132
Bah	-4133
Eth	-4134
agn	-4135
ems	-4136
ron▁	-4137
Build	-4138
concer	-4139
Province▁	-4140
Washington	-4141
c▁	-4142
Alp	-4143
lav	-4144
Budd	-4145
Fox▁	-4146
hard	-4147
priv	-4148
rown	-4149
that	-4150
ands▁	-4151
cross	-4152
elle▁	-4153
want▁	-4154
miles▁	-4155
round▁	-4156
Sweden▁	-4157
Francisco▁	-4158
structures▁	-4159
ez	-4160
Tan	-4161
Joe▁	-4162
poet	-4163
ville	-4164
1942▁	-4165
Electr	-4166
force▁	-4167
features▁	-4168
Parliament▁	-4169
6–	-4170
Ann	-4171
Bay	-4172
key▁	-4173
1956▁	-4174
Found	-4175
illy▁	-4176
Commit	-4177
gives▁	-4178
ready▁	-4179
ability▁	-4180
believed▁	-4181
Cel	-4182
Rem	-4183
ker	-4184
six	-4185
1950	-4186
25,▁	-4187
chos	-4188
1928▁	-4189
1939▁	-4190
1952▁	-4191
shot▁	-4192
2010.▁	-4193
Radio▁	-4194
Disney▁	-4195
result▁	-4196
federal▁	-4197
ropolitan▁	-4198
4-	-4199
?▁	-4200
Kenn	-4201
oes▁	-4202
1947▁	-4203
Award	-4204
ling▁	-4205
tian▁	-4206
acted▁	-4207
cells▁	-4208
owned▁	-4209
programs▁	-4210
Alexander▁	-4211
throughout▁	-4212
Jes	-4213
Tit	-4214
see	-4215
ón▁	-4216
occur	-4217
2006,▁	-4218
opera▁	-4219
ential▁	-4220
plants▁	-4221
described▁	-4222
Red	-4223
fro	-4224
raq	-4225
Paul	-4226
1936▁	-4227
right	-4228
2011,▁	-4229
Paraly	-4230
enced▁	-4231
ports▁	-4232
ication▁	-4233
scientists▁	-4234
U▁	-4235
uj	-4236
Cro	-4237
Jim	-4238
Kir	-4239
Nag	-4240
Sav	-4241
Spe	-4242
dia	-4243
ues	-4244
...▁	-4245
Libr	-4246
alth	-4247
drum	-4248
grew▁	-4249
2007.▁	-4250
Arkans	-4251
Death▁	-4252
Major▁	-4253
plant▁	-4254
Paralymp	-4255
episode▁	-4256
]▁	-4257
Tun	-4258
hot	-4259
Prot	-4260
adap	-4261
batt	-4262
fire	-4263
Satur	-4264
2009.▁	-4265
School	-4266
eight▁	-4267
intend	-4268
failure▁	-4269
ization▁	-4270
Oklahoma▁	-4271
60	-4272
Cy	-4273
Lat	-4274
1943▁	-4275
Mark▁	-4276
paint	-4277
Daniel▁	-4278
companies▁	-4279
UE	-4280
Lew	-4281
ety	-4282
adel	-4283
cart	-4284
ders▁	-4285
lower▁	-4286
Christm	-4287
acting▁	-4288
Confeder	-4289
results▁	-4290
presidential▁	-4291
ga	-4292
Boy	-4293
ini	-4294
mir	-4295
ron	-4296
1941▁	-4297
condi	-4298
strong	-4299
relation	-4300
Ka	-4301
ab▁	-4302
adv	-4303
avy	-4304
mel	-4305
Syst	-4306
Wall	-4307
figh	-4308
ror▁	-4309
Last▁	-4310
fied▁	-4311
athlet	-4312
front▁	-4313
ampion▁	-4314
Supreme▁	-4315
Je	-4316
ür	-4317
(19	-4318
Tar	-4319
low	-4320
pow	-4321
29,▁	-4322
BBC▁	-4323
Jim▁	-4324
real	-4325
Time▁	-4326
place	-4327
ories▁	-4328
Gallery▁	-4329
Independ	-4330
Islamic▁	-4331
Society▁	-4332
buildings▁	-4333
Ash	-4334
pref	-4335
quar	-4336
sure▁	-4337
tree▁	-4338
Movie▁	-4339
artist	-4340
Wilson▁	-4341
Another▁	-4342
Musicians▁	-4343
discovered▁	-4344
80	-4345
che▁	-4346
suff	-4347
Film▁	-4348
3||0||	-4349
annel▁	-4350
Donald▁	-4351
available▁	-4352
Ott	-4353
Dall	-4354
Iraq	-4355
bomb	-4356
1924▁	-4357
1957▁	-4358
size▁	-4359
told▁	-4360
associ	-4361
process	-4362
Pakistan	-4363
Station▁	-4364
(7	-4365
8–	-4366
Inc	-4367
akh	-4368
bat	-4369
use	-4370
gas▁	-4371
1937▁	-4372
Domin	-4373
Rock▁	-4374
campa	-4375
enter	-4376
grand	-4377
2008.▁	-4378
2014)▁	-4379
Serie▁	-4380
Provinc	-4381
Republic	-4382
UN	-4383
zo	-4384
(45	-4385
Cul	-4386
cy▁	-4387
sem	-4388
used	-4389
Fame▁	-4390
Feder	-4391
Jack▁	-4392
incre	-4393
male▁	-4394
Young▁	-4395
birth▁	-4396
Heritage▁	-4397
Le▁	-4398
yst	-4399
aka▁	-4400
1933▁	-4401
theat	-4402
2017)▁	-4403
Steve▁	-4404
theory▁	-4405
Kentucky▁	-4406
starting▁	-4407
(4	-4408
Tay	-4409
ief	-4410
gene	-4411
1930▁	-4412
August	-4413
Scott▁	-4414
popular	-4415
becoming▁	-4416
olf	-4417
Tour	-4418
ligh	-4419
myth	-4420
World	-4421
ique▁	-4422
Three▁	-4423
iting▁	-4424
larger▁	-4425
silver▁	-4426
running▁	-4427
character	-4428
selected▁	-4429
Id	-4430
ff▁	-4431
rd▁	-4432
cric	-4433
rock	-4434
hind▁	-4435
class▁	-4436
Poland▁	-4437
Jackson▁	-4438
romantic▁	-4439
Tem	-4440
od▁	-4441
ami▁	-4442
del▁	-4443
style	-4444
commit	-4445
league▁	-4446
tournam	-4447
Internet▁	-4448
Cop	-4449
Lim	-4450
fut	-4451
keep	-4452
ume▁	-4453
1959▁	-4454
cell▁	-4455
mechan	-4456
views▁	-4457
company	-4458
believe▁	-4459
Missouri▁	-4460
research▁	-4461
administrative▁	-4462
4–	-4463
Mul	-4464
Gard	-4465
Pier	-4466
addi	-4467
agon	-4468
ison	-4469
near	-4470
rie▁	-4471
1949▁	-4472
1965▁	-4473
birth	-4474
ouble▁	-4475
District	-4476
someone▁	-4477
Education▁	-4478
northwest▁	-4479
UK	-4480
60▁	-4481
arc	-4482
film	-4483
teen	-4484
1938▁	-4485
neigh	-4486
schol	-4487
ugby▁	-4488
aying▁	-4489
occer▁	-4490
surviv	-4491
causes▁	-4492
mission	-4493
months▁	-4494
Minnesota▁	-4495
distributed▁	-4496
(5	-4497
Mot	-4498
Bell	-4499
migr	-4500
wall	-4501
1940▁	-4502
Common	-4503
Korea▁	-4504
Events▁	-4505
Villages▁	-4506
Elizabeth▁	-4507
structure▁	-4508
officially▁	-4509
9-	-4510
Bh	-4511
ō▁	-4512
Fur	-4513
ody▁	-4514
sky▁	-4515
weap	-4516
anks▁	-4517
ements	-4518
Public▁	-4519
Scientists▁	-4520
//	-4521
8-	-4522
ski	-4523
rank	-4524
von▁	-4525
|196	-4526
Liber	-4527
Total	-4528
shoot	-4529
Connec	-4530
ruled▁	-4531
astronom	-4532
college▁	-4533
parents▁	-4534
animated▁	-4535
standing▁	-4536
historical▁	-4537
Ly	-4538
yg	-4539
://	-4540
Pit	-4541
pot	-4542
2).▁	-4543
Art▁	-4544
draw	-4545
1931▁	-4546
1966▁	-4547
data▁	-4548
open▁	-4549
Winter▁	-4550
bishop▁	-4551
process▁	-4552
districts▁	-4553
traditional▁	-4554
So▁	-4555
Chap	-4556
Curr	-4557
gun▁	-4558
mes▁	-4559
Like▁	-4560
sound	-4561
aught▁	-4562
Nintend	-4563
antasy▁	-4564
higher▁	-4565
guitarist▁	-4566
Ol	-4567
Bib	-4568
Lor	-4569
ata	-4570
htt	-4571
bran	-4572
bron	-4573
care	-4574
uts▁	-4575
1935▁	-4576
1963▁	-4577
Hong▁	-4578
anda▁	-4579
2012.▁	-4580
Brown▁	-4581
erous▁	-4582
except▁	-4583
Israeli▁	-4584
stations▁	-4585
3,	-4586
9–	-4587
Ba	-4588
Fel	-4589
lic	-4590
bad▁	-4591
driv	-4592
ote▁	-4593
ura▁	-4594
week	-4595
ectiv	-4596
incor	-4597
quart	-4598
anned▁	-4599
aving▁	-4600
murder	-4601
others	-4602
mental▁	-4603
actions▁	-4604
business▁	-4605
4||1	-4606
Afgh	-4607
ric▁	-4608
thir	-4609
1954▁	-4610
1961▁	-4611
Live▁	-4612
molec	-4613
Maria▁	-4614
Series▁	-4615
Ku	-4616
Bos	-4617
Gro	-4618
Sab	-4619
Tal	-4620
aps	-4621
utt	-4622
sent	-4623
Class	-4624
Norwe	-4625
Formul	-4626
asked▁	-4627
Ay	-4628
CE	-4629
Cra	-4630
Gab	-4631
oon	-4632
za▁	-4633
Carl	-4634
spok	-4635
1927▁	-4636
rule▁	-4637
allows▁	-4638
isions▁	-4639
painter▁	-4640
beginning▁	-4641
temperature▁	-4642
Mas	-4643
Bay▁	-4644
chlor	-4645
first	-4646
page▁	-4647
river	-4648
legisl	-4649
producer	-4650
directors▁	-4651
Ul	-4652
Der	-4653
Lev	-4654
ily	-4655
sky	-4656
estim	-4657
games	-4658
iant▁	-4659
ured▁	-4660
chemist	-4661
AS	-4662
Cer	-4663
III	-4664
fru	-4665
nic	-4666
Asia	-4667
atom	-4668
perc	-4669
uten	-4670
Color	-4671
Tony▁	-4672
illa▁	-4673
2012,▁	-4674
Empire	-4675
allow▁	-4676
bably▁	-4677
compar	-4678
tried▁	-4679
disease	-4680
idence▁	-4681
surface▁	-4682
finished▁	-4683
Don▁	-4684
Wood	-4685
oot▁	-4686
ull▁	-4687
UEFA▁	-4688
escap	-4689
kept▁	-4690
Cancer▁	-4691
Turkish▁	-4692
aircraft▁	-4693
Ron	-4694
anj	-4695
ec▁	-4696
ope	-4697
ulp	-4698
5||1	-4699
oft▁	-4700
erto▁	-4701
soon▁	-4702
2008,▁	-4703
2015)▁	-4704
Wikipe	-4705
adelph	-4706
employ	-4707
movies	-4708
Alexand	-4709
Formula▁	-4710
discover	-4711
citizens▁	-4712
Political▁	-4713
3:	-4714
CB	-4715
Ta	-4716
ids	-4717
ki▁	-4718
1||2	-4719
Alli	-4720
Exam	-4721
Lead	-4722
1944▁	-4723
Green	-4724
fight▁	-4725
Portugu	-4726
ynasty▁	-4727
Johnson▁	-4728
brought▁	-4729
="2"|-||2	-4730
generally▁	-4731
edd	-4732
mass	-4733
plom	-4734
Detro	-4735
Then▁	-4736
ances	-4737
test▁	-4738
brain▁	-4739
media▁	-4740
Federal▁	-4741
Science▁	-4742
climate▁	-4743
systems▁	-4744
Assembly▁	-4745
Philadelph	-4746
Mid	-4747
fun	-4748
maj	-4749
ador	-4750
dies	-4751
ils▁	-4752
then	-4753
debut▁	-4754
igned▁	-4755
Angeles	-4756
earthqu	-4757
graphy▁	-4758
artists▁	-4759
Nu	-4760
Anth	-4761
Doug	-4762
1958▁	-4763
love▁	-4764
assist	-4765
coast▁	-4766
stein▁	-4767
taking▁	-4768
winner▁	-4769
="2"|-||1	-4770
development▁	-4771
ual	-4772
Laur	-4773
Serb	-4774
alph	-4775
Organ	-4776
arriv	-4777
reduc	-4778
4||0||	-4779
space▁	-4780
worth▁	-4781
native▁	-4782
programm	-4783
province	-4784
reading▁	-4785
regular▁	-4786
ulation▁	-4787
ification▁	-4788
Na	-4789
ny	-4790
Aut	-4791
Fer	-4792
Hom	-4793
Ken	-4794
pal	-4795
two	-4796
ée▁	-4797
Gord	-4798
1934▁	-4799
behav	-4800
frequ	-4801
multiple▁	-4802
Ga	-4803
Day	-4804
Out	-4805
mph	-4806
God▁	-4807
Gram	-4808
days	-4809
ito▁	-4810
ken▁	-4811
1932▁	-4812
Langu	-4813
Russia	-4814
elled▁	-4815
sexual▁	-4816
turned▁	-4817
starred▁	-4818
probably▁	-4819
MP	-4820
(18	-4821
audi	-4822
Press	-4823
revol	-4824
2006.▁	-4825
2009,▁	-4826
2015.▁	-4827
color▁	-4828
refer▁	-4829
tells▁	-4830
battle▁	-4831
middle▁	-4832
Argentine▁	-4833
represented▁	-4834
í▁	-4835
Both▁	-4836
date▁	-4837
ille▁	-4838
occup	-4839
Transp	-4840
medal▁	-4841
Raj	-4842
3||1	-4843
Finn	-4844
farm	-4845
Lord▁	-4846
ayed▁	-4847
blood▁	-4848
Persian▁	-4849
DV	-4850
Bak	-4851
Men	-4852
Syd	-4853
Oper	-4854
Blue▁	-4855
bacter	-4856
former	-4857
heavy▁	-4858
defeated▁	-4859
We▁	-4860
neg	-4861
spl	-4862
Sher	-4863
adop	-4864
aper	-4865
las▁	-4866
Lady▁	-4867
eman▁	-4868
here▁	-4869
mean▁	-4870
thous	-4871
2014,▁	-4872
Medal▁	-4873
declar	-4874
mother	-4875
surround	-4876
Connectic	-4877
Netherlands▁	-4878
uv	-4879
Hou	-4880
ges	-4881
mou	-4882
ony	-4883
Law▁	-4884
Town	-4885
akes	-4886
ural▁	-4887
Mexico	-4888
urity▁	-4889
happened▁	-4890
70	-4891
kh	-4892
Up▁	-4893
1920	-4894
Belg	-4895
6||0▁	-4896
kill▁	-4897
French	-4898
arrang	-4899
create▁	-4900
Columbia▁	-4901
Cir	-4902
ars	-4903
sor	-4904
brid	-4905
Broad	-4906
Niger	-4907
mark▁	-4908
order	-4909
2013,▁	-4910
2014.▁	-4911
Mount▁	-4912
older▁	-4913
Stephen▁	-4914
incorpor	-4915
Municipality▁	-4916
Ty	-4917
Aqu	-4918
she	-4919
7||1	-4920
Hill	-4921
attr	-4922
ning	-4923
oid▁	-4924
spee	-4925
suic	-4926
1925▁	-4927
folk▁	-4928
2018)▁	-4929
ection	-4930
whole▁	-4931
whose▁	-4932
controll	-4933
35	-4934
én	-4935
Ern	-4936
Hir	-4937
Rap	-4938
dog	-4939
och	-4940
Chem	-4941
spac	-4942
emic▁	-4943
Jones▁	-4944
genus▁	-4945
Nintendo▁	-4946
flo	-4947
orn	-4948
Arti	-4949
Song	-4950
1926▁	-4951
Gener	-4952
Long▁	-4953
More▁	-4954
forced▁	-4955
rather▁	-4956
Company▁	-4957
education▁	-4958
IP	-4959
Hay	-4960
hic	-4961
ust	-4962
wa▁	-4963
7).▁	-4964
Vene	-4965
tly▁	-4966
uses	-4967
ives▁	-4968
Produc	-4969
Arthur▁	-4970
nearly▁	-4971
Business	-4972
machine▁	-4973
followed▁	-4974
0||0||0||0||	-4975
CD	-4976
Nev	-4977
gal	-4978
Mosc	-4979
died	-4980
ira▁	-4981
liqu	-4982
efore	-4983
minut	-4984
runs▁	-4985
Bulgar	-4986
owing▁	-4987
public	-4988
getting▁	-4989
together	-4990
Christmas▁	-4991
according▁	-4992
songwriter	-4993
Gil	-4994
bad	-4995
hus	-4996
pan	-4997
des▁	-4998
grav	-4999
1923▁	-5000
Games	-5001
ardin	-5002
call▁	-5003
frog▁	-5004
shire	-5005
Micros	-5006
kilomet	-5007
letter▁	-5008
produce▁	-5009
activist▁	-5010
Jon	-5011
Leb	-5012
Loc	-5013
idi	-5014
Oreg	-5015
eat▁	-5016
Road▁	-5017
fast▁	-5018
grow▁	-5019
medic	-5020
2005.▁	-5021
Portug	-5022
organ▁	-5023
airman▁	-5024
proved▁	-5025
SA	-5026
cli	-5027
fav	-5028
Linc	-5029
anal	-5030
1900▁	-5031
cloth	-5032
const	-5033
Night▁	-5034
critic	-5035
orches	-5036
volcan	-5037
reported▁	-5038
newspaper▁	-5039
producers▁	-5040
80▁	-5041
Dol	-5042
swi	-5043
aki▁	-5044
ble▁	-5045
What▁	-5046
mond▁	-5047
Mayor▁	-5048
clubs▁	-5049
diplom	-5050
piece▁	-5051
rogen▁	-5052
stand▁	-5053
Senator▁	-5054
leading▁	-5055
competed▁	-5056
Norwegian▁	-5057
businessman▁	-5058
(6	-5059
70▁	-5060
Of▁	-5061
Ever	-5062
eva▁	-5063
neum	-5064
1901▁	-5065
Journ	-5066
aded▁	-5067
Church	-5068
Festiv	-5069
Kelly▁	-5070
Storm▁	-5071
award▁	-5072
iding▁	-5073
moving▁	-5074
constitu	-5075
movement▁	-5076
separate▁	-5077
Bad	-5078
Bow	-5079
Kat	-5080
Ret	-5081
(190	-5082
Hard	-5083
Shar	-5084
anny▁	-5085
aska▁	-5086
coast	-5087
chess▁	-5088
lawyer▁	-5089
program	-5090
Iranian▁	-5091
appears▁	-5092
Administr	-5093
Personal▁	-5094
ns	-5095
gas	-5096
www	-5097
Anti	-5098
Kash	-5099
Ther	-5100
aya▁	-5101
pand	-5102
Grand	-5103
Union	-5104
ades▁	-5105
edom▁	-5106
today	-5107
2017.▁	-5108
Colomb	-5109
Force▁	-5110
obile▁	-5111
commerc	-5112
Justice▁	-5113
thriller▁	-5114
professor▁	-5115
J▁	-5116
Rub	-5117
Tro	-5118
lay	-5119
bank	-5120
fic▁	-5121
nam▁	-5122
itch▁	-5123
Brian▁	-5124
number	-5125
Israel▁	-5126
behind▁	-5127
return▁	-5128
spread▁	-5129
Act	-5130
ota	-5131
pil	-5132
Wels	-5133
une▁	-5134
1920▁	-5135
Under	-5136
bass▁	-5137
dish▁	-5138
pitch	-5139
2018.▁	-5140
Lincol	-5141
Tokyo▁	-5142
purpos	-5143
however	-5144
square▁	-5145
leyball▁	-5146
matches▁	-5147
||2||0||	-5148
positive▁	-5149
(0	-5150
ün	-5151
Aff	-5152
Rev	-5153
lege	-5154
pay▁	-5155
Town▁	-5156
anist	-5157
hand▁	-5158
Video▁	-5159
Welsh▁	-5160
aired▁	-5161
merged▁	-5162
starts▁	-5163
industri	-5164
leaders▁	-5165
Louisiana▁	-5166
4.	-5167
'.▁	-5168
Dan	-5169
Sea	-5170
ror	-5171
6||1	-5172
8).▁	-5173
Ariz	-5174
Cham	-5175
cook	-5176
news▁	-5177
Kansas	-5178
friend▁	-5179
listed▁	-5180
passed▁	-5181
railway▁	-5182
schools▁	-5183
Princess▁	-5184
Presidents▁	-5185
176	-5186
rob	-5187
rup	-5188
Calv	-5189
Hall	-5190
dens	-5191
ects	-5192
nel▁	-5193
Charl	-5194
Kong▁	-5195
Song▁	-5196
5||0||	-5197
confir	-5198
tured▁	-5199
write▁	-5200
guitar▁	-5201
medical▁	-5202
engineer▁	-5203
7.	-5204
(24	-5205
..▁	-5206
Lie	-5207
Moh	-5208
St▁	-5209
ali	-5210
hi▁	-5211
sle	-5212
Cart	-5213
Jean	-5214
ope▁	-5215
ump▁	-5216
1922▁	-5217
South	-5218
2005,▁	-5219
eding▁	-5220
Vietnam	-5221
health▁	-5222
industr	-5223
source▁	-5224
towards▁	-5225
cography▁	-5226
electric▁	-5227
involved▁	-5228
She	-5229
ola	-5230
News▁	-5231
rian▁	-5232
terms▁	-5233
union▁	-5234
billion▁	-5235
stories▁	-5236
division▁	-5237
referred▁	-5238
soldiers▁	-5239
45▁	-5240
Ecu	-5241
rep	-5242
Sour	-5243
more	-5244
5||0▁	-5245
Hill▁	-5246
Vienn	-5247
pneum	-5248
polic	-5249
2000.▁	-5250
Later▁	-5251
leader	-5252
scored▁	-5253
tennis▁	-5254
Islands▁	-5255
network▁	-5256
regions▁	-5257
Victoria▁	-5258
material▁	-5259
4:	-5260
wr	-5261
Ren	-5262
sun	-5263
And▁	-5264
enem	-5265
2003.▁	-5266
Corpor	-5267
kinds▁	-5268
tware▁	-5269
Family▁	-5270
Social▁	-5271
animal▁	-5272
passeng	-5273
quickly▁	-5274
Scotland▁	-5275
function▁	-5276
utionary▁	-5277
Entertainment▁	-5278
33	-5279
hr	-5280
);▁	-5281
Sax	-5282
lif	-5283
ato▁	-5284
ett▁	-5285
frog	-5286
oil▁	-5287
past	-5288
fred▁	-5289
2015,▁	-5290
Women▁	-5291
cases▁	-5292
table▁	-5293
fought▁	-5294
needed▁	-5295
Century▁	-5296
Ireland▁	-5297
Special▁	-5298
composed▁	-5299
But	-5300
IV▁	-5301
Mol	-5302
Tak	-5303
Over	-5304
ille	-5305
ria▁	-5306
Brook	-5307
Manip	-5308
bach▁	-5309
Malays	-5310
green▁	-5311
tario▁	-5312
design▁	-5313
Toronto▁	-5314
actually▁	-5315
languages	-5316
Committee▁	-5317
elections▁	-5318
Fa	-5319
NB	-5320
NF	-5321
Dak	-5322
Lin	-5323
ave	-5324
ona	-5325
Bure	-5326
Jess	-5327
ests	-5328
gin▁	-5329
nic▁	-5330
rid▁	-5331
Medic	-5332
Only▁	-5333
rate▁	-5334
comic▁	-5335
fully▁	-5336
Walter▁	-5337
Ontario▁	-5338
philosoph	-5339
Mississippi▁	-5340
incorporated▁	-5341
dy	-5342
ux	-5343
civ	-5344
dre	-5345
8||1	-5346
Mand	-5347
ati▁	-5348
bon▁	-5349
gle▁	-5350
onia	-5351
uce▁	-5352
ward	-5353
Const	-5354
Smith	-5355
coach	-5356
room▁	-5357
Atlant	-5358
illed▁	-5359
stone▁	-5360
length▁	-5361
Austria▁	-5362
Indiana▁	-5363
Olympics	-5364
Singers▁	-5365
association▁	-5366
1940	-5367
cut▁	-5368
goal	-5369
ican	-5370
Korea	-5371
explor	-5372
Valley▁	-5373
conserv	-5374
powerful▁	-5375
Wisconsin▁	-5376
Businesspeople▁	-5377
Da	-5378
Dom	-5379
Les	-5380
Coll	-5381
Harv	-5382
Mill	-5383
Whit	-5384
hot▁	-5385
panc	-5386
proj	-5387
Mike▁	-5388
Miss▁	-5389
Over▁	-5390
after	-5391
board	-5392
onne▁	-5393
2019.▁	-5394
rugby▁	-5395
tellig	-5396
toral▁	-5397
Boston▁	-5398
spoken▁	-5399
travel▁	-5400
designated▁	-5401
ón	-5402
32▁	-5403
Aub	-5404
Cab	-5405
alg	-5406
Film	-5407
Hot▁	-5408
Leon	-5409
edic	-5410
mark	-5411
agan▁	-5412
ving▁	-5413
Wales▁	-5414
cover▁	-5415
Deputy▁	-5416
animals	-5417
horror▁	-5418
officer▁	-5419
Research▁	-5420
elements▁	-5421
medalists▁	-5422
Ry	-5423
pp	-5424
Pur	-5425
alp	-5426
9).▁	-5427
Ball	-5428
Brun	-5429
Lind	-5430
adi▁	-5431
ero▁	-5432
libr	-5433
meet	-5434
odes	-5435
pron	-5436
surv	-5437
2||0▁	-5438
Game▁	-5439
park▁	-5440
vehic	-5441
Mario▁	-5442
break▁	-5443
Francis▁	-5444
Christian	-5445
executive▁	-5446
(▁	-5447
Ah	-5448
Wi	-5449
Nik	-5450
etc	-5451
Jord	-5452
Rome	-5453
Winn	-5454
bott	-5455
1921▁	-5456
1||0▁	-5457
Vice▁	-5458
alphab	-5459
inary▁	-5460
paper▁	-5461
Albert▁	-5462
Conserv	-5463
Members▁	-5464
foreign▁	-5465
seasons▁	-5466
stopped▁	-5467
featured▁	-5468
Microsoft▁	-5469
2:▁	-5470
Fic	-5471
Var	-5472
Way	-5473
ami	-5474
dol	-5475
job	-5476
31,▁	-5477
why▁	-5478
aked▁	-5479
2004.▁	-5480
6||0||	-5481
belong	-5482
train▁	-5483
already▁	-5484
personal	-5485
Buildings▁	-5486
Portuguese▁	-5487
,"▁	-5488
chi	-5489
lo▁	-5490
Andr	-5491
Oliv	-5492
Ray▁	-5493
bus▁	-5494
hors	-5495
via▁	-5496
ardo▁	-5497
dead▁	-5498
Power▁	-5499
things	-5500
bronze▁	-5501
buried▁	-5502
degree▁	-5503
points▁	-5504
sister▁	-5505
Tennessee▁	-5506
38	-5507
Nep	-5508
Ray	-5509
arg	-5510
du▁	-5511
Lith	-5512
Van▁	-5513
road	-5514
Cast▁	-5515
Home▁	-5516
José▁	-5517
Theat	-5518
tial▁	-5519
tory▁	-5520
Apple▁	-5521
rules▁	-5522
speak▁	-5523
spent▁	-5524
streng	-5525
Philip▁	-5526
showed▁	-5527
islands▁	-5528
Arm	-5529
Max	-5530
1955▁	-5531
stein	-5532
achiev	-5533
altern	-5534
comput	-5535
Health▁	-5536
anthrop	-5537
entire▁	-5538
wealth▁	-5539
private▁	-5540
distance▁	-5541
entertain	-5542
physical▁	-5543
Hungarian▁	-5544
AD	-5545
zh	-5546
Che	-5547
Rav	-5548
win	-5549
Down	-5550
Love	-5551
atch	-5552
food	-5553
Alber	-5554
cover	-5555
laws▁	-5556
mass▁	-5557
talk▁	-5558
wall▁	-5559
Muslim	-5560
month▁	-5561
night▁	-5562
Melbour	-5563
vention▁	-5564
Afghanist	-5565
economic▁	-5566
difficult▁	-5567
Ot	-5568
Sé	-5569
Ut	-5570
ba	-5571
De▁	-5572
Vis	-5573
Lawr	-5574
Sam▁	-5575
crip	-5576
pet▁	-5577
7||0▁	-5578
eter▁	-5579
ograp	-5580
2020.▁	-5581
fifth▁	-5582
method	-5583
Andrew▁	-5584
Records	-5585
prison▁	-5586
Website▁	-5587
chester▁	-5588
businessman	-5589
5.	-5590
Cru	-5591
Sul	-5592
ba▁	-5593
ja▁	-5594
Ice▁	-5595
ann▁	-5596
ule▁	-5597
Ottom	-5598
Show▁	-5599
Stand	-5600
ender	-5601
ufact	-5602
2001.▁	-5603
2016.▁	-5604
Creek▁	-5605
Croati	-5606
contri	-5607
lying▁	-5608
speed▁	-5609
charge▁	-5610
eption▁	-5611
Alabama▁	-5612
complications▁	-5613
/8	-5614
Deb	-5615
Nel	-5616
Non	-5617
Veg	-5618
ero	-5619
ert	-5620
Fair	-5621
ibn▁	-5622
lim▁	-5623
lor▁	-5624
side	-5625
Jean▁	-5626
Wales	-5627
care▁	-5628
upon▁	-5629
Space▁	-5630
chief▁	-5631
overs▁	-5632
damage▁	-5633
market▁	-5634
pieces▁	-5635
symbol▁	-5636
launched▁	-5637
Ri	-5638
Al▁	-5639
Han	-5640
6).▁	-5641
Act▁	-5642
eks▁	-5643
pred	-5644
stra	-5645
una▁	-5646
wide	-5647
Venez	-5648
aces▁	-5649
books	-5650
known	-5651
past▁	-5652
point	-5653
your▁	-5654
2021.▁	-5655
Awards	-5656
ility▁	-5657
sites▁	-5658
tioned▁	-5659
Vietnam▁	-5660
covered▁	-5661
Discography▁	-5662
4,	-5663
Kaz	-5664
ery	-5665
ops	-5666
tax	-5667
2||2	-5668
Greg	-5669
boy▁	-5670
http	-5671
scap	-5672
vall	-5673
web▁	-5674
hood▁	-5675
Bundes	-5676
action	-5677
apers▁	-5678
urban▁	-5679
Railway▁	-5680
itation▁	-5681
Military▁	-5682
eventually▁	-5683
arrondissement▁	-5684
49	-5685
Iv	-5686
Ele	-5687
eat	-5688
sea	-5689
Maur	-5690
ail▁	-5691
aves	-5692
dang	-5693
ela▁	-5694
ret▁	-5695
ring	-5696
Holy▁	-5697
Matth	-5698
micro	-5699
sculp	-5700
||30||	-5701
Florida	-5702
Street▁	-5703
include	-5704
primary▁	-5705
singles▁	-5706
whether▁	-5707
graduated▁	-5708
ky	-5709
rh	-5710
Pok	-5711
alc	-5712
ben	-5713
Brid	-5714
Hind	-5715
How▁	-5716
Marv	-5717
atab	-5718
ices	-5719
sens	-5720
vide	-5721
Buddh	-5722
Ocean	-5723
ears▁	-5724
model	-5725
resul	-5726
stadi	-5727
vote▁	-5728
Loire▁	-5729
career	-5730
Season▁	-5731
likely▁	-5732
Illinois	-5733
hospital▁	-5734
personal▁	-5735
themselves▁	-5736
organization▁	-5737
hur	-5738
ug▁	-5739
ario	-5740
atell	-5741
inson	-5742
nine▁	-5743
Track▁	-5744
Develop	-5745
centre▁	-5746
experim	-5747
recent▁	-5748
utenant▁	-5749
Americans▁	-5750
ographical▁	-5751
Christopher▁	-5752
+▁	-5753
H▁	-5754
dé	-5755
Inf	-5756
Me▁	-5757
Back	-5758
Queb	-5759
São▁	-5760
USA▁	-5761
ingu	-5762
Stock	-5763
base▁	-5764
eauti	-5765
eful▁	-5766
ield▁	-5767
|2003	-5768
calend	-5769
Danish▁	-5770
Grammy▁	-5771
awards▁	-5772
evision	-5773
simply▁	-5774
widely▁	-5775
Douglas▁	-5776
Examples▁	-5777
complete▁	-5778
ographic▁	-5779
standard▁	-5780
compounds▁	-5781
destroyed▁	-5782
175	-5783
Bou	-5784
Tra	-5785
4).▁	-5786
Ben▁	-5787
Cost	-5788
Nord	-5789
Pass	-5790
foss	-5791
prin	-5792
1953▁	-5793
Even▁	-5794
Fred▁	-5795
Holly	-5796
words	-5797
ching▁	-5798
netic▁	-5799
appear▁	-5800
begins▁	-5801
illustr	-5802
letters▁	-5803
composers▁	-5804
recording▁	-5805
Is▁	-5806
Sau	-5807
ky▁	-5808
xim	-5809
300▁	-5810
Fern	-5811
danc	-5812
prec	-5813
Marsh	-5814
agnos	-5815
counc	-5816
ences	-5817
pool▁	-5818
|2004	-5819
|2009	-5820
Ambass	-5821
Montre	-5822
icity▁	-5823
mayor▁	-5824
meant▁	-5825
quite▁	-5826
entary▁	-5827
Bavaria▁	-5828
Carolina	-5829
Stanley▁	-5830
claimed▁	-5831
Baseball▁	-5832
champion▁	-5833
collection▁	-5834
da	-5835
°▁	-5836
Ais	-5837
Ric	-5838
Sud	-5839
avi	-5840
pet	-5841
sam	-5842
1).▁	-5843
Top▁	-5844
iana	-5845
mamm	-5846
Arts▁	-5847
erson	-5848
oppos	-5849
oute▁	-5850
succe	-5851
turn▁	-5852
Engine	-5853
flows▁	-5854
mixed▁	-5855
earned▁	-5856
ologist	-5857
Wy	-5858
án	-5859
Typ	-5860
ior	-5861
tou	-5862
Jeff	-5863
Sun▁	-5864
dial	-5865
oud▁	-5866
Iran▁	-5867
Open▁	-5868
agon▁	-5869
blue▁	-5870
ideas▁	-5871
leave▁	-5872
reach▁	-5873
Greece▁	-5874
Taylor▁	-5875
Library▁	-5876
Records▁	-5877
signific	-5878
communes▁	-5879
Billboard▁	-5880
connected▁	-5881
philanthrop	-5882
asp	-5883
eum	-5884
mpt	-5885
ose	-5886
sus	-5887
6||2	-5888
made	-5889
Manag	-5890
Rome▁	-5891
cerem	-5892
edia▁	-5893
ules▁	-5894
voice	-5895
troops▁	-5896
previous▁	-5897
Professor▁	-5898
classical▁	-5899
performance▁	-5900
yz	-5901
bot	-5902
nob	-5903
meth	-5904
prev	-5905
Liter	-5906
ancy▁	-5907
andy▁	-5908
liber	-5909
tell▁	-5910
|2005	-5911
Percy▁	-5912
leges▁	-5913
Ireland	-5914
capital	-5915
Airlines▁	-5916
President	-5917
Abd	-5918
Lis	-5919
too	-5920
(189	-5921
drug	-5922
godd	-5923
thin	-5924
wind	-5925
Bank▁	-5926
Dave▁	-5927
Jane▁	-5928
arms▁	-5929
goal▁	-5930
stead	-5931
true▁	-5932
unit▁	-5933
wave▁	-5934
Freder	-5935
Jersey	-5936
Upper▁	-5937
festiv	-5938
holds▁	-5939
instit	-5940
ention▁	-5941
parliam	-5942
racing▁	-5943
simple▁	-5944
trying▁	-5945
Anthony▁	-5946
Venezuel	-5947
activist	-5948
distribu	-5949
studies▁	-5950
consists▁	-5951
39	-5952
Kev	-5953
Thr	-5954
Yam	-5955
mom	-5956
siz	-5957
Sri▁	-5958
ides	-5959
oke▁	-5960
ora▁	-5961
stic	-5962
sugg	-5963
Main▁	-5964
ados▁	-5965
Sarah▁	-5966
border	-5967
possib	-5968
atures▁	-5969
houses▁	-5970
humans▁	-5971
southwest▁	-5972
34	-5973
Sem	-5974
ili	-5975
jam	-5976
ori	-5977
tin	-5978
Not▁	-5979
Stra	-5980
inem	-5981
roll	-5982
Anne▁	-5983
divor	-5984
cular▁	-5985
Austria	-5986
Berlin▁	-5987
coming▁	-5988
direct▁	-5989
increas	-5990
normal▁	-5991
Britain▁	-5992
Jacques▁	-5993
Service▁	-5994
venture▁	-5995
governor▁	-5996
Mountains▁	-5997
Ukrainian▁	-5998
journalist	-5999
j▁	-6000
ör	-6001
bs▁	-6002
era	-6003
oo▁	-6004
Ali▁	-6005
Trav	-6006
stom	-6007
Juan▁	-6008
Leban	-6009
March	-6010
bound	-6011
cardi	-6012
iles▁	-6013
lung▁	-6014
Lower▁	-6015
mouth▁	-6016
tribut	-6017
Brazil▁	-6018
avyweight▁	-6019
Pyr	-6020
asc	-6021
án▁	-6022
fash	-6023
god▁	-6024
know	-6025
8||0▁	-6026
Fort▁	-6027
aled▁	-6028
ander	-6029
join▁	-6030
lake▁	-6031
Poland	-6032
Story▁	-6033
royal▁	-6034
Howard▁	-6035
giving▁	-6036
perial▁	-6037
ya	-6038
1:▁	-6039
Dal	-6040
ald	-6041
oes	-6042
3).▁	-6043
scor	-6044
Jews▁	-6045
bury▁	-6046
categ	-6047
Water▁	-6048
ening▁	-6049
groups	-6050
Puerto▁	-6051
refers▁	-6052
fantasy▁	-6053
organism	-6054
Arkansas▁	-6055
fighting▁	-6056
individual▁	-6057
IV	-6058
ko	-6059
35▁	-6060
Dur	-6061
Seg	-6062
Wel	-6063
aug	-6064
pe▁	-6065
Buff	-6066
Ober	-6067
phy▁	-6068
prem	-6069
Your▁	-6070
night	-6071
Jimmy▁	-6072
Singap	-6073
looks▁	-6074
plants	-6075
bought▁	-6076
composer	-6077
earlier▁	-6078
Williams▁	-6079
families▁	-6080
greatest▁	-6081
activists▁	-6082
Depression▁	-6083
universities▁	-6084
Kam	-6085
Nad	-6086
Rol	-6087
bea	-6088
now	-6089
ua▁	-6090
Priv	-6091
guil	-6092
ires▁	-6093
2016)▁	-6094
Allen▁	-6095
oxide▁	-6096
object▁	-6097
friends▁	-6098
quarters▁	-6099
inhabitants	-6100
Constitution▁	-6101
EC	-6102
Arn	-6103
Bob	-6104
Mik	-6105
10||	-6106
ava▁	-6107
cred	-6108
Eric▁	-6109
Gold▁	-6110
Lithu	-6111
Navy▁	-6112
aily▁	-6113
indic	-6114
playw	-6115
basic▁	-6116
chosen▁	-6117
meters▁	-6118
Country▁	-6119
article▁	-6120
edition▁	-6121
nuclear▁	-6122
protect▁	-6123
Azerbaijan▁	-6124
EP	-6125
az▁	-6126
ko▁	-6127
uch	-6128
veg	-6129
NHL▁	-6130
repe	-6131
Offic	-6132
Progr	-6133
crash	-6134
initi	-6135
olas▁	-6136
story	-6137
2004,▁	-6138
Times▁	-6139
Under▁	-6140
wards▁	-6141
Dallas▁	-6142
Ministers▁	-6143
Sometimes▁	-6144
confirmed▁	-6145
supported▁	-6146
responsible▁	-6147
Metropolitan▁	-6148
RA	-6149
ho	-6150
ls	-6151
Adv	-6152
Ton	-6153
Clin	-6154
Iran	-6155
crow	-6156
half	-6157
hamm	-6158
here	-6159
lock	-6160
reli	-6161
2022▁	-6162
Today	-6163
conqu	-6164
|2007	-6165
Census	-6166
cyclop	-6167
Georgia	-6168
Modern▁	-6169
brother	-6170
driver▁	-6171
station	-6172
Ottoman▁	-6173
effects▁	-6174
research	-6175
Egyptian▁	-6176
versions▁	-6177
screenwriter▁	-6178
Gon	-6179
Ped	-6180
cos	-6181
ei▁	-6182
8||2	-6183
dead	-6184
gard	-6185
ited	-6186
reve	-6187
Brown	-6188
Thail	-6189
African	-6190
Alfred▁	-6191
murder▁	-6192
online▁	-6193
complex▁	-6194
entered▁	-6195
minister▁	-6196
candidate▁	-6197
Statistics▁	-6198
Pap	-6199
kW▁	-6200
lem	-6201
(191	-6202
5).▁	-6203
Mach	-6204
aff▁	-6205
alum	-6206
face	-6207
hang	-6208
swim	-6209
ways	-6210
1919▁	-6211
text▁	-6212
Billy▁	-6213
Roger▁	-6214
below▁	-6215
istic▁	-6216
minor▁	-6217
itself▁	-6218
museum▁	-6219
porary▁	-6220
Finnish▁	-6221
historian▁	-6222
PlayStation▁	-6223
',▁	-6224
Pho	-6225
ada	-6226
kin	-6227
nav	-6228
ía▁	-6229
Dan▁	-6230
Scre	-6231
itz▁	-6232
uter	-6233
Anna▁	-6234
Jones	-6235
ister	-6236
upper▁	-6237
Johnny▁	-6238
effect▁	-6239
figure▁	-6240
future▁	-6241
rested▁	-6242
debuted▁	-6243
gressive▁	-6244
wrestling▁	-6245
Netherlands	-6246
Ho	-6247
Gor	-6248
agh	-6249
ark	-6250
Also	-6251
Call	-6252
Jenn	-6253
Nebr	-6254
Plan	-6255
less	-6256
step	-6257
Earl▁	-6258
Four▁	-6259
Maced	-6260
areas	-6261
card▁	-6262
civil	-6263
eggs▁	-6264
obal▁	-6265
oted▁	-6266
stay▁	-6267
2001,▁	-6268
Aisne▁	-6269
Media▁	-6270
Orthod	-6271
build▁	-6272
conver	-6273
kills▁	-6274
observ	-6275
plane▁	-6276
preser	-6277
trade▁	-6278
alized▁	-6279
gender▁	-6280
matter▁	-6281
Encyclop	-6282
Scotland	-6283
further▁	-6284
teacher▁	-6285
Colorado▁	-6286
majority▁	-6287
6.	-6288
TC	-6289
ki	-6290
3:▁	-6291
Cos	-6292
Fox	-6293
iz▁	-6294
mm▁	-6295
1930	-6296
DNA▁	-6297
Hamp	-6298
Hann	-6299
Hell	-6300
elli	-6301
home	-6302
tis▁	-6303
usal	-6304
Haiti	-6305
core▁	-6306
mouth	-6307
works	-6308
1999.▁	-6309
Associ	-6310
Class▁	-6311
helps▁	-6312
resist	-6313
Congress	-6314
limited▁	-6315
fictional▁	-6316
recognized▁	-6317
Commonwealth▁	-6318
Mes	-6319
ca▁	-6320
swe	-6321
Boy▁	-6322
Will	-6323
away	-6324
mess	-6325
slow	-6326
tall	-6327
Emmy▁	-6328
aries	-6329
code▁	-6330
pson▁	-6331
branch▁	-6332
consist	-6333
musician	-6334
profile▁	-6335
broadcast▁	-6336
Connecticut▁	-6337
Cla	-6338
Do▁	-6339
Ker	-6340
Son	-6341
Tol	-6342
mac	-6343
").▁	-6344
Lank	-6345
Max▁	-6346
don▁	-6347
hatt	-6348
isch	-6349
pati	-6350
wife	-6351
Alan▁	-6352
money	-6353
Orches	-6354
center	-6355
goals▁	-6356
Jerusal	-6357
Office▁	-6358
icipal▁	-6359
leaves▁	-6360
ularly▁	-6361
Antonio▁	-6362
manufact	-6363
magazine▁	-6364
remained▁	-6365
Switzerland▁	-6366
8.	-6367
ć▁	-6368
Dig	-6369
Lyn	-6370
Num	-6371
OS▁	-6372
Pon	-6373
Tat	-6374
tub	-6375
ula	-6376
ute	-6377
Kim▁	-6378
aim▁	-6379
coff	-6380
eff▁	-6381
mar▁	-6382
ters	-6383
|195	-6384
Egypt	-6385
Ford▁	-6386
Later	-6387
ative	-6388
prote	-6389
2002.▁	-6390
Somme▁	-6391
assass	-6392
athan▁	-6393
count▁	-6394
Manhatt	-6395
Airport▁	-6396
Bundeslig	-6397
Cu	-6398
ML	-6399
Gun	-6400
Pir	-6401
Hart	-6402
bach	-6403
fast	-6404
situ	-6405
3||0▁	-6406
House	-6407
galax	-6408
gend▁	-6409
gene▁	-6410
Barcel	-6411
Kevin▁	-6412
ading▁	-6413
cheon▁	-6414
Atlanti	-6415
College	-6416
Jackson	-6417
asters▁	-6418
million	-6419
nearby▁	-6420
airport▁	-6421
serving▁	-6422
ologists▁	-6423
Districts▁	-6424
completed▁	-6425
operation▁	-6426
37	-6427
hp	-6428
je	-6429
="5	-6430
Maj	-6431
Nav	-6432
Ont	-6433
Pul	-6434
Sus	-6435
ala	-6436
ram	-6437
acea	-6438
ales	-6439
eau▁	-6440
race	-6441
Hawai	-6442
lobe▁	-6443
nickn	-6444
sympt	-6445
Jerry▁	-6446
anced▁	-6447
comedy	-6448
Bishop▁	-6449
Muslim▁	-6450
Police▁	-6451
Rivers▁	-6452
lasted▁	-6453
taught▁	-6454
Division	-6455
attended▁	-6456
comedian▁	-6457
Bangladesh	-6458
Pakistani▁	-6459
southeast▁	-6460
ju	-6461
USA	-6462
Vel	-6463
ik▁	-6464
kid	-6465
ows	-6466
000▁	-6467
iro▁	-6468
ples	-6469
ston	-6470
uary	-6471
black	-6472
estig	-6473
Egypt▁	-6474
prime▁	-6475
units▁	-6476
Zealand	-6477
organis	-6478
campaign▁	-6479
episodes▁	-6480
marriage▁	-6481
photograph	-6482
territory▁	-6483
generation▁	-6484
philosopher▁	-6485
Ti	-6486
Run	-6487
Sid	-6488
ado	-6489
bal	-6490
mut	-6491
Hosp	-6492
Rach	-6493
Vist	-6494
aven	-6495
inet	-6496
mon▁	-6497
ails▁	-6498
deter	-6499
kins▁	-6500
Compan	-6501
Cross▁	-6502
owner▁	-6503
rovers	-6504
today▁	-6505
Region▁	-6506
ension▁	-6507
orders▁	-6508
neighbor	-6509
formerly▁	-6510
Dominican▁	-6511
background	-6512
population	-6513
associated▁	-6514
controlled▁	-6515
Zh	-6516
48▁	-6517
6:▁	-6518
Rot	-6519
ga▁	-6520
lat	-6521
nes	-6522
ots	-6523
Bour	-6524
ima▁	-6525
ting	-6526
ère▁	-6527
Brand	-6528
olic▁	-6529
plant	-6530
thing	-6531
|1999	-6532
Light▁	-6533
convic	-6534
inger▁	-6535
onian▁	-6536
Disease	-6537
Gordon▁	-6538
Oregon▁	-6539
Soccer▁	-6540
closed▁	-6541
ranked▁	-6542
element▁	-6543
investig	-6544
porting▁	-6545
younger▁	-6546
pressure▁	-6547
wrestler▁	-6548
conductor▁	-6549
Eu	-6550
EE▁	-6551
Esp	-6552
Log	-6553
var	-6554
400▁	-6555
Phot	-6556
Plat	-6557
Vers	-6558
excl	-6559
="5"|	-6560
Camer	-6561
anish	-6562
eded▁	-6563
enne▁	-6564
Margar	-6565
Sloven	-6566
carry▁	-6567
esses▁	-6568
value▁	-6569
Ontario	-6570
Ronald▁	-6571
esting▁	-6572
approxim	-6573
pandemic▁	-6574
specific▁	-6575
scientific▁	-6576
77	-6577
za	-6578
DC▁	-6579
Saf	-6580
isi	-6581
Marl	-6582
Spir	-6583
best	-6584
gold	-6585
tric	-6586
uri▁	-6587
insec	-6588
|2006	-6589
lawyer	-6590
Census▁	-6591
encies▁	-6592
hosted▁	-6593
practic	-6594
Arizona▁	-6595
Captain▁	-6596
Channel▁	-6597
feature▁	-6598
planned▁	-6599
problem▁	-6600
remains▁	-6601
religion▁	-6602
controvers	-6603
mathematician▁	-6604
PA	-6605
Ext	-6606
Hug	-6607
ux▁	-6608
vel	-6609
Good	-6610
1918▁	-6611
Belar	-6612
immun	-6613
inct▁	-6614
natur	-6615
Série▁	-6616
ecture	-6617
financ	-6618
image▁	-6619
solar▁	-6620
cricket	-6621
listing▁	-6622
Memorial▁	-6623
Wikipedia▁	-6624
operating▁	-6625
organized▁	-6626
earthquake▁	-6627
Pennsylvania	-6628
(1	-6629
169	-6630
Ell	-6631
Fac	-6632
Fle	-6633
Fun	-6634
Nar	-6635
cab	-6636
Brad	-6637
Bros	-6638
Fall	-6639
Ohio	-6640
drop	-6641
ori▁	-6642
Gulf▁	-6643
Khan▁	-6644
Water	-6645
reser	-6646
Berlin	-6647
split▁	-6648
really▁	-6649
|2000||	-6650
Rangers▁	-6651
emperor▁	-6652
removed▁	-6653
success▁	-6654
Calvados▁	-6655
Pictures▁	-6656
captured▁	-6657
television	-6658
1||0||0||0||	-6659
Ey	-6660
MP▁	-6661
Rey	-6662
5||2	-6663
ees▁	-6664
evel	-6665
ida▁	-6666
mang	-6667
neur	-6668
Adam▁	-6669
Hamil	-6670
degre	-6671
ently	-6672
eton▁	-6673
mosph	-6674
blues▁	-6675
collec	-6676
correc	-6677
enter▁	-6678
market	-6679
terror	-6680
trial▁	-6681
drogen▁	-6682
easily▁	-6683
express	-6684
sequel▁	-6685
Patrick▁	-6686
adopted▁	-6687
growing▁	-6688
eautiful▁	-6689
personality▁	-6690
Fem	-6691
Hot	-6692
Lav	-6693
eck	-6694
oma	-6695
pay	-6696
Clim	-6697
Dieg	-6698
arm▁	-6699
date	-6700
ila▁	-6701
ival	-6702
ming	-6703
plas	-6704
pret	-6705
Free▁	-6706
Pitts	-6707
exhib	-6708
motor	-6709
2003,▁	-6710
Coast▁	-6711
ising▁	-6712
learn▁	-6713
piano▁	-6714
summer▁	-6715
Virginia	-6716
carried▁	-6717
reviews▁	-6718
||3||0||	-6719
Mountain▁	-6720
Orthodox▁	-6721
describe▁	-6722
Federation▁	-6723
Kal	-6724
Nam	-6725
hem	-6726
obi	-6727
urs	-6728
Orig	-6729
Show	-6730
dog▁	-6731
org▁	-6732
shor	-6733
Fire▁	-6734
Will▁	-6735
anes▁	-6736
girl▁	-6737
lines	-6738
space	-6739
1997.▁	-6740
Muhamm	-6741
birds▁	-6742
equal▁	-6743
usual▁	-6744
anning▁	-6745
parties▁	-6746
Sciences▁	-6747
declared▁	-6748
speaking▁	-6749
physicist▁	-6750
provinces▁	-6751
completely▁	-6752
technology▁	-6753
5,	-6754
Dam	-6755
Now	-6756
sac	-6757
4||2	-6758
Mong	-6759
With	-6760
flic	-6761
Real▁	-6762
anna▁	-6763
bank▁	-6764
bird▁	-6765
lots▁	-6766
track	-6767
2000,▁	-6768
Third▁	-6769
reign▁	-6770
Member▁	-6771
engine▁	-6772
borders▁	-6773
managed▁	-6774
notable▁	-6775
Politics▁	-6776
historic▁	-6777
interview▁	-6778
commercial▁	-6779
communities▁	-6780
||||||||||||||||	-6781
2:	-6782
33▁	-6783
36▁	-6784
Cum	-6785
Ful	-6786
Jar	-6787
put	-6788
Mess	-6789
Pop▁	-6790
Salv	-6791
ask▁	-6792
eck▁	-6793
ours	-6794
voic	-6795
Child	-6796
Good▁	-6797
altit	-6798
tific	-6799
veget	-6800
Marie▁	-6801
ancell	-6802
calcul	-6803
ining▁	-6804
tries▁	-6805
inated▁	-6806
software▁	-6807
transport▁	-6808
Heb	-6809
Jam	-6810
Kum	-6811
Pad	-6812
bes	-6813
ez▁	-6814
imp	-6815
Book	-6816
DVD▁	-6817
cann	-6818
ild▁	-6819
inte	-6820
mir▁	-6821
osph	-6822
aker▁	-6823
chart	-6824
domin	-6825
emerg	-6826
femin	-6827
fort▁	-6828
thers	-6829
broke▁	-6830
immigr	-6831
serve▁	-6832
usion▁	-6833
diagnos	-6834
special	-6835
Director▁	-6836
directly▁	-6837
negative▁	-6838
property▁	-6839
particular▁	-6840
inhabitants▁	-6841
0-	-6842
Dy	-6843
Kö	-6844
Ali	-6845
Ard	-6846
INS	-6847
Kan	-6848
zy▁	-6849
Ferr	-6850
Jama	-6851
Terr	-6852
YouT	-6853
aud▁	-6854
bit▁	-6855
ider	-6856
rich	-6857
wan▁	-6858
Contr	-6859
Land▁	-6860
Napol	-6861
centr	-6862
hydro	-6863
imum▁	-6864
plan▁	-6865
2013)▁	-6866
corpor	-6867
prove▁	-6868
tered▁	-6869
travel	-6870
census▁	-6871
genous▁	-6872
speech▁	-6873
records▁	-6874
Universe▁	-6875
appearance▁	-6876
independence▁	-6877
relationship▁	-6878
99	-6879
CC	-6880
Hit	-6881
NAS	-6882
Nat	-6883
Sof	-6884
Tyr	-6885
acy	-6886
tol	-6887
(188	-6888
18)▁	-6889
Nich	-6890
eman	-6891
pack	-6892
stan	-6893
Rober	-6894
Site▁	-6895
anne▁	-6896
dark▁	-6897
ishes▁	-6898
judge▁	-6899
Sydney▁	-6900
System▁	-6901
comment	-6902
discuss	-6903
Foreign▁	-6904
Houston▁	-6905
density▁	-6906
longest▁	-6907
addition▁	-6908
contract▁	-6909
Y▁	-6910
q▁	-6911
Arc	-6912
Byr	-6913
ase	-6914
ces	-6915
rub	-6916
Caes	-6917
Marc	-6918
Well	-6919
dam▁	-6920
ione	-6921
Luis▁	-6922
drug▁	-6923
oslav	-6924
party	-6925
health	-6926
inform	-6927
review	-6928
Rights▁	-6929
reason▁	-6930
Liberal▁	-6931
Missouri	-6932
Network▁	-6933
suicide▁	-6934
Portugal▁	-6935
Commission	-6936
organizations▁	-6937
55▁	-6938
Beat	-6939
Bosn	-6940
Long	-6941
inet▁	-6942
peror	-6943
solo▁	-6944
three	-6945
Martin	-6946
giant▁	-6947
Bridge▁	-6948
Oxford▁	-6949
Warner▁	-6950
antine▁	-6951
culture	-6952
editor▁	-6953
Kurdish▁	-6954
pianist▁	-6955
provide▁	-6956
section▁	-6957
interest▁	-6958
location▁	-6959
Indonesian▁	-6960
championship▁	-6961
headquarters▁	-6962
representatives▁	-6963
(1▁	-6964
7:▁	-6965
Kon	-6966
Reb	-6967
loy	-6968
su▁	-6969
2||3	-6970
Liga	-6971
Vinc	-6972
acqu	-6973
gran	-6974
oss▁	-6975
thro	-6976
Barbar	-6977
Danny▁	-6978
Ocean▁	-6979
entry▁	-6980
vocals	-6981
votes▁	-6982
(2005)▁	-6983
(2007)▁	-6984
Player▁	-6985
failure	-6986
stroke▁	-6987
synthes	-6988
Pictures	-6989
comedian	-6990
arrested▁	-6991
normally▁	-6992
opposite▁	-6993
services▁	-6994
Community▁	-6995
northeast▁	-6996
Manchester▁	-6997
background▁	-6998
Entertainment	-6999
IA	-7000
Wa	-7001
4:▁	-7002
Key	-7003
Rad	-7004
azz	-7005
yl▁	-7006
Roll	-7007
Roos	-7008
diam	-7009
hers	-7010
indi	-7011
ray▁	-7012
said	-7013
Alex▁	-7014
Carib	-7015
Dark▁	-7016
Jeff▁	-7017
maint	-7018
Clevel	-7019
Globe▁	-7020
adult▁	-7021
dates▁	-7022
glass▁	-7023
saying▁	-7024
Singles▁	-7025
dynasty▁	-7026
happens▁	-7027
opening▁	-7028
variety▁	-7029
Regional▁	-7030
estimated▁	-7031
Foundation▁	-7032
competition▁	-7033
songwriters▁	-7034
Championships▁	-7035
--	-7036
mi	-7037
Pil	-7038
ole	-7039
rot	-7040
ted	-7041
Berg	-7042
Conn	-7043
ali▁	-7044
dry▁	-7045
eda▁	-7046
good	-7047
sulf	-7048
Carl▁	-7049
Relig	-7050
ellow	-7051
feet▁	-7052
ments	-7053
plus▁	-7054
twent	-7055
white	-7056
wins▁	-7057
Sport▁	-7058
embers	-7059
hours▁	-7060
primar	-7061
weeks▁	-7062
Births▁	-7063
Samuel▁	-7064
depress	-7065
titled▁	-7066
workers▁	-7067
Communist▁	-7068
agreement▁	-7069
7,	-7070
Z▁	-7071
alo	-7072
tox	-7073
ys▁	-7074
Ann▁	-7075
Epis	-7076
Les▁	-7077
NBA▁	-7078
case	-7079
mit▁	-7080
Colon	-7081
Wars▁	-7082
cases	-7083
mann▁	-7084
rebel	-7085
storm	-7086
1995.▁	-7087
1999,▁	-7088
Bible▁	-7089
dance▁	-7090
democr	-7091
explos	-7092
owers▁	-7093
(2006)▁	-7094
Bureau▁	-7095
agreed▁	-7096
Michigan	-7097
attacks▁	-7098
="2"|-||4	-7099
academic▁	-7100
compared▁	-7101
creating▁	-7102
ographer▁	-7103
Mathematic	-7104
influence▁	-7105
MS	-7106
(16	-7107
5:▁	-7108
75▁	-7109
Aus	-7110
Cou	-7111
Cow	-7112
aka	-7113
lie	-7114
rig	-7115
Alph	-7116
Bron	-7117
Diff	-7118
Lanc	-7119
Rain	-7120
ists	-7121
rapp	-7122
rati	-7123
tish	-7124
Franç	-7125
Line▁	-7126
chall	-7127
colum	-7128
fact▁	-7129
inger	-7130
paid▁	-7131
whom▁	-7132
yers▁	-7133
Jesus▁	-7134
Nation	-7135
analys	-7136
doing▁	-7137
island	-7138
shape▁	-7139
covers▁	-7140
status▁	-7141
yellow▁	-7142
defined▁	-7143
position	-7144
problems	-7145
Language▁	-7146
Maryland▁	-7147
Champions▁	-7148
Universal▁	-7149
Heavyweight▁	-7150
6,	-7151
Ow	-7152
Ts	-7153
Ug	-7154
47▁	-7155
Ach	-7156
Bed	-7157
Mak	-7158
bio	-7159
emo	-7160
Astr	-7161
Cons	-7162
Kell	-7163
Tag▁	-7164
eigh	-7165
sail	-7166
4||0▁	-7167
Arab▁	-7168
Artic	-7169
Gary▁	-7170
Matt▁	-7171
Meite	-7172
Nazi▁	-7173
Tour▁	-7174
ante▁	-7175
capac	-7176
eing▁	-7177
lyric	-7178
stage	-7179
1994.▁	-7180
INSEE▁	-7181
Kings▁	-7182
eases▁	-7183
eline▁	-7184
killed	-7185
store▁	-7186
Caribbe	-7187
Turkey▁	-7188
bodies▁	-7189
ardinal▁	-7190
Territory▁	-7191
Transport▁	-7192
characters	-7193
footballer	-7194
depression▁	-7195
Philadelphia	-7196
0||0||0||0||0▁	-7197
170	-7198
DS▁	-7199
Swe	-7200
Vik	-7201
Win	-7202
bu▁	-7203
nar	-7204
uth	-7205
3||2	-7206
Cher	-7207
ades	-7208
aut▁	-7209
chur	-7210
dom▁	-7211
vert	-7212
Phoen	-7213
Treat	-7214
anie▁	-7215
court	-7216
meet▁	-7217
1998.▁	-7218
Honor▁	-7219
Lewis▁	-7220
Peace▁	-7221
chair▁	-7222
occurr	-7223
perman	-7224
stery▁	-7225
victim	-7226
Comics▁	-7227
Spanish	-7228
trains▁	-7229
Roosevel	-7230
daughter	-7231
subject▁	-7232
Business▁	-7233
districts	-7234
examples▁	-7235
increase▁	-7236
22	-7237
(89	-7238
Fal	-7239
Him	-7240
Lud	-7241
Oct	-7242
Barr	-7243
Main	-7244
Who▁	-7245
answ	-7246
ete▁	-7247
iber	-7248
susp	-7249
text	-7250
turb	-7251
1913▁	-7252
State	-7253
Tunis	-7254
alcoh	-7255
flag▁	-7256
heat▁	-7257
iano▁	-7258
onde▁	-7259
oper▁	-7260
ords▁	-7261
1993.▁	-7262
Books▁	-7263
Davis▁	-7264
anded▁	-7265
bridge	-7266
extrem	-7267
grown▁	-7268
therap	-7269
Unlike▁	-7270
bright▁	-7271
mitted▁	-7272
American	-7273
digital▁	-7274
intellig	-7275
therine▁	-7276
presents▁	-7277
programming▁	-7278
Bea	-7279
Pom	-7280
Sic	-7281
ria	-7282
10)▁	-7283
Berk	-7284
Emer	-7285
Post	-7286
eon▁	-7287
mont	-7288
Part▁	-7289
Theod	-7290
Xbox▁	-7291
dred▁	-7292
feel▁	-7293
match	-7294
ocks▁	-7295
|2008	-7296
Barry▁	-7297
Philli	-7298
Simon▁	-7299
bring▁	-7300
Britain	-7301
Potter▁	-7302
atmosph	-7303
gained▁	-7304
respond	-7305
stated▁	-7306
movement	-7307
student▁	-7308
cultural▁	-7309
invented▁	-7310
divisions▁	-7311
pneumonia▁	-7312
additional▁	-7313
Philippines▁	-7314
8,	-7315
ér	-7316
Fuk	-7317
Go▁	-7318
Lak	-7319
Oak	-7320
agr	-7321
av▁	-7322
las	-7323
Band	-7324
Icel	-7325
Punj	-7326
Shel	-7327
regn	-7328
Compl	-7329
Down▁	-7330
Gabri	-7331
agric	-7332
aire▁	-7333
beat▁	-7334
mont▁	-7335
osis▁	-7336
Benjam	-7337
antum▁	-7338
needs▁	-7339
single	-7340
sport▁	-7341
termin	-7342
(2008)▁	-7343
members	-7344
parish▁	-7345
restaur	-7346
engineer	-7347
selling▁	-7348
Imperial▁	-7349
evidence▁	-7350
champions▁	-7351
mountains▁	-7352
previously▁	-7353
FA	-7354
90▁	-7355
CO▁	-7356
lit	-7357
fund	-7358
oka▁	-7359
Prix▁	-7360
ators	-7361
deal▁	-7362
uals▁	-7363
8||0||	-7364
Adams▁	-7365
Jason▁	-7366
Queens	-7367
Taiwan	-7368
change	-7369
moves▁	-7370
threat	-7371
wants▁	-7372
double▁	-7373
ession▁	-7374
fellow▁	-7375
version	-7376
Stockhol	-7377
missing▁	-7378
objects▁	-7379
managers▁	-7380
reaction▁	-7381
Educators▁	-7382
southwestern▁	-7383
CC▁	-7384
One	-7385
aph	-7386
bun	-7387
haw	-7388
iat	-7389
uli	-7390
Four	-7391
cach	-7392
rick	-7393
1914▁	-7394
hero▁	-7395
1996.▁	-7396
aming▁	-7397
clear▁	-7398
départ	-7399
itors▁	-7400
receiv	-7401
secret	-7402
transf	-7403
Meitei▁	-7404
Palace▁	-7405
Publish	-7406
search▁	-7407
Climate▁	-7408
Natural▁	-7409
Victoria	-7410
backing▁	-7411
concert▁	-7412
fashion▁	-7413
leaving▁	-7414
prevent▁	-7415
weather▁	-7416
wrestlers▁	-7417
Bangladesh▁	-7418
Lieutenant▁	-7419
understand▁	-7420
)"▁	-7421
43▁	-7422
8:▁	-7423
Cob	-7424
IS▁	-7425
Lux	-7426
bit	-7427
mis	-7428
nom	-7429
ud▁	-7430
Army	-7431
Bach	-7432
Beng	-7433
Stud	-7434
nes▁	-7435
thor	-7436
urn▁	-7437
Cape▁	-7438
Light	-7439
Mitch	-7440
boys▁	-7441
human	-7442
loss▁	-7443
mine▁	-7444
polo▁	-7445
skin▁	-7446
Depart	-7447
Today▁	-7448
cycle▁	-7449
improv	-7450
predic	-7451
trees▁	-7452
00,000▁	-7453
Temple▁	-7454
copies▁	-7455
shared▁	-7456
Current▁	-7457
assistant▁	-7458
Basketball▁	-7459
translated▁	-7460
construction▁	-7461
BA	-7462
MA	-7463
Rud	-7464
ols	-7465
phr	-7466
seg	-7467
sli	-7468
va▁	-7469
(),▁	-7470
19)▁	-7471
Buen	-7472
Foll	-7473
Game	-7474
Glen	-7475
aga▁	-7476
athe	-7477
cost	-7478
Hans▁	-7479
Liver	-7480
boro▁	-7481
equip	-7482
erra▁	-7483
induc	-7484
injur	-7485
oshim	-7486
sign▁	-7487
week▁	-7488
Peters	-7489
Stone▁	-7490
Works▁	-7491
inner▁	-7492
invest	-7493
prepar	-7494
visit▁	-7495
Johnson	-7496
Knight▁	-7497
earing▁	-7498
relativ	-7499
Theatre▁	-7500
congress	-7501
finally▁	-7502
husband▁	-7503
Development▁	-7504
Information▁	-7505
sportspeople▁	-7506
Od	-7507
ci	-7508
64▁	-7509
Abb	-7510
Att	-7511
Vas	-7512
ils	-7513
mes	-7514
ogg	-7515
15)▁	-7516
16)▁	-7517
NFL▁	-7518
Tim▁	-7519
Trin	-7520
abor	-7521
feel	-7522
kin▁	-7523
0||0▁	-7524
Alpes	-7525
Medit	-7526
cars▁	-7527
decor	-7528
domes	-7529
flow▁	-7530
heim▁	-7531
names	-7532
occas	-7533
schem	-7534
user▁	-7535
wind▁	-7536
Every▁	-7537
Tamil▁	-7538
apped▁	-7539
inspir	-7540
arrest▁	-7541
marine▁	-7542
Between▁	-7543
Detroit▁	-7544
Matthew▁	-7545
atabase▁	-7546
looking▁	-7547
bacteria▁	-7548
earliest▁	-7549
hydrogen▁	-7550
Governors▁	-7551
Corporation▁	-7552
oz	-7553
42▁	-7554
Ban	-7555
Fut	-7556
agg	-7557
fli	-7558
lyn	-7559
Gian	-7560
hop▁	-7561
imer	-7562
orph	-7563
cells	-7564
easy▁	-7565
sched	-7566
wing▁	-7567
Board▁	-7568
Final▁	-7569
ables▁	-7570
(1996)▁	-7571
Ecuador	-7572
dancer▁	-7573
eventh▁	-7574
issues▁	-7575
Further▁	-7576
cardiac▁	-7577
display▁	-7578
activity▁	-7579
brothers▁	-7580
continue▁	-7581
industry▁	-7582
Confederate▁	-7583
CN	-7584
Hab	-7585
Osc	-7586
Syn	-7587
aqu	-7588
ban	-7589
tex	-7590
Las▁	-7591
Roy▁	-7592
Suff	-7593
ova▁	-7594
poly	-7595
Natur	-7596
erran	-7597
ights	-7598
sycho	-7599
Alice▁	-7600
Baltim	-7601
Boris▁	-7602
alism▁	-7603
burgh▁	-7604
infarc	-7605
places	-7606
satell	-7607
Company	-7608
Leader▁	-7609
annual▁	-7610
bigger▁	-7611
general	-7612
highly▁	-7613
Governor	-7614
picture▁	-7615
Lawrence▁	-7616
ortation▁	-7617
describes▁	-7618
Massachusetts	-7619
Ib	-7620
Avi	-7621
Mit	-7622
Sah	-7623
ble	-7624
lea	-7625
opp	-7626
sax	-7627
Benn	-7628
Nick	-7629
Out▁	-7630
bish	-7631
ecra	-7632
han▁	-7633
only	-7634
Catal	-7635
accep	-7636
along	-7637
cold▁	-7638
foot▁	-7639
poor▁	-7640
ships	-7641
stars	-7642
suppl	-7643
thus▁	-7644
divorc	-7645
grade▁	-7646
ynasty	-7647
flight▁	-7648
Affairs▁	-7649
Highway▁	-7650
borough▁	-7651
learned▁	-7652
romance▁	-7653
regional▁	-7654
Melbourne▁	-7655
represent▁	-7656
volleyball▁	-7657
0–	-7658
Tu	-7659
Va	-7660
’▁	-7661
Daw	-7662
Gib	-7663
Kin	-7664
jur	-7665
éné	-7666
Shir	-7667
Stew	-7668
extr	-7669
foot	-7670
push	-7671
Pays▁	-7672
Stadi	-7673
devel	-7674
dorf▁	-7675
eval▁	-7676
fell▁	-7677
ises▁	-7678
radio	-7679
songs	-7680
sport	-7681
where	-7682
|2001	-7683
falls▁	-7684
ingen▁	-7685
inson▁	-7686
Norway▁	-7687
course▁	-7688
looked▁	-7689
sounds▁	-7690
Greater▁	-7691
Sources▁	-7692
attempt▁	-7693
ordered▁	-7694
Margaret▁	-7695
Security▁	-7696
required▁	-7697
Commission▁	-7698
infarction▁	-7699
journalists▁	-7700
representative▁	-7701
DO	-7702
ee	-7703
(79	-7704
34▁	-7705
65▁	-7706
elf	-7707
fra	-7708
kir	-7709
utr	-7710
was	-7711
Adel	-7712
Bad▁	-7713
Poké	-7714
UNES	-7715
chi▁	-7716
ophy	-7717
ott▁	-7718
tha▁	-7719
|2002	-7720
2002,▁	-7721
Bruce▁	-7722
Heart▁	-7723
Penins	-7724
cities	-7725
divers	-7726
poets▁	-7727
(1995)▁	-7728
Lawyers▁	-7729
physics▁	-7730
pitcher▁	-7731
renamed▁	-7732
theatre▁	-7733
Computer▁	-7734
Medicine▁	-7735
Ministry▁	-7736
training▁	-7737
discovery▁	-7738
scientist▁	-7739
personalities▁	-7740
Py	-7741
SS	-7742
182	-7743
Lan	-7744
Rac	-7745
Tob	-7746
WA▁	-7747
Yug	-7748
acu	-7749
ius	-7750
ken	-7751
oms	-7752
oud	-7753
rif	-7754
17)▁	-7755
Abra	-7756
Wars	-7757
ense	-7758
myoc	-7759
perf	-7760
surg	-7761
zen▁	-7762
1916▁	-7763
Plot▁	-7764
Psych	-7765
Studi	-7766
bing▁	-7767
circu	-7768
iron▁	-7769
ustri	-7770
Larry▁	-7771
Observ	-7772
incumb	-7773
saxoph	-7774
growth▁	-7775
method▁	-7776
ography	-7777
planet▁	-7778
report▁	-7779
chairman▁	-7780
tradition	-7781
ventures▁	-7782
chemistry▁	-7783
diagnosed▁	-7784
activities▁	-7785
Um	-7786
Cay	-7787
Din	-7788
Eli	-7789
Kim	-7790
Lea	-7791
iop	-7792
og▁	-7793
rad	-7794
rhy	-7795
set	-7796
thy	-7797
zen	-7798
Mars	-7799
Pro▁	-7800
abol	-7801
ical	-7802
illa	-7803
scen	-7804
torn	-7805
word	-7806
advis	-7807
attle	-7808
edge▁	-7809
ition	-7810
lets▁	-7811
7||0||	-7812
Count▁	-7813
dissol	-7814
drive▁	-7815
fried▁	-7816
twice▁	-7817
Dakota▁	-7818
Marine▁	-7819
Native▁	-7820
Warren▁	-7821
couple▁	-7822
tracks▁	-7823
olution▁	-7824
Frederick▁	-7825
Mediterran	-7826
positions▁	-7827
thousands▁	-7828
conditions▁	-7829
experience▁	-7830
alternative▁	-7831
Dra	-7832
Sak	-7833
Wol	-7834
bow	-7835
ji▁	-7836
jus	-7837
1900	-7838
7||2	-7839
aure	-7840
1917▁	-7841
ably▁	-7842
cost▁	-7843
flood	-7844
wear▁	-7845
worn▁	-7846
Chile▁	-7847
Costa▁	-7848
Saudi▁	-7849
aging▁	-7850
belief	-7851
county	-7852
franch	-7853
liked▁	-7854
(2001)▁	-7855
Chinese	-7856
Geneva▁	-7857
automob	-7858
commiss	-7859
debuts▁	-7860
install	-7861
science	-7862
Industri	-7863
Several▁	-7864
attacked▁	-7865
designer▁	-7866
provides▁	-7867
Companies▁	-7868
mentioned▁	-7869
Filmography▁	-7870
Jur	-7871
Nut	-7872
eld	-7873
ev▁	-7874
"),▁	-7875
Bart	-7876
Carr	-7877
Life	-7878
Salz	-7879
Sult	-7880
alo▁	-7881
resc	-7882
subj	-7883
elve▁	-7884
pass▁	-7885
tier▁	-7886
tour▁	-7887
Cathed	-7888
aling▁	-7889
noted▁	-7890
princi	-7891
Buenos▁	-7892
Pierre▁	-7893
liquid▁	-7894
utions▁	-7895
Muslims▁	-7896
contain▁	-7897
Benjamin▁	-7898
educator▁	-7899
presented▁	-7900
Technology▁	-7901
significant▁	-7902
Vl	-7903
38▁	-7904
51▁	-7905
Bot	-7906
Fol	-7907
Int	-7908
Sin	-7909
Uru	-7910
eds	-7911
pel	-7912
Addi	-7913
Merc	-7914
Pear	-7915
Sang	-7916
add▁	-7917
does	-7918
mist	-7919
truc	-7920
Chang	-7921
Fried	-7922
Karl▁	-7923
Ross▁	-7924
alty▁	-7925
clear	-7926
load▁	-7927
parts	-7928
traff	-7929
1989.▁	-7930
Indian	-7931
Kyoto▁	-7932
Suffol	-7933
months	-7934
scape▁	-7935
theme▁	-7936
(2004)▁	-7937
Bavaria	-7938
Carlos▁	-7939
castle▁	-7940
defeat▁	-7941
follow▁	-7942
service	-7943
myocardi	-7944
treated▁	-7945
Montreal▁	-7946
Romanian▁	-7947
altitude▁	-7948
*▁	-7949
Cyr	-7950
ho▁	-7951
max	-7952
ped	-7953
pup	-7954
600▁	-7955
elim	-7956
heav	-7957
iko▁	-7958
pick	-7959
till	-7960
uan▁	-7961
Filip	-7962
Port▁	-7963
alia▁	-7964
birds	-7965
chrom	-7966
dium▁	-7967
gang▁	-7968
gods▁	-7969
sung▁	-7970
Street	-7971
before	-7972
replac	-7973
score▁	-7974
Canton▁	-7975
Charlot	-7976
Vienna▁	-7977
ethnic▁	-7978
rapper▁	-7979
stayed▁	-7980
Atlanta▁	-7981
Kennedy▁	-7982
Project▁	-7983
product▁	-7984
Franklin▁	-7985
Fictional▁	-7986
committed▁	-7987
ministers▁	-7988
Conference▁	-7989
Population▁	-7990
electrical▁	-7991
interested▁	-7992
myocardial▁	-7993
FF	-7994
Ig	-7995
är	-7996
Be▁	-7997
Bud	-7998
Goo	-7999
Meg	-8000
Yok	-8001
spr	-8002
urg	-8003
cat▁	-8004
fair	-8005
hall	-8006
1912▁	-8007
9||0▁	-8008
Amend	-8009
Cross	-8010
Krist	-8011
Magaz	-8012
ando▁	-8013
arts▁	-8014
endor	-8015
hyper	-8016
Vista▁	-8017
applic	-8018
batter	-8019
films▁	-8020
label▁	-8021
office	-8022
respir	-8023
ruler▁	-8024
waves▁	-8025
Centre▁	-8026
Labour▁	-8027
Moscow▁	-8028
||3||0▁	-8029
Animals▁	-8030
athlete▁	-8031
religion	-8032
singing▁	-8033
visited▁	-8034
Festival▁	-8035
Muhammad▁	-8036
Nebraska▁	-8037
Original▁	-8038
mythology	-8039
Christians▁	-8040
Historical▁	-8041
difference▁	-8042
département▁	-8043
48	-8044
Ok	-8045
168	-8046
Cha	-8047
Fab	-8048
Hop	-8049
cut	-8050
150▁	-8051
Jan▁	-8052
Our▁	-8053
Time	-8054
Vanc	-8055
apti	-8056
avel	-8057
bal▁	-8058
ban▁	-8059
fly▁	-8060
page	-8061
yet▁	-8062
Area▁	-8063
Court	-8064
White	-8065
ashi▁	-8066
deep▁	-8067
huge▁	-8068
theor	-8069
wards	-8070
1992.▁	-8071
Blood▁	-8072
Greece	-8073
Hercul	-8074
Miami▁	-8075
Pyréné	-8076
Vancou	-8077
Yonne▁	-8078
battle	-8079
events	-8080
share▁	-8081
sixth▁	-8082
(2009)▁	-8083
Islands	-8084
inding▁	-8085
accident	-8086
changing▁	-8087
education	-8088
proposed▁	-8089
financial▁	-8090
electronic▁	-8091
environment	-8092
hi	-8093
%)▁	-8094
174	-8095
Agr	-8096
Beg	-8097
Get	-8098
Hex	-8099
IP▁	-8100
Len	-8101
Pin	-8102
Raw	-8103
Sor	-8104
TA▁	-8105
pa▁	-8106
ugg	-8107
9||1	-8108
AFC▁	-8109
Thir	-8110
cher	-8111
conv	-8112
dorf	-8113
esty	-8114
ette	-8115
full	-8116
nal▁	-8117
Bell▁	-8118
defin	-8119
invas	-8120
sons▁	-8121
Center	-8122
Ethiop	-8123
ented▁	-8124
harmon	-8125
hurric	-8126
(1998)▁	-8127
Orange▁	-8128
filled▁	-8129
models▁	-8130
occurs▁	-8131
ascular▁	-8132
meeting▁	-8133
methods▁	-8134
Armenian▁	-8135
combined▁	-8136
cription▁	-8137
decision▁	-8138
expected▁	-8139
products▁	-8140
response▁	-8141
Independence▁	-8142
Mé	-8143
;"▁	-8144
="6	-8145
Byz	-8146
Cle	-8147
Dou	-8148
Hud	-8149
Ing	-8150
Occ	-8151
RT▁	-8152
Sac	-8153
fib	-8154
oil	-8155
pag	-8156
Desp	-8157
chap	-8158
cous	-8159
drin	-8160
tice	-8161
Pruss	-8162
boat▁	-8163
flat▁	-8164
ider▁	-8165
moon▁	-8166
ulty▁	-8167
1991.▁	-8168
2006)▁	-8169
Hindu▁	-8170
brown▁	-8171
finds▁	-8172
immedi	-8173
issue▁	-8174
(1994)▁	-8175
Kurdist	-8176
Master▁	-8177
Nelson▁	-8178
charts▁	-8179
coffee▁	-8180
happen▁	-8181
lights▁	-8182
numbers	-8183
serial▁	-8184
develop▁	-8185
percent▁	-8186
spacecra	-8187
Economic▁	-8188
industrial▁	-8189
electricity▁	-8190
DS	-8191
MG	-8192
Sn	-8193
Sr	-8194
tz	-8195
37▁	-8196
Cho	-8197
Ten	-8198
bil	-8199
igg	-8200
Cass	-8201
ateg	-8202
embl	-8203
erry	-8204
ials	-8205
onto	-8206
spot	-8207
Once▁	-8208
ente▁	-8209
mund▁	-8210
onder	-8211
spons	-8212
||||▁	-8213
2010)▁	-8214
Palest	-8215
claim▁	-8216
enson▁	-8217
izing▁	-8218
plans▁	-8219
rocks▁	-8220
(2002)▁	-8221
Detroit	-8222
Jordan▁	-8223
Online▁	-8224
Quebec▁	-8225
conflic	-8226
issued▁	-8227
ization	-8228
titles▁	-8229
holding▁	-8230
organic▁	-8231
president	-8232
Provinces▁	-8233
increased▁	-8234
treatment▁	-8235
Literature▁	-8236
influenced▁	-8237
Presidential▁	-8238
1/	-8239
78	-8240
Hut	-8241
Teh	-8242
try	-8243
zhe	-8244
Diam	-8245
Now▁	-8246
haus	-8247
Patri	-8248
Ryan▁	-8249
adver	-8250
miles	-8251
milit	-8252
othy▁	-8253
ries▁	-8254
rise▁	-8255
scope	-8256
sell▁	-8257
subst	-8258
tile▁	-8259
wound	-8260
Archit	-8261
Blues▁	-8262
Legisl	-8263
Turkey	-8264
ached▁	-8265
consci	-8266
energy	-8267
exist▁	-8268
stock▁	-8269
winds▁	-8270
(2003)▁	-8271
levels▁	-8272
princip	-8273
systems	-8274
Capital▁	-8275
Russell▁	-8276
Ukraine▁	-8277
channel▁	-8278
material	-8279
Louisiana	-8280
ification	-8281
guitarists▁	-8282
participated▁	-8283
AR	-8284
ER	-8285
Bey	-8286
Dub	-8287
Jak	-8288
ok▁	-8289
rov	-8290
sav	-8291
Prad	-8292
See▁	-8293
Viol	-8294
Wolf	-8295
cham	-8296
chen	-8297
entr	-8298
gall	-8299
ites	-8300
refl	-8301
repr	-8302
ses▁	-8303
shot	-8304
1915▁	-8305
arch▁	-8306
aught	-8307
burgh	-8308
eyes▁	-8309
guns▁	-8310
pregn	-8311
ygen▁	-8312
|1998	-8313
Local▁	-8314
access	-8315
exual▁	-8316
ledge▁	-8317
lists▁	-8318
occur▁	-8319
phone▁	-8320
theory	-8321
(1999)▁	-8322
Perform	-8323
Silver▁	-8324
ability	-8325
carbon▁	-8326
monarch	-8327
senior▁	-8328
voiced▁	-8329
|2010||	-8330
concept▁	-8331
drummer▁	-8332
economy▁	-8333
minutes▁	-8334
criminal▁	-8335
inventor▁	-8336
Bundesliga	-8337
architect▁	-8338
profession	-8339
struction▁	-8340
typically▁	-8341
Ambassador▁	-8342
performing▁	-8343
Pé	-8344
uz	-8345
160	-8346
52▁	-8347
Cem	-8348
Eri	-8349
Jup	-8350
Mis	-8351
Pow	-8352
Vor	-8353
Whe	-8354
aki	-8355
bus	-8356
die	-8357
fy▁	-8358
rat	-8359
9||2	-8360
Appl	-8361
Buck	-8362
Moon	-8363
desc	-8364
erup	-8365
mal▁	-8366
="6"|	-8367
Roman	-8368
Urugu	-8369
appar	-8370
deliv	-8371
demon	-8372
grass	-8373
pione	-8374
wich▁	-8375
Press▁	-8376
Wilson	-8377
fires▁	-8378
focus▁	-8379
girls▁	-8380
watch▁	-8381
Around▁	-8382
comune▁	-8383
element	-8384
forest▁	-8385
immune▁	-8386
osaurs▁	-8387
Montana▁	-8388
Williams	-8389
Yugoslav	-8390
determin	-8391
offered▁	-8392
||4||0||	-8393
Jonathan▁	-8394
accident▁	-8395
ancellor▁	-8396
creation▁	-8397
numerous▁	-8398
provided▁	-8399
Mediterranean▁	-8400
yt	-8401
ön	-8402
149	-8403
44▁	-8404
Lem	-8405
Sev	-8406
Usu	-8407
cm▁	-8408
rod	-8409
Frog	-8410
Magn	-8411
Mang	-8412
Shim	-8413
Wild	-8414
elf▁	-8415
path	-8416
vice	-8417
Alger	-8418
Here▁	-8419
Holoc	-8420
Liga▁	-8421
Nick▁	-8422
Wadi▁	-8423
Ward▁	-8424
block	-8425
hits▁	-8426
worth	-8427
,000.▁	-8428
2012)▁	-8429
Kurds▁	-8430
Singh▁	-8431
begin▁	-8432
church	-8433
embour	-8434
member	-8435
planet	-8436
Marvel▁	-8437
Romania	-8438
access▁	-8439
alumni▁	-8440
concern	-8441
decide▁	-8442
himself	-8443
secret▁	-8444
|2006/0	-8445
|2006||	-8446
Medical▁	-8447
building	-8448
morning▁	-8449
divorced▁	-8450
literature▁	-8451
tournament▁	-8452
engineering▁	-8453
approximately▁	-8454
IO	-8455
Kl	-8456
Lef	-8457
bud	-8458
osa	-8459
yn▁	-8460
5||3	-8461
Happ	-8462
Ian▁	-8463
Kath	-8464
Leo▁	-8465
ema▁	-8466
ogen	-8467
1907▁	-8468
Dean▁	-8469
Dick▁	-8470
Every	-8471
angel	-8472
great	-8473
hair▁	-8474
keybo	-8475
suit▁	-8476
Basic▁	-8477
heard▁	-8478
itself	-8479
proof▁	-8480
Carter▁	-8481
Finland	-8482
Lincoln	-8483
contest	-8484
images▁	-8485
master▁	-8486
teenth▁	-8487
uments▁	-8488
voices▁	-8489
|2001||	-8490
Knights▁	-8491
concentr	-8492
reality▁	-8493
Argentina▁	-8494
radiation▁	-8495
distribution▁	-8496
CH	-8497
39▁	-8498
Lon	-8499
aux	-8500
cru	-8501
mo▁	-8502
Goth	-8503
Khan	-8504
Mick	-8505
News	-8506
Patt	-8507
Sylv	-8508
acid	-8509
aro▁	-8510
stad	-8511
tive	-8512
Alzhe	-8513
Five▁	-8514
Girl▁	-8515
Marin	-8516
Rail▁	-8517
Symph	-8518
Wall▁	-8519
acid▁	-8520
apart	-8521
felt▁	-8522
fight	-8523
haps▁	-8524
iers▁	-8525
punk▁	-8526
train	-8527
udes▁	-8528
1973)▁	-8529
eland▁	-8530
modern	-8531
pancre	-8532
scale▁	-8533
Albums▁	-8534
ecting▁	-8535
instead	-8536
ounced▁	-8537
|2003/0	-8538
|2005/0	-8539
Freedom▁	-8540
visible▁	-8541
accepted▁	-8542
landfall▁	-8543
revealed▁	-8544
remaining▁	-8545
automobiles▁	-8546
Ny	-8547
167	-8548
57▁	-8549
66▁	-8550
Ed▁	-8551
Hag	-8552
His	-8553
Kle	-8554
RGB	-8555
adj	-8556
ito	-8557
ude	-8558
(186	-8559
(187	-8560
0).▁	-8561
Burg	-8562
Cinc	-8563
Idah	-8564
MPs▁	-8565
bury	-8566
feet	-8567
flag	-8568
isen	-8569
mann	-8570
rod▁	-8571
tran	-8572
verg	-8573
Also▁	-8574
Elean	-8575
Fland	-8576
Name▁	-8577
Night	-8578
Nurem	-8579
burn▁	-8580
file▁	-8581
idae▁	-8582
simpl	-8583
tern▁	-8584
1990.▁	-8585
2007)▁	-8586
2008)▁	-8587
astron	-8588
leads▁	-8589
sports	-8590
enders▁	-8591
|2001/0	-8592
|2002/0	-8593
|2004/0	-8594
Despite▁	-8595
applied▁	-8596
causing▁	-8597
receive▁	-8598
Luxembour	-8599
resigned▁	-8600
worldwide	-8601
represents▁	-8602
representing▁	-8603
EA	-8604
Wo	-8605
zy	-8606
...	-8607
MS▁	-8608
Tig	-8609
Zim	-8610
esc	-8611
fai	-8612
fix	-8613
rev	-8614
uk▁	-8615
1||3	-8616
85,▁	-8617
89,▁	-8618
Lenn	-8619
Rand	-8620
Yosh	-8621
aran	-8622
assa	-8623
ills	-8624
oba▁	-8625
ocol	-8626
opin	-8627
poor	-8628
same	-8629
tors	-8630
weak	-8631
Stein	-8632
dedic	-8633
hour▁	-8634
title	-8635
1997,▁	-8636
Boston	-8637
Pedro▁	-8638
Robin▁	-8639
Sardin	-8640
aware▁	-8641
happen	-8642
itals▁	-8643
parall	-8644
though	-8645
ument▁	-8646
violin	-8647
Harris▁	-8648
Studio▁	-8649
Toronto	-8650
UNESCO▁	-8651
bottom▁	-8652
nation▁	-8653
othing▁	-8654
quarter	-8655
unique▁	-8656
||4||0▁	-8657
Japanese	-8658
Lincoln▁	-8659
Profile▁	-8660
freedom▁	-8661
stadium▁	-8662
students	-8663
Alzheimer	-8664
affected▁	-8665
articles▁	-8666
Cambridge▁	-8667
alongside▁	-8668
commander▁	-8669
featuring▁	-8670
materials▁	-8671
Convention▁	-8672
Independent▁	-8673
Paralympics▁	-8674
particularly▁	-8675
9,	-8676
9.	-8677
MI	-8678
Arl	-8679
Art	-8680
Bog	-8681
Rhô	-8682
itu	-8683
oy▁	-8684
sa▁	-8685
End▁	-8686
Mans	-8687
cool	-8688
gry▁	-8689
ico▁	-8690
impl	-8691
itor	-8692
mers	-8693
ober	-8694
sue▁	-8695
tia▁	-8696
Head▁	-8697
Micha	-8698
accur	-8699
mate▁	-8700
post▁	-8701
regul	-8702
Divisi	-8703
Series	-8704
brand▁	-8705
dated▁	-8706
editor	-8707
horse▁	-8708
peace▁	-8709
solid▁	-8710
Alabama	-8711
Batman▁	-8712
Rachel▁	-8713
Sierra▁	-8714
shaped▁	-8715
ulture▁	-8716
Gironde▁	-8717
Pyrénées	-8718
national	-8719
unknown▁	-8720
Marlboro▁	-8721
founding▁	-8722
recently▁	-8723
security▁	-8724
biography▁	-8725
instruments▁	-8726
screenwriter	-8727
''	-8728
Dh	-8729
MD	-8730
Ve	-8731
Dic	-8732
Ple	-8733
Raf	-8734
VI▁	-8735
awa	-8736
eri	-8737
hat	-8738
ita	-8739
nut	-8740
ova	-8741
ved	-8742
Bald	-8743
Cann	-8744
Club	-8745
Garc	-8746
Hand	-8747
Hold	-8748
Men▁	-8749
Road	-8750
didn	-8751
emy▁	-8752
iden	-8753
ogy▁	-8754
7||1▁	-8755
Reser	-8756
abstr	-8757
Amster	-8758
Diego▁	-8759
aceae▁	-8760
atives	-8761
drugs▁	-8762
erence	-8763
humans	-8764
voted▁	-8765
(2000)▁	-8766
Dennis▁	-8767
Norman▁	-8768
istics▁	-8769
|2007/0	-8770
Article▁	-8771
Charlie▁	-8772
Children	-8773
Province	-8774
YouTube▁	-8775
demonstr	-8776
project▁	-8777
painting▁	-8778
Afghanistan	-8779
Revolution▁	-8780
||1||0||0||	-8781
surrounding▁	-8782
metropolitan▁	-8783
va	-8784
Tab	-8785
Toy	-8786
Wür	-8787
CBS▁	-8788
Emil	-8789
Gonz	-8790
Herz	-8791
Hond	-8792
Morr	-8793
buy▁	-8794
elev	-8795
fals	-8796
live	-8797
sain	-8798
semi	-8799
uth▁	-8800
Athle	-8801
Energ	-8802
Galax	-8803
Rhin▁	-8804
cher▁	-8805
lack▁	-8806
neth▁	-8807
neutr	-8808
rare▁	-8809
slow▁	-8810
Alpes▁	-8811
drink▁	-8812
finish	-8813
precip	-8814
resour	-8815
Doctor▁	-8816
Legend▁	-8817
Miller▁	-8818
Victor▁	-8819
Arkansas	-8820
Borough▁	-8821
Chilean▁	-8822
Notable▁	-8823
council▁	-8824
critics▁	-8825
Hospital▁	-8826
Minnesota	-8827
Nigerian▁	-8828
Standard▁	-8829
suffered▁	-8830
instrument	-8831
pancreatic▁	-8832
surrounded▁	-8833
ED	-8834
Ki	-8835
LA	-8836
9:▁	-8837
Bis	-8838
EP▁	-8839
Hub	-8840
Lee	-8841
Top	-8842
bey	-8843
dim	-8844
eva	-8845
gor	-8846
mal	-8847
oe▁	-8848
ral	-8849
uzz	-8850
ín▁	-8851
91,▁	-8852
Wich	-8853
army	-8854
born	-8855
deep	-8856
girl	-8857
hund	-8858
late	-8859
nie▁	-8860
sons	-8861
Andro	-8862
Bibli	-8863
Bush▁	-8864
Griff	-8865
aven▁	-8866
eland	-8867
eras▁	-8868
ishi▁	-8869
Grant▁	-8870
angle▁	-8871
armed▁	-8872
avoid▁	-8873
items▁	-8874
verse▁	-8875
ystal▁	-8876
Chemist	-8877
Madrid▁	-8878
choose▁	-8879
device▁	-8880
formal▁	-8881
mobile▁	-8882
novels▁	-8883
porter▁	-8884
serves▁	-8885
soccer▁	-8886
stream▁	-8887
surface	-8888
Digital▁	-8889
Dynasty▁	-8890
hospital	-8891
serious▁	-8892
society▁	-8893
symbols▁	-8894
Parkinson	-8895
Indonesia▁	-8896
adventure▁	-8897
particles▁	-8898
separated▁	-8899
temporary▁	-8900
Vietnamese▁	-8901
Championships	-8902
congressional▁	-8903
Fi	-8904
Ja	-8905
|-	-8906
Dod	-8907
Equ	-8908
Hil	-8909
Moz	-8910
wit	-8911
87,▁	-8912
Age▁	-8913
Cycl	-8914
Gust	-8915
Ken▁	-8916
Prag	-8917
Revi	-8918
Web▁	-8919
ange	-8920
eler	-8921
eng▁	-8922
flav	-8923
gar▁	-8924
ield	-8925
ift▁	-8926
iji▁	-8927
poll	-8928
room	-8929
ures	-8930
Aquit	-8931
Page▁	-8932
eath▁	-8933
green	-8934
ming▁	-8935
ores▁	-8936
zone▁	-8937
1984.▁	-8938
Comedi	-8939
Grace▁	-8940
Seven▁	-8941
Songs▁	-8942
behavi	-8943
block▁	-8944
honor▁	-8945
ocean▁	-8946
slight	-8947
Belarus	-8948
Emperor	-8949
Grande▁	-8950
counts▁	-8951
Denmark▁	-8952
damaged▁	-8953
goddess▁	-8954
released	-8955
showing▁	-8956
sources▁	-8957
Nicholas▁	-8958
graduate▁	-8959
produces▁	-8960
respectiv	-8961
teaching▁	-8962
Interview▁	-8963
conducted▁	-8964
extremely▁	-8965
personnel▁	-8966
themselves	-8967
Philippines	-8968
Description▁	-8969
Philadelphia▁	-8970
businesspeople▁	-8971
47	-8972
UC	-8973
46▁	-8974
Fif	-8975
Fuj	-8976
Has	-8977
Ill	-8978
Kab	-8979
Sik	-8980
Van	-8981
rar	-8982
Beij	-8983
Six▁	-8984
aco▁	-8985
bear	-8986
hood	-8987
size	-8988
1911▁	-8989
Mars▁	-8990
Side▁	-8991
cinem	-8992
ocean	-8993
otes▁	-8994
purch	-8995
rank▁	-8996
woman	-8997
||1||	-8998
Girls▁	-8999
Moscow	-9000
eaten▁	-9001
enemy▁	-9002
etery▁	-9003
guest▁	-9004
pilot▁	-9005
rights	-9006
Cincinn	-9007
Graham▁	-9008
Harold▁	-9009
borough	-9010
control	-9011
entrepr	-9012
inging▁	-9013
manager	-9014
oxygen▁	-9015
street▁	-9016
tribes▁	-9017
vertebr	-9018
|2008||	-9019
Belgium▁	-9020
accused▁	-9021
calendar	-9022
compete▁	-9023
Indonesia	-9024
electron▁	-9025
sequence▁	-9026
Baltimore▁	-9027
Catherine▁	-9028
entreprene	-9029
literature	-9030
municipal▁	-9031
paintings▁	-9032
municipality	-9033
76	-9034
PS	-9035
lé	-9036
166	-9037
49▁	-9038
Boh	-9039
Fro	-9040
Hem	-9041
Zor	-9042
dir	-9043
enj	-9044
jum	-9045
vid	-9046
84,▁	-9047
Appe	-9048
Fuku	-9049
Hend	-9050
Mark	-9051
Orle	-9052
Then	-9053
Way▁	-9054
atem	-9055
free	-9056
sen▁	-9057
site	-9058
und▁	-9059
wild	-9060
Beach	-9061
Iraq▁	-9062
Moroc	-9063
Wild▁	-9064
attor	-9065
built	-9066
chick	-9067
effic	-9068
gers▁	-9069
mers▁	-9070
oral▁	-9071
overs	-9072
resid	-9073
rows▁	-9074
1986.▁	-9075
Eddie▁	-9076
Senate	-9077
Stars▁	-9078
Trade▁	-9079
Wayne▁	-9080
colour	-9081
destro	-9082
necess	-9083
resign	-9084
route▁	-9085
sense▁	-9086
vocal▁	-9087
Common▁	-9088
Johann▁	-9089
rebelli	-9090
|2005||	-9091
Bernard▁	-9092
However▁	-9093
campaign	-9094
compound	-9095
cricket▁	-9096
genetic▁	-9097
greater▁	-9098
replace▁	-9099
settled▁	-9100
tionary▁	-9101
weapons▁	-9102
practice▁	-9103
youngest▁	-9104
Caribbean▁	-9105
Jerusalem▁	-9106
protected▁	-9107
Representative▁	-9108
86	-9109
SN	-9110
10.	-9111
5%▁	-9112
54▁	-9113
Alt	-9114
Lag	-9115
Mig	-9116
Rid	-9117
Say	-9118
Sig	-9119
Sir	-9120
Tas	-9121
Voc	-9122
cod	-9123
mi▁	-9124
nik	-9125
zo▁	-9126
,000	-9127
Ron▁	-9128
eta▁	-9129
igi▁	-9130
lay▁	-9131
mond	-9132
oven	-9133
1903▁	-9134
Dead▁	-9135
Nova▁	-9136
Otto▁	-9137
Phil▁	-9138
aste▁	-9139
borgh	-9140
etta▁	-9141
iper▁	-9142
izes▁	-9143
portr	-9144
reign	-9145
rice▁	-9146
send▁	-9147
Crown▁	-9148
Jesse▁	-9149
Norway	-9150
Solar▁	-9151
Tommy▁	-9152
Youth▁	-9153
eller▁	-9154
length	-9155
onomy▁	-9156
ovich▁	-9157
Belgium	-9158
Birming	-9159
Italian	-9160
Reagan▁	-9161
actual▁	-9162
cartoon	-9163
descrip	-9164
itting▁	-9165
medals▁	-9166
society	-9167
spring▁	-9168
Barbara▁	-9169
Culture▁	-9170
Lamborgh	-9171
printed▁	-9172
soldier▁	-9173
François▁	-9174
Thailand▁	-9175
literary▁	-9176
novelist▁	-9177
Archbishop▁	-9178
Naturalized▁	-9179
screenwriters▁	-9180
56	-9181
TH	-9182
ât	-9183
0/0	-9184
56▁	-9185
CD▁	-9186
Dir	-9187
Zel	-9188
sin	-9189
you	-9190
83,▁	-9191
Biel	-9192
Rena	-9193
aska	-9194
burn	-9195
ika▁	-9196
oor▁	-9197
shop	-9198
wedd	-9199
Categ	-9200
Neil▁	-9201
Sound	-9202
Vladi	-9203
bell▁	-9204
depos	-9205
ordin	-9206
ories	-9207
promo	-9208
sang▁	-9209
stan▁	-9210
1996,▁	-9211
Concer	-9212
Ferdin	-9213
Islam▁	-9214
Spring	-9215
Where▁	-9216
ailed▁	-9217
damage	-9218
istan▁	-9219
sides▁	-9220
techni	-9221
|2009/	-9222
(2010)▁	-9223
Alaska▁	-9224
Cooper▁	-9225
Czechos	-9226
Taiwan▁	-9227
Ukraine	-9228
metres▁	-9229
nature▁	-9230
|2000/0	-9231
belongs▁	-9232
biology▁	-9233
capture▁	-9234
chemist▁	-9235
closely▁	-9236
division	-9237
minster▁	-9238
Chairman▁	-9239
Filipino▁	-9240
buildings	-9241
magnetic▁	-9242
smallest▁	-9243
villages▁	-9244
Czechoslov	-9245
Hollywood▁	-9246
attention▁	-9247
primarily▁	-9248
Gö	-9249
TS	-9250
ll	-9251
vs	-9252
Eag	-9253
ato	-9254
dy▁	-9255
nas	-9256
ody	-9257
ura	-9258
Brig	-9259
Gill	-9260
Mac▁	-9261
Mond	-9262
Rio▁	-9263
eye▁	-9264
larg	-9265
lyn▁	-9266
pray	-9267
role	-9268
1905▁	-9269
Post▁	-9270
Rhine	-9271
ases▁	-9272
ners▁	-9273
reds▁	-9274
Golden	-9275
Servic	-9276
Wilhel	-9277
agree▁	-9278
conven	-9279
frogs▁	-9280
itzer▁	-9281
notes▁	-9282
staff▁	-9283
stood▁	-9284
venue▁	-9285
(2011)▁	-9286
Council	-9287
Forest▁	-9288
Protest	-9289
Treaty▁	-9290
actions	-9291
memory▁	-9292
orange▁	-9293
website	-9294
Serbian▁	-9295
addition	-9296
Wisconsin	-9297
learning▁	-9298
symptoms▁	-9299
Stockholm▁	-9300
dedicated▁	-9301
evolution▁	-9302
ovascular▁	-9303
|2009/10||	-9304
appearances▁	-9305
respiratory▁	-9306
||||||||||||	-9307
Administration▁	-9308
Gy	-9309
PD	-9310
Sz	-9311
WA	-9312
à▁	-9313
71▁	-9314
Hur	-9315
Kit	-9316
Nak	-9317
Pra	-9318
Sco	-9319
Sti	-9320
Tib	-9321
Exec	-9322
Giov	-9323
Joy▁	-9324
Lang	-9325
Stef	-9326
Vish	-9327
como	-9328
enar	-9329
kes▁	-9330
wing	-9331
1908▁	-9332
1910▁	-9333
Andy▁	-9334
Chand	-9335
Haute	-9336
Santi	-9337
Teach	-9338
hill▁	-9339
milli	-9340
paper	-9341
soft▁	-9342
uled▁	-9343
wise▁	-9344
Michel	-9345
advant	-9346
antly▁	-9347
idden▁	-9348
ulture	-9349
Famous▁	-9350
Junior▁	-9351
easier▁	-9352
illness	-9353
parents	-9354
restric	-9355
strateg	-9356
Hungary▁	-9357
Raymond▁	-9358
computer	-9359
figures▁	-9360
hundred▁	-9361
kingdom▁	-9362
community	-9363
domestic▁	-9364
occurred▁	-9365
150	-9366
158	-9367
Cav	-9368
Lah	-9369
Pav	-9370
Seb	-9371
Wag	-9372
ove	-9373
phy	-9374
usc	-9375
(180	-9376
Amaz	-9377
Aust	-9378
CEO▁	-9379
Expl	-9380
Fitz	-9381
Mall	-9382
NBC▁	-9383
Rabb	-9384
Ralp	-9385
Slav	-9386
Soph	-9387
aine	-9388
airs	-9389
blue	-9390
tree	-9391
5||1▁	-9392
Band▁	-9393
Hart▁	-9394
Nine▁	-9395
Solid	-9396
Walt▁	-9397
chen▁	-9398
lingu	-9399
opter	-9400
rose▁	-9401
|1996	-9402
2011)▁	-9403
Collin	-9404
Method	-9405
Opera▁	-9406
Ralph▁	-9407
Sites▁	-9408
Surviv	-9409
Tower▁	-9410
Types▁	-9411
Until▁	-9412
bright	-9413
calls▁	-9414
daily▁	-9415
fruit▁	-9416
geomet	-9417
hotel▁	-9418
promin	-9419
psycho	-9420
rical▁	-9421
scene▁	-9422
Steven▁	-9423
caught▁	-9424
courts▁	-9425
crimes▁	-9426
teacher	-9427
|2008/0	-9428
contact▁	-9429
dropped▁	-9430
females▁	-9431
painted▁	-9432
perform▁	-9433
unusual▁	-9434
Brothers▁	-9435
Tennessee	-9436
approved▁	-9437
explorer▁	-9438
medicine▁	-9439
murdered▁	-9440
officers▁	-9441
operated▁	-9442
slightly▁	-9443
Comedians▁	-9444
beautiful▁	-9445
everything▁	-9446
territories▁	-9447
Cô	-9448
IN	-9449
TA	-9450
XX	-9451
AD▁	-9452
Inv	-9453
Maz	-9454
Ran	-9455
Sap	-9456
ax▁	-9457
gom	-9458
icy	-9459
nin	-9460
ran	-9461
ray	-9462
tee	-9463
”.▁	-9464
88,▁	-9465
90,▁	-9466
Aber	-9467
Midd	-9468
Phel	-9469
Tall	-9470
ella	-9471
test	-9472
tle▁	-9473
1895▁	-9474
9–200	-9475
Bapti	-9476
aragu	-9477
ayan▁	-9478
blood	-9479
brevi	-9480
holid	-9481
onds▁	-9482
otic▁	-9483
range	-9484
1994,▁	-9485
Among▁	-9486
Beach▁	-9487
Crimin	-9488
Laura▁	-9489
aking▁	-9490
albums	-9491
ateur▁	-9492
chart▁	-9493
moment	-9494
ounts▁	-9495
treat▁	-9496
users▁	-9497
Iceland	-9498
Mother▁	-9499
Spring▁	-9500
broken▁	-9501
linked▁	-9502
passes▁	-9503
useful▁	-9504
valley▁	-9505
|1999/0	-9506
|2004||	-9507
Columbia	-9508
Kenneth▁	-9509
arrived▁	-9510
cantons▁	-9511
follows▁	-9512
osaurus▁	-9513
planets▁	-9514
victims▁	-9515
everyone▁	-9516
Byzantine▁	-9517
condition▁	-9518
continues▁	-9519
convicted▁	-9520
succeeded▁	-9521
5:	-9522
:#	-9523
PC	-9524
ng	-9525
oe	-9526
Boo	-9527
Jav	-9528
Kun	-9529
Mut	-9530
NHL	-9531
Rah	-9532
Sky	-9533
aer	-9534
gri	-9535
ied	-9536
jo▁	-9537
Glas	-9538
Sieg	-9539
bar▁	-9540
park	-9541
....▁	-9542
1904▁	-9543
Boliv	-9544
Cold▁	-9545
Media	-9546
Utah▁	-9547
itor▁	-9548
ogue▁	-9549
opes▁	-9550
save▁	-9551
1945)▁	-9552
Differ	-9553
Mariti	-9554
Philos	-9555
anese▁	-9556
assic▁	-9557
causes	-9558
chain▁	-9559
essed▁	-9560
hosts▁	-9561
orary▁	-9562
orite▁	-9563
(1991)▁	-9564
Julian▁	-9565
Roberts	-9566
critic▁	-9567
enburg▁	-9568
equival	-9569
escape▁	-9570
friends	-9571
powers▁	-9572
reviews	-9573
schools	-9574
similar	-9575
winter▁	-9576
Eleanor▁	-9577
Herbert▁	-9578
adapted▁	-9579
advertis	-9580
charged▁	-9581
quantum▁	-9582
tourist▁	-9583
Broadway▁	-9584
Buddhist▁	-9585
Michelle▁	-9586
identity▁	-9587
parishes▁	-9588
thousand▁	-9589
Following▁	-9590
correspond	-9591
direction▁	-9592
molecules▁	-9593
orchestra▁	-9594
worldwide▁	-9595
|1999/00||	-9596
celebrated▁	-9597
properties▁	-9598
Afghanistan▁	-9599
Engineering▁	-9600
,0	-9601
68	-9602
ó▁	-9603
(10	-9604
59▁	-9605
Aar	-9606
Dim	-9607
Imp	-9608
Isa	-9609
Mim	-9610
Pel	-9611
Sat	-9612
UTC	-9613
Wer	-9614
bed	-9615
niv	-9616
10.▁	-9617
77,▁	-9618
Abu▁	-9619
Are▁	-9620
Barn	-9621
Chel	-9622
Guin	-9623
Hugh	-9624
Leop	-9625
Mamm	-9626
Ross	-9627
Thor	-9628
dict	-9629
dwar	-9630
ious	-9631
uss▁	-9632
1–200	-9633
Emman	-9634
Loire	-9635
anni▁	-9636
ating	-9637
ello▁	-9638
force	-9639
knew▁	-9640
labor	-9641
lose▁	-9642
pair▁	-9643
stock	-9644
1933)▁	-9645
1934)▁	-9646
Voice▁	-9647
(1997)▁	-9648
Action▁	-9649
Castle▁	-9650
Virgin▁	-9651
fields▁	-9652
judges▁	-9653
killer▁	-9654
slowly▁	-9655
Chamber▁	-9656
Nicaragu	-9657
Simpson▁	-9658
Aviation▁	-9659
colleges▁	-9660
guitarist	-9661
Socialist▁	-9662
conditions	-9663
depression	-9664
prisoners▁	-9665
Adventures▁	-9666
documentary▁	-9667
JS	-9668
MO	-9669
!"▁	-9670
%.▁	-9671
159	-9672
Chi	-9673
Lay	-9674
Viv	-9675
fat	-9676
iph	-9677
mud	-9678
ule	-9679
86,▁	-9680
Abor	-9681
Isab	-9682
Pand	-9683
Schw	-9684
Toge	-9685
Vend	-9686
Week	-9687
een▁	-9688
eful	-9689
oda▁	-9690
ords	-9691
osa▁	-9692
sta▁	-9693
surr	-9694
Back▁	-9695
Hauts	-9696
Joan▁	-9697
Kate▁	-9698
coron	-9699
disci	-9700
ected	-9701
fans▁	-9702
link▁	-9703
weak▁	-9704
èche▁	-9705
Cuban▁	-9706
Field▁	-9707
Museum	-9708
Origin	-9709
Oscar▁	-9710
Those▁	-9711
Uncle▁	-9712
Using▁	-9713
arrest	-9714
assemb	-9715
daught	-9716
inned▁	-9717
lison▁	-9718
prize▁	-9719
punish	-9720
sters▁	-9721
tives▁	-9722
Environ	-9723
Flight▁	-9724
Google▁	-9725
abbrevi	-9726
another	-9727
billion	-9728
citizen	-9729
endron▁	-9730
illing▁	-9731
minutes	-9732
network	-9733
origin▁	-9734
throne▁	-9735
Maurice▁	-9736
Vincent▁	-9737
overall▁	-9738
purpose▁	-9739
Category▁	-9740
Hamilton▁	-9741
Salzburg▁	-9742
promoted▁	-9743
Aquitaine▁	-9744
Catholics▁	-9745
depending▁	-9746
Background▁	-9747
Mississippi	-9748
Volleyball▁	-9749
kilometres▁	-9750
nomination▁	-9751
pronounced▁	-9752
CS	-9753
ja	-9754
120	-9755
53▁	-9756
Edi	-9757
Got	-9758
Jay	-9759
Kaw	-9760
Kol	-9761
Tou	-9762
ote	-9763
1800	-9764
Fron	-9765
Kang	-9766
Scar	-9767
aid▁	-9768
ark▁	-9769
boil	-9770
egov	-9771
ias▁	-9772
modi	-9773
oul▁	-9774
tax▁	-9775
uma▁	-9776
Again	-9777
Spenc	-9778
Times	-9779
Young	-9780
abad▁	-9781
achi▁	-9782
bone▁	-9783
brief	-9784
dress	-9785
exact	-9786
ifer▁	-9787
safe▁	-9788
sets▁	-9789
|1997	-9790
1928)▁	-9791
1974)▁	-9792
1981)▁	-9793
1987.▁	-9794
2009)▁	-9795
Andrew	-9796
chose▁	-9797
compon	-9798
extra▁	-9799
guard▁	-9800
inters	-9801
maker▁	-9802
rated▁	-9803
reason	-9804
(1993)▁	-9805
(2013)▁	-9806
Bosnia▁	-9807
British	-9808
Morgan▁	-9809
Russian	-9810
anyone▁	-9811
marked▁	-9812
policy▁	-9813
priest▁	-9814
writing	-9815
Pokémon▁	-9816
amounts▁	-9817
injured▁	-9818
maximum▁	-9819
talking▁	-9820
Colleges▁	-9821
Croatian▁	-9822
Saturday▁	-9823
alphabet▁	-9824
centuries	-9825
ceremony▁	-9826
extended▁	-9827
inspired▁	-9828
painters▁	-9829
academics▁	-9830
physician▁	-9831
Paralympic▁	-9832
46	-9833
DC	-9834
Fo	-9835
PR	-9836
(09	-9837
Laz	-9838
Let	-9839
Row	-9840
aj▁	-9841
cha	-9842
erc	-9843
few	-9844
igu	-9845
oto	-9846
sew	-9847
Beau	-9848
Fish	-9849
Know	-9850
Ned▁	-9851
bin▁	-9852
clar	-9853
idae	-9854
iki▁	-9855
spin	-9856
vote	-9857
2–200	-9858
7–200	-9859
Baby▁	-9860
Cardi	-9861
Iron▁	-9862
Just▁	-9863
Prize	-9864
Tokyo	-9865
adapt	-9866
asks▁	-9867
concl	-9868
enge▁	-9869
eums▁	-9870
forms	-9871
miner	-9872
peak▁	-9873
premi	-9874
1926)▁	-9875
1995,▁	-9876
Essex▁	-9877
Guatem	-9878
Trump▁	-9879
breed▁	-9880
cards▁	-9881
crash▁	-9882
drums▁	-9883
eless▁	-9884
eness▁	-9885
ients▁	-9886
moons▁	-9887
orbit▁	-9888
portun	-9889
roads▁	-9890
Austin▁	-9891
Boeing▁	-9892
affect▁	-9893
iology▁	-9894
patent▁	-9895
stands▁	-9896
storms▁	-9897
theolog	-9898
Physics▁	-9899
Private▁	-9900
Schools▁	-9901
ections▁	-9902
forming▁	-9903
soldiers	-9904
companies	-9905
mountains	-9906
commission	-9907
organisms▁	-9908
permanent▁	-9909
tournament	-9910
astronomer▁	-9911
philosophy▁	-9912
recognition▁	-9913
98	-9914
Mü	-9915
Uz	-9916
Ye	-9917
tu	-9918
?"▁	-9919
Cot	-9920
Gur	-9921
kar	-9922
pep	-9923
rib	-9924
Kron	-9925
Leuc	-9926
NWA▁	-9927
arms	-9928
aza▁	-9929
cath	-9930
edo▁	-9931
expe	-9932
help	-9933
Agric	-9934
Aude▁	-9935
Hindu	-9936
Peter	-9937
Shang	-9938
Yokoh	-9939
aband	-9940
eved▁	-9941
owner	-9942
rough	-9943
shows	-9944
warm▁	-9945
weigh	-9946
1970)▁	-9947
1975.▁	-9948
2005)▁	-9949
Baron▁	-9950
Norman	-9951
Osaka▁	-9952
Region	-9953
Rhode▁	-9954
hands▁	-9955
master	-9956
meets▁	-9957
teeth▁	-9958
Allier▁	-9959
Atlanta	-9960
Julius▁	-9961
Places▁	-9962
Romans▁	-9963
Sultan▁	-9964
chance▁	-9965
changes	-9966
doctor▁	-9967
faster▁	-9968
global▁	-9969
height▁	-9970
islands	-9971
runner▁	-9972
signal▁	-9973
|1999||	-9974
Hiroshim	-9975
captain▁	-9976
content▁	-9977
doctors▁	-9978
forests▁	-9979
function	-9980
lawyers▁	-9981
mystery▁	-9982
perhaps▁	-9983
quality▁	-9984
reasons▁	-9985
reports▁	-9986
strength	-9987
Champion▁	-9988
Children▁	-9989
executed▁	-9990
historian	-9991
shooting▁	-9992
electrons▁	-9993
expensive▁	-9994
passenger▁	-9995
therefore▁	-9996
Association	-9997
resistance▁	-9998
spacecraft▁	-9999
Atlantiques▁	-10000
environment▁	-10001
Christianity▁	-10002
97	-10003
Yu	-10004
oa	-10005
rd	-10006
Bry	-10007
ads	-10008
ao▁	-10009
bis	-10010
dou	-10011
iPh	-10012
shr	-10013
81,▁	-10014
Cook	-10015
Elli	-10016
Guy▁	-10017
Inst	-10018
Kong	-10019
Live	-10020
agas	-10021
alli	-10022
dram	-10023
eggs	-10024
gang	-10025
hair	-10026
idea	-10027
oxid	-10028
Baden	-10029
Baham	-10030
Labor	-10031
Marc▁	-10032
Thorn	-10033
boss▁	-10034
draw▁	-10035
execu	-10036
fair▁	-10037
gate▁	-10038
idad▁	-10039
lock▁	-10040
ware▁	-10041
wild▁	-10042
|1995	-10043
1938)▁	-10044
Guide▁	-10045
Maine▁	-10046
Mohamm	-10047
Parish	-10048
Sydney	-10049
cross▁	-10050
ocese▁	-10051
qualif	-10052
rivers	-10053
steel▁	-10054
turns▁	-10055
Claude▁	-10056
Manuel▁	-10057
flying▁	-10058
percuss	-10059
physics	-10060
prince▁	-10061
scholar	-10062
screen▁	-10063
tified▁	-10064
|2003||	-10065
Harvard▁	-10066
Herzegov	-10067
Results▁	-10068
library▁	-10069
regarded▁	-10070
straight▁	-10071
strength▁	-10072
Hampshire▁	-10073
Indianapol	-10074
Manhattan▁	-10075
economist▁	-10076
functions▁	-10077
mythology▁	-10078
residents▁	-10079
university	-10080
competition	-10081
presenters▁	-10082
Bangladeshi▁	-10083
Conservative▁	-10084
biographical▁	-10085
NY	-10086
Nô	-10087
•▁	-10088
Bes	-10089
Cli	-10090
Coc	-10091
Fay	-10092
Gam	-10093
Joy	-10094
McC	-10095
Sty	-10096
cum	-10097
fly	-10098
qui	-10099
tab	-10100
3||3	-10101
75,▁	-10102
DOT▁	-10103
Shaw	-10104
Ten▁	-10105
Vent	-10106
Yank	-10107
amph	-10108
copy	-10109
dish	-10110
doub	-10111
egg▁	-10112
gay▁	-10113
map▁	-10114
sett	-10115
sun▁	-10116
true	-10117
5–200	-10118
6||1▁	-10119
Multi	-10120
Queen	-10121
Soul▁	-10122
award	-10123
hours	-10124
trees	-10125
tual▁	-10126
utsch	-10127
volum	-10128
young	-10129
1981.▁	-10130
1988.▁	-10131
1998,▁	-10132
Auverg	-10133
accept	-10134
basis▁	-10135
encour	-10136
foods▁	-10137
graph▁	-10138
icals▁	-10139
marry▁	-10140
report	-10141
result	-10142
tools▁	-10143
usive▁	-10144
(1990)▁	-10145
Galaxy▁	-10146
Louise▁	-10147
Montgom	-10148
Square▁	-10149
Sunday▁	-10150
adding▁	-10151
chester	-10152
ephone▁	-10153
peaked▁	-10154
rating▁	-10155
rocket▁	-10156
silent▁	-10157
Actress▁	-10158
Armenia▁	-10159
Players▁	-10160
classic▁	-10161
cyclone▁	-10162
distingu	-10163
existed▁	-10164
illegal▁	-10165
marriage	-10166
require▁	-10167
typical▁	-10168
Animated▁	-10169
Chemical▁	-10170
Cultural▁	-10171
anything▁	-10172
hundreds▁	-10173
iversary▁	-10174
Roosevelt▁	-10175
dangerous▁	-10176
suggested▁	-10177
Additional▁	-10178
identified▁	-10179
respectively	-10180
Bibliography▁	-10181
successfully▁	-10182
||0||0||0||0||	-10183
58	-10184
Oz	-10185
#1▁	-10186
95▁	-10187
Ein	-10188
Hus	-10189
Kas	-10190
Pep	-10191
Won	-10192
abs	-10193
zi▁	-10194
18.▁	-10195
79,▁	-10196
Bank	-10197
Brab	-10198
Jay▁	-10199
July	-10200
Lloy	-10201
Shad	-10202
amer	-10203
disp	-10204
draf	-10205
mud▁	-10206
outl	-10207
porn	-10208
rad▁	-10209
thm▁	-10210
turn	-10211
unt▁	-10212
wick	-10213
||2▁	-10214
Camp▁	-10215
Glasg	-10216
Ivan▁	-10217
Mahar	-10218
Moon▁	-10219
Twin▁	-10220
Very▁	-10221
alleg	-10222
aver▁	-10223
drums	-10224
inaug	-10225
inher	-10226
rell▁	-10227
tube▁	-10228
ucks▁	-10229
1980.▁	-10230
Corps▁	-10231
Shakes	-10232
Summer	-10233
audio▁	-10234
joins▁	-10235
marks▁	-10236
virus▁	-10237
Arabic▁	-10238
Energy▁	-10239
Oliver▁	-10240
armies▁	-10241
colors▁	-10242
critics	-10243
guilty▁	-10244
husband	-10245
phrase▁	-10246
rement▁	-10247
review▁	-10248
support	-10249
|2007||	-10250
Ardèche▁	-10251
Defense▁	-10252
Release▁	-10253
Shakespe	-10254
Working▁	-10255
challeng	-10256
contribu	-10257
illness▁	-10258
industry	-10259
trained▁	-10260
ultural▁	-10261
Argentina	-10262
Historic▁	-10263
Singapore	-10264
assigned▁	-10265
believes▁	-10266
capacity▁	-10267
discrimin	-10268
releases▁	-10269
Liverpool▁	-10270
electoral▁	-10271
involving▁	-10272
movements▁	-10273
sentenced▁	-10274
Collection▁	-10275
containing▁	-10276
information	-10277
popularity▁	-10278
settlement▁	-10279
Lamborghini▁	-10280
Commissioner▁	-10281
Organization▁	-10282
Professional▁	-10283
CP	-10284
Kō	-10285
Q▁	-10286
fo	-10287
ht	-10288
ih	-10289
''▁	-10290
->▁	-10291
Ble	-10292
End	-10293
Mix	-10294
ech	-10295
lag	-10296
rej	-10297
Area	-10298
Auth	-10299
Gang	-10300
arts	-10301
dit▁	-10302
hero	-10303
hypo	-10304
ods▁	-10305
onic	-10306
osis	-10307
rule	-10308
sist	-10309
skel	-10310
1906▁	-10311
Citiz	-10312
Greek	-10313
Unter	-10314
arter	-10315
iest▁	-10316
keys▁	-10317
rail▁	-10318
soul▁	-10319
teams	-10320
veter	-10321
1935)▁	-10322
1940)▁	-10323
1982)▁	-10324
1984)▁	-10325
1993,▁	-10326
5,000▁	-10327
Aborig	-10328
Dallas	-10329
Hardy▁	-10330
Idaho▁	-10331
Leucad	-10332
Small▁	-10333
Valley	-10334
ector▁	-10335
fired▁	-10336
happy▁	-10337
youth▁	-10338
(1989)▁	-10339
Animal▁	-10340
Arnold▁	-10341
Saturn▁	-10342
claims▁	-10343
thinks▁	-10344
throat▁	-10345
Economy▁	-10346
helping▁	-10347
ibility▁	-10348
magazine	-10349
measure▁	-10350
onomous▁	-10351
Malaysia▁	-10352
churches▁	-10353
occupied▁	-10354
Orchestra▁	-10355
Singapore▁	-10356
knowledge▁	-10357
Paralympics	-10358
mathematics	-10359
passengers▁	-10360
prefecture▁	-10361
continental▁	-10362
translation▁	-10363
Leucadendron▁	-10364
broadcasters▁	-10365
conservative▁	-10366
southeastern▁	-10367
Lad	-10368
Mrs	-10369
Tic	-10370
Utt	-10371
cav	-10372
ll▁	-10373
vib	-10374
wig	-10375
-20▁	-10376
6||3	-10377
ABC▁	-10378
Bomb	-10379
Bush	-10380
Dog▁	-10381
June	-10382
Mann	-10383
Test	-10384
Vern	-10385
agan	-10386
argu	-10387
embr	-10388
fort	-10389
otam	-10390
pist	-10391
sand	-10392
unit	-10393
1000▁	-10394
3–200	-10395
4–200	-10396
Bond▁	-10397
Days▁	-10398
Hyde▁	-10399
James	-10400
Male▁	-10401
Treas	-10402
camp▁	-10403
doesn	-10404
hole▁	-10405
metal	-10406
note▁	-10407
opher	-10408
sleep	-10409
thin▁	-10410
ually	-10411
1927)▁	-10412
1943)▁	-10413
9||0||	-10414
Bobby▁	-10415
Bryan▁	-10416
Nancy▁	-10417
Squad▁	-10418
apart▁	-10419
factor	-10420
magnit	-10421
queen▁	-10422
wealth	-10423
Number▁	-10424
launch▁	-10425
officer	-10426
twelve▁	-10427
volume▁	-10428
collabor	-10429
exactly▁	-10430
fielder▁	-10431
improve▁	-10432
portion▁	-10433
Hercules▁	-10434
category▁	-10435
violence▁	-10436
Commander▁	-10437
Nuremberg▁	-10438
atistical▁	-10439
computers▁	-10440
cricketer▁	-10441
transgender▁	-10442
NE	-10443
OS	-10444
62▁	-10445
Dog	-10446
Edu	-10447
KO▁	-10448
anz	-10449
une	-10450
unt	-10451
én▁	-10452
16.▁	-10453
Jon▁	-10454
Path	-10455
Sick	-10456
Suic	-10457
Work	-10458
alia	-10459
anda	-10460
ends	-10461
oki▁	-10462
seat	-10463
shir	-10464
1897▁	-10465
1902▁	-10466
Aubin	-10467
Bible	-10468
Cruz▁	-10469
Hebre	-10470
Kelly	-10471
Lost▁	-10472
Picar	-10473
Tibet	-10474
drew▁	-10475
escop	-10476
hall▁	-10477
pengu	-10478
puts▁	-10479
rape▁	-10480
1942)▁	-10481
1972)▁	-10482
1972.▁	-10483
1992,▁	-10484
2022)▁	-10485
Keith▁	-10486
acker▁	-10487
ancest	-10488
codes▁	-10489
enburg	-10490
integr	-10491
oster▁	-10492
Nevada▁	-10493
burned▁	-10494
complic	-10495
counter	-10496
Suffolk▁	-10497
massive▁	-10498
refused▁	-10499
remember	-10500
scholar▁	-10501
seventh▁	-10502
Picardie▁	-10503
invasion▁	-10504
Cleveland▁	-10505
Electoral▁	-10506
authority▁	-10507
manufactur	-10508
novelists▁	-10509
definition▁	-10510
historians▁	-10511
playwright▁	-10512
67	-10513
AT	-10514
Gw	-10515
41▁	-10516
Bru	-10517
Cad	-10518
Coh	-10519
Kos	-10520
Tul	-10521
Wea	-10522
aci	-10523
eno	-10524
eye	-10525
(185	-10526
74,▁	-10527
80,▁	-10528
93,▁	-10529
Apol	-10530
Bull	-10531
Due▁	-10532
Hein	-10533
Lear	-10534
Lock	-10535
Shah	-10536
Tang	-10537
USD▁	-10538
Win▁	-10539
ampl	-10540
cust	-10541
deal	-10542
five	-10543
fold	-10544
hip▁	-10545
ners	-10546
ould	-10547
rez▁	-10548
urb▁	-10549
warm	-10550
1899▁	-10551
Jazz▁	-10552
Luke▁	-10553
Maps▁	-10554
There	-10555
bill▁	-10556
cats▁	-10557
door▁	-10558
ging▁	-10559
itus▁	-10560
large	-10561
stone	-10562
strip	-10563
tall▁	-10564
tons▁	-10565
unda▁	-10566
Album▁	-10567
Front▁	-10568
Labor▁	-10569
Mongol	-10570
Moore▁	-10571
Terry▁	-10572
banks▁	-10573
effect	-10574
males▁	-10575
museum	-10576
rural▁	-10577
slave▁	-10578
spirit	-10579
10,000▁	-10580
Airport	-10581
October	-10582
distinc	-10583
losing▁	-10584
lyrics▁	-10585
painter	-10586
pianist	-10587
poetry▁	-10588
profit▁	-10589
reasons	-10590
sitcom▁	-10591
stones▁	-10592
Abraham▁	-10593
Buffalo▁	-10594
Duchess▁	-10595
Wallace▁	-10596
casting▁	-10597
command▁	-10598
however▁	-10599
Marshall▁	-10600
politics▁	-10601
supposed▁	-10602
parliament▁	-10603
protection▁	-10604
Encyclopedia▁	-10605
Ax	-10606
hl	-10607
si	-10608
ı▁	-10609
))▁	-10610
58▁	-10611
Box	-10612
Hes	-10613
Ish	-10614
Neg	-10615
anx	-10616
gam	-10617
pub	-10618
ña▁	-10619
().▁	-10620
92,▁	-10621
Far▁	-10622
Foot	-10623
Lake	-10624
Mind	-10625
Pied	-10626
avir	-10627
enth	-10628
fit▁	-10629
infl	-10630
ipe▁	-10631
mand	-10632
mind	-10633
Activ	-10634
Hugh▁	-10635
Nucle	-10636
Wolf▁	-10637
glass	-10638
rett▁	-10639
sing▁	-10640
stret	-10641
1925)▁	-10642
1929)▁	-10643
1944)▁	-10644
1979)▁	-10645
Birds▁	-10646
Cardin	-10647
Ellen▁	-10648
Villa▁	-10649
Westph	-10650
bourg▁	-10651
boxer▁	-10652
osaur▁	-10653
poems▁	-10654
price▁	-10655
(1992)▁	-10656
Hawaii▁	-10657
Queens▁	-10658
Society	-10659
Windsor	-10660
belong▁	-10661
choice▁	-10662
colony▁	-10663
eighth▁	-10664
thetic▁	-10665
Empress▁	-10666
Fantasy▁	-10667
Festival	-10668
Holland▁	-10669
Malaysia	-10670
Stewart▁	-10671
Village▁	-10672
Without▁	-10673
classes▁	-10674
communic	-10675
degrees▁	-10676
extinct▁	-10677
families	-10678
governor	-10679
victory▁	-10680
Anderson▁	-10681
Giovanni▁	-10682
incumbent	-10683
medieval▁	-10684
oretical▁	-10685
structure	-10686
Amendment▁	-10687
Jefferson▁	-10688
conquered▁	-10689
defensive▁	-10690
officials▁	-10691
physicists▁	-10692
organisation▁	-10693
EF	-10694
és	-10695
Bus	-10696
Low	-10697
Mom	-10698
Rat	-10699
cro	-10700
ici	-10701
iro	-10702
és▁	-10703
90.▁	-10704
Elev	-10705
Ferg	-10706
Floy	-10707
Hans	-10708
Peru	-10709
Proc	-10710
Stil	-10711
Vari	-10712
amp▁	-10713
cris	-10714
eign	-10715
iah▁	-10716
ido▁	-10717
kins	-10718
rout	-10719
slav	-10720
3–199	-10721
Attor	-10722
Greg▁	-10723
Jose▁	-10724
Lisa▁	-10725
Marri	-10726
Miami	-10727
Retri	-10728
Rick▁	-10729
Shah▁	-10730
Taipe	-10731
ager▁	-10732
aria▁	-10733
chann	-10734
facil	-10735
legs▁	-10736
mart▁	-10737
tail▁	-10738
third	-10739
video	-10740
wore▁	-10741
|1994	-10742
1930)▁	-10743
1932)▁	-10744
1947)▁	-10745
1969.▁	-10746
1973.▁	-10747
Aberde	-10748
Craig▁	-10749
Cumbri	-10750
Helen▁	-10751
Judge▁	-10752
Punjab	-10753
Screen	-10754
Short▁	-10755
Urban▁	-10756
archae	-10757
centre	-10758
deaths	-10759
false▁	-10760
gather	-10761
guide▁	-10762
league	-10763
nomine	-10764
obtain	-10765
outer▁	-10766
sized▁	-10767
switch	-10768
valley	-10769
Jackie▁	-10770
Stuart▁	-10771
Triple▁	-10772
episode	-10773
headed▁	-10774
measure	-10775
phones▁	-10776
stories	-10777
|1998/9	-10778
|2002||	-10779
Ecuador▁	-10780
Maryland	-10781
granted▁	-10782
traffic▁	-10783
vehicle▁	-10784
Francisco	-10785
Jennifer▁	-10786
Sometimes	-10787
Symphony▁	-10788
measured▁	-10789
pictures▁	-10790
Parliament	-10791
Vancouver▁	-10792
converted▁	-10793
producing▁	-10794
publisher▁	-10795
resulting▁	-10796
terrorist▁	-10797
Interstate▁	-10798
relatively▁	-10799
Czechoslovak	-10800
Cardiovascular▁	-10801
,8	-10802
Lé	-10803
ét	-10804
→▁	-10805
(3▁	-10806
1%▁	-10807
Ara	-10808
Hin	-10809
Pos	-10810
Rhy	-10811
bol	-10812
je▁	-10813
92.▁	-10814
Cric	-10815
Crow	-10816
Mend	-10817
Prom	-10818
Ted▁	-10819
bell	-10820
carr	-10821
conn	-10822
fron	-10823
inth	-10824
isol	-10825
itar	-10826
mill	-10827
mph▁	-10828
uba▁	-10829
vin▁	-10830
Bowl▁	-10831
Cuba▁	-10832
Jesus	-10833
Neigh	-10834
Schol	-10835
Tradi	-10836
Wind▁	-10837
acle▁	-10838
baby▁	-10839
benef	-10840
cles▁	-10841
craft	-10842
dolph	-10843
horiz	-10844
poem▁	-10845
tune▁	-10846
1924)▁	-10847
1977)▁	-10848
1979.▁	-10849
2000)▁	-10850
2004)▁	-10851
Chess▁	-10852
Child▁	-10853
Guardi	-10854
Madrid	-10855
Palace	-10856
elect▁	-10857
parks▁	-10858
plate▁	-10859
poison	-10860
seems▁	-10861
sister	-10862
ullah▁	-10863
Female▁	-10864
Justin▁	-10865
Renaiss	-10866
Richard	-10867
Syrian▁	-10868
copper▁	-10869
failed▁	-10870
offers▁	-10871
regions	-10872
seasons	-10873
tested▁	-10874
writes▁	-10875
Honours▁	-10876
Manipur▁	-10877
Portugal	-10878
Tourism▁	-10879
drivers▁	-10880
focused▁	-10881
Barcelona	-10882
Florence▁	-10883
Therefore	-10884
allowing▁	-10885
attached▁	-10886
clothing▁	-10887
diplomat▁	-10888
diseases▁	-10889
disorder▁	-10890
exchange▁	-10891
orchestra	-10892
physicist	-10893
Barcelona▁	-10894
Bulgarian▁	-10895
Different▁	-10896
Ferdinand▁	-10897
Revolution	-10898
production	-10899
Production▁	-10900
indigenous▁	-10901
mathematics▁	-10902
Revolutionary▁	-10903
AI	-10904
FB	-10905
v▁	-10906
а▁	-10907
(2▁	-10908
500	-10909
96▁	-10910
Add	-10911
Blo	-10912
Hat	-10913
Kid	-10914
Kre	-10915
Vit	-10916
amo	-10917
aya	-10918
chr	-10919
etz	-10920
gau	-10921
jun	-10922
ogy	-10923
peo	-10924
17.▁	-10925
6;"▁	-10926
Edin	-10927
Orlé	-10928
Rick	-10929
Tran	-10930
aft▁	-10931
ason	-10932
bush	-10933
tre▁	-10934
Bull▁	-10935
Short	-10936
Uses▁	-10937
Vaud▁	-10938
ader▁	-10939
aust▁	-10940
bles▁	-10941
dale▁	-10942
oned▁	-10943
rely▁	-10944
step▁	-10945
wrong	-10946
1941)▁	-10947
1976.▁	-10948
1980)▁	-10949
1991,▁	-10950
2002)▁	-10951
2003)▁	-10952
Daily▁	-10953
Frogs▁	-10954
Hills▁	-10955
Iraqi▁	-10956
Slovak	-10957
agent▁	-10958
breath	-10959
compil	-10960
doctor	-10961
epage▁	-10962
expans	-10963
forces	-10964
locomo	-10965
(2012)▁	-10966
Artist▁	-10967
Harvey▁	-10968
January	-10969
Munich▁	-10970
Others▁	-10971
acceler	-10972
ancing▁	-10973
arding▁	-10974
atomic▁	-10975
colour▁	-10976
destruc	-10977
ficial▁	-10978
flower▁	-10979
idency▁	-10980
solute▁	-10981
weapon▁	-10982
Clinton▁	-10983
Norfolk▁	-10984
Oklahoma	-10985
Rolling▁	-10986
Wilhelm▁	-10987
airline▁	-10988
engines▁	-10989
goalkeep	-10990
herself▁	-10991
imprison	-10992
partner▁	-10993
stomach▁	-10994
violent▁	-10995
Mountains	-10996
internal▁	-10997
sentence▁	-10998
suggests▁	-10999
Chemistry▁	-11000
Foundation	-11001
Paramount▁	-11002
Technical▁	-11003
equipment▁	-11004
satellite▁	-11005
tradition▁	-11006
Opposition▁	-11007
Pittsburgh▁	-11008
graduating▁	-11009
kilometers▁	-11010
IR	-11011
ck	-11012
lu	-11013
Ant	-11014
Dix	-11015
Kil	-11016
Six	-11017
Sug	-11018
hop	-11019
ph▁	-11020
20)▁	-11021
4||3	-11022
Ain▁	-11023
Bass	-11024
Chan	-11025
Elis	-11026
Iowa	-11027
Lion	-11028
Lomb	-11029
att▁	-11030
bet▁	-11031
bie▁	-11032
eno▁	-11033
heim	-11034
kind	-11035
ras▁	-11036
shel	-11037
1896▁	-11038
Born▁	-11039
Faceb	-11040
IPCC▁	-11041
KDOT▁	-11042
Peru▁	-11043
Serge	-11044
alone	-11045
asha▁	-11046
brand	-11047
farm▁	-11048
feld▁	-11049
hear▁	-11050
ichi▁	-11051
navig	-11052
pole▁	-11053
solid	-11054
walk▁	-11055
1,000▁	-11056
1937)▁	-11057
1939)▁	-11058
1948)▁	-11059
1970.▁	-11060
1975)▁	-11061
1985.▁	-11062
Emily▁	-11063
Marath	-11064
Nepal▁	-11065
Oxford	-11066
Susan▁	-11067
autobi	-11068
better	-11069
column	-11070
flies▁	-11071
races▁	-11072
1968),▁	-11073
Ethnic▁	-11074
Global▁	-11075
Manipur	-11076
Trophy▁	-11077
breaks▁	-11078
descent	-11079
eating▁	-11080
motion▁	-11081
waters▁	-11082
Constitu	-11083
Finland▁	-11084
Phoenix▁	-11085
Program▁	-11086
Provence	-11087
Romania▁	-11088
Studies▁	-11089
formula▁	-11090
keeping▁	-11091
martial▁	-11092
wearing▁	-11093
Database▁	-11094
Pulitzer▁	-11095
Robinson▁	-11096
September	-11097
Wikipedia	-11098
advanced▁	-11099
colonial▁	-11100
constant▁	-11101
credited▁	-11102
elections	-11103
neighbour	-11104
resulted▁	-11105
scientist	-11106
Azerbaijan	-11107
decisions▁	-11108
presenter▁	-11109
secondary▁	-11110
combination▁	-11111
educational▁	-11112
governments▁	-11113
mathematical▁	-11114
municipalities	-11115
philanthropist	-11116
precipitation▁	-11117
32	-11118
wo	-11119
Da▁	-11120
Sey	-11121
Tod	-11122
Tyl	-11123
arl	-11124
cot	-11125
kov	-11126
lid	-11127
tac	-11128
||5	-11129
78,▁	-11130
7||3	-11131
82,▁	-11132
83.▁	-11133
Bail	-11134
Conc	-11135
Eve▁	-11136
Get▁	-11137
Hess	-11138
VII▁	-11139
bow▁	-11140
gian	-11141
imag	-11142
olo▁	-11143
pool	-11144
8–200	-11145
After	-11146
Arsen	-11147
Capit	-11148
Jacob	-11149
Pengu	-11150
advoc	-11151
analy	-11152
dogs▁	-11153
ento▁	-11154
illo▁	-11155
oxide	-11156
roll▁	-11157
spot▁	-11158
1931)▁	-11159
1936)▁	-11160
1969)▁	-11161
Atlas▁	-11162
Bridge	-11163
Franz▁	-11164
Sound▁	-11165
driver	-11166
floor▁	-11167
ically	-11168
logic▁	-11169
motor▁	-11170
object	-11171
points	-11172
stroke	-11173
Ernest▁	-11174
Walker▁	-11175
camera▁	-11176
discipl	-11177
ranges▁	-11178
rarely▁	-11179
thrown▁	-11180
|1997||	-11181
Catholic	-11182
Crystal▁	-11183
División	-11184
Journal▁	-11185
Regions▁	-11186
Sherman▁	-11187
battles▁	-11188
fishing▁	-11189
idental▁	-11190
interpre	-11191
mixture▁	-11192
persons▁	-11193
reaches▁	-11194
Complete▁	-11195
Delaware▁	-11196
Lebanese▁	-11197
Manhattan	-11198
Vladimir▁	-11199
analysis▁	-11200
calendar▁	-11201
locality▁	-11202
pneumonia	-11203
studying▁	-11204
vehicles▁	-11205
Holocaust▁	-11206
Retrieved▁	-11207
mechanics▁	-11208
principal▁	-11209
reference▁	-11210
candidates▁	-11211
individuals▁	-11212
3/	-11213
4/	-11214
ji	-11215
py	-11216
zi	-11217
(14	-11218
ED▁	-11219
Kap	-11220
Lau	-11221
Sad	-11222
Wes	-11223
Who	-11224
ea▁	-11225
oke	-11226
oxy	-11227
rey	-11228
sev	-11229
tap	-11230
ury	-11231
Nept	-11232
Poly	-11233
bird	-11234
elle	-11235
esa▁	-11236
ewor	-11237
flow	-11238
icop	-11239
iga▁	-11240
omag	-11241
unci	-11242
wig▁	-11243
zed▁	-11244
Admir	-11245
Cambo	-11246
Maxim	-11247
Rose▁	-11248
Titan	-11249
alism	-11250
ality	-11251
atory	-11252
coat▁	-11253
crime	-11254
eleph	-11255
eless	-11256
fuel▁	-11257
iter▁	-11258
label	-11259
meat▁	-11260
ocol▁	-11261
oppon	-11262
plane	-11263
table	-11264
1960)▁	-11265
1974.▁	-11266
1978)▁	-11267
1983.▁	-11268
Berkel	-11269
Clark▁	-11270
Disney	-11271
Dream▁	-11272
Getty▁	-11273
Shangh	-11274
United	-11275
Wonder	-11276
adors▁	-11277
ammar▁	-11278
dimens	-11279
eased▁	-11280
enses▁	-11281
hawks▁	-11282
homes▁	-11283
regist	-11284
spoke▁	-11285
(1987)▁	-11286
1955),▁	-11287
1983),▁	-11288
Arctic▁	-11289
Houston	-11290
Indiana	-11291
Library	-11292
impress	-11293
lowest▁	-11294
target▁	-11295
ternal▁	-11296
unable▁	-11297
Alberto▁	-11298
Kentucky	-11299
Wichita▁	-11300
coastal▁	-11301
decision	-11302
destroy▁	-11303
electron	-11304
Harrison▁	-11305
Philippe▁	-11306
athletes▁	-11307
breaking▁	-11308
medalist▁	-11309
relative▁	-11310
visitors▁	-11311
committee▁	-11312
educators▁	-11313
organization	-11314
arrondissements▁	-11315
96	-11316
IC	-11317
NO	-11318
ár	-11319
än	-11320
--▁	-11321
77▁	-11322
Abh	-11323
Bil	-11324
Esc	-11325
Hog	-11326
Nok	-11327
Obl	-11328
Rou	-11329
Sle	-11330
WWE	-11331
bra	-11332
coc	-11333
eor	-11334
ums	-11335
Cret	-11336
Foss	-11337
Fred	-11338
Publ	-11339
Shin	-11340
Sind	-11341
Toul	-11342
eyes	-11343
fan▁	-11344
idel	-11345
ipel	-11346
nor▁	-11347
née▁	-11348
sel▁	-11349
uki▁	-11350
1892▁	-11351
1898▁	-11352
Anglo	-11353
Antar	-11354
Aube▁	-11355
Babyl	-11356
Cook▁	-11357
ISIS▁	-11358
Sebas	-11359
Sony▁	-11360
antin	-11361
divis	-11362
elli▁	-11363
emen▁	-11364
gain▁	-11365
gone▁	-11366
inum▁	-11367
sees▁	-11368
while	-11369
1957)▁	-11370
Delhi▁	-11371
Forest	-11372
Ghost▁	-11373
Hotel▁	-11374
Julie▁	-11375
Lanka▁	-11376
Lorenz	-11377
Right▁	-11378
Route▁	-11379
ament▁	-11380
astic▁	-11381
enger▁	-11382
nature	-11383
recomm	-11384
shore▁	-11385
Benedic	-11386
Friday▁	-11387
Garden▁	-11388
William	-11389
belief▁	-11390
enberg▁	-11391
meaning	-11392
partly▁	-11393
reduce▁	-11394
Edition▁	-11395
Movement	-11396
Nuclear▁	-11397
address▁	-11398
alphabet	-11399
amental▁	-11400
constell	-11401
forward▁	-11402
Movement▁	-11403
Services▁	-11404
Theodore▁	-11405
Thompson▁	-11406
Venezuela	-11407
arranged▁	-11408
festival▁	-11409
parallel▁	-11410
possibly▁	-11411
requires▁	-11412
Classical▁	-11413
Goldenrod▁	-11414
attempted▁	-11415
collected▁	-11416
Chancellor▁	-11417
Electronic▁	-11418
operations▁	-11419
supporting▁	-11420
Westminster▁	-11421
immediately▁	-11422
progressive▁	-11423
2/	-11424
Iw	-11425
ú▁	-11426
.”▁	-11427
1,0	-11428
BAF	-11429
Gul	-11430
Mam	-11431
Nou	-11432
Pay	-11433
UN▁	-11434
Ura	-11435
bay	-11436
had	-11437
ira	-11438
lap	-11439
lip	-11440
lob	-11441
neb	-11442
pig	-11443
12)▁	-11444
8||3	-11445
Bhag	-11446
Clay	-11447
Cypr	-11448
Das▁	-11449
List	-11450
Pack	-11451
RNA▁	-11452
Zamb	-11453
ancy	-11454
else	-11455
fung	-11456
icy▁	-11457
infr	-11458
isph	-11459
mic▁	-11460
reci	-11461
rel▁	-11462
ries	-11463
ros▁	-11464
term	-11465
tip▁	-11466
1864▁	-11467
1909▁	-11468
Food▁	-11469
Lion▁	-11470
Nutt▁	-11471
Palat	-11472
Scott	-11473
Vishn	-11474
antic	-11475
below	-11476
mind▁	-11477
risk▁	-11478
ument	-11479
wheel	-11480
1920)▁	-11481
1946)▁	-11482
1967)▁	-11483
1983)▁	-11484
Nickel	-11485
Polish	-11486
Quebec	-11487
Tasman	-11488
Venus▁	-11489
alone▁	-11490
berry▁	-11491
catch▁	-11492
ention	-11493
erate▁	-11494
extinc	-11495
future	-11496
liver▁	-11497
offer▁	-11498
thick▁	-11499
weight	-11500
||||||	-11501
1986),▁	-11502
remain▁	-11503
string▁	-11504
suburb▁	-11505
|1996/9	-11506
Baldwin▁	-11507
Gabriel▁	-11508
Thailand	-11509
activity	-11510
ectures▁	-11511
invited▁	-11512
joining▁	-11513
oration▁	-11514
products	-11515
slavery▁	-11516
||0||0||	-11517
Greatest▁	-11518
Institute	-11519
Territory	-11520
Yokohama▁	-11521
bordered▁	-11522
cardinal▁	-11523
controls▁	-11524
particle▁	-11525
Colombian▁	-11526
magnitude▁	-11527
reactions▁	-11528
relations▁	-11529
philosophers▁	-11530
Unincorporated▁	-11531
43	-11532
5/	-11533
AC	-11534
Ic	-11535
RO	-11536
RT	-11537
SR	-11538
eu	-11539
-1▁	-11540
Eff	-11541
Elv	-11542
Lac	-11543
Map	-11544
NAT	-11545
Tag	-11546
een	-11547
hag	-11548
han	-11549
pm▁	-11550
uce	-11551
vin	-11552
800▁	-11553
ECW▁	-11554
Flem	-11555
Gamb	-11556
Hors	-11557
Indo	-11558
Köpp	-11559
Rein	-11560
Shep	-11561
Stri	-11562
Wend	-11563
Wii▁	-11564
base	-11565
eton	-11566
loss	-11567
lung	-11568
mini	-11569
moon	-11570
rol▁	-11571
seud	-11572
skin	-11573
spy▁	-11574
tail	-11575
ules	-11576
1863▁	-11577
Côte▁	-11578
Fall▁	-11579
Gray▁	-11580
Group	-11581
Human	-11582
Hutch	-11583
Nicol	-11584
Work▁	-11585
Zeus▁	-11586
eball	-11587
emia▁	-11588
ooth▁	-11589
pleas	-11590
tism▁	-11591
units	-11592
visa▁	-11593
1922)▁	-11594
1971.▁	-11595
1979,▁	-11596
1988,▁	-11597
Alpha▁	-11598
Henri▁	-11599
Hurric	-11600
Johann	-11601
Lists▁	-11602
Maple▁	-11603
Second	-11604
Valenc	-11605
active	-11606
colors	-11607
earth▁	-11608
ester▁	-11609
hired▁	-11610
links▁	-11611
police	-11612
prise▁	-11613
restle	-11614
tower▁	-11615
toxic▁	-11616
twenty	-11617
Tournam	-11618
chromos	-11619
dating▁	-11620
mixing▁	-11621
release	-11622
rescue▁	-11623
supply▁	-11624
twenty▁	-11625
videos▁	-11626
|1997/9	-11627
100,000▁	-11628
Chapter▁	-11629
Minister	-11630
Seattle▁	-11631
account▁	-11632
drafted▁	-11633
endings▁	-11634
nations▁	-11635
opportun	-11636
promote▁	-11637
storage▁	-11638
Orchestra	-11639
anthropol	-11640
existing▁	-11641
question▁	-11642
territory	-11643
Friedrich▁	-11644
Kurdistan▁	-11645
centuries▁	-11646
effective▁	-11647
oxidation▁	-11648
prominent▁	-11649
statesman▁	-11650
Aboriginal▁	-11651
Physiology▁	-11652
consisting▁	-11653
instrument▁	-11654
newspapers▁	-11655
entertainment▁	-11656
environmental▁	-11657
administration▁	-11658
unincorporated▁	-11659
BE	-11660
Zü	-11661
(12	-11662
Blu	-11663
CDP	-11664
Dru	-11665
Gol	-11666
Hav	-11667
Las	-11668
Lip	-11669
Nem	-11670
Yas	-11671
alk	-11672
cub	-11673
pra	-11674
say	-11675
si▁	-11676
Dick	-11677
Fame	-11678
Head	-11679
Mean	-11680
Vice	-11681
auke	-11682
eri▁	-11683
gie▁	-11684
heat	-11685
kan▁	-11686
kidn	-11687
laws	-11688
mix▁	-11689
oku▁	-11690
otyp	-11691
ska▁	-11692
trig	-11693
ttem	-11694
type	-11695
unte	-11696
1882▁	-11697
6–200	-11698
Basse	-11699
Bird▁	-11700
Campa	-11701
Heart	-11702
Leon▁	-11703
Occit	-11704
Perug	-11705
Soldi	-11706
Soon▁	-11707
Such▁	-11708
Zone▁	-11709
alry▁	-11710
ared▁	-11711
arsen	-11712
catch	-11713
disc▁	-11714
elder	-11715
fine▁	-11716
jobs▁	-11717
milk▁	-11718
minor	-11719
1978.▁	-11720
Aaron▁	-11721
BAFTA▁	-11722
Monte▁	-11723
approv	-11724
elles▁	-11725
ingly▁	-11726
legend	-11727
ridge▁	-11728
1956),▁	-11729
Cretace	-11730
Miguel▁	-11731
Planet▁	-11732
Station	-11733
Turner▁	-11734
Willie▁	-11735
apping▁	-11736
cousin▁	-11737
fiction	-11738
players	-11739
vation▁	-11740
village	-11741
violin▁	-11742
|1998||	-11743
Cornell▁	-11744
Stadium▁	-11745
educator	-11746
episodes	-11747
factory▁	-11748
falling▁	-11749
fighter▁	-11750
liberal▁	-11751
nothing▁	-11752
returns▁	-11753
shortly▁	-11754
specific	-11755
Bulgaria▁	-11756
Cambridge	-11757
Melbourne	-11758
Mitchell▁	-11759
Proposed▁	-11760
compound▁	-11761
critical▁	-11762
destroyed	-11763
equation▁	-11764
platform▁	-11765
reaching▁	-11766
scholars▁	-11767
documents▁	-11768
Mathematics▁	-11769
underground▁	-11770
Lt	-11771
ME	-11772
NC	-11773
RS	-11774
.5▁	-11775
300	-11776
Aer	-11777
Aur	-11778
BS▁	-11779
DVD	-11780
Pod	-11781
onc	-11782
Dest	-11783
Ladi	-11784
Nash	-11785
Shre	-11786
Stal	-11787
Suss	-11788
aba▁	-11789
aire	-11790
desp	-11791
enom	-11792
fix▁	-11793
flat	-11794
isa▁	-11795
oni▁	-11796
rows	-11797
suit	-11798
Dream	-11799
Eurov	-11800
Gene▁	-11801
Java▁	-11802
Lane▁	-11803
Milan	-11804
NASA▁	-11805
Space	-11806
Steel	-11807
bomb▁	-11808
brain	-11809
clean	-11810
crew▁	-11811
cryst	-11812
hurt▁	-11813
omes▁	-11814
regim	-11815
satis	-11816
syndr	-11817
trial	-11818
1918)▁	-11819
1956)▁	-11820
Drama▁	-11821
Luigi▁	-11822
Mania▁	-11823
McCart	-11824
Miller	-11825
amoto▁	-11826
inate▁	-11827
orian▁	-11828
steam▁	-11829
sweet▁	-11830
wheel▁	-11831
Agency▁	-11832
Christ▁	-11833
Denmark	-11834
General	-11835
Holland	-11836
Spirit▁	-11837
Wrestle	-11838
Württem	-11839
Yellow▁	-11840
complex	-11841
finals▁	-11842
forests	-11843
iPhone▁	-11844
library	-11845
problem	-11846
proper▁	-11847
rulers▁	-11848
ruling▁	-11849
Gregory▁	-11850
Mission▁	-11851
Spencer▁	-11852
beliefs▁	-11853
creator▁	-11854
crowned▁	-11855
novelist	-11856
psychiat	-11857
stations	-11858
tallest▁	-11859
Nickelode	-11860
audience▁	-11861
direction	-11862
networks▁	-11863
survived▁	-11864
Charlotte▁	-11865
surviving▁	-11866
Connecticut	-11867
equivalent▁	-11868
Transportation▁	-11869
,6	-11870
1:	-11871
FC	-11872
(46	-11873
(8▁	-11874
138	-11875
68▁	-11876
98▁	-11877
Haz	-11878
Lil	-11879
MEP	-11880
Rab	-11881
Roh	-11882
Sag	-11883
clo	-11884
dub	-11885
ib▁	-11886
ida	-11887
iny	-11888
oli	-11889
po▁	-11890
ras	-11891
uni	-11892
vul	-11893
(12▁	-11894
(450	-11895
Brah	-11896
Cauc	-11897
Duch	-11898
Fire	-11899
Hous	-11900
Hunt	-11901
Line	-11902
Math	-11903
Rest	-11904
Wyom	-11905
adul	-11906
carb	-11907
junc	-11908
oux▁	-11909
rix▁	-11910
trum	-11911
urg▁	-11912
100.▁	-11913
1860▁	-11914
Break	-11915
Britt	-11916
Cell▁	-11917
Cinem	-11918
Geoff	-11919
Nepal	-11920
Reich	-11921
VIII▁	-11922
Warri	-11923
astro	-11924
ately	-11925
edly▁	-11926
ended	-11927
evil▁	-11928
goalt	-11929
ingen	-11930
inhab	-11931
mile▁	-11932
onso▁	-11933
opera	-11934
path▁	-11935
print	-11936
studi	-11937
wauke	-11938
1923)▁	-11939
1961)▁	-11940
1982.▁	-11941
1988)▁	-11942
Altern	-11943
Brunsw	-11944
Congo▁	-11945
Daniel	-11946
Termin	-11947
Urawa▁	-11948
butter	-11949
cannab	-11950
contem	-11951
custom	-11952
eries▁	-11953
goods▁	-11954
layer▁	-11955
meters	-11956
naval▁	-11957
print▁	-11958
ulate▁	-11959
(1988)▁	-11960
Edmund▁	-11961
Father▁	-11962
Mayors▁	-11963
Mickey▁	-11964
Nations	-11965
Serbia▁	-11966
Warsaw▁	-11967
address	-11968
adults▁	-11969
matches	-11970
prelate	-11971
safety▁	-11972
script▁	-11973
struck▁	-11974
thesis▁	-11975
visual▁	-11976
|2009||	-11977
Intellig	-11978
decides▁	-11979
offices▁	-11980
Cemetery▁	-11981
Estonian▁	-11982
Santiago▁	-11983
Solidago▁	-11984
behavior▁	-11985
breeding▁	-11986
machines▁	-11987
stronger▁	-11988
contained▁	-11989
religions▁	-11990
technical▁	-11991
tributary▁	-11992
departments▁	-11993
northeastern▁	-11994
controversial▁	-11995
Administrative▁	-11996
classification▁	-11997
,5	-11998
44	-11999
Aj	-12000
BS	-12001
ku	-12002
(68	-12003
173	-12004
99▁	-12005
DJ▁	-12006
Dew	-12007
Fon	-12008
Had	-12009
Hok	-12010
ISB	-12011
Neu	-12012
Put	-12013
Tos	-12014
oba	-12015
tum	-12016
won	-12017
850▁	-12018
Alum	-12019
Angl	-12020
Can▁	-12021
Chur	-12022
Dead	-12023
Gand	-12024
Girl	-12025
Han▁	-12026
Hook	-12027
Less	-12028
Lope	-12029
Muss	-12030
Must	-12031
Raw▁	-12032
Son▁	-12033
Tamp	-12034
Wein	-12035
dale	-12036
hill	-12037
reun	-12038
sess	-12039
sure	-12040
1873▁	-12041
1883▁	-12042
1890▁	-12043
5||2▁	-12044
Azur▁	-12045
Ball▁	-12046
Carth	-12047
Davis	-12048
Rico▁	-12049
effor	-12050
goals	-12051
laid▁	-12052
parti	-12053
soap▁	-12054
soil▁	-12055
speed	-12056
|1991	-12057
ères▁	-12058
1951)▁	-12059
1958)▁	-12060
1962)▁	-12061
1966)▁	-12062
1987)▁	-12063
1990,▁	-12064
Antarc	-12065
Ernst▁	-12066
Haiti▁	-12067
Heavy▁	-12068
Meiji▁	-12069
Tyrol▁	-12070
Vienna	-12071
angry▁	-12072
circum	-12073
dollar	-12074
iness▁	-12075
kness▁	-12076
lakes▁	-12077
phosph	-12078
propos	-12079
raped▁	-12080
restor	-12081
sales▁	-12082
shall▁	-12083
signs▁	-12084
spring	-12085
walls▁	-12086
(2016)▁	-12087
1971),▁	-12088
Caesar▁	-12089
Comedy▁	-12090
Dragon▁	-12091
Forces▁	-12092
Hudson▁	-12093
Kennedy	-12094
Princip	-12095
Weston▁	-12096
Wright▁	-12097
ballet▁	-12098
banned▁	-12099
deputy▁	-12100
estone▁	-12101
fossil▁	-12102
holder▁	-12103
inches▁	-12104
instruc	-12105
kidney▁	-12106
require	-12107
scenes▁	-12108
styles▁	-12109
tistic▁	-12110
treaty▁	-12111
Cameron▁	-12112
Colorado	-12113
Milwauke	-12114
November	-12115
colored▁	-12116
defense▁	-12117
devices▁	-12118
driving▁	-12119
elements	-12120
opposed▁	-12121
passing▁	-12122
possible	-12123
roughly▁	-12124
saxophon	-12125
spelled▁	-12126
wrestler	-12127
carrying▁	-12128
important	-12129
organisms	-12130
sculptor▁	-12131
supports▁	-12132
Executive▁	-12133
Macedonia▁	-12134
Yorkshire▁	-12135
frequency▁	-12136
nicknamed▁	-12137
potential▁	-12138
revolution	-12139
provincial▁	-12140
retirement▁	-12141
Azerbaijani▁	-12142
Constitution	-12143
description▁	-12144
performances▁	-12145
AK	-12146
AL	-12147
mm	-12148
118	-12149
Ces	-12150
Fra	-12151
Myr	-12152
Nas	-12153
PC▁	-12154
Suz	-12155
Swi	-12156
Was	-12157
aku	-12158
gym	-12159
ić▁	-12160
ogr	-12161
120▁	-12162
15.▁	-12163
76,▁	-12164
Ages	-12165
Bran	-12166
Chev	-12167
Cuba	-12168
Die▁	-12169
Gulf	-12170
Key▁	-12171
Kuwa	-12172
Pat▁	-12173
bert	-12174
emer	-12175
gio▁	-12176
herb	-12177
icon	-12178
ized	-12179
rifl	-12180
(2019	-12181
1862▁	-12182
Bruss	-12183
Hull▁	-12184
Kurt▁	-12185
Much▁	-12186
Pack▁	-12187
Rodri	-12188
Smack	-12189
Start	-12190
ares▁	-12191
cards	-12192
copy▁	-12193
deer▁	-12194
faith	-12195
feed▁	-12196
icks▁	-12197
iden▁	-12198
inus▁	-12199
remov	-12200
urbs▁	-12201
1921)▁	-12202
1960,▁	-12203
1963)▁	-12204
1985,▁	-12205
Adolf▁	-12206
Crime▁	-12207
Dance▁	-12208
Floyd▁	-12209
George	-12210
Harris	-12211
Lopez▁	-12212
María▁	-12213
Milan▁	-12214
Obama▁	-12215
Patric	-12216
Sulliv	-12217
Woman▁	-12218
ernal▁	-12219
opened	-12220
sleep▁	-12221
specim	-12222
spend▁	-12223
stick▁	-12224
talks▁	-12225
throw▁	-12226
trait▁	-12227
yellow	-12228
1976),▁	-12229
Eugene▁	-12230
Madagas	-12231
golden▁	-12232
ination	-12233
mammals	-12234
objects	-12235
toward▁	-12236
Anderson	-12237
Beijing▁	-12238
centenar	-12239
chamber▁	-12240
communes	-12241
derived▁	-12242
shorter▁	-12243
Brooklyn▁	-12244
Cardinal▁	-12245
Napoleon▁	-12246
chemistry	-12247
nickname▁	-12248
railroad▁	-12249
residents	-12250
Slovenian▁	-12251
Southeast▁	-12252
economics▁	-12253
existence▁	-12254
ographics▁	-12255
recipient▁	-12256
scheduled▁	-12257
situation▁	-12258
technique▁	-12259
Indigenous▁	-12260
Outstanding▁	-12261
subtropical▁	-12262
northwestern▁	-12263
31	-12264
Fu	-12265
MC	-12266
Vä	-12267
Alf	-12268
Buk	-12269
Fig	-12270
GB▁	-12271
Qur	-12272
Spo	-12273
Vil	-12274
cem	-12275
cup	-12276
cyc	-12277
ees	-12278
hip	-12279
jaw	-12280
lun	-12281
oa▁	-12282
pap	-12283
sib	-12284
som	-12285
(184	-12286
Beth	-12287
Cat▁	-12288
Grad	-12289
Half	-12290
Mugh	-12291
Ptol	-12292
Sign	-12293
Simp	-12294
akh▁	-12295
ardy	-12296
buck	-12297
ders	-12298
iny▁	-12299
like	-12300
omb▁	-12301
redi	-12302
sudd	-12303
tie▁	-12304
ubün	-12305
uro▁	-12306
1889▁	-12307
Chall	-12308
Coast	-12309
Doug▁	-12310
First	-12311
Lewis	-12312
Mass▁	-12313
Next▁	-12314
Parad	-12315
Templ	-12316
acre▁	-12317
anus▁	-12318
chore	-12319
ebra▁	-12320
eira▁	-12321
eric▁	-12322
erne▁	-12323
ingo▁	-12324
insur	-12325
often	-12326
oids▁	-12327
pages	-12328
petit	-12329
scrap	-12330
votes	-12331
1949)▁	-12332
1967.▁	-12333
1976)▁	-12334
Austin	-12335
Bachel	-12336
Betty▁	-12337
Edgar▁	-12338
Fergus	-12339
Malcol	-12340
Money▁	-12341
Nokia▁	-12342
Proper	-12343
Saturn	-12344
Sweet▁	-12345
carbon	-12346
dancer	-12347
encies	-12348
eption	-12349
forest	-12350
opens▁	-12351
phase▁	-12352
speech	-12353
worst▁	-12354
1988),▁	-12355
Graubün	-12356
Hungary	-12357
Ludwig▁	-12358
Marcus▁	-12359
Phelps▁	-12360
afterno	-12361
anthem▁	-12362
dynasty	-12363
edited▁	-12364
erical▁	-12365
finish▁	-12366
formes▁	-12367
galaxy▁	-12368
medium▁	-12369
multipl	-12370
parties	-12371
perors▁	-12372
ration▁	-12373
Extreme▁	-12374
Gilbert▁	-12375
Roberto▁	-12376
Segunda▁	-12377
birthday	-12378
details▁	-12379
extreme▁	-12380
mountain	-12381
senator▁	-12382
services	-12383
survive▁	-12384
tornado▁	-12385
Attorney▁	-12386
Committee	-12387
Philosoph	-12388
achieved▁	-12389
conductor	-12390
connects▁	-12391
different	-12392
formally▁	-12393
indicate▁	-12394
intended▁	-12395
internet▁	-12396
Normandie▁	-12397
emergency▁	-12398
ographers▁	-12399
spiritual▁	-12400
technology	-12401
Cincinnati▁	-12402
Industrial▁	-12403
personality	-12404
influential▁	-12405
architecture▁	-12406
DA	-12407
Ou	-12408
RI	-12409
cm	-12410
(6▁	-12411
Dum	-12412
Rhe	-12413
Tax	-12414
Wen	-12415
ela	-12416
izu	-12417
nur	-12418
ye▁	-12419
19.▁	-12420
70,▁	-12421
700▁	-12422
9||3	-12423
Cord	-12424
Figh	-12425
Ivan	-12426
JSL▁	-12427
Tues	-12428
cryp	-12429
ebri	-12430
iya▁	-12431
lake	-12432
neph	-12433
omi▁	-12434
oun▁	-12435
pur▁	-12436
vess	-12437
will	-12438
2||1▁	-12439
4||1▁	-12440
Bertr	-12441
Colum	-12442
Manit	-12443
Marqu	-12444
Nikol	-12445
Polo▁	-12446
Remix	-12447
Ruth▁	-12448
Starr	-12449
Thai▁	-12450
absor	-12451
afia▁	-12452
essay	-12453
iang▁	-12454
icity	-12455
media	-12456
paras	-12457
piano	-12458
shape	-12459
shop▁	-12460
thern	-12461
utes▁	-12462
1945.▁	-12463
1954)▁	-12464
1965.▁	-12465
1977.▁	-12466
1986)▁	-12467
2001)▁	-12468
Actor▁	-12469
Drake▁	-12470
Happy▁	-12471
Kazakh	-12472
Oregon	-12473
Santo▁	-12474
Steel▁	-12475
female	-12476
grows▁	-12477
houses	-12478
opotam	-12479
1974),▁	-12480
Academy	-12481
Lancash	-12482
Rogers▁	-12483
Though▁	-12484
Vendée▁	-12485
closer▁	-12486
created	-12487
hammer▁	-12488
inaugur	-12489
microsc	-12490
monary▁	-12491
quickly	-12492
sportsc	-12493
stores▁	-12494
subsequ	-12495
temple▁	-12496
timate▁	-12497
|1995/9	-12498
Express▁	-12499
Frankfur	-12500
Mayenne▁	-12501
Officer▁	-12502
Speaker▁	-12503
briefly▁	-12504
tically▁	-12505
trading▁	-12506
Anglican▁	-12507
Colombia▁	-12508
Criminal▁	-12509
Electric▁	-12510
Flanders▁	-12511
Jerusalem	-12512
Physical▁	-12513
boundary▁	-12514
observed▁	-12515
ordinary▁	-12516
provinces	-12517
sections▁	-12518
senators▁	-12519
thinking▁	-12520
Cathedral▁	-12521
Municipal▁	-12522
automatic▁	-12523
chemicals▁	-12524
statement▁	-12525
Management▁	-12526
atmosphere▁	-12527
expedition▁	-12528
threatened▁	-12529
photographer▁	-12530
GP	-12531
NG	-12532
NP	-12533
PW	-12534
eh	-12535
ès	-12536
(13	-12537
.:▁	-12538
164	-12539
94▁	-12540
Cun	-12541
Kot	-12542
Lit	-12543
Taj	-12544
mob	-12545
odi	-12546
oft	-12547
pir	-12548
tes	-12549
12.▁	-12550
Cris	-12551
Dord	-12552
Hick	-12553
Jane	-12554
Nôm▁	-12555
Past	-12556
Tong	-12557
aja▁	-12558
asa▁	-12559
bor▁	-12560
feat	-12561
gery	-12562
gods	-12563
ivod	-12564
lee▁	-12565
love	-12566
mart	-12567
narr	-12568
prop	-12569
snow	-12570
unk▁	-12571
ured	-12572
urs▁	-12573
1879▁	-12574
8||1▁	-12575
9–201	-12576
Brend	-12577
Chern	-12578
Circu	-12579
Deep▁	-12580
Diet▁	-12581
Eisen	-12582
Euro▁	-12583
Jacqu	-12584
Kyle▁	-12585
Late▁	-12586
Peruv	-12587
Round	-12588
Slam▁	-12589
athle	-12590
edes▁	-12591
eppe▁	-12592
https	-12593
none▁	-12594
prey▁	-12595
proph	-12596
teeth	-12597
trump	-12598
twin▁	-12599
uded▁	-12600
ulus▁	-12601
1919)▁	-12602
1964)▁	-12603
1986,▁	-12604
Aires▁	-12605
Large▁	-12606
Place▁	-12607
Spider	-12608
Staff▁	-12609
Transl	-12610
Years▁	-12611
ambass	-12612
anche▁	-12613
arily▁	-12614
atics▁	-12615
bones▁	-12616
consum	-12617
corrup	-12618
flower	-12619
inian▁	-12620
interf	-12621
joint▁	-12622
saint▁	-12623
shoot▁	-12624
teach▁	-12625
1962),▁	-12626
Britann	-12627
Charact	-12628
Earthqu	-12629
Mobile▁	-12630
Surrey▁	-12631
collaps	-12632
denomin	-12633
estyle▁	-12634
linear▁	-12635
reacts▁	-12636
relief▁	-12637
suicide	-12638
||2||0▁	-12639
Arabian▁	-12640
Contest▁	-12641
Maharash	-12642
carries▁	-12643
certific	-12644
cyclist▁	-12645
depends▁	-12646
diplomat	-12647
fastest▁	-12648
fossils▁	-12649
protein▁	-12650
telling▁	-12651
volcano▁	-12652
Fribourg▁	-12653
Mesopotam	-12654
Religion▁	-12655
conflict▁	-12656
covering▁	-12657
involves▁	-12658
newspaper	-12659
Occitanie▁	-12660
Reception▁	-12661
celebrate▁	-12662
increases▁	-12663
Eurovision▁	-12664
Philippine▁	-12665
Legislative▁	-12666
Indianapolis▁	-12667
Representatives	-12668
constitutional▁	-12669
philanthropist▁	-12670
9/	-12671
Dj	-12672
Hé	-12673
MV	-12674
Om	-12675
bg	-12676
ов	-12677
78▁	-12678
Big	-12679
Cec	-12680
Gav	-12681
Haj	-12682
Hea	-12683
Hod	-12684
Kra	-12685
Lot	-12686
Rut	-12687
atj	-12688
bo▁	-12689
eme	-12690
oc▁	-12691
sk▁	-12692
tia	-12693
wel	-12694
81.▁	-12695
Adri	-12696
Arts	-12697
Baro	-12698
Brow	-12699
Gay▁	-12700
Let▁	-12701
Mumb	-12702
ansk	-12703
beat	-12704
beet	-12705
came	-12706
data	-12707
ebra	-12708
golf	-12709
leg▁	-12710
lost	-12711
nest	-12712
news	-12713
rabb	-12714
sedi	-12715
tag▁	-12716
uda▁	-12717
were	-12718
Apost	-12719
Bever	-12720
Dutch	-12721
Istan	-12722
Link▁	-12723
Rhône	-12724
Sever	-12725
chair	-12726
decre	-12727
enjoy	-12728
enna▁	-12729
front	-12730
fron▁	-12731
fruit	-12732
horn▁	-12733
ideas	-12734
issa▁	-12735
rive▁	-12736
scand	-12737
vous▁	-12738
weeks	-12739
wick▁	-12740
1994)▁	-12741
1995)▁	-12742
2022,▁	-12743
Contin	-12744
Dakota	-12745
Delta▁	-12746
Edwin▁	-12747
Geneva	-12748
Julia▁	-12749
Philip	-12750
Tales▁	-12751
anime▁	-12752
cathed	-12753
circul	-12754
idence	-12755
orders	-12756
sword▁	-12757
tious▁	-12758
touch▁	-12759
1947),▁	-12760
1967),▁	-12761
1979),▁	-12762
Deutsch	-12763
Dynasty	-12764
Michel▁	-12765
Service	-12766
changed	-12767
climate	-12768
fights▁	-12769
insects	-12770
married	-12771
mining▁	-12772
shares▁	-12773
talked▁	-12774
workers	-12775
||1||0▁	-12776
Artists▁	-12777
Brooklyn	-12778
Canadian	-12779
Leonard▁	-12780
Morning▁	-12781
crashes▁	-12782
evolved▁	-12783
flowers▁	-12784
graphic▁	-12785
minister	-12786
politics	-12787
programs	-12788
surgery▁	-12789
swimmer▁	-12790
wedding▁	-12791
Democrat▁	-12792
Facebook▁	-12793
absolute▁	-12794
computers	-12795
confused▁	-12796
contribut	-12797
interview	-12798
measures▁	-12799
teachers▁	-12800
universe▁	-12801
Pittsburgh	-12802
abilities▁	-12803
astronaut▁	-12804
comedians▁	-12805
offensive▁	-12806
omagnetic▁	-12807
Progressive▁	-12808
constructed▁	-12809
theoretical▁	-12810
Broadcasting▁	-12811
Demographics▁	-12812
geographical▁	-12813
intelligence▁	-12814
DE	-12815
Ek	-12816
ua	-12817
(15	-12818
-2▁	-12819
2%▁	-12820
76▁	-12821
81▁	-12822
93▁	-12823
="8	-12824
Arr	-12825
Bug	-12826
Dow	-12827
Duk	-12828
Koh	-12829
Lun	-12830
Sta	-12831
Tir	-12832
cad	-12833
fs▁	-12834
hit	-12835
hu▁	-12836
ii▁	-12837
ku▁	-12838
rum	-12839
sey	-12840
101▁	-12841
11)▁	-12842
95,▁	-12843
Anto	-12844
Aviv	-12845
Batt	-12846
Flag	-12847
Gene	-12848
Hass	-12849
Medi	-12850
Note	-12851
Uzbe	-12852
Wess	-12853
cht▁	-12854
code	-12855
done	-12856
feld	-12857
from	-12858
gro▁	-12859
iri▁	-12860
isot	-12861
izu▁	-12862
mort	-12863
sor▁	-12864
1868▁	-12865
1880▁	-12866
1–201	-12867
Bern▁	-12868
Blanc	-12869
Brist	-12870
Dale▁	-12871
Force	-12872
Guerr	-12873
Omar▁	-12874
Pink▁	-12875
Story	-12876
Wheel	-12877
aran▁	-12878
arian	-12879
beach	-12880
botan	-12881
cliff	-12882
drum▁	-12883
earn▁	-12884
eller	-12885
else▁	-12886
etti▁	-12887
exerc	-12888
fare▁	-12889
hail▁	-12890
icon▁	-12891
judge	-12892
ović▁	-12893
peace	-12894
store	-12895
tral▁	-12896
usion	-12897
1950)▁	-12898
1978,▁	-12899
1985)▁	-12900
1989)▁	-12901
Archae	-12902
Assist	-12903
Heaven	-12904
Naval▁	-12905
Never▁	-12906
Randy▁	-12907
Saxony	-12908
Wings▁	-12909
atoms▁	-12910
atures	-12911
bodies	-12912
crete▁	-12913
fewer▁	-12914
hormon	-12915
hyperb	-12916
penins	-12917
tests▁	-12918
victor	-12919
wrong▁	-12920
(2014)▁	-12921
Command	-12922
Hitler▁	-12923
Murphy▁	-12924
Murray▁	-12925
appoint	-12926
beyond▁	-12927
bgcolor	-12928
ceremon	-12929
defend▁	-12930
ivodesh	-12931
landed▁	-12932
pulled▁	-12933
severe▁	-12934
Defence▁	-12935
Mammals▁	-12936
ativity▁	-12937
circuit▁	-12938
escaped▁	-12939
exposed▁	-12940
finding▁	-12941
flights▁	-12942
healthy▁	-12943
hunting▁	-12944
isation▁	-12945
keyboard	-12946
military	-12947
partial▁	-12948
protest▁	-12949
telescop	-12950
walking▁	-12951
Cleveland	-12952
Magazine▁	-12953
Software▁	-12954
chemists▁	-12955
concerts▁	-12956
coronavir	-12957
identify▁	-12958
obtained▁	-12959
speakers▁	-12960
strongly▁	-12961
Arlington▁	-12962
Government	-12963
Siegfried▁	-12964
successful	-12965
|2004/05||	-12966
Alexandria▁	-12967
Montgomery▁	-12968
Queensland▁	-12969
connection▁	-12970
determined▁	-12971
management▁	-12972
recipients▁	-12973
remembered▁	-12974
Ambassadors▁	-12975
Performance▁	-12976
independence	-12977
Intelligence▁	-12978
WrestleMania▁	-12979
applications▁	-12980
constitution▁	-12981
communication▁	-12982
mathematicians▁	-12983
Eb	-12984
Ec	-12985
Of	-12986
Sv	-12987
WC	-12988
pm	-12989
yo	-12990
å▁	-12991
(5▁	-12992
Ced	-12993
Gan	-12994
Guy	-12995
Meh	-12996
Nan	-12997
Nol	-12998
Suk	-12999
alu	-13000
eb▁	-13001
fal	-13002
iod	-13003
lot	-13004
nos	-13005
ora	-13006
urn	-13007
uty	-13008
(183	-13009
Bagh	-13010
Cair	-13011
Coff	-13012
Form	-13013
Fres	-13014
Kais	-13015
Latv	-13016
Mast	-13017
aks▁	-13018
aná▁	-13019
bull	-13020
iba▁	-13021
onds	-13022
rap▁	-13023
seem	-13024
sidi	-13025
="8"|	-13026
Champ	-13027
Clay▁	-13028
Come▁	-13029
Data▁	-13030
Hard▁	-13031
Hills	-13032
Kent▁	-13033
Newsp	-13034
Reed▁	-13035
admir	-13036
ferti	-13037
geon▁	-13038
heart	-13039
iller	-13040
leaf▁	-13041
math▁	-13042
merch	-13043
notic	-13044
oshi▁	-13045
races	-13046
rules	-13047
sover	-13048
tled▁	-13049
tles▁	-13050
tool▁	-13051
1991)▁	-13052
Achiev	-13053
Along▁	-13054
Canter	-13055
Isaac▁	-13056
Jacob▁	-13057
Norse▁	-13058
Rural▁	-13059
System	-13060
aches▁	-13061
anner▁	-13062
asaki▁	-13063
enforc	-13064
evich▁	-13065
faces▁	-13066
grass▁	-13067
ither▁	-13068
keeps▁	-13069
stops▁	-13070
target	-13071
titles	-13072
tribe▁	-13073
1948),▁	-13074
1957),▁	-13075
1958),▁	-13076
1964),▁	-13077
Charles	-13078
Hannah▁	-13079
History	-13080
Leslie▁	-13081
Parker▁	-13082
Saints▁	-13083
Sidney▁	-13084
Springs	-13085
account	-13086
breast▁	-13087
economy	-13088
electro	-13089
enters▁	-13090
impact▁	-13091
letters	-13092
output▁	-13093
partner	-13094
rhythm▁	-13095
stages▁	-13096
Android▁	-13097
Auvergne	-13098
Courage▁	-13099
Cricket▁	-13100
Georges▁	-13101
Hamilton	-13102
Internet	-13103
Jeffrey▁	-13104
Lawrence	-13105
Malcolm▁	-13106
Springs▁	-13107
Through▁	-13108
Version▁	-13109
alition▁	-13110
correct▁	-13111
despite▁	-13112
engaged▁	-13113
evening▁	-13114
hearing▁	-13115
reduced▁	-13116
Jurassic▁	-13117
Peruvian▁	-13118
distinct▁	-13119
household	-13120
memorial▁	-13121
minority▁	-13122
Directory▁	-13123
Olympians▁	-13124
Victorian▁	-13125
explosion▁	-13126
molecular▁	-13127
qualified▁	-13128
roduction▁	-13129
synthesis▁	-13130
soundtrack▁	-13131
Construction▁	-13132
contemporary▁	-13133
evolutionary▁	-13134
introduction▁	-13135
temperatures▁	-13136
(0.	-13137
156	-13138
3%▁	-13139
Ast	-13140
Cly	-13141
Kay	-13142
Lub	-13143
Pab	-13144
Sop	-13145
Tap	-13146
Wed	-13147
Wit	-13148
ima	-13149
lia	-13150
lys	-13151
sy▁	-13152
unn	-13153
yo▁	-13154
1910	-13155
73,▁	-13156
88.▁	-13157
94,▁	-13158
Amar	-13159
Blin	-13160
Box▁	-13161
Incl	-13162
Judi	-13163
MTV▁	-13164
Oak▁	-13165
Rhin	-13166
Scoo	-13167
Ster	-13168
Tanz	-13169
Tel▁	-13170
aca▁	-13171
atol	-13172
dogs	-13173
ener	-13174
ien▁	-13175
irs▁	-13176
ises	-13177
legs	-13178
midd	-13179
mid▁	-13180
prob	-13181
shut	-13182
wash	-13183
wich	-13184
1884▁	-13185
1891▁	-13186
7||2▁	-13187
9||1▁	-13188
Books	-13189
Coron	-13190
Dame▁	-13191
Fair▁	-13192
Latin	-13193
Lilli	-13194
Refor	-13195
Syria	-13196
Wang▁	-13197
addic	-13198
asts▁	-13199
final	-13200
hara▁	-13201
inder	-13202
knock	-13203
mouse	-13204
orith	-13205
pick▁	-13206
sand▁	-13207
stric	-13208
1952)▁	-13209
1955)▁	-13210
1959)▁	-13211
1970,▁	-13212
1984,▁	-13213
2006:▁	-13214
Ahmed▁	-13215
Batman	-13216
Cayce▁	-13217
Glenn▁	-13218
Munich	-13219
Olympi	-13220
Point▁	-13221
Thomas	-13222
acked▁	-13223
drawn▁	-13224
exact▁	-13225
genre▁	-13226
hills▁	-13227
ician▁	-13228
istics	-13229
rival▁	-13230
skull▁	-13231
symbol	-13232
tempor	-13233
(1985)▁	-13234
1950),▁	-13235
1960),▁	-13236
1978),▁	-13237
Future▁	-13238
Individ	-13239
Safety▁	-13240
athlete	-13241
batter▁	-13242
eleven▁	-13243
estate▁	-13244
founded	-13245
itions▁	-13246
metals▁	-13247
narrow▁	-13248
openly▁	-13249
skills▁	-13250
traded▁	-13251
|1991/9	-13252
|1996||	-13253
Bradley▁	-13254
Edwards▁	-13255
Kashmir▁	-13256
Sickles▁	-13257
Windsor▁	-13258
archive▁	-13259
dioxide▁	-13260
explain▁	-13261
largely▁	-13262
ocolate▁	-13263
pattern▁	-13264
pioneer▁	-13265
plastic▁	-13266
therapy▁	-13267
tillery▁	-13268
attorney▁	-13269
disaster▁	-13270
executive	-13271
patients▁	-13272
Beautiful▁	-13273
goddesses▁	-13274
classified▁	-13275
democratic▁	-13276
leadership▁	-13277
philosopher	-13278
publishing▁	-13279
2||0||0||0||	-13280
Christianity	-13281
collections▁	-13282
mathematician	-13283
relationships▁	-13284
traditionally▁	-13285
6/	-13286
Ci	-13287
(7▁	-13288
113	-13289
115	-13290
7"|	-13291
85▁	-13292
Civ	-13293
Ess	-13294
Fis	-13295
Kul	-13296
Led	-13297
Lic	-13298
Mou	-13299
NFL	-13300
Pea	-13301
VB▁	-13302
fi▁	-13303
reb	-13304
uff	-13305
13)▁	-13306
71,▁	-13307
79.▁	-13308
80.▁	-13309
95.▁	-13310
Bish	-13311
CNN▁	-13312
Gius	-13313
Gran	-13314
Snow	-13315
Taur	-13316
Yang	-13317
abad	-13318
ager	-13319
aux▁	-13320
cha▁	-13321
doll	-13322
fear	-13323
ife▁	-13324
jet▁	-13325
lia▁	-13326
lips	-13327
oya▁	-13328
sati	-13329
||18	-13330
2||2▁	-13331
3–201	-13332
="7"|	-13333
Chart	-13334
Code▁	-13335
Creek	-13336
Dolph	-13337
Hope▁	-13338
Kids▁	-13339
Pete▁	-13340
Take▁	-13341
ector	-13342
etes▁	-13343
eway▁	-13344
expos	-13345
gross	-13346
iege▁	-13347
infin	-13348
itta▁	-13349
mail▁	-13350
ogne▁	-13351
orus▁	-13352
ought	-13353
roles	-13354
thal▁	-13355
total	-13356
twice	-13357
|1993	-13358
1917)▁	-13359
1964.▁	-13360
1968)▁	-13361
1968.▁	-13362
1989,▁	-13363
1998)▁	-13364
Areas▁	-13365
Belle▁	-13366
Calend	-13367
Darwin	-13368
Fantas	-13369
Linda▁	-13370
Mechan	-13371
Metro▁	-13372
Perry▁	-13373
Stock▁	-13374
amorph	-13375
awards	-13376
cester	-13377
consec	-13378
ellect	-13379
eville	-13380
fresh▁	-13381
itter▁	-13382
ively▁	-13383
kings▁	-13384
pairs▁	-13385
promot	-13386
rapid▁	-13387
status	-13388
(1977)▁	-13389
(2015)▁	-13390
1970),▁	-13391
1982),▁	-13392
Hunter▁	-13393
Jupiter	-13394
Ladies▁	-13395
Notting	-13396
Program	-13397
alpine▁	-13398
ampton▁	-13399
answer▁	-13400
beauty▁	-13401
command	-13402
display	-13403
domain▁	-13404
ingredi	-13405
kingdom	-13406
moment▁	-13407
records	-13408
recover	-13409
remove▁	-13410
rowing▁	-13411
stable▁	-13412
surgery	-13413
weather	-13414
|1995||	-13415
Dorothy▁	-13416
Jessica▁	-13417
Universe	-13418
Winners▁	-13419
clothes▁	-13420
connect▁	-13421
creates▁	-13422
defeats▁	-13423
effectiv	-13424
penalty▁	-13425
strange▁	-13426
Building▁	-13427
Election▁	-13428
Fernando▁	-13429
Hollywood	-13430
Sardinia▁	-13431
acquired▁	-13432
agencies▁	-13433
chloride▁	-13434
presenter	-13435
reporter▁	-13436
Medalists▁	-13437
Reference▁	-13438
appearing▁	-13439
attracted▁	-13440
childhood▁	-13441
disorders▁	-13442
Atlantique▁	-13443
Protestant▁	-13444
criticized▁	-13445
frequently▁	-13446
opposition▁	-13447
performance	-13448
||||||||||1	-13449
Renaissance▁	-13450
radioactive▁	-13451
assassination▁	-13452
,7	-13453
66	-13454
Ud	-13455
gi	-13456
')▁	-13457
400	-13458
72▁	-13459
Dob	-13460
Jas	-13461
Kyr	-13462
Mey	-13463
TC▁	-13464
aco	-13465
akk	-13466
enh	-13467
mas	-13468
oce	-13469
sop	-13470
sts	-13471
(11▁	-13472
(22▁	-13473
250▁	-13474
84.▁	-13475
Cand	-13476
Chât	-13477
Cont	-13478
Imag	-13479
Mack	-13480
Mad▁	-13481
Perp	-13482
Piet	-13483
Pill	-13484
Pred	-13485
Stic	-13486
Stur	-13487
WWF▁	-13488
aan▁	-13489
atar	-13490
ify▁	-13491
lon▁	-13492
omo▁	-13493
onym	-13494
ooth	-13495
rat▁	-13496
repl	-13497
stal	-13498
trag	-13499
wave	-13500
1850▁	-13501
1887▁	-13502
April	-13503
Chile	-13504
Full▁	-13505
Guang	-13506
Judy▁	-13507
Lead▁	-13508
Make▁	-13509
NASCA	-13510
Whist	-13511
arra▁	-13512
chron	-13513
coup▁	-13514
drugs	-13515
flew▁	-13516
maker	-13517
mera▁	-13518
neck▁	-13519
nest▁	-13520
oons▁	-13521
seek▁	-13522
vary▁	-13523
1966.▁	-13524
Bruno▁	-13525
Carol▁	-13526
Centre	-13527
Comput	-13528
Freud▁	-13529
Molly▁	-13530
Resour	-13531
Rican▁	-13532
Tyler▁	-13533
Volcan	-13534
Woods▁	-13535
anger▁	-13536
concep	-13537
consol	-13538
heads▁	-13539
loved▁	-13540
loves▁	-13541
medium	-13542
middle	-13543
osaurs	-13544
owski▁	-13545
oxygen	-13546
strip▁	-13547
uscrip	-13548
(2017)▁	-13549
1944),▁	-13550
1985),▁	-13551
Barack▁	-13552
Celtic▁	-13553
Chronic	-13554
Giants▁	-13555
Seattle	-13556
Sister▁	-13557
agency▁	-13558
artists	-13559
aveleng	-13560
certain	-13561
comics▁	-13562
eldest▁	-13563
garden▁	-13564
uality▁	-13565
Assembly	-13566
Glasgow▁	-13567
Madison▁	-13568
Picture▁	-13569
aircraft	-13570
algorith	-13571
authors▁	-13572
cooking▁	-13573
horizont	-13574
patient▁	-13575
pronunci	-13576
trouble▁	-13577
operates▁	-13578
prepared▁	-13579
prisoner▁	-13580
transfer▁	-13581
traveled▁	-13582
Economics▁	-13583
Peninsula▁	-13584
franchise▁	-13585
infection▁	-13586
initially▁	-13587
premiered▁	-13588
Dictionary▁	-13589
adaptation▁	-13590
originated▁	-13591
authorities▁	-13592
broadcaster▁	-13593
experienced▁	-13594
legislators▁	-13595
neighborhood▁	-13596
understanding▁	-13597
Bj	-13598
DM	-13599
Ré	-13600
ye	-13601
ás	-13602
74▁	-13603
BE▁	-13604
Bac	-13605
Cit	-13606
ESP	-13607
Hob	-13608
IX▁	-13609
Ves	-13610
Vul	-13611
aro	-13612
fab	-13613
ios	-13614
85.▁	-13615
87.▁	-13616
Cros	-13617
Jagu	-13618
Rap▁	-13619
Rob▁	-13620
Thre	-13621
Vauc	-13622
aill	-13623
anas	-13624
anes	-13625
cars	-13626
din▁	-13627
hail	-13628
har▁	-13629
iel▁	-13630
illy	-13631
make	-13632
opol	-13633
phas	-13634
sey▁	-13635
soft	-13636
thal	-13637
1865▁	-13638
1886▁	-13639
3||1▁	-13640
Aires	-13641
Autom	-13642
Brad▁	-13643
FIVB▁	-13644
Fish▁	-13645
Ghana	-13646
Girls	-13647
Hood▁	-13648
Luna▁	-13649
Monro	-13650
Osaka	-13651
Winst	-13652
amend	-13653
anger	-13654
bold▁	-13655
exual	-13656
forec	-13657
istan	-13658
laus▁	-13659
lives	-13660
nell▁	-13661
salt▁	-13662
uttle	-13663
1996)▁	-13664
André▁	-13665
Baker▁	-13666
Comics	-13667
Guard▁	-13668
Guinea	-13669
Hindi▁	-13670
Hispan	-13671
Joseph	-13672
Master	-13673
Names▁	-13674
Pearl▁	-13675
Rishi▁	-13676
Rugby▁	-13677
Schles	-13678
bishop	-13679
cultiv	-13680
effici	-13681
fixed▁	-13682
iders▁	-13683
meter▁	-13684
plain▁	-13685
sends▁	-13686
shark▁	-13687
source	-13688
uding▁	-13689
uncle▁	-13690
ushed▁	-13691
1951),▁	-13692
1972),▁	-13693
1973),▁	-13694
1975),▁	-13695
1987),▁	-13696
Adrian▁	-13697
Andrea▁	-13698
Apollo▁	-13699
Frances	-13700
Freeman	-13701
Naples▁	-13702
Nigeria	-13703
Northum	-13704
Punjab▁	-13705
Report▁	-13706
Sarthe▁	-13707
Ticino▁	-13708
alcohol	-13709
campus▁	-13710
dementi	-13711
descend	-13712
earlier	-13713
fielder	-13714
filmed▁	-13715
follows	-13716
legend▁	-13717
minute▁	-13718
owners▁	-13719
project	-13720
scheme▁	-13721
slaves▁	-13722
student	-13723
values▁	-13724
Archive▁	-13725
Astronom	-13726
Brother▁	-13727
Director	-13728
Friends▁	-13729
Stories▁	-13730
Writing▁	-13731
amateur▁	-13732
arrives▁	-13733
bassist▁	-13734
brothers	-13735
burning▁	-13736
closest▁	-13737
consider	-13738
crossed▁	-13739
disorder	-13740
factors▁	-13741
features	-13742
mammals▁	-13743
operate▁	-13744
belonged▁	-13745
bringing▁	-13746
distribut	-13747
educated▁	-13748
feelings▁	-13749
hurricane	-13750
interpret	-13751
movements	-13752
presence▁	-13753
projects▁	-13754
somewhat▁	-13755
Adventure▁	-13756
Cardinals▁	-13757
Lithuania▁	-13758
communist▁	-13759
conscious▁	-13760
expansion▁	-13761
portrayed▁	-13762
selection▁	-13763
strongest▁	-13764
|2001/02||	-13765
Characters▁	-13766
Lithuanian▁	-13767
Supporting▁	-13768
lieutenant▁	-13769
mechanical▁	-13770
constitution	-13771
agricultural▁	-13772
championships▁	-13773
,9	-13774
7/	-13775
AA	-13776
73▁	-13777
Dyl	-13778
Fav	-13779
Kah	-13780
Kok	-13781
Lop	-13782
Mob	-13783
Old	-13784
auc	-13785
bub	-13786
fit	-13787
ize	-13788
(240	-13789
20.▁	-13790
72,▁	-13791
Bhut	-13792
Chal	-13793
Farm	-13794
IOC▁	-13795
Inte	-13796
Junc	-13797
Qual	-13798
Tele	-13799
Warr	-13800
both	-13801
hour	-13802
lets	-13803
los▁	-13804
once	-13805
ores	-13806
pot▁	-13807
rice	-13808
smok	-13809
valu	-13810
want	-13811
||20	-13812
1893▁	-13813
1–199	-13814
2–199	-13815
9–199	-13816
Boys▁	-13817
Clark	-13818
Films	-13819
Have▁	-13820
Holid	-13821
Hugo▁	-13822
Inves	-13823
Roll▁	-13824
Salt▁	-13825
Sean▁	-13826
Simil	-13827
Snow▁	-13828
Thurs	-13829
Years	-13830
auer▁	-13831
bred▁	-13832
etery	-13833
ledge	-13834
legal	-13835
mone▁	-13836
ninet	-13837
olar▁	-13838
phone	-13839
root▁	-13840
sters	-13841
tware	-13842
ushim	-13843
wides	-13844
1963.▁	-13845
1964,▁	-13846
1993)▁	-13847
Chuck▁	-13848
Chula▁	-13849
Cooper	-13850
Juvent	-13851
Somers	-13852
bling▁	-13853
borne▁	-13854
crown▁	-13855
easily	-13856
endra▁	-13857
entin▁	-13858
etary▁	-13859
faced▁	-13860
leaves	-13861
limit▁	-13862
oured▁	-13863
sharp▁	-13864
shell▁	-13865
(1982)▁	-13866
(1986)▁	-13867
1940),▁	-13868
1945),▁	-13869
1963),▁	-13870
1969),▁	-13871
Allied▁	-13872
Arabia▁	-13873
Charts▁	-13874
Hebrew▁	-13875
Leagues	-13876
Models▁	-13877
Mughal▁	-13878
Orleans	-13879
Record▁	-13880
hausen▁	-13881
ograph▁	-13882
organs▁	-13883
percent	-13884
seeing▁	-13885
|1994/9	-13886
(1999).▁	-13887
Advance▁	-13888
Circuit▁	-13889
Classic▁	-13890
December	-13891
Fiction▁	-13892
Flemish▁	-13893
Lebanon▁	-13894
Liberty▁	-13895
Nigeria▁	-13896
calling▁	-13897
citizen▁	-13898
collect▁	-13899
competit	-13900
document	-13901
firearm▁	-13902
monster▁	-13903
notably▁	-13904
powered▁	-13905
respect▁	-13906
spotted▁	-13907
suggest▁	-13908
testing▁	-13909
viruses▁	-13910
Alliance▁	-13911
Arrondiss	-13912
Benedict▁	-13913
Geoffrey▁	-13914
Together▁	-13915
abilities	-13916
available	-13917
civilian▁	-13918
colonies▁	-13919
consider▁	-13920
entirely▁	-13921
franchise	-13922
keyboard▁	-13923
planning▁	-13924
Evolution▁	-13925
Prefecture	-13926
explained▁	-13927
|2007/08||	-13928
Hurricanes▁	-13929
techniques▁	-13930
theologian▁	-13931
Statistical▁	-13932
championship	-13933
photography▁	-13934
Architecture▁	-13935
AP	-13936
BM	-13937
HB	-13938
Ji	-13939
Og	-13940
(1,	-13941
172	-13942
63▁	-13943
79▁	-13944
86▁	-13945
Bag	-13946
Fly	-13947
Kad	-13948
Luk	-13949
Rup	-13950
Tah	-13951
Yuk	-13952
aga	-13953
ffr	-13954
gs▁	-13955
kes	-13956
oka	-13957
wet	-13958
-17▁	-13959
Amph	-13960
Bast	-13961
Car▁	-13962
Corr	-13963
Der▁	-13964
Ford	-13965
Hels	-13966
Jeop	-13967
Juda	-13968
Kirk	-13969
Niss	-13970
Pall	-13971
Sank	-13972
Sky▁	-13973
Tric	-13974
Val▁	-13975
aker	-13976
alt▁	-13977
bei▁	-13978
dark	-13979
harm	-13980
kick	-13981
mati	-13982
min▁	-13983
peac	-13984
roof	-13985
sper	-13986
tong	-13987
wrec	-13988
1872▁	-13989
7–199	-13990
Blood	-13991
Budap	-13992
Chick	-13993
David	-13994
Edmon	-13995
Galer	-13996
Grant	-13997
Henri	-13998
Hokka	-13999
Month	-14000
Shizu	-14001
Teen▁	-14002
Tomat	-14003
Type▁	-14004
Vaucl	-14005
abeth	-14006
deleg	-14007
evacu	-14008
films	-14009
fresh	-14010
ility	-14011
kers▁	-14012
major	-14013
nutri	-14014
roads	-14015
think	-14016
trip▁	-14017
watch	-14018
1913)▁	-14019
1959.▁	-14020
1969,▁	-14021
1971,▁	-14022
1976,▁	-14023
1987,▁	-14024
Athens	-14025
Bermud	-14026
Castle	-14027
Commer	-14028
Dragon	-14029
Lance▁	-14030
Lloyd▁	-14031
Pierre	-14032
Singer	-14033
Valent	-14034
anatom	-14035
annon▁	-14036
bread▁	-14037
brief▁	-14038
carniv	-14039
cream▁	-14040
guaran	-14041
ighty▁	-14042
intens	-14043
likes▁	-14044
needed	-14045
newly▁	-14046
ospel▁	-14047
winter	-14048
(2018)▁	-14049
1977),▁	-14050
Arizona	-14051
Current	-14052
Design▁	-14053
Fernand	-14054
Gerald▁	-14055
Market▁	-14056
Quarter	-14057
Russell	-14058
college	-14059
cooked▁	-14060
endorf▁	-14061
format▁	-14062
limits▁	-14063
powder▁	-14064
pushed▁	-14065
voting▁	-14066
Allison▁	-14067
Commons▁	-14068
February	-14069
Hamburg▁	-14070
Manager▁	-14071
Popular▁	-14072
Portland	-14073
academic	-14074
assault▁	-14075
designer	-14076
focuses▁	-14077
housing▁	-14078
journey▁	-14079
justice▁	-14080
license▁	-14081
medicine	-14082
setting▁	-14083
theater▁	-14084
waveleng	-14085
wounded▁	-14086
Amsterdam	-14087
Giuseppe▁	-14088
Prussian▁	-14089
birthday▁	-14090
database▁	-14091
explains▁	-14092
keyboards	-14093
prostate▁	-14094
protests▁	-14095
Languages▁	-14096
Religious▁	-14097
challenge▁	-14098
disasters▁	-14099
keyboards▁	-14100
preserved▁	-14101
successor▁	-14102
volcanoes▁	-14103
Birmingham▁	-14104
Publishing▁	-14105
Scientific▁	-14106
importance▁	-14107
percussion▁	-14108
nominations▁	-14109
transferred▁	-14110
constituency▁	-14111
revolutionary▁	-14112
Communications▁	-14113
-9	-14114
8/	-14115
Có	-14116
ii	-14117
oj	-14118
|0	-14119
öl	-14120
04▁	-14121
05▁	-14122
155	-14123
4%▁	-14124
Any	-14125
Aud	-14126
Dex	-14127
Ere	-14128
Kub	-14129
NBA	-14130
Sha	-14131
Vin	-14132
Voy	-14133
avo	-14134
dal	-14135
dee	-14136
edo	-14137
eli	-14138
fea	-14139
gov	-14140
ila	-14141
isc	-14142
pas	-14143
sta	-14144
sul	-14145
tid	-14146
vac	-14147
(10▁	-14148
(18▁	-14149
64,▁	-14150
65,▁	-14151
82.▁	-14152
86.▁	-14153
Ana▁	-14154
Bear	-14155
Boul	-14156
Doub	-14157
Nadu	-14158
Sask	-14159
Sham	-14160
Utah	-14161
Why▁	-14162
aest	-14163
anks	-14164
cats	-14165
cos▁	-14166
folk	-14167
gen▁	-14168
leuk	-14169
omer	-14170
pen▁	-14171
prey	-14172
sai▁	-14173
scar	-14174
stim	-14175
0||1▁	-14176
1867▁	-14177
1894▁	-14178
Emma▁	-14179
Event	-14180
Henry	-14181
ISBN▁	-14182
Joel▁	-14183
Josh▁	-14184
Kashi	-14185
Krish	-14186
Left▁	-14187
Planc	-14188
Pompe	-14189
Sansk	-14190
above	-14191
aceae	-14192
added	-14193
alive	-14194
arith	-14195
attri	-14196
bour▁	-14197
coal▁	-14198
guez▁	-14199
holy▁	-14200
iled▁	-14201
incar	-14202
juris	-14203
laure	-14204
olith	-14205
oven▁	-14206
ports	-14207
pseud	-14208
rescu	-14209
sever	-14210
sick▁	-14211
sugar	-14212
terms	-14213
thick	-14214
wine▁	-14215
1912)▁	-14216
1966,▁	-14217
2,000▁	-14218
Carter	-14219
Celebr	-14220
Clara▁	-14221
Colin▁	-14222
Finist	-14223
Jordan	-14224
Potter	-14225
Rhodes	-14226
Rocky▁	-14227
Taylor	-14228
Terror	-14229
animal	-14230
depth▁	-14231
eenth▁	-14232
eston▁	-14233
fleet▁	-14234
issues	-14235
knows▁	-14236
matter	-14237
ninth▁	-14238
orous▁	-14239
pitch▁	-14240
reads▁	-14241
runner	-14242
sugar▁	-14243
supern	-14244
(1980)▁	-14245
Alumni▁	-14246
Martha▁	-14247
Network	-14248
Origin▁	-14249
Racing▁	-14250
Review▁	-14251
Watson▁	-14252
assium▁	-14253
eshire▁	-14254
papers▁	-14255
unlike▁	-14256
volunte	-14257
Baroque▁	-14258
Brandon▁	-14259
Cartoon▁	-14260
Colombia	-14261
Research	-14262
Stiller▁	-14263
affects▁	-14264
alcohol▁	-14265
bishops▁	-14266
courses▁	-14267
holiday▁	-14268
legally▁	-14269
nervous▁	-14270
perfect▁	-14271
quarter▁	-14272
Establish	-14273
Georgian▁	-14274
Highness▁	-14275
Released▁	-14276
approach▁	-14277
architect	-14278
declares▁	-14279
hibition▁	-14280
inations▁	-14281
materials	-14282
Finistère▁	-14283
Hiroshima▁	-14284
Northwest▁	-14285
Venezuela▁	-14286
advantage▁	-14287
performer▁	-14288
providing▁	-14289
Graubünden▁	-14290
Agriculture▁	-14291
nationalist▁	-14292
||||||||||||||▁	-14293
electromagnetic▁	-14294
AM	-14295
CI	-14296
CJ	-14297
LP	-14298
bs	-14299
ý▁	-14300
10-	-14301
Hos	-14302
Jab	-14303
Lec	-14304
Nin	-14305
Rus	-14306
SR▁	-14307
Tik	-14308
ais	-14309
iya	-14310
jew	-14311
kel	-14312
rie	-14313
yr▁	-14314
(30▁	-14315
66,▁	-14316
74.▁	-14317
91.▁	-14318
Craw	-14319
Forg	-14320
Glou	-14321
Hain	-14322
Hip▁	-14323
MLB▁	-14324
Maps	-14325
Mold	-14326
Norm	-14327
PWI▁	-14328
Pret	-14329
Read	-14330
Reyn	-14331
Sist	-14332
Use▁	-14333
alys	-14334
app▁	-14335
ede▁	-14336
etor	-14337
gent	-14338
hua▁	-14339
inn▁	-14340
iper	-14341
ips▁	-14342
iron	-14343
iti▁	-14344
ives	-14345
ongo	-14346
ouss	-14347
thum	-14348
tim▁	-14349
zone	-14350
ław▁	-14351
1857▁	-14352
Arist	-14353
Baghd	-14354
Death	-14355
Essex	-14356
Great	-14357
Joey▁	-14358
Kosov	-14359
Simps	-14360
Twent	-14361
ables	-14362
aise▁	-14363
breed	-14364
choos	-14365
erse▁	-14366
esto▁	-14367
homos	-14368
horse	-14369
inch▁	-14370
marsh	-14371
outs▁	-14372
scene	-14373
towns	-14374
trail	-14375
veloc	-14376
1980,▁	-14377
1999)▁	-14378
Angel▁	-14379
Derek▁	-14380
Linux▁	-14381
Lucas▁	-14382
Parks▁	-14383
Syria▁	-14384
Wells▁	-14385
affili	-14386
ambigu	-14387
atchew	-14388
cerebr	-14389
costs▁	-14390
dragon	-14391
fortun	-14392
grand▁	-14393
gress▁	-14394
poetry	-14395
proced	-14396
rooms▁	-14397
skier▁	-14398
stream	-14399
texts▁	-14400
1966),▁	-14401
20,000▁	-14402
50,000▁	-14403
Carmen▁	-14404
Finally	-14405
Fourth▁	-14406
Industr	-14407
Muslims	-14408
Nation▁	-14409
Rangers	-14410
Secret▁	-14411
Taipei▁	-14412
Usually	-14413
celebri	-14414
empire▁	-14415
helicop	-14416
income▁	-14417
ishing▁	-14418
makers▁	-14419
palace▁	-14420
picked▁	-14421
remake▁	-14422
section	-14423
spirit▁	-14424
started	-14425
tissue▁	-14426
ulation	-14427
Croatia▁	-14428
Investig	-14429
Masters▁	-14430
farmers▁	-14431
funeral▁	-14432
habitat▁	-14433
logical▁	-14434
putting▁	-14435
Augustus▁	-14436
Campbell▁	-14437
Diseases▁	-14438
Dordogne▁	-14439
Patricia▁	-14440
Stanford▁	-14441
Starship▁	-14442
Voivodesh	-14443
abstract▁	-14444
displays▁	-14445
drinking▁	-14446
fication▁	-14447
honorary▁	-14448
inducted▁	-14449
pregnant▁	-14450
protects▁	-14451
restrial▁	-14452
solution▁	-14453
tourists▁	-14454
Saskatchew	-14455
daughters▁	-14456
dinosaurs▁	-14457
questions▁	-14458
receiving▁	-14459
regularly▁	-14460
returning▁	-14461
violinist▁	-14462
|2006/07||	-14463
Blackhawks▁	-14464
Corporation	-14465
Liberation▁	-14466
foundation▁	-14467
||||||||||2	-14468
Herzegovina▁	-14469
astronomers▁	-14470
classification	-14471
Zo	-14472
gy	-14473
èv	-14474
ín	-14475
(9▁	-14476
02▁	-14477
67▁	-14478
7%▁	-14479
89▁	-14480
92▁	-14481
Asc	-14482
Buc	-14483
Cov	-14484
Giv	-14485
Jen	-14486
Kud	-14487
Lap	-14488
Lug	-14489
Nur	-14490
Tus	-14491
Zar	-14492
ias	-14493
jar	-14494
mad	-14495
nau	-14496
rou	-14497
ru▁	-14498
tet	-14499
ube	-14500
ès▁	-14501
(21▁	-14502
2||4	-14503
96,▁	-14504
Carp	-14505
Gren	-14506
Mel▁	-14507
Nass	-14508
Thal	-14509
ambi	-14510
anna	-14511
bat▁	-14512
berl	-14513
bles	-14514
buff	-14515
clou	-14516
edom	-14517
emic	-14518
flex	-14519
mast	-14520
ogo▁	-14521
prim	-14522
quir	-14523
rand	-14524
rell	-14525
shif	-14526
tack	-14527
tea▁	-14528
uals	-14529
what	-14530
ymph	-14531
1881▁	-14532
1||1▁	-14533
4–201	-14534
5–201	-14535
Flag▁	-14536
Jura▁	-14537
Nakam	-14538
Nara▁	-14539
Percy	-14540
René▁	-14541
Ring▁	-14542
Stutt	-14543
Want▁	-14544
agne▁	-14545
drink	-14546
dynam	-14547
elia▁	-14548
eria▁	-14549
inho▁	-14550
lide▁	-14551
maps▁	-14552
mode▁	-14553
octop	-14554
quez▁	-14555
sale▁	-14556
scale	-14557
study	-14558
tend▁	-14559
tica▁	-14560
tied▁	-14561
tiny▁	-14562
1965)▁	-14563
1973,▁	-14564
1992)▁	-14565
2022.▁	-14566
Allan▁	-14567
Declar	-14568
Elvis▁	-14569
Jamie▁	-14570
Lakes▁	-14571
Magic▁	-14572
Motor▁	-14573
Pablo▁	-14574
Satell	-14575
Sudan▁	-14576
Uttar▁	-14577
Vorarl	-14578
antry▁	-14579
clean▁	-14580
conges	-14581
enton▁	-14582
facts▁	-14583
inder▁	-14584
leton▁	-14585
letter	-14586
priest	-14587
prior▁	-14588
raise▁	-14589
social	-14590
stadt▁	-14591
summer	-14592
(1978)▁	-14593
1943),▁	-14594
1949),▁	-14595
1953),▁	-14596
1954),▁	-14597
1961),▁	-14598
1965),▁	-14599
Almost▁	-14600
Conrad▁	-14601
Foster▁	-14602
Helsink	-14603
Illustr	-14604
Jeremy▁	-14605
Judith▁	-14606
Köppen▁	-14607
Ottawa▁	-14608
Rafael▁	-14609
Riding▁	-14610
Rotten▁	-14611
Single▁	-14612
Tehran▁	-14613
binary▁	-14614
combat▁	-14615
contain	-14616
ellers▁	-14617
heroes▁	-14618
latter▁	-14619
parent▁	-14620
rising▁	-14621
spiral▁	-14622
stored▁	-14623
sulfur▁	-14624
unknown	-14625
(2017).▁	-14626
Cowboys▁	-14627
Critics▁	-14628
Emmanuel	-14629
Episode▁	-14630
Finance▁	-14631
Mikhail▁	-14632
Primera▁	-14633
Timothy▁	-14634
Transit▁	-14635
atorial▁	-14636
cabinet▁	-14637
centers▁	-14638
charges▁	-14639
ectious▁	-14640
efforts▁	-14641
flowing▁	-14642
insects▁	-14643
lawsuit▁	-14644
ranking▁	-14645
turning▁	-14646
Abdullah▁	-14647
Brittany▁	-14648
Caroline▁	-14649
Education	-14650
Manipuri▁	-14651
Simpsons▁	-14652
aviation▁	-14653
entitled▁	-14654
evolution	-14655
flooding▁	-14656
improved▁	-14657
injuries▁	-14658
musicians	-14659
proteins▁	-14660
catchment▁	-14661
certified▁	-14662
consisted▁	-14663
predators▁	-14664
resources▁	-14665
telephone▁	-14666
Bundesliga▁	-14667
Individual▁	-14668
Originally▁	-14669
Tournament▁	-14670
Venezuelan▁	-14671
anthropolog	-14672
developing▁	-14673
development	-14674
increasing▁	-14675
registered▁	-14676
Nickelodeon▁	-14677
differences▁	-14678
distribution	-14679
entrepreneur	-14680
administration	-14681
transportation▁	-14682
Bé	-14683
DR	-14684
Dw	-14685
Hö	-14686
IG	-14687
Iz	-14688
";▁	-14689
0/9	-14690
97▁	-14691
BBC	-14692
Chu	-14693
Hed	-14694
Oce	-14695
Pam	-14696
Sut	-14697
Vid	-14698
Wah	-14699
htm	-14700
ike	-14701
oni	-14702
osc	-14703
sid	-14704
tom	-14705
uti	-14706
(16▁	-14707
21.▁	-14708
360▁	-14709
:00▁	-14710
Amy▁	-14711
Burn	-14712
Córd	-14713
Dill	-14714
Gour	-14715
Grav	-14716
Pan▁	-14717
Pent	-14718
Pick	-14719
Poet	-14720
That	-14721
Ulys	-14722
anxi	-14723
bio▁	-14724
cold	-14725
eas▁	-14726
enge	-14727
etti	-14728
hra▁	-14729
ible	-14730
ikh▁	-14731
join	-14732
joy▁	-14733
noun	-14734
och▁	-14735
ocyt	-14736
omae	-14737
osh▁	-14738
ploy	-14739
pock	-14740
umb▁	-14741
yer▁	-14742
zoo▁	-14743
||19	-14744
1869▁	-14745
1877▁	-14746
3||2▁	-14747
6–199	-14748
Afon▁	-14749
Crist	-14750
Erik▁	-14751
Honor	-14752
Hunt▁	-14753
Kiss▁	-14754
Lucy▁	-14755
Maya▁	-14756
Motor	-14757
Plain	-14758
Power	-14759
Rush▁	-14760
Seneg	-14761
Siber	-14762
Veter	-14763
Wiki▁	-14764
Yang▁	-14765
amps▁	-14766
arta▁	-14767
assum	-14768
bint▁	-14769
dance	-14770
drop▁	-14771
elic▁	-14772
folkl	-14773
inas▁	-14774
itive	-14775
lord▁	-14776
medal	-14777
offs▁	-14778
queen	-14779
refug	-14780
staff	-14781
tees▁	-14782
uddy▁	-14783
union	-14784
upta▁	-14785
1915)▁	-14786
1997)▁	-14787
Anton▁	-14788
Canal▁	-14789
Diana▁	-14790
Evans▁	-14791
Family	-14792
Films▁	-14793
Newton	-14794
Often▁	-14795
Round▁	-14796
Sainte	-14797
Square	-14798
Strang	-14799
Trust▁	-14800
Watch▁	-14801
alive▁	-14802
antes▁	-14803
anthem	-14804
charge	-14805
downlo	-14806
enberg	-14807
erner▁	-14808
excell	-14809
files▁	-14810
flight	-14811
gases▁	-14812
machin	-14813
manga▁	-14814
photos	-14815
pieces	-14816
search	-14817
silver	-14818
sings▁	-14819
uggle▁	-14820
usage▁	-14821
(1983)▁	-14822
1946),▁	-14823
1952),▁	-14824
1959),▁	-14825
1984),▁	-14826
Darwin▁	-14827
Hamburg	-14828
Hughes▁	-14829
Nissan▁	-14830
Perpign	-14831
Policy▁	-14832
Return▁	-14833
Reynold	-14834
Senior▁	-14835
Theatre	-14836
Venice▁	-14837
agents▁	-14838
crisis▁	-14839
demand▁	-14840
drives▁	-14841
fruits▁	-14842
golfer▁	-14843
photos▁	-14844
soldier	-14845
tarian▁	-14846
|1990/9	-14847
Andrews▁	-14848
Control▁	-14849
Eduardo▁	-14850
Frances▁	-14851
Germans▁	-14852
Jeopardy	-14853
Montreal	-14854
Reserve▁	-14855
Richmond	-14856
Shimizu▁	-14857
Species▁	-14858
articles	-14859
cartoon▁	-14860
hanging▁	-14861
highway▁	-14862
hormone▁	-14863
marries▁	-14864
message▁	-14865
minimum▁	-14866
museums▁	-14867
peoples▁	-14868
progress	-14869
widespre	-14870
,000,000▁	-14871
Germanic▁	-14872
Railroad▁	-14873
Thornton▁	-14874
assembly▁	-14875
chlorine▁	-14876
economist	-14877
expanded▁	-14878
millions▁	-14879
theories▁	-14880
Amsterdam▁	-14881
Constantin	-14882
exclusive▁	-14883
measuring▁	-14884
necessary▁	-14885
otherwise▁	-14886
purchased▁	-14887
superhero▁	-14888
|2000/01||	-14889
|2002/03||	-14890
Protection▁	-14891
boundaries▁	-14892
electricity	-14893
abbreviated▁	-14894
experiments▁	-14895
institution▁	-14896
discontinued▁	-14897
organizations	-14898
distinguished▁	-14899
disestablished▁	-14900
IM	-14901
LL	-14902
ST	-14903
Ya	-14904
06▁	-14905
11,	-14906
112	-14907
12-	-14908
84▁	-14909
Ans	-14910
Cyn	-14911
Dul	-14912
Gem	-14913
Hul	-14914
Kem	-14915
Lum	-14916
Mün	-14917
Set	-14918
Sex	-14919
Zam	-14920
awi	-14921
boo	-14922
ck▁	-14923
gay	-14924
iv▁	-14925
lan	-14926
omy	-14927
ozo	-14928
çu▁	-14929
(20▁	-14930
(245	-14931
75.▁	-14932
Ark▁	-14933
Bund	-14934
Feel	-14935
Free	-14936
Fris	-14937
Heph	-14938
Hers	-14939
Holl	-14940
Lou▁	-14941
Map▁	-14942
Mort	-14943
Rank	-14944
Ring	-14945
TNA▁	-14946
Thel	-14947
Vide	-14948
alyp	-14949
anam	-14950
aust	-14951
awar	-14952
bath	-14953
boss	-14954
brig	-14955
chec	-14956
cler	-14957
clin	-14958
fric	-14959
hydr	-14960
lan▁	-14961
lio▁	-14962
magn	-14963
nik▁	-14964
oli▁	-14965
oos▁	-14966
orrh	-14967
pent	-14968
sick	-14969
upo▁	-14970
zes▁	-14971
1876▁	-14972
5–199	-14973
7–201	-14974
Gradu	-14975
Hyper	-14976
Isle▁	-14977
Moore	-14978
Solom	-14979
Struc	-14980
acous	-14981
anas▁	-14982
anta▁	-14983
ario▁	-14984
atar▁	-14985
codes	-14986
cult▁	-14987
ental	-14988
ephal	-14989
esis▁	-14990
fled▁	-14991
lava▁	-14992
lymph	-14993
oria▁	-14994
oster	-14995
pets▁	-14996
plain	-14997
rear▁	-14998
refer	-14999
sort▁	-15000
stain	-15001
tissu	-15002
1914)▁	-15003
1948.▁	-15004
1958.▁	-15005
1961.▁	-15006
1962.▁	-15007
1968,▁	-15008
Annie▁	-15009
Barbad	-15010
Hondur	-15011
Plant▁	-15012
Title▁	-15013
Verde▁	-15014
abuse▁	-15015
anarch	-15016
antin▁	-15017
blind▁	-15018
eting▁	-15019
formed	-15020
genes▁	-15021
holes▁	-15022
ilian▁	-15023
ingham	-15024
partis	-15025
ratio▁	-15026
remain	-15027
rifle▁	-15028
solve▁	-15029
Avenue▁	-15030
Barnum▁	-15031
Buffalo	-15032
Double▁	-15033
Inside▁	-15034
Instead	-15035
Middles	-15036
Motion▁	-15037
NASCAR▁	-15038
Sophie▁	-15039
Vishnu▁	-15040
antibio	-15041
edition	-15042
efully▁	-15043
flowers	-15044
injured	-15045
machine	-15046
prevent	-15047
reservo	-15048
speaks▁	-15049
ulated▁	-15050
weapons	-15051
worker▁	-15052
Against▁	-15053
Albania▁	-15054
Diocese▁	-15055
Nebraska	-15056
Systems▁	-15057
Usually▁	-15058
chicken▁	-15059
cultures	-15060
dialect▁	-15061
heating▁	-15062
ications	-15063
invaded▁	-15064
leagues▁	-15065
nominee▁	-15066
occasion	-15067
ologies▁	-15068
pressure	-15069
promise▁	-15070
saffron▁	-15071
scoring▁	-15072
session▁	-15073
signals▁	-15074
Archives▁	-15075
Charlotte	-15076
Counties▁	-15077
Hampshire	-15078
Salvador▁	-15079
Schleswig	-15080
Starting▁	-15081
attempts▁	-15082
branches▁	-15083
diameter▁	-15084
favorite▁	-15085
intellect	-15086
mainland▁	-15087
manuscrip	-15088
momentum▁	-15089
professor	-15090
radiation	-15091
rainfall▁	-15092
subjects▁	-15093
volcanic▁	-15094
Animation▁	-15095
Assistant▁	-15096
Authority▁	-15097
Federation	-15098
Officials▁	-15099
defeating▁	-15100
earthquake	-15101
equations▁	-15102
parliament	-15103
playwright	-15104
populated▁	-15105
programme▁	-15106
rebellion▁	-15107
Ecuadorian▁	-15108
Shakespeare	-15109
artificial▁	-15110
autonomous▁	-15111
congestive▁	-15112
presidents▁	-15113
temperature	-15114
application▁	-15115
complicated▁	-15116
photographs▁	-15117
tributaries▁	-15118
professionally▁	-15119
Hä	-15120
Jú	-15121
SP	-15122
añ	-15123
uh	-15124
116	-15125
88▁	-15126
Abr	-15127
Bit	-15128
Dag	-15129
Doo	-15130
Gat	-15131
Hip	-15132
Mys	-15133
NCA	-15134
Nix	-15135
Sed	-15136
Yer	-15137
cht	-15138
ico	-15139
lam	-15140
nac	-15141
sh▁	-15142
uls	-15143
vs▁	-15144
wyn	-15145
ás▁	-15146
Antl	-15147
Bris	-15148
Brom	-15149
Calg	-15150
Disc	-15151
Drug	-15152
Flet	-15153
Fras	-15154
Full	-15155
Hal▁	-15156
Marx	-15157
Open	-15158
RFC▁	-15159
Trev	-15160
Vamp	-15161
anus	-15162
ares	-15163
card	-15164
diab	-15165
emen	-15166
ewic	-15167
gers	-15168
have	-15169
lis▁	-15170
oll▁	-15171
para	-15172
pend	-15173
rate	-15174
tar▁	-15175
umi▁	-15176
100,▁	-15177
1861▁	-15178
1871▁	-15179
1888▁	-15180
4||3▁	-15181
8–199	-15182
Aleks	-15183
Artem	-15184
Chair	-15185
Chann	-15186
Diego	-15187
Draft	-15188
Karab	-15189
Near▁	-15190
Note▁	-15191
Scand	-15192
Test▁	-15193
Walk▁	-15194
about	-15195
agent	-15196
ardy▁	-15197
arre▁	-15198
bear▁	-15199
depic	-15200
deriv	-15201
deser	-15202
ener▁	-15203
epic▁	-15204
eston	-15205
fear▁	-15206
iner▁	-15207
isms▁	-15208
itors	-15209
jump▁	-15210
leton	-15211
lineb	-15212
logo▁	-15213
memor	-15214
rapid	-15215
rets▁	-15216
snow▁	-15217
tham▁	-15218
tico▁	-15219
tuber	-15220
urai▁	-15221
1916)▁	-15222
1945,▁	-15223
1974,▁	-15224
Adult▁	-15225
Alaska	-15226
Being▁	-15227
Buchan	-15228
Buddy▁	-15229
Chase▁	-15230
Felix▁	-15231
Jorge▁	-15232
Karen▁	-15233
Larsen	-15234
Morris	-15235
Orland	-15236
Paragu	-15237
Sandy▁	-15238
Stuttg	-15239
actors	-15240
broad▁	-15241
cable▁	-15242
cargo▁	-15243
emble▁	-15244
explan	-15245
ields▁	-15246
input▁	-15247
phenom	-15248
propor	-15249
renal▁	-15250
rings▁	-15251
spots▁	-15252
uttle▁	-15253
width▁	-15254
1941),▁	-15255
1989),▁	-15256
Armenia	-15257
Eleven▁	-15258
Forbes▁	-15259
Heaven▁	-15260
Montana	-15261
Morris▁	-15262
Wonder▁	-15263
attacks	-15264
average	-15265
breeds▁	-15266
corner▁	-15267
credit▁	-15268
driven▁	-15269
forward	-15270
guards▁	-15271
muscle▁	-15272
operas▁	-15273
themes▁	-15274
tility▁	-15275
unless▁	-15276
written	-15277
Baptist▁	-15278
Beatles▁	-15279
Capitol▁	-15280
Cumbria▁	-15281
Dancing▁	-15282
MacBook▁	-15283
Virtual▁	-15284
aspects▁	-15285
bridges▁	-15286
drawing▁	-15287
greatly▁	-15288
happened	-15289
itarian▁	-15290
ographer	-15291
produced	-15292
samples▁	-15293
sitting▁	-15294
turbine▁	-15295
warning▁	-15296
Campaign▁	-15297
Christmas	-15298
Location▁	-15299
Survivor▁	-15300
Tunisian▁	-15301
Vaucluse▁	-15302
alliance▁	-15303
cerebral▁	-15304
compounds	-15305
conscious	-15306
cultures▁	-15307
following	-15308
governed▁	-15309
grandson▁	-15310
maintain▁	-15311
modified▁	-15312
notation▁	-15313
populous▁	-15314
sexually▁	-15315
sporting▁	-15316
switched▁	-15317
Testament▁	-15318
essential▁	-15319
gradually▁	-15320
organised▁	-15321
principle▁	-15322
pulmonary▁	-15323
secretary▁	-15324
shortened▁	-15325
|2008/09||	-15326
eliminated▁	-15327
hurricanes▁	-15328
independent	-15329
motorcycle▁	-15330
revolution▁	-15331
traditions▁	-15332
Underground▁	-15333
contributed▁	-15334
="2"|-||0||0▁	-15335
centenarians▁	-15336
competitions▁	-15337
42	-15338
Fé	-15339
Gó	-15340
TO	-15341
×▁	-15342
(17	-15343
(4▁	-15344
114	-15345
154	-15346
82▁	-15347
Alc	-15348
Alg	-15349
Gay	-15350
Gaz	-15351
Inn	-15352
Jag	-15353
Kri	-15354
Mau	-15355
Ord	-15356
Sib	-15357
Yel	-15358
aud	-15359
cin	-15360
eo▁	-15361
has	-15362
ife	-15363
iga	-15364
kre	-15365
nel	-15366
pes	-15367
plo	-15368
yan	-15369
ère	-15370
(15▁	-15371
(24▁	-15372
(29▁	-15373
1850	-15374
69,▁	-15375
93.▁	-15376
Bash	-15377
Blue	-15378
Card	-15379
Chen	-15380
Crus	-15381
Eva▁	-15382
Feld	-15383
Guit	-15384
Hanc	-15385
Kann	-15386
McCl	-15387
Myan	-15388
Near	-15389
Rost	-15390
Scor	-15391
Sequ	-15392
Thur	-15393
Tiff	-15394
Zoo▁	-15395
acks	-15396
bicy	-15397
brom	-15398
calc	-15399
cand	-15400
edia	-15401
ego▁	-15402
gram	-15403
mad▁	-15404
meat	-15405
milk	-15406
much	-15407
phis	-15408
rit▁	-15409
rops	-15410
1885▁	-15411
1||2▁	-15412
3–198	-15413
8||2▁	-15414
Adela	-15415
Ages▁	-15416
Aster	-15417
Bloom	-15418
Blues	-15419
Lanka	-15420
Marie	-15421
Order	-15422
Rebec	-15423
Reven	-15424
Tang▁	-15425
Trump	-15426
Uzbek	-15427
aced▁	-15428
ague▁	-15429
ament	-15430
ammu▁	-15431
belt▁	-15432
brown	-15433
eases	-15434
elyn▁	-15435
enly▁	-15436
fill▁	-15437
item▁	-15438
kett▁	-15439
recre	-15440
smart	-15441
stra▁	-15442
types	-15443
value	-15444
1953)▁	-15445
1971)▁	-15446
1981,▁	-15447
Armed▁	-15448
Chart▁	-15449
Donald	-15450
Flash▁	-15451
Luther	-15452
Mother	-15453
Mouse▁	-15454
Pence▁	-15455
Scooby	-15456
Still▁	-15457
agram▁	-15458
argau▁	-15459
barrel	-15460
cloud▁	-15461
collap	-15462
corner	-15463
corps▁	-15464
fluid▁	-15465
lings▁	-15466
prosec	-15467
(1971)▁	-15468
(1984)▁	-15469
Luther▁	-15470
Murder▁	-15471
Nature▁	-15472
Saxony▁	-15473
Sicily▁	-15474
acking▁	-15475
astery▁	-15476
budget▁	-15477
circle▁	-15478
expert▁	-15479
genres▁	-15480
horses▁	-15481
ingham▁	-15482
injury▁	-15483
skater▁	-15484
victim▁	-15485
vision▁	-15486
wooden▁	-15487
|1993/9	-15488
Belarus▁	-15489
Brabant▁	-15490
Hephaest	-15491
Himself▁	-15492
Leopold▁	-15493
Mystery▁	-15494
Samsung▁	-15495
Studios▁	-15496
bombing▁	-15497
counties	-15498
festival	-15499
finished	-15500
trumpet▁	-15501
Johannes▁	-15502
Morrison▁	-15503
Phillips▁	-15504
Roosevelt	-15505
Shizuoka▁	-15506
download▁	-15507
incident▁	-15508
nitrogen▁	-15509
overview▁	-15510
treatment	-15511
Democrats▁	-15512
Icelandic▁	-15513
Luxembourg	-15514
Newcastle▁	-15515
Petersburg	-15516
Philharmon	-15517
Sebastian▁	-15518
Uruguayan▁	-15519
announces▁	-15520
appearance	-15521
elevation▁	-15522
households	-15523
scription▁	-15524
sponsored▁	-15525
suffering▁	-15526
|2003/04||	-15527
|2005/06||	-15528
Laboratory▁	-15529
Luxembourg▁	-15530
understood▁	-15531
Departments▁	-15532
anniversary▁	-15533
illustrated▁	-15534
conservation▁	-15535
specifically▁	-15536
contributions▁	-15537
</	-15538
By	-15539
FL	-15540
HT	-15541
IF	-15542
áz	-15543
ни	-15544
07▁	-15545
165	-15546
9%▁	-15547
Ech	-15548
Fai	-15549
Gob	-15550
McK	-15551
SC▁	-15552
bin	-15553
kg▁	-15554
sic	-15555
tz▁	-15556
(13▁	-15557
(26▁	-15558
110▁	-15559
68,▁	-15560
70.▁	-15561
77.▁	-15562
Aver	-15563
Corm	-15564
Guay	-15565
Jin▁	-15566
MGM▁	-15567
Navy	-15568
Perf	-15569
Rash	-15570
Sass	-15571
Seas	-15572
Shap	-15573
Turn	-15574
What	-15575
abi▁	-15576
aged	-15577
ath▁	-15578
aws▁	-15579
baby	-15580
chro	-15581
cosm	-15582
dez▁	-15583
eme▁	-15584
enne	-15585
enz▁	-15586
fing	-15587
frec	-15588
ios▁	-15589
ires	-15590
pill	-15591
ris▁	-15592
usa▁	-15593
zon▁	-15594
1800▁	-15595
1878▁	-15596
1–198	-15597
Adams	-15598
Advis	-15599
Anast	-15600
Chlor	-15601
Edge▁	-15602
Exper	-15603
Grass	-15604
Irish	-15605
Mater	-15606
Metro	-15607
Paint	-15608
Play▁	-15609
Quart	-15610
Sched	-15611
True▁	-15612
atom▁	-15613
aton▁	-15614
chief	-15615
eats▁	-15616
enzym	-15617
inae▁	-15618
jail▁	-15619
mild▁	-15620
olen▁	-15621
oxidi	-15622
pain▁	-15623
photo	-15624
ranch	-15625
sites	-15626
socie	-15627
tale▁	-15628
treas	-15629
tron▁	-15630
|1989	-15631
1950.▁	-15632
1963,▁	-15633
1967,▁	-15634
1975,▁	-15635
Agnes▁	-15636
Anatol	-15637
Arabia	-15638
Arabic	-15639
Arena▁	-15640
Caesar	-15641
Carey▁	-15642
Edward	-15643
Gordon	-15644
Hautes	-15645
Import	-15646
Indus▁	-15647
Rapid▁	-15648
Rotter	-15649
Sacram	-15650
Sindh▁	-15651
Turin▁	-15652
Wednes	-15653
Zimmer	-15654
course	-15655
defini	-15656
encycl	-15657
endorf	-15658
expand	-15659
farms▁	-15660
fields	-15661
hoods▁	-15662
humid▁	-15663
inside	-15664
isted▁	-15665
legiti	-15666
noble▁	-15667
ounce▁	-15668
script	-15669
sevent	-15670
strugg	-15671
syndic	-15672
tenor▁	-15673
(2019)▁	-15674
1939),▁	-15675
1981),▁	-15676
Amanda▁	-15677
Amazon▁	-15678
Athens▁	-15679
Circle▁	-15680
Jeanne▁	-15681
Nicole▁	-15682
Science	-15683
Volume▁	-15684
accept▁	-15685
berger▁	-15686
cattle▁	-15687
desert▁	-15688
females	-15689
genetic	-15690
iconduc	-15691
shield▁	-15692
statue▁	-15693
strike▁	-15694
Applied▁	-15695
[...]
