{
    "model_type": "bpe",
    "vocab_size": 16000,
    "vocab": {
        "0": "<unk>",
        "1": "<s>",
        "2": "</s>",
        "3": "e▁",
        "4": "s▁",
        "5": "n▁",
        "6": "th",
        "7": "er",
        "8": "d▁",
        "9": "an",
        "10": "t▁",
        "11": ",▁",
        "12": "in",
        "13": "or",
        "14": "the▁",
        "15": "ar",
        "16": "y▁",
        "17": "al",
        "18": "en",
        "19": ".▁",
        "20": "es",
        "21": "on",
        "22": "of",
        "23": "ti",
        "24": "ed▁",
        "25": "of▁",
        "26": "a▁",
        "27": "in▁",
        "28": "o▁",
        "29": "er▁",
        "30": "ic",
        "31": "and▁",
        "32": "is",
        "33": "ro",
        "34": "is▁",
        "35": "an▁",
        "36": "re",
        "37": "as▁",
        "38": "ing",
        "39": "ou",
        "40": "on▁",
        "41": "it",
        "42": "19",
        "43": "at",
        "44": "el",
        "45": "es▁",
        "46": "Th",
        "47": "am",
        "48": "il",
        "49": "ch",
        "50": "st",
        "51": "to▁",
        "52": "ol",
        "53": "20",
        "54": "om",
        "55": "ing▁",
        "56": "al▁",
        "57": "||",
        "58": "or▁",
        "59": "ac",
        "60": "as",
        "61": "m▁",
        "62": "pl",
        "63": "was▁",
        "64": "ir",
        "65": "us",
        "66": "ur",
        "67": "ec",
        "68": "The▁",
        "69": "ati",
        "70": "em",
        "71": "at▁",
        "72": "th▁",
        "73": "ri",
        "74": "di",
        "75": "un",
        "76": "ag",
        "77": "all",
        "78": "ow",
        "79": "ent",
        "80": "ov",
        "81": "en▁",
        "82": "h▁",
        "83": "ad",
        "84": "et",
        "85": "li",
        "86": "os",
        "87": "le",
        "88": "ul",
        "89": "rom▁",
        "90": "ap",
        "91": "ers",
        "92": "k▁",
        "93": "ist",
        "94": "from▁",
        "95": "id",
        "96": "ay",
        "97": "for▁",
        "98": "ab",
        "99": "oun",
        "100": "wh",
        "101": "ef",
        "102": "ig",
        "103": "iv",
        "104": "enc",
        "105": ")▁",
        "106": "ed",
        "107": "200",
        "108": "ev",
        "109": "av",
        "110": "pe",
        "111": "by▁",
        "112": "ent▁",
        "113": "res",
        "114": "ot",
        "115": "op",
        "116": "201",
        "117": "mer",
        "118": "wi",
        "119": "ep",
        "120": "com",
        "121": "sh",
        "122": "St",
        "123": "and",
        "124": "ea",
        "125": "are▁",
        "126": "Ch",
        "127": "ther▁",
        "128": "oc",
        "129": "ch▁",
        "130": "ican▁",
        "131": "ation",
        "132": "um",
        "133": "Amer",
        "134": "with▁",
        "135": "eb",
        "136": "tic",
        "137": "ak",
        "138": "l▁",
        "139": "ere▁",
        "140": "It▁",
        "141": "ter",
        "142": "He▁",
        "143": "ey▁",
        "144": "ew",
        "145": "that▁",
        "146": "opl",
        "147": "erenc",
        "148": "ex",
        "149": "ear",
        "150": "im",
        "151": "American▁",
        "152": "Ref",
        "153": "he▁",
        "154": "ra",
        "155": "Referenc",
        "156": "–▁",
        "157": "up",
        "158": "for",
        "159": "References",
        "160": "uc",
        "161": "pro",
        "162": "sp",
        "163": "ic▁",
        "164": "ly▁",
        "165": "0▁",
        "166": "le▁",
        "167": "199",
        "168": "ber▁",
        "169": "Un",
        "170": "ay▁",
        "171": "con",
        "172": "od",
        "173": "18",
        "174": "||0",
        "175": "ub",
        "176": "ers▁",
        "177": "si",
        "178": "it▁",
        "179": "anc",
        "180": "og",
        "181": "-▁",
        "182": "art",
        "183": "ity▁",
        "184": ":▁",
        "185": "inc",
        "186": "i▁",
        "187": "),▁",
        "188": "ong",
        "189": "peopl",
        "190": "bor",
        "191": "ang",
        "192": "als",
        "193": "tr",
        "194": "mov",
        "195": "ation▁",
        "196": "all▁",
        "197": "ut",
        "198": "our",
        "199": "In▁",
        "200": "ip",
        "201": "ar▁",
        "202": "1▁",
        "203": "ug",
        "204": "ain",
        "205": "act",
        "206": "ot▁",
        "207": "ary▁",
        "208": "st▁",
        "209": "ths",
        "210": "man",
        "211": "est",
        "212": "se",
        "213": "198",
        "214": "ian▁",
        "215": "ame▁",
        "216": "In",
        "217": "est▁",
        "218": "tion",
        "219": "qu",
        "220": "ud",
        "221": "lis",
        "222": "play",
        "223": "his▁",
        "224": "|-",
        "225": "born▁",
        "226": "ate▁",
        "227": "be",
        "228": "wor",
        "229": "sit",
        "230": "bu",
        "231": "ated▁",
        "232": "ew▁",
        "233": "2▁",
        "234": "oo",
        "235": "ter▁",
        "236": "the",
        "237": "ian",
        "238": "own▁",
        "239": "tion▁",
        "240": "ion▁",
        "241": "also▁",
        "242": "ad▁",
        "243": "5▁",
        "244": "rec",
        "245": "one▁",
        "246": "be▁",
        "247": "ember▁",
        "248": "movi",
        "249": "197",
        "250": "\"▁",
        "251": "4▁",
        "252": "ts▁",
        "253": "ia",
        "254": "Mar",
        "255": "has▁",
        "256": "el▁",
        "257": "ir▁",
        "258": "Fr",
        "259": "ave▁",
        "260": "ited▁",
        "261": "3▁",
        "262": "7▁",
        "263": "web",
        "264": "An",
        "265": "ff",
        "266": "Al",
        "267": "ich▁",
        "268": "6▁",
        "269": "ld▁",
        "270": "out▁",
        "271": "ill",
        "272": "me",
        "273": "rit",
        "274": "websit",
        "275": "end",
        "276": "were▁",
        "277": "fir",
        "278": "ount",
        "279": "ric",
        "280": "aw",
        "281": "igh",
        "282": "ob",
        "283": "En",
        "284": "age▁",
        "285": "pr",
        "286": "8▁",
        "287": "bir",
        "288": "str",
        "289": "A▁",
        "290": "196",
        "291": "United▁",
        "292": "Ar",
        "293": "bec",
        "294": "per",
        "295": "par",
        "296": "ted▁",
        "297": "not▁",
        "298": "which▁",
        "299": "ion",
        "300": "Other▁",
        "301": "por",
        "302": "pol",
        "303": "ard",
        "304": "ell",
        "305": "et▁",
        "306": "ve▁",
        "307": "ore▁",
        "308": "gh",
        "309": "ph",
        "310": "mun",
        "311": "ies▁",
        "312": "people▁",
        "313": "am▁",
        "314": "kn",
        "315": "ment",
        "316": "||1",
        "317": "eg",
        "318": "ia▁",
        "319": "ow▁",
        "320": "ome▁",
        "321": "ther",
        "322": "first▁",
        "323": "cl",
        "324": "ser",
        "325": "have▁",
        "326": "iti",
        "327": "il▁",
        "328": "Stat",
        "329": "websites",
        "330": "ost▁",
        "331": "land",
        "332": "ass",
        "333": "form",
        "334": "births",
        "335": "ational▁",
        "336": "ast",
        "337": "195",
        "338": "ts",
        "339": "other▁",
        "340": "ese▁",
        "341": "te",
        "342": "194",
        "343": "dea",
        "344": "9▁",
        "345": "ally▁",
        "346": "itic",
        "347": "duc",
        "348": "row",
        "349": "f▁",
        "350": "ern",
        "351": "tim",
        "352": "Eng",
        "353": "ard▁",
        "354": "ial▁",
        "355": "ine▁",
        "356": "dis",
        "357": "us▁",
        "358": "ess",
        "359": "used▁",
        "360": "oot",
        "361": "ical▁",
        "362": "Le",
        "363": "New▁",
        "364": "they▁",
        "365": "lish",
        "366": "af",
        "367": "are",
        "368": "ong▁",
        "369": "col",
        "370": "can▁",
        "371": "had▁",
        "372": "ord",
        "373": "sc",
        "374": "Sh",
        "375": "193",
        "376": "tw",
        "377": "ast▁",
        "378": "Com",
        "379": "ors",
        "380": "use▁",
        "381": "writ",
        "382": "year",
        "383": "ure",
        "384": "uary▁",
        "385": "their▁",
        "386": "und",
        "387": "we",
        "388": "ade▁",
        "389": "ue▁",
        "390": "mus",
        "391": "ver",
        "392": "who▁",
        "393": "up▁",
        "394": "its▁",
        "395": "This▁",
        "396": "people",
        "397": "ment▁",
        "398": "ant",
        "399": "ain▁",
        "400": "ge▁",
        "401": "ber",
        "402": "comp",
        "403": "ootb",
        "404": "known▁",
        "405": "ist▁",
        "406": "oh",
        "407": "pres",
        "408": "ity",
        "409": "politic",
        "410": "She▁",
        "411": "ish▁",
        "412": "||2",
        "413": "man▁",
        "414": "ke▁",
        "415": "call",
        "416": "bo",
        "417": "ack",
        "418": "her▁",
        "419": "but▁",
        "420": "ind",
        "421": "Ger",
        "422": ";▁",
        "423": "ach",
        "424": "ly",
        "425": "sy",
        "426": "sing",
        "427": "su",
        "428": "ne",
        "429": "tur",
        "430": "mon",
        "431": "to",
        "432": "=\"",
        "433": "ice▁",
        "434": "about▁",
        "435": "cent",
        "436": "id▁",
        "437": "ans",
        "438": "amp",
        "439": "ens",
        "440": "rap",
        "441": "tis",
        "442": "called▁",
        "443": "att",
        "444": "They▁",
        "445": "00",
        "446": "ision▁",
        "447": "ann",
        "448": "gro",
        "449": "ant▁",
        "450": "Nor",
        "451": "192",
        "452": "ever",
        "453": "ound▁",
        "454": "Riv",
        "455": "Par",
        "456": "||0||0",
        "457": "iz",
        "458": "Bri",
        "459": "span",
        "460": "tel",
        "461": "ich",
        "462": "many▁",
        "463": "po",
        "464": "dr",
        "465": "died▁",
        "466": "au",
        "467": "ous▁",
        "468": "istor",
        "469": "ign",
        "470": "ivers",
        "471": "ack▁",
        "472": "bl",
        "473": "reg",
        "474": "made▁",
        "475": "most▁",
        "476": "tor",
        "477": "this▁",
        "478": "ould▁",
        "479": "min",
        "480": "17",
        "481": "mar",
        "482": "ey",
        "483": "ake▁",
        "484": "ince▁",
        "485": "Wor",
        "486": "fic",
        "487": "ased▁",
        "488": "Au",
        "489": "gr",
        "490": "elec",
        "491": "movies",
        "492": "x▁",
        "493": "incl",
        "494": "ous",
        "495": "nam",
        "496": "ies",
        "497": "illi",
        "498": "footb",
        "499": ").▁",
        "500": "tl",
        "501": "ill▁",
        "502": "two▁",
        "503": "Jap",
        "504": "Af",
        "505": "cont",
        "506": "ess▁",
        "507": "fe",
        "508": "lar",
        "509": "includ",
        "510": "movie▁",
        "511": "Sp",
        "512": "fl",
        "513": "ath",
        "514": "fi",
        "515": "ater▁",
        "516": "ish",
        "517": "ks▁",
        "518": "ah",
        "519": "Con",
        "520": "inn",
        "521": "Wh",
        "522": "after▁",
        "523": "into▁",
        "524": "ace▁",
        "525": "Franc",
        "526": "pop",
        "527": "Sc",
        "528": "Liv",
        "529": "Ac",
        "530": "tish▁",
        "531": "ents▁",
        "532": "ound",
        "533": "g▁",
        "534": "Jan",
        "535": "||||",
        "536": "deaths",
        "537": "lin",
        "538": "overn",
        "539": "arr",
        "540": "tal",
        "541": "Joh",
        "542": "||3",
        "543": "Count",
        "544": "been▁",
        "545": "own",
        "546": "ree▁",
        "547": "States",
        "548": "ust▁",
        "549": "dist",
        "550": "outh▁",
        "551": "co",
        "552": "ablish",
        "553": "ond",
        "554": "mp",
        "555": "Pe",
        "556": "ten▁",
        "557": "10",
        "558": "national▁",
        "559": "hi",
        "560": "enti",
        "561": "ide",
        "562": "evision▁",
        "563": "establish",
        "564": "ubl",
        "565": ").",
        "566": "produc",
        "567": "1,▁",
        "568": "ener",
        "569": "ship",
        "570": "bet",
        "571": "olog",
        "572": "ause▁",
        "573": "az",
        "574": "liv",
        "575": "more▁",
        "576": "uring▁",
        "577": "direc",
        "578": "Col",
        "579": "when▁",
        "580": "|200",
        "581": "sec",
        "582": "ities▁",
        "583": "land▁",
        "584": "ide▁",
        "585": "Can",
        "586": "org",
        "587": "enn",
        "588": "hy",
        "589": "u▁",
        "590": "II",
        "591": "lish▁",
        "592": "ans▁",
        "593": "dep",
        "594": "vi",
        "595": "um▁",
        "596": "air",
        "597": "Pres",
        "598": "pos",
        "599": "River",
        "600": "ght▁",
        "601": "ell▁",
        "602": "he",
        "603": "our▁",
        "604": "fam",
        "605": "television▁",
        "606": "any▁",
        "607": "Is",
        "608": "old",
        "609": "cho",
        "610": "Leag",
        "611": "English▁",
        "612": "city▁",
        "613": "Oc",
        "614": "Indi",
        "615": "ograp",
        "616": "Yor",
        "617": "adi",
        "618": "hel",
        "619": "British▁",
        "620": "Univers",
        "621": "eng",
        "622": "January▁",
        "623": "Car",
        "624": "ebr",
        "625": "became▁",
        "626": "de▁",
        "627": "ence▁",
        "628": "Living▁",
        "629": "Ge",
        "630": "Pol",
        "631": "part▁",
        "632": "Gre",
        "633": "ments▁",
        "634": "16",
        "635": "ail",
        "636": "ock",
        "637": "nor",
        "638": "World▁",
        "639": "actors",
        "640": "ine",
        "641": "popul",
        "642": "des",
        "643": "ok",
        "644": "ran",
        "645": "old▁",
        "646": "atur",
        "647": "tic▁",
        "648": "serv",
        "649": "count",
        "650": "coun",
        "651": "Cal",
        "652": "diff",
        "653": "politician",
        "654": "ild",
        "655": "icip",
        "656": "ings▁",
        "657": "yp",
        "658": "Jun",
        "659": "ood▁",
        "660": "gu",
        "661": "ib",
        "662": "she▁",
        "663": "als▁",
        "664": "Peopl",
        "665": "15",
        "666": "ome",
        "667": "ook▁",
        "668": "than▁",
        "669": "Pro",
        "670": "Rep",
        "671": "played▁",
        "672": "pre",
        "673": "son▁",
        "674": "cre",
        "675": "ight▁",
        "676": "sk",
        "677": "ie▁",
        "678": "Sw",
        "679": "sti",
        "680": "rele",
        "681": "oy",
        "682": "Cl",
        "683": "ost",
        "684": "ive▁",
        "685": "ept",
        "686": "2\"",
        "687": "Mus",
        "688": "sion",
        "689": "ash",
        "690": "aj",
        "691": "ol▁",
        "692": "os▁",
        "693": "me▁",
        "694": "ident▁",
        "695": "(200",
        "696": "only▁",
        "697": "les▁",
        "698": "For",
        "699": "over▁",
        "700": "Bl",
        "701": "like▁",
        "702": "2020",
        "703": "ate",
        "704": "spec",
        "705": "=\"2\"",
        "706": "Fren",
        "707": "inter",
        "708": "ik",
        "709": "sur",
        "710": "Pr",
        "711": "uro",
        "712": "commun",
        "713": "4,▁",
        "714": "2,▁",
        "715": "ween▁",
        "716": "States▁",
        "717": "pers",
        "718": "ue",
        "719": "cri",
        "720": "icipal",
        "721": "de",
        "722": "Japan",
        "723": "C▁",
        "724": "some▁",
        "725": "ne▁",
        "726": "able▁",
        "727": "Ital",
        "728": "roug",
        "729": "Aug",
        "730": "ss",
        "731": "Ph",
        "732": "tiv",
        "733": "ations▁",
        "734": "3,▁",
        "735": "March▁",
        "736": "bur",
        "737": "ths▁",
        "738": "very▁",
        "739": "Nov",
        "740": "sm",
        "741": "Gr",
        "742": "Dec",
        "743": "Pri",
        "744": "ered▁",
        "745": "May▁",
        "746": "between▁",
        "747": "Pl",
        "748": "ile▁",
        "749": "work",
        "750": "Apr",
        "751": "S▁",
        "752": "cap",
        "753": "op▁",
        "754": "Ad",
        "755": "ood",
        "756": "ance▁",
        "757": "rowspan",
        "758": "low",
        "759": "Br",
        "760": "National▁",
        "761": "ory▁",
        "762": "Chr",
        "763": "prov",
        "764": "time▁",
        "765": "atic",
        "766": "char",
        "767": "ton",
        "768": "Sept",
        "769": "eas",
        "770": "On▁",
        "771": "oci",
        "772": "tro",
        "773": "angu",
        "774": "z▁",
        "775": "ut▁",
        "776": "April▁",
        "777": "om▁",
        "778": "age",
        "779": "because▁",
        "780": "French▁",
        "781": "name▁",
        "782": "ry▁",
        "783": "ite▁",
        "784": "p▁",
        "785": "7,▁",
        "786": "Austr",
        "787": "I▁",
        "788": "ages",
        "789": "establishments▁",
        "790": "ting▁",
        "791": "South▁",
        "792": "Austral",
        "793": "ays▁",
        "794": "Euro",
        "795": "Min",
        "796": "John▁",
        "797": "6,▁",
        "798": "Aw",
        "799": "there▁",
        "800": "People▁",
        "801": "Jul",
        "802": "Or",
        "803": "202",
        "804": "June▁",
        "805": "emb",
        "806": "8,▁",
        "807": "ose▁",
        "808": "ond▁",
        "809": "ear▁",
        "810": "ater",
        "811": "September▁",
        "812": "such▁",
        "813": "ul▁",
        "814": "riv",
        "815": "ton▁",
        "816": "num",
        "817": "fin",
        "818": "tober▁",
        "819": "October▁",
        "820": "ore",
        "821": "where▁",
        "822": "There▁",
        "823": "190",
        "824": "Mon",
        "825": "oug",
        "826": "Inter",
        "827": "centur",
        "828": "state▁",
        "829": "sou",
        "830": "start",
        "831": "ai",
        "832": "August▁",
        "833": "bas",
        "834": "German▁",
        "835": "mi",
        "836": "til▁",
        "837": "Rus",
        "838": "Tr",
        "839": "ative▁",
        "840": "during▁",
        "841": "5,▁",
        "842": "Li",
        "843": "ge",
        "844": "Rom",
        "845": "ste",
        "846": "December▁",
        "847": "July▁",
        "848": "differ",
        "849": "found▁",
        "850": "ames▁",
        "851": "chang",
        "852": "2019",
        "853": "ick",
        "854": "won▁",
        "855": "Febr",
        "856": "will▁",
        "857": "ors▁",
        "858": "ually▁",
        "859": "cur",
        "860": "ture",
        "861": "November▁",
        "862": "sa",
        "863": "son",
        "864": "govern",
        "865": "France",
        "866": "Gu",
        "867": "ld",
        "868": "langu",
        "869": "port",
        "870": "new▁",
        "871": "distric",
        "872": "'▁",
        "873": "Rel",
        "874": "ari",
        "875": "ely▁",
        "876": "song",
        "877": "until▁",
        "878": "(199",
        "879": "Fl",
        "880": "end▁",
        "881": "February▁",
        "882": "te▁",
        "883": "member▁",
        "884": "ress",
        "885": "rel",
        "886": "ook",
        "887": "football▁",
        "888": "histor",
        "889": "go",
        "890": "League▁",
        "891": "Man",
        "892": "ort",
        "893": "dec",
        "894": "North▁",
        "895": "Dea",
        "896": "Chin",
        "897": "tions▁",
        "898": "ampion",
        "899": "sol",
        "900": "would▁",
        "901": "part",
        "902": "bro",
        "903": "famil",
        "904": "former▁",
        "905": "div",
        "906": "throug",
        "907": "may▁",
        "908": "ple▁",
        "909": "0,▁",
        "910": "mil",
        "911": "Histor",
        "912": "ents",
        "913": "way▁",
        "914": "ref",
        "915": "released▁",
        "916": "different▁",
        "917": "9,▁",
        "918": "offic",
        "919": "bel",
        "920": "sup",
        "921": "efore▁",
        "922": "ce▁",
        "923": "so▁",
        "924": "arm",
        "925": "Am",
        "926": "ates▁",
        "927": "comm",
        "928": "years▁",
        "929": "then▁",
        "930": "fol",
        "931": "law",
        "932": "York▁",
        "933": "ough▁",
        "934": "beg",
        "935": "plac",
        "936": "depart",
        "937": "loc",
        "938": "ys",
        "939": "|199",
        "940": "three▁",
        "941": "re▁",
        "942": "ern▁",
        "943": "Republ",
        "944": "ists",
        "945": "County",
        "946": "der▁",
        "947": "||0||",
        "948": "ement▁",
        "949": "tra",
        "950": "make▁",
        "951": "mak",
        "952": "ouse▁",
        "953": "Ser",
        "954": "car",
        "955": "University▁",
        "956": "ca",
        "957": "mod",
        "958": "His▁",
        "959": "inv",
        "960": "Bar",
        "961": "President▁",
        "962": "ital▁",
        "963": "do",
        "964": "gre",
        "965": "red▁",
        "966": "Cent",
        "967": "mer▁",
        "968": "Russi",
        "969": "ister▁",
        "970": "thern▁",
        "971": "tri",
        "972": "tre",
        "973": "Europe",
        "974": "again",
        "975": "since▁",
        "976": "municipal",
        "977": "12",
        "978": "football",
        "979": "sub",
        "980": "found",
        "981": "music",
        "982": "El",
        "983": "ifor",
        "984": "ale▁",
        "985": "Americ",
        "986": "same▁",
        "987": "Commun",
        "988": "stri",
        "989": "tive▁",
        "990": "Ab",
        "991": "def",
        "992": "Mich",
        "993": "no▁",
        "994": "players",
        "995": "13",
        "996": ",00",
        "997": "jec",
        "998": "iforn",
        "999": "group",
        "1000": "ire",
        "1001": "Part",
        "1002": "some",
        "1003": "vers",
        "1004": "Californ",
        "1005": "cons",
        "1006": "tor▁",
        "1007": "ru",
        "1008": "her",
        "1009": "Off",
        "1010": "lymp",
        "1011": "prof",
        "1012": "sel",
        "1013": "ama▁",
        "1014": "met",
        "1015": "Ang",
        "1016": "Olymp",
        "1017": "fe▁",
        "1018": "colspan",
        "1019": "ating▁",
        "1020": "After▁",
        "1021": "ester",
        "1022": "Ed",
        "1023": "ins",
        "1024": "Char",
        "1025": "dev",
        "1026": "later▁",
        "1027": "Di",
        "1028": "Mov",
        "1029": "14",
        "1030": "Em",
        "1031": "them▁",
        "1032": "countr",
        "1033": "work▁",
        "1034": "time",
        "1035": "1)",
        "1036": "Willi",
        "1037": "often▁",
        "1038": "Me",
        "1039": "pages",
        "1040": "=\"2\"|-",
        "1041": "appe",
        "1042": "named▁",
        "1043": "Per",
        "1044": "189",
        "1045": "roc",
        "1046": "Ear",
        "1047": "ship▁",
        "1048": "gener",
        "1049": "stit",
        "1050": "Rob",
        "1051": "through▁",
        "1052": "player",
        "1053": "care",
        "1054": "do▁",
        "1055": "town▁",
        "1056": "War",
        "1057": "being▁",
        "1058": "times▁",
        "1059": "cul",
        "1060": "der",
        "1061": "ub▁",
        "1062": "ax",
        "1063": "Japanese▁",
        "1064": "ank",
        "1065": "ual▁",
        "1066": "cer",
        "1067": "br",
        "1068": "int",
        "1069": "based▁",
        "1070": "leg",
        "1071": "5)",
        "1072": "Related▁",
        "1073": "seas",
        "1074": "Her",
        "1075": "Lond",
        "1076": "over",
        "1077": "app",
        "1078": "one",
        "1079": "ounc",
        "1080": "present",
        "1081": "music▁",
        "1082": "second▁",
        "1083": "series▁",
        "1084": "Tex",
        "1085": "Cor",
        "1086": "Re",
        "1087": "acc",
        "1088": "3)",
        "1089": "started▁",
        "1090": "organ",
        "1091": "les",
        "1092": "each▁",
        "1093": "ics",
        "1094": "ations",
        "1095": "Bel",
        "1096": "area▁",
        "1097": "gest▁",
        "1098": "1.",
        "1099": "ort▁",
        "1100": "gen",
        "1101": "ur▁",
        "1102": "ets▁",
        "1103": "As▁",
        "1104": "ins▁",
        "1105": "stor",
        "1106": "ows▁",
        "1107": "amm",
        "1108": "\",▁",
        "1109": "Ex",
        "1110": "tle▁",
        "1111": "oth",
        "1112": "bi",
        "1113": "ry",
        "1114": "ings",
        "1115": "sci",
        "1116": "ft▁",
        "1117": "German",
        "1118": "Italian▁",
        "1119": "fiel",
        "1120": "even▁",
        "1121": "typ",
        "1122": "sion▁",
        "1123": "singer",
        "1124": "7)",
        "1125": "8)",
        "1126": "him▁",
        "1127": "ty▁",
        "1128": "lead",
        "1129": "bre",
        "1130": "oper",
        "1131": "against▁",
        "1132": "wom",
        "1133": "ons▁",
        "1134": "bum",
        "1135": "giv",
        "1136": "lim",
        "1137": "number▁",
        "1138": "County▁",
        "1139": "How",
        "1140": "with",
        "1141": "4)",
        "1142": "ach▁",
        "1143": "ze▁",
        "1144": "Ne",
        "1145": "fil",
        "1146": "Te",
        "1147": "exam",
        "1148": "Scot",
        "1149": "ames",
        "1150": "can",
        "1151": "6)",
        "1152": "He",
        "1153": "pow",
        "1154": "ros",
        "1155": "Some▁",
        "1156": "188",
        "1157": "ture▁",
        "1158": "before▁",
        "1159": "ou▁",
        "1160": "2010",
        "1161": "\"|",
        "1162": "actor",
        "1163": "Canadi",
        "1164": "usually▁",
        "1165": "usin",
        "1166": "bri",
        "1167": "2)",
        "1168": "off",
        "1169": "King",
        "1170": "Be",
        "1171": "Se",
        "1172": "Sy",
        "1173": "ugh",
        "1174": "(198",
        "1175": "kill",
        "1176": "\".▁",
        "1177": "||4",
        "1178": "med",
        "1179": "atic▁",
        "1180": "Champion",
        "1181": "Mc",
        "1182": "both▁",
        "1183": "Govern",
        "1184": "Wal",
        "1185": "did▁",
        "1186": "main▁",
        "1187": "struc",
        "1188": "ire▁",
        "1189": "team",
        "1190": "everal▁",
        "1191": "vo",
        "1192": "lig",
        "1193": "anim",
        "1194": "20▁",
        "1195": "compl",
        "1196": "them",
        "1197": "if",
        "1198": "ens▁",
        "1199": "onom",
        "1200": "compos",
        "1201": "ograph",
        "1202": "iss",
        "1203": "high",
        "1204": "ress▁",
        "1205": "county▁",
        "1206": ",000▁",
        "1207": "well▁",
        "1208": "ians▁",
        "1209": "including▁",
        "1210": "early▁",
        "1211": "Asi",
        "1212": "ass▁",
        "1213": "winn",
        "1214": "Offic",
        "1215": "sim",
        "1216": "ead▁",
        "1217": "ke",
        "1218": "under▁",
        "1219": "V▁",
        "1220": "best▁",
        "1221": "these▁",
        "1222": "aur",
        "1223": "scho",
        "1224": "These▁",
        "1225": "population▁",
        "1226": "00▁",
        "1227": "ase▁",
        "1228": "small▁",
        "1229": "ure▁",
        "1230": "When▁",
        "1231": "ters▁",
        "1232": "around▁",
        "1233": "Bo",
        "1234": "Arm",
        "1235": "ary",
        "1236": "tics",
        "1237": "War▁",
        "1238": "aint",
        "1239": "tions",
        "1240": "could▁",
        "1241": "plan",
        "1242": "186",
        "1243": "eder",
        "1244": "marri",
        "1245": "Deaths▁",
        "1246": "igh▁",
        "1247": "&▁",
        "1248": "ucc",
        "1249": "elop",
        "1250": "place▁",
        "1251": "ism",
        "1252": "City",
        "1253": "mat",
        "1254": "ativ",
        "1255": "ons",
        "1256": "appear",
        "1257": "Ass",
        "1258": "ket",
        "1259": "art▁",
        "1260": "team▁",
        "1261": "aged▁",
        "1262": "ography",
        "1263": "fa",
        "1264": "vis",
        "1265": "let",
        "1266": "tak",
        "1267": "10▁",
        "1268": "now▁",
        "1269": "per▁",
        "1270": "Bra",
        "1271": "Dis",
        "1272": "hum",
        "1273": "For▁",
        "1274": "9)",
        "1275": "la",
        "1276": "ace",
        "1277": "mo",
        "1278": "uk",
        "1279": "region▁",
        "1280": "California",
        "1281": "lo",
        "1282": "album",
        "1283": "Sec",
        "1284": "Dav",
        "1285": "Pa",
        "1286": "At▁",
        "1287": "ards▁",
        "1288": "ession",
        "1289": "ek▁",
        "1290": "follow",
        "1291": "canc",
        "1292": "get▁",
        "1293": "said▁",
        "1294": "Dem",
        "1295": "Sch",
        "1296": "import",
        "1297": "Swed",
        "1298": "jo",
        "1299": "dom",
        "1300": "ig▁",
        "1301": "estern▁",
        "1302": "aut",
        "1303": "fec",
        "1304": "Canadian▁",
        "1305": "ages▁",
        "1306": "group▁",
        "1307": "tional▁",
        "1308": "ina▁",
        "1309": "several▁",
        "1310": "2010▁",
        "1311": "orig",
        "1312": "Ro",
        "1313": "tors▁",
        "1314": "Lou",
        "1315": "ocr",
        "1316": "world",
        "1317": "ll▁",
        "1318": "Sup",
        "1319": "ds▁",
        "1320": "Qu",
        "1321": "ned▁",
        "1322": "2.",
        "1323": "mu",
        "1324": "pri",
        "1325": "ral▁",
        "1326": "year▁",
        "1327": "Ber",
        "1328": "Tur",
        "1329": "stud",
        "1330": "Ev",
        "1331": "century▁",
        "1332": "ll",
        "1333": "ina",
        "1334": "player▁",
        "1335": "Pet",
        "1336": "adem",
        "1337": "bum▁",
        "1338": "187",
        "1339": "spe",
        "1340": "cor",
        "1341": "2020▁",
        "1342": "rop",
        "1343": "Roman▁",
        "1344": "||||||||",
        "1345": "ret",
        "1346": "Phil",
        "1347": "Mun",
        "1348": "lev",
        "1349": "game▁",
        "1350": "milli",
        "1351": "ublish",
        "1352": "writer",
        "1353": "directed▁",
        "1354": "ence",
        "1355": "day▁",
        "1356": "ign▁",
        "1357": "io▁",
        "1358": "stu",
        "1359": "peri",
        "1360": "progr",
        "1361": "port▁",
        "1362": "if▁",
        "1363": "zer",
        "1364": "department▁",
        "1365": "iev",
        "1366": "near▁",
        "1367": "On",
        "1368": "ics▁",
        "1369": "back▁",
        "1370": "municipality▁",
        "1371": "And",
        "1372": "set▁",
        "1373": "four▁",
        "1374": "lived▁",
        "1375": "atis",
        "1376": "activ",
        "1377": "inal▁",
        "1378": "Gro",
        "1379": "One▁",
        "1380": "writer▁",
        "1381": "yn",
        "1382": "ame",
        "1383": "Hol",
        "1384": "form▁",
        "1385": "Japan▁",
        "1386": "im▁",
        "1387": "him",
        "1388": "ice",
        "1389": "(201",
        "1390": "arch",
        "1391": "itary▁",
        "1392": "ek",
        "1393": "lit",
        "1394": "rul",
        "1395": "ourn",
        "1396": "career▁",
        "1397": "family▁",
        "1398": "ple",
        "1399": "und▁",
        "1400": "trans",
        "1401": "arti",
        "1402": "buil",
        "1403": "person▁",
        "1404": "ove▁",
        "1405": "Co",
        "1406": "ever▁",
        "1407": "actor▁",
        "1408": "stem",
        "1409": "w▁",
        "1410": "main",
        "1411": "west▁",
        "1412": "album▁",
        "1413": "nec",
        "1414": "poin",
        "1415": "Dist",
        "1416": "Dr",
        "1417": "ght",
        "1418": "disc",
        "1419": "succ",
        "1420": "Minister▁",
        "1421": "Dep",
        "1422": "dio▁",
        "1423": "sch",
        "1424": "William▁",
        "1425": "water▁",
        "1426": "Vi",
        "1427": "curr",
        "1428": "live▁",
        "1429": "isti",
        "1430": "song▁",
        "1431": "%▁",
        "1432": "Su",
        "1433": "pec",
        "1434": "chil",
        "1435": "ists▁",
        "1436": "19▁",
        "1437": "ball▁",
        "1438": "/0",
        "1439": "3.",
        "1440": "Bu",
        "1441": "auth",
        "1442": "while▁",
        "1443": "Cities▁",
        "1444": "International▁",
        "1445": "long",
        "1446": "though▁",
        "1447": "uck",
        "1448": "els",
        "1449": "ung",
        "1450": "House▁",
        "1451": "anish▁",
        "1452": "important▁",
        "1453": "Official▁",
        "1454": "Party▁",
        "1455": "district▁",
        "1456": "\".",
        "1457": "unn",
        "1458": "act▁",
        "1459": "formed▁",
        "1460": "Canad",
        "1461": "The",
        "1462": "contro",
        "1463": "play▁",
        "1464": "vide",
        "1465": "Communes▁",
        "1466": "band",
        "1467": "T▁",
        "1468": "ities",
        "1469": "Mal",
        "1470": "ang▁",
        "1471": "band▁",
        "1472": "began▁",
        "1473": "design",
        "1474": "actress",
        "1475": "ements▁",
        "1476": "Indian▁",
        "1477": "Bro",
        "1478": "ane▁",
        "1479": "ars▁",
        "1480": "king▁",
        "1481": "website",
        "1482": "ron",
        "1483": "ought▁",
        "1484": "York",
        "1485": "build",
        "1486": "mis",
        "1487": "memb",
        "1488": "12▁",
        "1489": "years",
        "1490": "countri",
        "1491": "State▁",
        "1492": "minist",
        "1493": "Australian▁",
        "1494": "chn",
        "1495": "ert▁",
        "1496": "Angel",
        "1497": "any",
        "1498": "what▁",
        "1499": "ble▁",
        "1500": "large▁",
        "1501": "person",
        "1502": "5.",
        "1503": "written▁",
        "1504": "day",
        "1505": "edi",
        "1506": "Sal",
        "1507": "Sen",
        "1508": "ined▁",
        "1509": "publish",
        "1510": "Award▁",
        "1511": "language▁",
        "1512": "ox",
        "1513": "ight",
        "1514": "ick▁",
        "1515": "Mex",
        "1516": "add",
        "1517": "1.▁",
        "1518": "San▁",
        "1519": "air▁",
        "1520": "drama▁",
        "1521": "moved▁",
        "1522": "created▁",
        "1523": "hear",
        "1524": "fri",
        "1525": "mag",
        "1526": "omin",
        "1527": "ak▁",
        "1528": "0)",
        "1529": "Ju",
        "1530": "City▁",
        "1531": "Footb",
        "1532": "D▁",
        "1533": "James▁",
        "1534": "develop",
        "1535": "cy",
        "1536": "ley▁",
        "1537": "sign",
        "1538": "means▁",
        "1539": "ockey▁",
        "1540": "Germany",
        "1541": "ision",
        "1542": "government▁",
        "1543": "2.▁",
        "1544": "(197",
        "1545": "Scho",
        "1546": "restl",
        "1547": "King▁",
        "1548": "15▁",
        "1549": "orge▁",
        "1550": "aff",
        "1551": "Flor",
        "1552": "ator▁",
        "1553": "Russian▁",
        "1554": "pi",
        "1555": "thir",
        "1556": "Jo",
        "1557": "Pal",
        "1558": "Bas",
        "1559": "out",
        "1560": "there",
        "1561": "7.",
        "1562": "Tim",
        "1563": "vol",
        "1564": "ards",
        "1565": "record",
        "1566": "Distric",
        "1567": "ef▁",
        "1568": "ajor▁",
        "1569": "ized▁",
        "1570": "tt",
        "1571": "life",
        "1572": "Christi",
        "1573": "ats▁",
        "1574": "busin",
        "1575": "line▁",
        "1576": "ind▁",
        "1577": "2017▁",
        "1578": "show▁",
        "1579": "using▁",
        "1580": "(2",
        "1581": "Bi",
        "1582": "Gener",
        "1583": "ature▁",
        "1584": "ped▁",
        "1585": "Fir",
        "1586": "largest▁",
        "1587": "augh",
        "1588": "phys",
        "1589": "11▁",
        "1590": "Ale",
        "1591": "Jos",
        "1592": "ened▁",
        "1593": "ked▁",
        "1594": "US▁",
        "1595": "18▁",
        "1596": "bod",
        "1597": "umb",
        "1598": "ust",
        "1599": "Its▁",
        "1600": "Pak",
        "1601": "Reg",
        "1602": "publ",
        "1603": "Sou",
        "1604": "De",
        "1605": "Med",
        "1606": "idd",
        "1607": "However",
        "1608": "185",
        "1609": "Spor",
        "1610": "ful▁",
        "1611": "ians",
        "1612": "last▁",
        "1613": "famous▁",
        "1614": "profession",
        "1615": "||5",
        "1616": "ement",
        "1617": "Movies▁",
        "1618": "how▁",
        "1619": "History",
        "1620": "Politic",
        "1621": "ology",
        "1622": "ze",
        "1623": "stem▁",
        "1624": "yr",
        "1625": "od▁",
        "1626": "held▁",
        "1627": "nov",
        "1628": "CO",
        "1629": "edy▁",
        "1630": "Mor",
        "1631": "chem",
        "1632": "read",
        "1633": "ise▁",
        "1634": "rece",
        "1635": "=\"2\"|",
        "1636": "ft",
        "1637": "Democr",
        "1638": "Sing",
        "1639": "Many▁",
        "1640": "2000",
        "1641": "Chic",
        "1642": "but",
        "1643": "ones",
        "1644": "ided▁",
        "1645": "contin",
        "1646": "country▁",
        "1647": "so",
        "1648": "unc",
        "1649": "prot",
        "1650": "2018▁",
        "1651": "ular▁",
        "1652": "Rich",
        "1653": "ord▁",
        "1654": "George▁",
        "1655": "elected▁",
        "1656": "each",
        "1657": "Pre",
        "1658": "Rec",
        "1659": "ony▁",
        "1660": "long▁",
        "1661": "Mo",
        "1662": "capital▁",
        "1663": "omb",
        "1664": "League",
        "1665": "1)▁",
        "1666": "Har",
        "1667": "|▁",
        "1668": "Fre",
        "1669": "ana",
        "1670": "ates",
        "1671": "4.",
        "1672": "Cath",
        "1673": "much▁",
        "1674": "Mil",
        "1675": "vill",
        "1676": "ator",
        "1677": "Bur",
        "1678": "Cap",
        "1679": "war",
        "1680": "US",
        "1681": "series",
        "1682": "14▁",
        "1683": "Il",
        "1684": "ensus",
        "1685": "ended▁",
        "1686": "8.",
        "1687": "ger▁",
        "1688": "uses▁",
        "1689": "new",
        "1690": "anti",
        "1691": "ult▁",
        "1692": "Ir",
        "1693": "Kh",
        "1694": "stitu",
        "1695": "England",
        "1696": "politicians",
        "1697": "politician▁",
        "1698": "Wil",
        "1699": "ummer▁",
        "1700": "way",
        "1701": "ery▁",
        "1702": "not",
        "1703": "ock▁",
        "1704": "ago",
        "1705": "ext▁",
        "1706": "Atl",
        "1707": "back",
        "1708": "cour",
        "1709": "London",
        "1710": "West▁",
        "1711": "become▁",
        "1712": "itar",
        "1713": "ney▁",
        "1714": "married▁",
        "1715": "Prime▁",
        "1716": "European▁",
        "1717": "still▁",
        "1718": "E▁",
        "1719": "Braz",
        "1720": "attle▁",
        "1721": "east",
        "1722": "Austri",
        "1723": "served▁",
        "1724": "million▁",
        "1725": "tain",
        "1726": "system",
        "1727": "Most▁",
        "1728": "given▁",
        "1729": "ism▁",
        "1730": "tem",
        "1731": "death▁",
        "1732": "13▁",
        "1733": "ah▁",
        "1734": "book▁",
        "1735": "under",
        "1736": "living▁",
        "1737": "Mis",
        "1738": "Sci",
        "1739": "ovi",
        "1740": "ael▁",
        "1741": "ature",
        "1742": "ks",
        "1743": "Ter",
        "1744": "ite",
        "1745": "Spanish▁",
        "1746": "Tw",
        "1747": "oge",
        "1748": "wro",
        "1749": "youn",
        "1750": "ivil▁",
        "1751": "Div",
        "1752": "Ma",
        "1753": "16▁",
        "1754": "mul",
        "1755": "ful",
        "1756": "Afric",
        "1757": "Comp",
        "1758": "istan",
        "1759": "eph",
        "1760": "lec",
        "1761": "include▁",
        "1762": "6.",
        "1763": "forc",
        "1764": "sl",
        "1765": "ance",
        "1766": "3.▁",
        "1767": "wan",
        "1768": "30▁",
        "1769": "sil",
        "1770": "north",
        "1771": "diseas",
        "1772": "..",
        "1773": "2014▁",
        "1774": "fre",
        "1775": "hav",
        "1776": "ier",
        "1777": "educ",
        "1778": "P▁",
        "1779": "Res",
        "1780": "4.▁",
        "1781": "New",
        "1782": "La▁",
        "1783": "went▁",
        "1784": "cr",
        "1785": "John",
        "1786": "arry▁",
        "1787": "identi",
        "1788": "Du",
        "1789": "ains▁",
        "1790": "electr",
        "1791": "Gl",
        "1792": "Air",
        "1793": "Fil",
        "1794": "May",
        "1795": "happ",
        "1796": "Ap",
        "1797": "net",
        "1798": "17▁",
        "1799": "posi",
        "1800": "north▁",
        "1801": "right▁",
        "1802": "||0||1",
        "1803": "ani",
        "1804": "home▁",
        "1805": "go▁",
        "1806": "light▁",
        "1807": "é▁",
        "1808": "grow",
        "1809": "0.",
        "1810": "Wi",
        "1811": "L▁",
        "1812": "Mac",
        "1813": "ient▁",
        "1814": "First▁",
        "1815": "All▁",
        "1816": "charact",
        "1817": "–200",
        "1818": "ale",
        "1819": "ten",
        "1820": "video▁",
        "1821": "lov",
        "1822": "wrote▁",
        "1823": "ley",
        "1824": "ived▁",
        "1825": "rock▁",
        "1826": "caused▁",
        "1827": "Kar",
        "1828": "ana▁",
        "1829": "built▁",
        "1830": "partic",
        "1831": "professional▁",
        "1832": "Ag",
        "1833": "cel",
        "1834": "els▁",
        "1835": "ep▁",
        "1836": "Los▁",
        "1837": "urric",
        "1838": "ver▁",
        "1839": "Lu",
        "1840": "Mi",
        "1841": "7.▁",
        "1842": "games",
        "1843": "Ze",
        "1844": "took▁",
        "1845": "popular▁",
        "1846": "Hen",
        "1847": "ank▁",
        "1848": "led▁",
        "1849": "2019▁",
        "1850": "Actors▁",
        "1851": "common▁",
        "1852": "ve",
        "1853": "off▁",
        "1854": "alist▁",
        "1855": "Er",
        "1856": "America",
        "1857": "fem",
        "1858": "Georg",
        "1859": "equ",
        "1860": "India",
        "1861": "ount▁",
        "1862": "atistics",
        "1863": "stand",
        "1864": "journ",
        "1865": "ene",
        "1866": "word▁",
        "1867": "dren",
        "1868": "5.▁",
        "1869": "ettl",
        "1870": "Not",
        "1871": "cas",
        "1872": "rac",
        "1873": "hor",
        "1874": "ently▁",
        "1875": "Jew",
        "1876": "Sim",
        "1877": "ania",
        "1878": "less▁",
        "1879": "ute▁",
        "1880": "From▁",
        "1881": "||0||0||0||0",
        "1882": "Vir",
        "1883": "Kans",
        "1884": "left▁",
        "1885": "cast",
        "1886": "Don",
        "1887": "dia▁",
        "1888": "sts▁",
        "1889": "view",
        "1890": "ties▁",
        "1891": "Australia",
        "1892": "8.▁",
        "1893": "came▁",
        "1894": "itch",
        "1895": "ei",
        "1896": "sometimes▁",
        "1897": "vir",
        "1898": "military▁",
        "1899": "B▁",
        "1900": "ty",
        "1901": "aw▁",
        "1902": "political▁",
        "1903": "II▁",
        "1904": "Pers",
        "1905": "la▁",
        "1906": "ama",
        "1907": "Cour",
        "1908": "English",
        "1909": "9.▁",
        "1910": "lands▁",
        "1911": "voc",
        "1912": "Thom",
        "1913": "East▁",
        "1914": "univers",
        "1915": "ra▁",
        "1916": "region",
        "1917": "another▁",
        "1918": "does▁",
        "1919": "Emp",
        "1920": "ems▁",
        "1921": "ties",
        "1922": "founded▁",
        "1923": "life▁",
        "1924": "ways▁",
        "1925": "9.",
        "1926": "km",
        "1927": "ille",
        "1928": "becom",
        "1929": "ae",
        "1930": "singer▁",
        "1931": "ex▁",
        "1932": "Municipal",
        "1933": "cell",
        "1934": "show",
        "1935": "spor",
        "1936": "south",
        "1937": "Robert▁",
        "1938": "species▁",
        "1939": "VI",
        "1940": "ie",
        "1941": "oph",
        "1942": "system▁",
        "1943": "my",
        "1944": "Academ",
        "1945": "Prov",
        "1946": "David▁",
        "1947": "During▁",
        "1948": "Texas",
        "1949": "vari",
        "1950": "Carol",
        "1951": "worked▁",
        "1952": "ean▁",
        "1953": "tain▁",
        "1954": "Republic▁",
        "1955": "Ind",
        "1956": "ois",
        "1957": "ai▁",
        "1958": "child",
        "1959": "sty",
        "1960": "owns▁",
        "1961": "men",
        "1962": "Christ",
        "1963": "pris",
        "1964": "cancer",
        "1965": "century",
        "1966": "()▁",
        "1967": "An▁",
        "1968": "book",
        "1969": "just▁",
        "1970": "Sam",
        "1971": "bar",
        "1972": "1,",
        "1973": "expl",
        "1974": "plays▁",
        "1975": "stage▁",
        "1976": "Cam",
        "1977": "Rh",
        "1978": "rang",
        "1979": "ren▁",
        "1980": "Mag",
        "1981": "Illin",
        "1982": "Michael▁",
        "1983": "6.▁",
        "1984": "lands",
        "1985": "Mat",
        "1986": "reas",
        "1987": "announc",
        "1988": "Wash",
        "1989": "Saint",
        "1990": "high▁",
        "1991": "Cathol",
        "1992": "tot",
        "1993": "Port",
        "1994": "Best▁",
        "1995": "official▁",
        "1996": "Dut",
        "1997": "gin",
        "1998": "1990",
        "1999": "ode▁",
        "2000": "ally",
        "2001": "toge",
        "2002": "published▁",
        "2003": "di▁",
        "2004": "western▁",
        "2005": "4)▁",
        "2006": "ob▁",
        "2007": "sen",
        "2008": "ially▁",
        "2009": "see▁",
        "2010": "type▁",
        "2011": "Brazil",
        "2012": "single▁",
        "2013": "que▁",
        "2014": "manag",
        "2015": "East",
        "2016": "relig",
        "2017": "Que",
        "2018": "deb",
        "2019": "ven",
        "2020": "ink▁",
        "2021": "ip▁",
        "2022": "vot",
        "2023": "action▁",
        "2024": "2016▁",
        "2025": "2021▁",
        "2026": "Canada",
        "2027": "Tor",
        "2028": "8),▁",
        "2029": "pass",
        "2030": "retur",
        "2031": "Florid",
        "2032": "guitar",
        "2033": "River▁",
        "2034": "econom",
        "2035": "che",
        "2036": "righ",
        "2037": "|}",
        "2038": "example",
        "2039": "ory",
        "2040": "descri",
        "2041": "1980",
        "2042": "ones▁",
        "2043": "If▁",
        "2044": "third▁",
        "2045": "Washing",
        "2046": "Bal",
        "2047": "dam",
        "2048": "Chur",
        "2049": "7)▁",
        "2050": "comedy▁",
        "2051": "ministr",
        "2052": "gl",
        "2053": "Pop",
        "2054": "phil",
        "2055": "club▁",
        "2056": "seat▁",
        "2057": "Sovi",
        "2058": "well",
        "2059": "Lo",
        "2060": "state",
        "2061": "ade",
        "2062": "my▁",
        "2063": "business",
        "2064": "8)▁",
        "2065": "role▁",
        "2066": "census",
        "2067": "world▁",
        "2068": "believ",
        "2069": "members▁",
        "2070": "ni",
        "2071": "BC▁",
        "2072": "na▁",
        "2073": "emp",
        "2074": "ext",
        "2075": "ning▁",
        "2076": "184",
        "2077": "hal",
        "2078": "Ros",
        "2079": "ches▁",
        "2080": "groups▁",
        "2081": "TV▁",
        "2082": "ept▁",
        "2083": "field▁",
        "2084": "har",
        "2085": "ald▁",
        "2086": "rain",
        "2087": "2)▁",
        "2088": "along▁",
        "2089": "lv",
        "2090": "commune",
        "2091": "province▁",
        "2092": "ago▁",
        "2093": "General▁",
        "2094": "ends▁",
        "2095": "ology▁",
        "2096": "ush",
        "2097": "res▁",
        "2098": "K▁",
        "2099": "Fin",
        "2100": "ery",
        "2101": "1),▁",
        "2102": "Chinese▁",
        "2103": "represent",
        "2104": "Democratic▁",
        "2105": "help▁",
        "2106": "major▁",
        "2107": "Wom",
        "2108": "Arch",
        "2109": "ams▁",
        "2110": "resp",
        "2111": "olu",
        "2112": "term▁",
        "2113": "thing▁",
        "2114": "burg",
        "2115": "simil",
        "2116": "5),▁",
        "2117": "ooks▁",
        "2118": "ematic",
        "2119": "cop",
        "2120": "head",
        "2121": "mean",
        "2122": "scre",
        "2123": "Associ",
        "2124": "Olympic▁",
        "2125": "making▁",
        "2126": "Vic",
        "2127": "(196",
        "2128": "Kore",
        "2129": "ious▁",
        "2130": "ta",
        "2131": "25▁",
        "2132": "put▁",
        "2133": "Charles▁",
        "2134": "athematic",
        "2135": "All",
        "2136": "five▁",
        "2137": "school▁",
        "2138": "order▁",
        "2139": "We",
        "2140": "ines▁",
        "2141": "atural▁",
        "2142": "6),▁",
        "2143": "list▁",
        "2144": "||6",
        "2145": "4),▁",
        "2146": "few▁",
        "2147": "tures▁",
        "2148": "Tel",
        "2149": "inst",
        "2150": "ouse",
        "2151": "side▁",
        "2152": "probl",
        "2153": "ner▁",
        "2154": "183",
        "2155": "Writ",
        "2156": "ily▁",
        "2157": "success",
        "2158": "mount",
        "2159": "south▁",
        "2160": "scienti",
        "2161": "ds",
        "2162": "following▁",
        "2163": "proc",
        "2164": "top▁",
        "2165": "25",
        "2166": "cat",
        "2167": "ower▁",
        "2168": "amb",
        "2169": "Her▁",
        "2170": "ying▁",
        "2171": "ality▁",
        "2172": "ron▁",
        "2173": "statistics",
        "2174": "hab",
        "2175": "Paul▁",
        "2176": "mit",
        "2177": "Eg",
        "2178": "doc",
        "2179": "Colle",
        "2180": "Sports",
        "2181": "makes▁",
        "2182": "Ver",
        "2183": "ps▁",
        "2184": "vic",
        "2185": "change▁",
        "2186": "killed▁",
        "2187": "University",
        "2188": "BC",
        "2189": "2),▁",
        "2190": "Wind",
        "2191": "down▁",
        "2192": "children",
        "2193": "21▁",
        "2194": "Roy",
        "2195": "voice▁",
        "2196": "Vill",
        "2197": "lear",
        "2198": "ants▁",
        "2199": "ams",
        "2200": "2015▁",
        "2201": "those▁",
        "2202": "Lit",
        "2203": "pain",
        "2204": "actress▁",
        "2205": "7),▁",
        "2206": "peror▁",
        "2207": "works▁",
        "2208": "Kn",
        "2209": "got▁",
        "2210": "3)▁",
        "2211": "ocial▁",
        "2212": "Mer",
        "2213": "dem",
        "2214": "aver",
        "2215": "Des",
        "2216": "ines",
        "2217": "deaths▁",
        "2218": "ward▁",
        "2219": "cu",
        "2220": "Mad",
        "2221": "tour",
        "2222": "every▁",
        "2223": "Gold",
        "2224": "Park",
        "2225": "berg",
        "2226": "power▁",
        "2227": "non",
        "2228": "dge▁",
        "2229": "tin▁",
        "2230": "heart▁",
        "2231": "6)▁",
        "2232": "Soviet▁",
        "2233": "phot",
        "2234": "albums",
        "2235": "river▁",
        "2236": "Football▁",
        "2237": "key",
        "2238": "Play",
        "2239": "FA▁",
        "2240": "ere",
        "2241": "hand",
        "2242": "produced▁",
        "2243": "Bor",
        "2244": "osp",
        "2245": "rog",
        "2246": "=▁",
        "2247": "ta▁",
        "2248": "feder",
        "2249": "take▁",
        "2250": "5)▁",
        "2251": "pur",
        "2252": "writers",
        "2253": "located▁",
        "2254": "version▁",
        "2255": "/9",
        "2256": "good▁",
        "2257": "next▁",
        "2258": "ross▁",
        "2259": "hol",
        "2260": "Alex",
        "2261": "Mexic",
        "2262": "epend",
        "2263": "complet",
        "2264": "ording▁",
        "2265": "independ",
        "2266": "Bec",
        "2267": "List▁",
        "2268": "charac",
        "2269": "se▁",
        "2270": "Asia",
        "2271": "ata▁",
        "2272": "list",
        "2273": "head▁",
        "2274": "Greek▁",
        "2275": "mot",
        "2276": "||0||2",
        "2277": "ean",
        "2278": "roy",
        "2279": "Cong",
        "2280": "Club▁",
        "2281": "ety▁",
        "2282": "Dutch▁",
        "2283": "Cup▁",
        "2284": "received▁",
        "2285": "Hum",
        "2286": "Jack",
        "2287": "attack",
        "2288": "without▁",
        "2289": "Sar",
        "2290": "1970",
        "2291": "itzer",
        "2292": "urricane▁",
        "2293": "Bir",
        "2294": "flu",
        "2295": "COVI",
        "2296": "reti",
        "2297": "parts▁",
        "2298": "father▁",
        "2299": "Pat",
        "2300": "earch▁",
        "2301": "ka",
        "2302": "ri▁",
        "2303": "Summer▁",
        "2304": "sw",
        "2305": "Kur",
        "2306": "ief▁",
        "2307": "daugh",
        "2308": "placed▁",
        "2309": "ner",
        "2310": "Isra",
        "2311": "COVID",
        "2312": "formation▁",
        "2313": "ce",
        "2314": "9),▁",
        "2315": "ated",
        "2316": "season",
        "2317": "Met",
        "2318": "Pic",
        "2319": "movie",
        "2320": "esh",
        "2321": "ied▁",
        "2322": "most",
        "2323": "ments",
        "2324": "public▁",
        "2325": "3),▁",
        "2326": "ised▁",
        "2327": "Cur",
        "2328": "Dar",
        "2329": "ham",
        "2330": "thought▁",
        "2331": "Si",
        "2332": "Sk",
        "2333": "Ben",
        "2334": "gar",
        "2335": "Im",
        "2336": "Switzer",
        "2337": "ile",
        "2338": "2011▁",
        "2339": "Great▁",
        "2340": "Pakistan",
        "2341": "announced▁",
        "2342": "WW",
        "2343": "country",
        "2344": "Richard▁",
        "2345": "adu",
        "2346": "camp",
        "2347": "total▁",
        "2348": "related▁",
        "2349": "45",
        "2350": "Del",
        "2351": "lab",
        "2352": "cal",
        "2353": "ms▁",
        "2354": "Penn",
        "2355": "Kingdom",
        "2356": "ets",
        "2357": "ka▁",
        "2358": "epis",
        "2359": "2006▁",
        "2360": "Sol",
        "2361": "Tri",
        "2362": "100▁",
        "2363": "Championship▁",
        "2364": "Sant",
        "2365": "effec",
        "2366": "Academy▁",
        "2367": "2007▁",
        "2368": "school",
        "2369": "election▁",
        "2370": "Cr",
        "2371": "Cre",
        "2372": "atives▁",
        "2373": "30",
        "2374": "ha",
        "2375": "val",
        "2376": "2013▁",
        "2377": "alth▁",
        "2378": "rown▁",
        "2379": "continu",
        "2380": "Republican▁",
        "2381": "body▁",
        "2382": "consid",
        "2383": "b▁",
        "2384": "Afr",
        "2385": "fail",
        "2386": "film▁",
        "2387": "water",
        "2388": "ipp",
        "2389": "fied▁",
        "2390": "short▁",
        "2391": "city",
        "2392": "dom▁",
        "2393": "vent",
        "2394": "2000▁",
        "2395": "tical▁",
        "2396": "similar▁",
        "2397": "appeared▁",
        "2398": "Fri",
        "2399": "rom",
        "2400": "men▁",
        "2401": "trop",
        "2402": "by",
        "2403": "ident",
        "2404": "West",
        "2405": "wrestl",
        "2406": "author",
        "2407": "engine",
        "2408": "general▁",
        "2409": "Ca",
        "2410": ".,▁",
        "2411": "ap▁",
        "2412": "dra",
        "2413": "que",
        "2414": "viol",
        "2415": "you▁",
        "2416": "human▁",
        "2417": "olv",
        "2418": "hockey▁",
        "2419": "!▁",
        "2420": "Nob",
        "2421": "ches",
        "2422": "liam",
        "2423": "London▁",
        "2424": "22▁",
        "2425": "Gen",
        "2426": "Jer",
        "2427": "China",
        "2428": "resent",
        "2429": "African▁",
        "2430": "Counc",
        "2431": "ency▁",
        "2432": "ketball▁",
        "2433": "abil",
        "2434": "war▁",
        "2435": "seen▁",
        "2436": "collec",
        "2437": "countries▁",
        "2438": "ino▁",
        "2439": "24▁",
        "2440": "tern",
        "2441": "23▁",
        "2442": "ides▁",
        "2443": "mostly▁",
        "2444": "footballer",
        "2445": "footballers",
        "2446": "Go",
        "2447": "Hy",
        "2448": "Texas▁",
        "2449": "special▁",
        "2450": "Cup",
        "2451": "ali",
        "2452": "occ",
        "2453": "come▁",
        "2454": "techn",
        "2455": "commune▁",
        "2456": "Represent",
        "2457": "Rev",
        "2458": "Belg",
        "2459": "Jers",
        "2460": "comes▁",
        "2461": "Po",
        "2462": "Hon",
        "2463": "Italy",
        "2464": "sible▁",
        "2465": "organiz",
        "2466": "season▁",
        "2467": "company▁",
        "2468": "kl",
        "2469": "resul",
        "2470": "Thomas▁",
        "2471": "things▁",
        "2472": "Swedish▁",
        "2473": "cant",
        "2474": "ions▁",
        "2475": "Henry▁",
        "2476": "ox▁",
        "2477": "pat",
        "2478": "2012▁",
        "2479": "starr",
        "2480": "mb",
        "2481": "Mur",
        "2482": "ake",
        "2483": "small",
        "2484": "international▁",
        "2485": "Mel",
        "2486": "trav",
        "2487": "Ham",
        "2488": "Zeal",
        "2489": "must▁",
        "2490": "Virgin",
        "2491": "iddle▁",
        "2492": "local▁",
        "2493": "Arg",
        "2494": "ham▁",
        "2495": "Catholic▁",
        "2496": "president▁",
        "2497": "Gar",
        "2498": "ag▁",
        "2499": "ket▁",
        "2500": "village▁",
        "2501": "|198",
        "2502": "reach",
        "2503": "teach",
        "2504": "Acc",
        "2505": "Union▁",
        "2506": "ander▁",
        "2507": "eball▁",
        "2508": "Central▁",
        "2509": "Op",
        "2510": "Isl",
        "2511": "Law",
        "2512": "class",
        "2513": "uter▁",
        "2514": "Cast",
        "2515": "law▁",
        "2516": "radi",
        "2517": "France▁",
        "2518": "History▁",
        "2519": "character▁",
        "2520": "Gir",
        "2521": "four",
        "2522": "ium▁",
        "2523": "2008▁",
        "2524": "Sportspeople▁",
        "2525": "chur",
        "2526": "mur",
        "2527": "Mass",
        "2528": "name",
        "2529": "ster",
        "2530": "ude▁",
        "2531": "–199",
        "2532": "nomin",
        "2533": "udd",
        "2534": "Elec",
        "2535": "sylv",
        "2536": "protec",
        "2537": "Scottish▁",
        "2538": "ball",
        "2539": "late▁",
        "2540": "director▁",
        "2541": "original▁",
        "2542": "9)▁",
        "2543": "hold",
        "2544": "Sur",
        "2545": "Web",
        "2546": "ac▁",
        "2547": "ma▁",
        "2548": "Egyp",
        "2549": "view▁",
        "2550": "Switzerland",
        "2551": "||7",
        "2552": "its",
        "2553": "eter",
        "2554": "Christian▁",
        "2555": "N▁",
        "2556": "ese",
        "2557": "clos",
        "2558": "host",
        "2559": "tradi",
        "2560": "modern▁",
        "2561": "provinc",
        "2562": "tropical▁",
        "2563": "M▁",
        "2564": "50▁",
        "2565": "aim",
        "2566": "ial",
        "2567": "Red▁",
        "2568": "did",
        "2569": "1960",
        "2570": "ography▁",
        "2571": "includes▁",
        "2572": "Soci",
        "2573": "east▁",
        "2574": "light",
        "2575": "mathematic",
        "2576": "r▁",
        "2577": "fer",
        "2578": "ored▁",
        "2579": "ground",
        "2580": "Val",
        "2581": "ro▁",
        "2582": "champion",
        "2583": "due▁",
        "2584": "joined▁",
        "2585": "FI",
        "2586": "games▁",
        "2587": "playing▁",
        "2588": "perform",
        "2589": "Pas",
        "2590": "||8",
        "2591": "itiz",
        "2592": "Leg",
        "2593": "Smi",
        "2594": "eld",
        "2595": "Arab",
        "2596": "epar",
        "2597": "ject▁",
        "2598": "cycl",
        "2599": "sequ",
        "2600": "ground▁",
        "2601": "history",
        "2602": "27▁",
        "2603": "2004▁",
        "2604": "broad",
        "2605": "Illinois",
        "2606": "medi",
        "2607": "six▁",
        "2608": "Prize▁",
        "2609": "should▁",
        "2610": "Writers▁",
        "2611": "established▁",
        "2612": "Bul",
        "2613": "ford▁",
        "2614": "Brit",
        "2615": "Pref",
        "2616": "lot▁",
        "2617": "tran",
        "2618": "Hall▁",
        "2619": "connec",
        "2620": "Pennsylv",
        "2621": "Governor▁",
        "2622": "big",
        "2623": "win▁",
        "2624": "self▁",
        "2625": "11",
        "2626": "28▁",
        "2627": "hon",
        "2628": "Mont",
        "2629": "clim",
        "2630": "Peter▁",
        "2631": "GB",
        "2632": "indu",
        "2633": "Music▁",
        "2634": "R▁",
        "2635": "Luc",
        "2636": "ars",
        "2637": "dic",
        "2638": "pian",
        "2639": "try▁",
        "2640": "Feder",
        "2641": "Prefec",
        "2642": "ators▁",
        "2643": "within▁",
        "2644": "Jac",
        "2645": "self",
        "2646": "allow",
        "2647": "Grand▁",
        "2648": "ma",
        "2649": "Depart",
        "2650": "story▁",
        "2651": "record▁",
        "2652": "co▁",
        "2653": "able",
        "2654": "physic",
        "2655": "history▁",
        "2656": "times",
        "2657": "yl",
        "2658": "au▁",
        "2659": "gave▁",
        "2660": "leader▁",
        "2661": "Championship",
        "2662": "ms",
        "2663": "exec",
        "2664": "ij",
        "2665": "eth",
        "2666": "peti",
        "2667": "piec",
        "2668": "2005▁",
        "2669": "away▁",
        "2670": "changed▁",
        "2671": "appl",
        "2672": "Muse",
        "2673": "natural▁",
        "2674": "ger",
        "2675": "oss",
        "2676": "we▁",
        "2677": "eth▁",
        "2678": "radio▁",
        "2679": "stars▁",
        "2680": "Battle▁",
        "2681": "exc",
        "2682": "gy▁",
        "2683": "tar",
        "2684": "ior▁",
        "2685": "Park▁",
        "2686": "Royal▁",
        "2687": "Politicians▁",
        "2688": "O▁",
        "2689": "multi",
        "2690": "distri",
        "2691": "ering▁",
        "2692": "troduc",
        "2693": "winning▁",
        "2694": "3\"|",
        "2695": "bed▁",
        "2696": "Vol",
        "2697": "syn",
        "2698": "But▁",
        "2699": "defe",
        "2700": "overed▁",
        "2701": "ants",
        "2702": "avy▁",
        "2703": "dies▁",
        "2704": "inds▁",
        "2705": "round",
        "2706": "screen",
        "2707": "young▁",
        "2708": "Polish▁",
        "2709": "current▁",
        "2710": "together▁",
        "2711": "Mu",
        "2712": "180",
        "2713": "ash▁",
        "2714": "eastern▁",
        "2715": "To▁",
        "2716": "becomes▁",
        "2717": "Dev",
        "2718": "aly",
        "2719": "sal",
        "2720": "ford",
        "2721": "need",
        "2722": "stre",
        "2723": "ung▁",
        "2724": "station▁",
        "2725": "Brazilian▁",
        "2726": "Gall",
        "2727": "mach",
        "2728": "ples▁",
        "2729": "tics▁",
        "2730": "rights▁",
        "2731": "included▁",
        "2732": "40",
        "2733": "bour",
        "2734": "ene▁",
        "2735": "nation",
        "2736": "remain",
        "2737": "School▁",
        "2738": "Emperor▁",
        "2739": "Jr",
        "2740": ".\"▁",
        "2741": "Mah",
        "2742": "Ohi",
        "2743": "ged▁",
        "2744": "=\"3\"|",
        "2745": "100",
        "2746": "conduc",
        "2747": "Louis",
        "2748": "ille▁",
        "2749": "administr",
        "2750": "Kr",
        "2751": "town",
        "2752": "aper▁",
        "2753": "berg▁",
        "2754": "Win",
        "2755": "ling",
        "2756": "shar",
        "2757": "mater",
        "2758": "Early▁",
        "2759": "origin",
        "2760": "area",
        "2761": "thod",
        "2762": "2001▁",
        "2763": "groups",
        "2764": "1950",
        "2765": "Black▁",
        "2766": "house▁",
        "2767": "No",
        "2768": "26▁",
        "2769": "Educ",
        "2770": "Chicago",
        "2771": "29▁",
        "2772": "ats",
        "2773": "cle",
        "2774": "cra",
        "2775": "ross",
        "2776": "||0||3",
        "2777": "Iran",
        "2778": "Army▁",
        "2779": "Music",
        "2780": "Since▁",
        "2781": "viv",
        "2782": "Instit",
        "2783": "Former▁",
        "2784": "Juli",
        "2785": "associ",
        "2786": "Ur",
        "2787": "wat",
        "2788": "sea▁",
        "2789": "separ",
        "2790": "ished▁",
        "2791": "ott",
        "2792": "department",
        "2793": "mem",
        "2794": "ney",
        "2795": "2009▁",
        "2796": "bert▁",
        "2797": "FC▁",
        "2798": "inj",
        "2799": "(193",
        "2800": "dest",
        "2801": "lawy",
        "2802": "Civil▁",
        "2803": "Sa",
        "2804": "Sain",
        "2805": "lin▁",
        "2806": "requ",
        "2807": "align",
        "2808": "district",
        "2809": "pe▁",
        "2810": "itec",
        "2811": "runn",
        "2812": "island▁",
        "2813": "Ha",
        "2814": "fire▁",
        "2815": "Argent",
        "2816": "La",
        "2817": "no",
        "2818": "itz",
        "2819": "die▁",
        "2820": "ific▁",
        "2821": "Nobel▁",
        "2822": "Portug",
        "2823": "developed▁",
        "2824": "liz",
        "2825": "sex",
        "2826": "low▁",
        "2827": "prob",
        "2828": "Asian▁",
        "2829": "Jewish▁",
        "2830": "(3",
        "2831": "Fer",
        "2832": "king",
        "2833": "philos",
        "2834": "By▁",
        "2835": "aves▁",
        "2836": "habit",
        "2837": "Victor",
        "2838": "li▁",
        "2839": "ío▁",
        "2840": "ica▁",
        "2841": "ya▁",
        "2842": "ital",
        "2843": "omet",
        "2844": "Mount",
        "2845": "lost▁",
        "2846": "women",
        "2847": "Israel",
        "2848": "soci",
        "2849": "uel▁",
        "2850": "–201",
        "2851": "ending▁",
        "2852": "fac",
        "2853": "books",
        "2854": "ues▁",
        "2855": "Sweden",
        "2856": "Pan",
        "2857": "del",
        "2858": "exp",
        "2859": "event",
        "2860": "NA",
        "2861": "Cze",
        "2862": "agre",
        "2863": "func",
        "2864": "ole▁",
        "2865": "wea",
        "2866": "Bern",
        "2867": "big▁",
        "2868": "other",
        "2869": "Louis▁",
        "2870": "taken▁",
        "2871": "Western▁",
        "2872": "gir",
        "2873": "Africa",
        "2874": "artist",
        "2875": "least▁",
        "2876": "Because▁",
        "2877": "children▁",
        "2878": "Stu",
        "2879": "ots▁",
        "2880": "rain▁",
        "2881": "songs",
        "2882": "tice▁",
        "2883": "title▁",
        "2884": "having▁",
        "2885": "Hel",
        "2886": "(195",
        "2887": "fact",
        "2888": "ettlements▁",
        "2889": "assi",
        "2890": "Andre",
        "2891": "production▁",
        "2892": "ini",
        "2893": "bass",
        "2894": "ough",
        "2895": "liter",
        "2896": "southern▁",
        "2897": "Land",
        "2898": "run▁",
        "2899": "wood",
        "2900": "black▁",
        "2901": "50",
        "2902": "Den",
        "2903": "Princ",
        "2904": "aster",
        "2905": "2020)▁",
        "2906": "Gra",
        "2907": "Lab",
        "2908": "eau",
        "2909": "Turk",
        "2910": "ena▁",
        "2911": "soldi",
        "2912": "aster▁",
        "2913": "central▁",
        "2914": "introduc",
        "2915": "lad",
        "2916": "Enter",
        "2917": "ense▁",
        "2918": "ests▁",
        "2919": "England▁",
        "2920": "director",
        "2921": ".\"",
        "2922": "Kent",
        "2923": "spir",
        "2924": "Islam",
        "2925": "control▁",
        "2926": "un▁",
        "2927": "Record",
        "2928": "ental▁",
        "2929": "squ",
        "2930": "shire",
        "2931": "Angeles",
        "2932": "Kingdom▁",
        "2933": "Bre",
        "2934": "Gal",
        "2935": "Mos",
        "2936": "far",
        "2937": "again▁",
        "2938": "ww",
        "2939": "(;▁",
        "2940": "Fam",
        "2941": "||9",
        "2942": "rough",
        "2943": "Uk",
        "2944": "lav",
        "2945": "top",
        "2946": "sych",
        "2947": "repor",
        "2948": "School",
        "2949": "Florida",
        "2950": "(19",
        "2951": "stat",
        "2952": "countries",
        "2953": "mix",
        "2954": "wid",
        "2955": "ier▁",
        "2956": "great▁",
        "2957": "active▁",
        "2958": "Pac",
        "2959": "den",
        "2960": "god",
        "2961": "family",
        "2962": "women▁",
        "2963": "center▁",
        "2964": "considered▁",
        "2965": "jud",
        "2966": "ific",
        "2967": "2002▁",
        "2968": "states▁",
        "2969": "idential▁",
        "2970": "basketball▁",
        "2971": "oon▁",
        "2972": "Prince▁",
        "2973": "oll",
        "2974": "Stev",
        "2975": "You▁",
        "2976": "uset",
        "2977": "Premi",
        "2978": "Michig",
        "2979": "essor▁",
        "2980": "/▁",
        "2981": "Sil",
        "2982": "money▁",
        "2983": "female▁",
        "2984": "position▁",
        "2985": "whe",
        "2986": "Prof",
        "2987": "diss",
        "2988": "(\"",
        "2989": "rail",
        "2990": "rest",
        "2991": "field",
        "2992": "give▁",
        "2993": "studied▁",
        "2994": "Northern▁",
        "2995": "days▁",
        "2996": "gradu",
        "2997": "recog",
        "2998": "2010,▁",
        "2999": "Up",
        "3000": "zz",
        "3001": "Earth",
        "3002": "death",
        "3003": "wood▁",
        "3004": "temper",
        "3005": "highest▁",
        "3006": "producer",
        "3007": "Bang",
        "3008": "power",
        "3009": "lives▁",
        "3010": "Austrian▁",
        "3011": "dia",
        "3012": "fur",
        "3013": "ns▁",
        "3014": "ult",
        "3015": "pop▁",
        "3016": "face▁",
        "3017": "common",
        "3018": "ights▁",
        "3019": "Lib",
        "3020": "Ori",
        "3021": "Hung",
        "3022": "Minn",
        "3023": "arded▁",
        "3024": "Clar",
        "3025": "High",
        "3026": "citiz",
        "3027": "Massach",
        "3028": "almost▁",
        "3029": "amount▁",
        "3030": "better▁",
        "3031": "places▁",
        "3032": "government",
        "3033": "Massachuset",
        "3034": "Settlements▁",
        "3035": "Dani",
        "3036": "numb",
        "3037": "outs",
        "3038": "Towns▁",
        "3039": "ological▁",
        "3040": "Mart",
        "3041": "building▁",
        "3042": "cir",
        "3043": "mor",
        "3044": "rip",
        "3045": "avar",
        "3046": "find▁",
        "3047": "posed▁",
        "3048": "composer▁",
        "3049": "problems▁",
        "3050": "lor",
        "3051": "car▁",
        "3052": "Irish▁",
        "3053": "point▁",
        "3054": "certain▁",
        "3055": "W▁",
        "3056": "Tre",
        "3057": "Jersey",
        "3058": "ained▁",
        "3059": "mother▁",
        "3060": "15,▁",
        "3061": "comb",
        "3062": "super",
        "3063": "transl",
        "3064": "Association▁",
        "3065": "Gi",
        "3066": "thr",
        "3067": "site",
        "3068": "among▁",
        "3069": "Francis",
        "3070": "du",
        "3071": "Cas",
        "3072": "You",
        "3073": "mid",
        "3074": "Big▁",
        "3075": "ara▁",
        "3076": "net▁",
        "3077": "open",
        "3078": "ury▁",
        "3079": "ves▁",
        "3080": "white▁",
        "3081": "Korean▁",
        "3082": "Ra",
        "3083": "study▁",
        "3084": "movies▁",
        "3085": "oday",
        "3086": "ois▁",
        "3087": "High▁",
        "3088": "Minist",
        "3089": "Municipalities▁",
        "3090": "Pi",
        "3091": "179",
        "3092": "log",
        "3093": "ull",
        "3094": "chan",
        "3095": "ids▁",
        "3096": "iss▁",
        "3097": "2003▁",
        "3098": "Missou",
        "3099": "Nether",
        "3100": "areas▁",
        "3101": "atin▁",
        "3102": "Court▁",
        "3103": "Their▁",
        "3104": "(192",
        "3105": "Anim",
        "3106": "Viet",
        "3107": "Spain",
        "3108": "shows▁",
        "3109": "retired▁",
        "3110": "23",
        "3111": "see",
        "3112": "Youn",
        "3113": "compan",
        "3114": "atures▁",
        "3115": "Ob",
        "3116": "gy",
        "3117": "Day▁",
        "3118": "azz▁",
        "3119": "ropol",
        "3120": "strum",
        "3121": "ures▁",
        "3122": "Cri",
        "3123": "ink",
        "3124": "Río▁",
        "3125": "astr",
        "3126": "leag",
        "3127": "wanted▁",
        "3128": "northern▁",
        "3129": "With▁",
        "3130": "sent▁",
        "3131": "compet",
        "3132": "musical▁",
        "3133": "24",
        "3134": "rid",
        "3135": "sour",
        "3136": "says▁",
        "3137": "above▁",
        "3138": "board▁",
        "3139": "always▁",
        "3140": "Carolina",
        "3141": "na",
        "3142": "addi",
        "3143": "thre",
        "3144": "average▁",
        "3145": "Cat",
        "3146": "Nic",
        "3147": "uel",
        "3148": "Vall",
        "3149": "ucle",
        "3150": "uty▁",
        "3151": "Party",
        "3152": "Star▁",
        "3153": "Secret",
        "3154": "takes▁",
        "3155": "canton▁",
        "3156": "Ky",
        "3157": "Mr",
        "3158": "hom",
        "3159": "ota",
        "3160": "ris",
        "3161": "tit",
        "3162": "Spec",
        "3163": "say▁",
        "3164": "ula▁",
        "3165": "-19",
        "3166": "ugg",
        "3167": "ells▁",
        "3168": "estiv",
        "3169": "lead▁",
        "3170": "site▁",
        "3171": "involv",
        "3172": "District",
        "3173": "run",
        "3174": "line",
        "3175": "Liber",
        "3176": "ett",
        "3177": "ops▁",
        "3178": "quar",
        "3179": "ster▁",
        "3180": "ested▁",
        "3181": "2,",
        "3182": "ban",
        "3183": "cle▁",
        "3184": "left",
        "3185": "osaur",
        "3186": "social▁",
        "3187": "language",
        "3188": "Iow",
        "3189": "enz",
        "3190": "acy▁",
        "3191": "down",
        "3192": "onic▁",
        "3193": "either▁",
        "3194": "little▁",
        "3195": "ely",
        "3196": "symb",
        "3197": "working▁",
        "3198": "Os",
        "3199": "Ari",
        "3200": "Tok",
        "3201": "fron",
        "3202": "period",
        "3203": "cities▁",
        "3204": "divided▁",
        "3205": "God",
        "3206": "Mod",
        "3207": "ena",
        "3208": "ishop▁",
        "3209": "songwriter",
        "3210": "og▁",
        "3211": "tari",
        "3212": "burg▁",
        "3213": "eign▁",
        "3214": "direct",
        "3215": "Kor",
        "3216": "Camp",
        "3217": "Paris",
        "3218": "food▁",
        "3219": "goes▁",
        "3220": "sold▁",
        "3221": "Germany▁",
        "3222": "F▁",
        "3223": "—▁",
        "3224": "Wik",
        "3225": "ti▁",
        "3226": "tra▁",
        "3227": "influ",
        "3228": "road▁",
        "3229": "fr",
        "3230": "Ire",
        "3231": "read▁",
        "3232": "opened▁",
        "3233": "anth",
        "3234": "1988▁",
        "3235": "books▁",
        "3236": "competi",
        "3237": "mainly▁",
        "3238": "Hor",
        "3239": "ump",
        "3240": "eph▁",
        "3241": "ales▁",
        "3242": "words▁",
        "3243": "information▁",
        "3244": "My▁",
        "3245": "Stre",
        "3246": "Lake▁",
        "3247": "Latin▁",
        "3248": "erence▁",
        "3249": "example▁",
        "3250": "UK▁",
        "3251": "1||1",
        "3252": "Care",
        "3253": "That▁",
        "3254": "never▁",
        "3255": "Philipp",
        "3256": "ran▁",
        "3257": "North",
        "3258": "sound",
        "3259": "Columb",
        "3260": "Order▁",
        "3261": "alists",
        "3262": "ender▁",
        "3263": "Prefecture",
        "3264": "My",
        "3265": "Air▁",
        "3266": "speak",
        "3267": "Island",
        "3268": "territ",
        "3269": "tural▁",
        "3270": "founder▁",
        "3271": "Fe",
        "3272": "Som",
        "3273": "wal",
        "3274": "ched▁",
        "3275": "wide▁",
        "3276": "China▁",
        "3277": "Wrestl",
        "3278": "antic▁",
        "3279": "Parliam",
        "3280": "ety",
        "3281": "ler",
        "3282": "pic",
        "3283": "meas",
        "3284": "this",
        "3285": "artic",
        "3286": "newsp",
        "3287": "wife▁",
        "3288": "Kansas",
        "3289": "Entertain",
        "3290": "sn",
        "3291": "gold▁",
        "3292": "later",
        "3293": "rest▁",
        "3294": "viron",
        "3295": "comedi",
        "3296": "istan▁",
        "3297": "suppor",
        "3298": "Joseph▁",
        "3299": "theast▁",
        "3300": "Premier▁",
        "3301": "various▁",
        "3302": "ope",
        "3303": "Rang",
        "3304": "ersh",
        "3305": "game",
        "3306": "river",
        "3307": "event▁",
        "3308": "meaning▁",
        "3309": "District▁",
        "3310": "Sub",
        "3311": "Tot",
        "3312": "oon",
        "3313": "tow",
        "3314": "People",
        "3315": "iller▁",
        "3316": "Hockey▁",
        "3317": "Kansas▁",
        "3318": "Chicago▁",
        "3319": "dro",
        "3320": "get",
        "3321": "singers",
        "3322": "ropical▁",
        "3323": "Pennsylvania",
        "3324": "1-",
        "3325": "deg",
        "3326": "red",
        "3327": "(194",
        "3328": "Notes",
        "3329": "College▁",
        "3330": "Council▁",
        "3331": "present▁",
        "3332": "IS",
        "3333": "isl",
        "3334": "club",
        "3335": "shap",
        "3336": "espec",
        "3337": "idents▁",
        "3338": "ony",
        "3339": "18,▁",
        "3340": "1990▁",
        "3341": "1999▁",
        "3342": "close▁",
        "3343": "reached▁",
        "3344": "computer▁",
        "3345": "(8",
        "3346": "Cub",
        "3347": "fig",
        "3348": "ino",
        "3349": "ren",
        "3350": "ring▁",
        "3351": "Harry▁",
        "3352": "civil▁",
        "3353": "Ak",
        "3354": "ga",
        "3355": "agu",
        "3356": "dig",
        "3357": "Ohio",
        "3358": "conc",
        "3359": "1984▁",
        "3360": "press",
        "3361": "Senate▁",
        "3362": "Division▁",
        "3363": "daughter▁",
        "3364": "ica",
        "3365": "ont",
        "3366": "edit",
        "3367": "fall",
        "3368": "hit▁",
        "3369": "med▁",
        "3370": "level",
        "3371": "occur",
        "3372": "party▁",
        "3373": "round▁",
        "3374": "police▁",
        "3375": "Government▁",
        "3376": "31▁",
        "3377": "12,▁",
        "3378": "Tran",
        "3379": "ellow▁",
        "3380": "Bon",
        "3381": "Far",
        "3382": "17,▁",
        "3383": "stro",
        "3384": "1995▁",
        "3385": "ynast",
        "3386": "ications▁",
        "3387": "songs▁",
        "3388": "start▁",
        "3389": "think▁",
        "3390": "types▁",
        "3391": "Republic",
        "3392": "3–",
        "3393": "Bab",
        "3394": "ane",
        "3395": "don",
        "3396": "sof",
        "3397": "Group",
        "3398": "Super▁",
        "3399": "disease",
        "3400": "\")▁",
        "3401": "ium",
        "3402": "issu",
        "3403": "Queen▁",
        "3404": "lines▁",
        "3405": "Edward▁",
        "3406": "ps",
        "3407": "ls▁",
        "3408": "1991▁",
        "3409": "Ko",
        "3410": "ably▁",
        "3411": "chest",
        "3412": "move▁",
        "3413": "metal▁",
        "3414": "might▁",
        "3415": "winners",
        "3416": "science▁",
        "3417": "According▁",
        "3418": "90",
        "3419": "Spr",
        "3420": "ais",
        "3421": "ita▁",
        "3422": "norm",
        "3423": "row▁",
        "3424": "condi",
        "3425": "Church▁",
        "3426": "period▁",
        "3427": "baseball▁",
        "3428": "Lar",
        "3429": "Two▁",
        "3430": "execu",
        "3431": "across▁",
        "3432": "especially▁",
        "3433": "Ni",
        "3434": "14,▁",
        "3435": "16,▁",
        "3436": "Radi",
        "3437": "Stor",
        "3438": "Love▁",
        "3439": "ques▁",
        "3440": "Awards",
        "3441": "Windows▁",
        "3442": "Washington",
        "3443": "performed▁",
        "3444": "footballer▁",
        "3445": "5–",
        "3446": "It",
        "3447": "1980▁",
        "3448": "sports",
        "3449": "instrum",
        "3450": "Busin",
        "3451": "earli",
        "3452": "free▁",
        "3453": "2020,▁",
        "3454": "Ontari",
        "3455": "atory▁",
        "3456": "cause▁",
        "3457": "prison",
        "3458": "proper",
        "3459": "support▁",
        "3460": "Tom",
        "3461": "ive",
        "3462": "Chil",
        "3463": "ani▁",
        "3464": "antas",
        "3465": "novel",
        "3466": "Minnes",
        "3467": "forms▁",
        "3468": "strong▁",
        "3469": "Department▁",
        "3470": "Gh",
        "3471": "Pu",
        "3472": "Sm",
        "3473": "Haut",
        "3474": "1994▁",
        "3475": "Empire",
        "3476": "woman▁",
        "3477": "ancient▁",
        "3478": "chemical▁",
        "3479": "1–",
        "3480": "Ath",
        "3481": "1996▁",
        "3482": "author▁",
        "3483": "mission",
        "3484": "replaced▁",
        "3485": "7–",
        "3486": "Lee▁",
        "3487": "princ",
        "3488": "child▁",
        "3489": "olution",
        "3490": "America▁",
        "3491": "currently▁",
        "3492": "80",
        "3493": "13,▁",
        "3494": "Rail",
        "3495": "too▁",
        "3496": "Women",
        "3497": "About▁",
        "3498": "Bet",
        "3499": "pen",
        "3500": "urb",
        "3501": "2||1",
        "3502": "final▁",
        "3503": "sport▁",
        "3504": "int▁",
        "3505": "Direc",
        "3506": "need▁",
        "3507": "tures",
        "3508": "60",
        "3509": "wa",
        "3510": "Miss",
        "3511": "Bill▁",
        "3512": "Games",
        "3513": "Steph",
        "3514": "exist",
        "3515": "legal▁",
        "3516": "ority▁",
        "3517": "Empire▁",
        "3518": "Mexican▁",
        "3519": "Fi",
        "3520": "NH",
        "3521": "ahom",
        "3522": "danc",
        "3523": "itan▁",
        "3524": "uted▁",
        "3525": "recorded▁",
        "3526": "California▁",
        "3527": "Representatives▁",
        "3528": "Okl",
        "3529": "III▁",
        "3530": "Tenn",
        "3531": "|197",
        "3532": "alist",
        "3533": "ville",
        "3534": "Mexico",
        "3535": "Indones",
        "3536": "Oklahom",
        "3537": "io",
        "3538": "even",
        "3539": "laun",
        "3540": "ler▁",
        "3541": "Bavar",
        "3542": "arron",
        "3543": "Center▁",
        "3544": "Jus",
        "3545": "Wis",
        "3546": "ov▁",
        "3547": "ency",
        "3548": "color",
        "3549": "race▁",
        "3550": "White▁",
        "3551": "fall▁",
        "3552": "”▁",
        "3553": "Bat",
        "3554": "Disc",
        "3555": "onia",
        "3556": "1981▁",
        "3557": "half▁",
        "3558": "ately▁",
        "3559": "ences▁",
        "3560": "ensive▁",
        "3561": "Eastern▁",
        "3562": "Bib",
        "3563": "aij",
        "3564": "ara",
        "3565": "fish",
        "3566": "done▁",
        "3567": "ness▁",
        "3568": "ements",
        "3569": "going▁",
        "3570": "seven▁",
        "3571": "=\"2\"|-||",
        "3572": "Southern▁",
        "3573": "Tropical▁",
        "3574": "characters▁",
        "3575": "2–",
        "3576": "Ru",
        "3577": "let▁",
        "3578": "cast▁",
        "3579": "contr",
        "3580": "idea▁",
        "3581": "shown▁",
        "3582": "musicians",
        "3583": "10,▁",
        "3584": "11,▁",
        "3585": "divid",
        "3586": "gets▁",
        "3587": "players▁",
        "3588": "X▁",
        "3589": "LGB",
        "3590": "sip",
        "3591": "empl",
        "3592": "ker▁",
        "3593": "post",
        "3594": "Frank",
        "3595": "appro",
        "3596": "India▁",
        "3597": "range▁",
        "3598": "helped▁",
        "3599": "election",
        "3600": "Lov",
        "3601": "Pun",
        "3602": "bul",
        "3603": "Some",
        "3604": "west",
        "3605": "house",
        "3606": "Martin▁",
        "3607": "Football",
        "3608": "disease▁",
        "3609": "ression▁",
        "3610": "arrondiss",
        "3611": "Harr",
        "3612": "1993▁",
        "3613": "cannot▁",
        "3614": "Olympics",
        "3615": "architec",
        "3616": "27",
        "3617": "how",
        "3618": "los",
        "3619": "Rock",
        "3620": "etro",
        "3621": "leng",
        "3622": "Year▁",
        "3623": "case▁",
        "3624": "weight▁",
        "3625": "As",
        "3626": "Jud",
        "3627": "may",
        "3628": "20,▁",
        "3629": "avail",
        "3630": "office▁",
        "3631": "Jef",
        "3632": "1992▁",
        "3633": "1998▁",
        "3634": "once▁",
        "3635": "energy▁",
        "3636": "signed▁",
        "3637": "counties",
        "3638": "Av",
        "3639": "Mic",
        "3640": "km▁",
        "3641": "era▁",
        "3642": "oto▁",
        "3643": "ators",
        "3644": "hard▁",
        "3645": "ping▁",
        "3646": "Kentuck",
        "3647": "oldest▁",
        "3648": "Musical▁",
        "3649": "pointed▁",
        "3650": "Bol",
        "3651": "hosp",
        "3652": "Russia",
        "3653": "abeth▁",
        "3654": "father",
        "3655": "invent",
        "3656": "ically▁",
        "3657": "Washington▁",
        "3658": "Phy",
        "3659": "Tai",
        "3660": "box",
        "3661": "Slov",
        "3662": "crime▁",
        "3663": "releas",
        "3664": "community▁",
        "3665": "look▁",
        "3666": "buted▁",
        "3667": "ships▁",
        "3668": "inning▁",
        "3669": "constitu",
        "3670": "6–",
        "3671": "Gri",
        "3672": "Mary",
        "3673": "stop▁",
        "3674": "Second▁",
        "3675": "outside▁",
        "3676": "ids",
        "3677": "orb",
        "3678": "uses",
        "3679": "40▁",
        "3680": "Ste",
        "3681": "use",
        "3682": "Year",
        "3683": "Duke▁",
        "3684": "ange▁",
        "3685": "Scienti",
        "3686": "Haw",
        "3687": "det",
        "3688": "events",
        "3689": "Before▁",
        "3690": "inhabit",
        "3691": "Virginia",
        "3692": "Zealand▁",
        "3693": "ode",
        "3694": "ues",
        "3695": "4||1",
        "3696": "driv",
        "3697": "food",
        "3698": "1987▁",
        "3699": "every",
        "3700": "jazz▁",
        "3701": "real▁",
        "3702": "opher▁",
        "3703": "storm▁",
        "3704": "cancer▁",
        "3705": "designed▁",
        "3706": "CA",
        "3707": "prac",
        "3708": "ques",
        "3709": "claim",
        "3710": "Publ",
        "3711": "ado▁",
        "3712": "hous",
        "3713": "plat",
        "3714": "star▁",
        "3715": "independent▁",
        "3716": "Hun",
        "3717": "ata",
        "3718": "Bill",
        "3719": "Techn",
        "3720": "billi",
        "3721": "Group▁",
        "3722": "Santa▁",
        "3723": "brother▁",
        "3724": "9–",
        "3725": "dge",
        "3726": "edy",
        "3727": "egg",
        "3728": "mol",
        "3729": "Hill",
        "3730": "Award",
        "3731": "carri",
        "3732": "earth",
        "3733": "lower▁",
        "3734": "states",
        "3735": "Little▁",
        "3736": "Louisian",
        "3737": "Geography",
        "3738": "nominated▁",
        "3739": "Massachusetts",
        "3740": "Squ",
        "3741": "gun",
        "3742": "body",
        "3743": "oms▁",
        "3744": "1948▁",
        "3745": "amed▁",
        "3746": "objec",
        "3747": "Saint▁",
        "3748": "level▁",
        "3749": "Hal",
        "3750": "da▁",
        "3751": "din",
        "3752": "tig",
        "3753": "Sir▁",
        "3754": "ness",
        "3755": "|201",
        "3756": "1979▁",
        "3757": "Black",
        "3758": "2019,▁",
        "3759": "career",
        "3760": "2-",
        "3761": "178",
        "3762": "mos",
        "3763": "Azer",
        "3764": "Stan",
        "3765": "ply▁",
        "3766": "previ",
        "3767": "academ",
        "3768": "thers▁",
        "3769": "species",
        "3770": "through",
        "3771": "Belgian▁",
        "3772": "changes▁",
        "3773": "ES",
        "3774": "Lad",
        "3775": "Net",
        "3776": "ality",
        "3777": "ania▁",
        "3778": "know▁",
        "3779": "Atlantic▁",
        "3780": "Anc",
        "3781": "Ark",
        "3782": "Red",
        "3783": "Sel",
        "3784": "Wat",
        "3785": "ano",
        "3786": "stop",
        "3787": "1986▁",
        "3788": "earch",
        "3789": "friend",
        "3790": "8–",
        "3791": "Lig",
        "3792": "Mem",
        "3793": "fif",
        "3794": "olf▁",
        "3795": "1973▁",
        "3796": "autom",
        "3797": "|2006",
        "3798": "recogn",
        "3799": "second",
        "3800": "although▁",
        "3801": "7-",
        "3802": "NA▁",
        "3803": "Econ",
        "3804": "ains",
        "3805": "baij",
        "3806": "drug",
        "3807": "depend",
        "3808": "seats▁",
        "3809": "forces▁",
        "3810": "fourth▁",
        "3811": "Institute▁",
        "3812": "Day",
        "3813": "Str",
        "3814": "ipe",
        "3815": "Czech▁",
        "3816": "Games▁",
        "3817": "ennis▁",
        "3818": "possible▁",
        "3819": "returned▁",
        "3820": "21",
        "3821": "rown",
        "3822": "border▁",
        "3823": "Ty",
        "3824": "Sun",
        "3825": "fle",
        "3826": "Fran",
        "3827": "poet",
        "3828": "break",
        "3829": "short",
        "3830": "ances▁",
        "3831": "Canada▁",
        "3832": "elling▁",
        "3833": "commonly▁",
        "3834": "Jes",
        "3835": "aps",
        "3836": "19,▁",
        "3837": "bes▁",
        "3838": "titl",
        "3839": "1978▁",
        "3840": "kind▁",
        "3841": "|2005",
        "3842": "Econom",
        "3843": "celebr",
        "3844": "itive▁",
        "3845": "Island▁",
        "3846": "raised▁",
        "3847": "Constitu",
        "3848": "instead▁",
        "3849": "producer▁",
        "3850": "Ry",
        "3851": "TV",
        "3852": "pa",
        "3853": "Rog",
        "3854": "San",
        "3855": "ker",
        "3856": "Bost",
        "3857": "Comm",
        "3858": "1951▁",
        "3859": "ices▁",
        "3860": "allowed▁",
        "3861": "Hurricane▁",
        "3862": "continued▁",
        "3863": "=\"4",
        "3864": "cou",
        "3865": "WWE▁",
        "3866": "LGBT▁",
        "3867": "Chief▁",
        "3868": "Azerbaij",
        "3869": "Michigan",
        "3870": "Although▁",
        "3871": "starring▁",
        "3872": "establishments",
        "3873": "Az",
        "3874": "1997▁",
        "3875": "Toron",
        "3876": "right",
        "3877": "2018,▁",
        "3878": "orial▁",
        "3879": "Bay",
        "3880": "Por",
        "3881": "ha▁",
        "3882": "ona",
        "3883": "24,▁",
        "3884": "Eliz",
        "3885": "ror▁",
        "3886": "=\"4\"|",
        "3887": "Mary▁",
        "3888": "Super",
        "3889": "track▁",
        "3890": "vocals",
        "3891": "something▁",
        "3892": "dou",
        "3893": "ota▁",
        "3894": "Book▁",
        "3895": "ances",
        "3896": "ison▁",
        "3897": "roman",
        "3898": "|2003",
        "3899": "26",
        "3900": "lik",
        "3901": "ves",
        "3902": "Sand",
        "3903": "Tom▁",
        "3904": "ini▁",
        "3905": "ions",
        "3906": "hold▁",
        "3907": "vice▁",
        "3908": "roles▁",
        "3909": "others▁",
        "3910": "ble",
        "3911": "1940",
        "3912": "26,▁",
        "3913": "Cart",
        "3914": "Old▁",
        "3915": "alth",
        "3916": "conf",
        "3917": "1960▁",
        "3918": "1972▁",
        "3919": "1982▁",
        "3920": "1989▁",
        "3921": "colle",
        "3922": "2016,▁",
        "3923": "review",
        "3924": "studio▁",
        "3925": "70",
        "3926": "FIFA▁",
        "3927": "poet▁",
        "3928": "psych",
        "3929": "Human▁",
        "3930": "Territ",
        "3931": "candid",
        "3932": "attack▁",
        "3933": "bridge▁",
        "3934": "enough▁",
        "3935": "Ke",
        "3936": "Us",
        "3937": "Doc",
        "3938": "Dre",
        "3939": "Lam",
        "3940": "ny▁",
        "3941": "21,▁",
        "3942": "500▁",
        "3943": "ais▁",
        "3944": "odes",
        "3945": "affec",
        "3946": "5-",
        "3947": "pun",
        "3948": "23,▁",
        "3949": "Coun",
        "3950": "look",
        "3951": "acter",
        "3952": "chart",
        "3953": "names▁",
        "3954": "Golden▁",
        "3955": "decided▁",
        "3956": "Sl",
        "3957": "Cel",
        "3958": "dor",
        "3959": "ily",
        "3960": "nd▁",
        "3961": "Wood",
        "3962": "fire",
        "3963": "last",
        "3964": "ular",
        "3965": "Anton",
        "3966": "killing▁",
        "3967": "originally▁",
        "3968": "(,▁",
        "3969": "Def",
        "3970": "ulf",
        "3971": "win",
        "3972": "Hear",
        "3973": "Toky",
        "3974": "Pope▁",
        "3975": "exper",
        "3976": "added▁",
        "3977": "diffic",
        "3978": "broadcast",
        "3979": "Life▁",
        "3980": "place",
        "3981": "Missis",
        "3982": "Swiss▁",
        "3983": "aircra",
        "3984": "novel▁",
        "3985": "individ",
        "3986": "writing▁",
        "3987": "university▁",
        "3988": "Alab",
        "3989": "thes",
        "3990": "Assemb",
        "3991": "aries▁",
        "3992": "ously▁",
        "3993": "successful▁",
        "3994": "6-",
        "3995": "Est",
        "3996": "Mir",
        "3997": "sum",
        "3998": "figh",
        "3999": "1969▁",
        "4000": "Armen",
        "4001": "docum",
        "4002": "erson▁",
        "4003": "introduced▁",
        "4004": "Mas",
        "4005": "ori",
        "4006": "muse",
        "4007": "reme▁",
        "4008": "Europe▁",
        "4009": "animals▁",
        "4010": "municipalities▁",
        "4011": "At",
        "4012": "Cy",
        "4013": "Rod",
        "4014": "ems",
        "4015": "put",
        "4016": "itage▁",
        "4017": "Middle▁",
        "4018": "Wiscons",
        "4019": "smaller▁",
        "4020": "Mississip",
        "4021": "Secretary▁",
        "4022": "Ep",
        "4023": "Pot",
        "4024": "ges",
        "4025": "nit",
        "4026": "1977▁",
        "4027": "Greec",
        "4028": "ired▁",
        "4029": "magaz",
        "4030": "sport",
        "4031": "2021)▁",
        "4032": "Chris▁",
        "4033": "court▁",
        "4034": "Provinc",
        "4035": "fiction▁",
        "4036": "manager▁",
        "4037": "appointed▁",
        "4038": "60▁",
        "4039": "Tam",
        "4040": "ão▁",
        "4041": "22,▁",
        "4042": "27,▁",
        "4043": "uck▁",
        "4044": "1985▁",
        "4045": "nucle",
        "4046": "settl",
        "4047": "Earth▁",
        "4048": "attemp",
        "4049": "inside▁",
        "4050": "Pacific▁",
        "4051": "musician▁",
        "4052": "students▁",
        "4053": "NS",
        "4054": "Kel",
        "4055": "Nig",
        "4056": "apol",
        "4057": "1929▁",
        "4058": "1970▁",
        "4059": "akes▁",
        "4060": "bands",
        "4061": "scrip",
        "4062": "ination▁",
        "4063": "contains▁",
        "4064": "á▁",
        "4065": "gan",
        "4066": "mig",
        "4067": "Each▁",
        "4068": "full▁",
        "4069": "quick",
        "4070": "refer",
        "4071": "eight▁",
        "4072": "Banglad",
        "4073": "construc",
        "4074": "mountain▁",
        "4075": "hurricane▁",
        "4076": "religious▁",
        "4077": "28",
        "4078": "dar",
        "4079": "mic",
        "4080": "tee▁",
        "4081": "van▁",
        "4082": "||10",
        "4083": "ette▁",
        "4084": "2007,▁",
        "4085": "2017,▁",
        "4086": "Person",
        "4087": "While▁",
        "4088": "longer▁",
        "4089": "program▁",
        "4090": "Cul",
        "4091": "Tro",
        "4092": "ado",
        "4093": "ador",
        "4094": "ano▁",
        "4095": "lie▁",
        "4096": "suff",
        "4097": "1976▁",
        "4098": "lies▁",
        "4099": "rich▁",
        "4100": "match▁",
        "4101": "Vo",
        "4102": "El▁",
        "4103": "Corn",
        "4104": "1968▁",
        "4105": "army▁",
        "4106": "recip",
        "4107": "arian▁",
        "4108": "environ",
        "4109": "Ancient▁",
        "4110": "service▁",
        "4111": "=\"2\"|-||3",
        "4112": "Ox",
        "4113": "Cro",
        "4114": "avy",
        "4115": "mph",
        "4116": "pul",
        "4117": "Arth",
        "4118": "ustr",
        "4119": "acts▁",
        "4120": "2021,▁",
        "4121": "Frank▁",
        "4122": "Tennes",
        "4123": "atest▁",
        "4124": "Netherlands",
        "4125": "Town",
        "4126": "test",
        "4127": "that",
        "4128": "1983▁",
        "4129": "Build",
        "4130": "cross",
        "4131": "teen▁",
        "4132": "crimin",
        "4133": "experi",
        "4134": "teams▁",
        "4135": "musician",
        "4136": "abb",
        "4137": "ror",
        "4138": "-19.",
        "4139": "28,▁",
        "4140": "strong",
        "4141": "particip",
        "4142": "release▁",
        "4143": "4–",
        "4144": "177",
        "4145": "No▁",
        "4146": "foc",
        "4147": "kil",
        "4148": "30,▁",
        "4149": "Cant",
        "4150": "merc",
        "4151": "met▁",
        "4152": "1964▁",
        "4153": "World",
        "4154": "keep▁",
        "4155": "|2007",
        "4156": "style▁",
        "4157": "destroy",
        "4158": "evision",
        "4159": "themsel",
        "4160": "Naz",
        "4161": "bon",
        "4162": "200▁",
        "4163": "Paul",
        "4164": "box▁",
        "4165": "1974▁",
        "4166": "sound▁",
        "4167": "Missouri",
        "4168": "compound",
        "4169": "journalist▁",
        "4170": "3-",
        "4171": "bat",
        "4172": "mir",
        "4173": "tun",
        "4174": "Tour",
        "4175": "hard",
        "4176": "road",
        "4177": "1945▁",
        "4178": "1967▁",
        "4179": "track",
        "4180": "treat",
        "4181": "artist▁",
        "4182": "biggest▁",
        "4183": "Ann",
        "4184": "Bah",
        "4185": "Eth",
        "4186": "chi",
        "4187": "Bob▁",
        "4188": "Man▁",
        "4189": "far▁",
        "4190": "concer",
        "4191": "church▁",
        "4192": "Angeles▁",
        "4193": "saf",
        "4194": "1||2",
        "4195": "Budd",
        "4196": "ardi",
        "4197": "ligh",
        "4198": "priv",
        "4199": "1971▁",
        "4200": "want▁",
        "4201": "failure",
        "4202": "awarded▁",
        "4203": "website▁",
        "4204": "To",
        "4205": "Tit",
        "4206": "job▁",
        "4207": "1946▁",
        "4208": "ville▁",
        "4209": "Awards▁",
        "4210": "languages",
        "4211": "Are",
        "4212": "Ram",
        "4213": "agn",
        "4214": "ee▁",
        "4215": "|2004",
        "4216": "miles▁",
        "4217": "Ti",
        "4218": "fo",
        "4219": "ya",
        "4220": "):▁",
        "4221": "Alp",
        "4222": "emi",
        "4223": "ise",
        "4224": "-19▁",
        "4225": "chos",
        "4226": "hour",
        "4227": "wall",
        "4228": "style",
        "4229": "Commit",
        "4230": "gives▁",
        "4231": "ready▁",
        "4232": "federal▁",
        "4233": "mission▁",
        "4234": "believed▁",
        "4235": "Footballers▁",
        "4236": "six",
        "4237": "weg",
        "4238": "25,▁",
        "4239": "ges▁",
        "4240": "ola▁",
        "4241": "rock",
        "4242": "ella▁",
        "4243": "|2008",
        "4244": "||0||4",
        "4245": "olution▁",
        "4246": "ropolitan▁",
        "4247": "Joe▁",
        "4248": "Kenn",
        "4249": "akes",
        "4250": "ulf▁",
        "4251": "1928▁",
        "4252": "1942▁",
        "4253": "Smith▁",
        "4254": "ensus▁",
        "4255": "owned▁",
        "4256": "public",
        "4257": "himself▁",
        "4258": "throughout▁",
        "4259": "ls",
        "4260": "uj",
        "4261": "Jim",
        "4262": "Tan",
        "4263": "Wall",
        "4264": "ari▁",
        "4265": "ski▁",
        "4266": "1947▁",
        "4267": "1962▁",
        "4268": "2006,▁",
        "4269": "acted▁",
        "4270": "force▁",
        "4271": "sports▁",
        "4272": "fro",
        "4273": "raq",
        "4274": "cart",
        "4275": "ube▁",
        "4276": "1975▁",
        "4277": "colon",
        "4278": "August",
        "4279": "Paraly",
        "4280": "ential▁",
        "4281": "events▁",
        "4282": "composer",
        "4283": "described▁",
        "4284": "Boy",
        "4285": "Nag",
        "4286": "Pit",
        "4287": "Sav",
        "4288": "Spe",
        "4289": "Fox▁",
        "4290": "Libr",
        "4291": "che▁",
        "4292": "dies",
        "4293": "1939▁",
        "4294": "ador▁",
        "4295": "elle▁",
        "4296": "grew▁",
        "4297": "Arkans",
        "4298": "enced▁",
        "4299": "intend",
        "4300": "Paralymp",
        "4301": "Alexander▁",
        "4302": "Australia▁",
        "4303": "1||",
        "4304": "bil",
        "4305": "hot",
        "4306": "batt",
        "4307": "eld▁",
        "4308": "Found",
        "4309": "Satur",
        "4310": "tian▁",
        "4311": "culture",
        "4312": "G▁",
        "4313": "UE",
        "4314": "Lew",
        "4315": "adap",
        "4316": "adel",
        "4317": "Korea",
        "4318": "Malay",
        "4319": "2011,▁",
        "4320": "former",
        "4321": "model▁",
        "4322": "episode▁",
        "4323": "Inc",
        "4324": "neg",
        "4325": "oul",
        "4326": "ison",
        "4327": "key▁",
        "4328": "ona▁",
        "4329": "1936▁",
        "4330": "Mark▁",
        "4331": "Christm",
        "4332": "result▁",
        "4333": "Confeder",
        "4334": "relation",
        "4335": "29",
        "4336": "UK",
        "4337": "used",
        "4338": "1952▁",
        "4339": "anger",
        "4340": "ites▁",
        "4341": "Green▁",
        "4342": "Major▁",
        "4343": "respon",
        "4344": "Daniel▁",
        "4345": "Museum▁",
        "4346": "company",
        "4347": "ür",
        "4348": "Ash",
        "4349": "Dun",
        "4350": "adv",
        "4351": "saw▁",
        "4352": "ands▁",
        "4353": "ember",
        "4354": "athlet",
        "4355": "ression",
        "4356": "Supreme▁",
        "4357": "presidential▁",
        "4358": "Id",
        "4359": "Ly",
        "4360": "ón",
        "4361": "Ven",
        "4362": "29,▁",
        "4363": "awa▁",
        "4364": "ols▁",
        "4365": "1943▁",
        "4366": "Union",
        "4367": "plant▁",
        "4368": "press▁",
        "4369": "Independ",
        "4370": "Islamic▁",
        "4371": "character",
        "4372": "Dor",
        "4373": "Kir",
        "4374": "Lat",
        "4375": "boy",
        "4376": "mel",
        "4377": "film",
        "4378": "Last▁",
        "4379": "airs▁",
        "4380": "shot▁",
        "4381": "Another▁",
        "4382": "features▁",
        "4383": "Wrestling▁",
        "4384": "characters",
        "4385": "(45",
        "4386": "Tal",
        "4387": "Jim▁",
        "4388": "1941▁",
        "4389": "1956▁",
        "4390": "incre",
        "4391": "mary▁",
        "4392": "paint",
        "4393": "ston▁",
        "4394": "Nations▁",
        "4395": "4-",
        "4396": "III",
        "4397": "Ken",
        "4398": "ki▁",
        "4399": "Dall",
        "4400": "Greg",
        "4401": "Iraq",
        "4402": "Star",
        "4403": "ala▁",
        "4404": "bomb",
        "4405": "|2000",
        "4406": "Connec",
        "4407": "commit",
        "4408": "featur",
        "4409": "opera▁",
        "4410": "acting▁",
        "4411": "available▁",
        "4412": "songwriter▁",
        "4413": "Ott",
        "4414": "ted",
        "4415": "Domin",
        "4416": "Wales",
        "4417": "campa",
        "4418": "coach",
        "4419": "enter",
        "4420": "illy▁",
        "4421": "Career",
        "4422": "Church",
        "4423": "Radio▁",
        "4424": "Serie▁",
        "4425": "Ontario",
        "4426": "Florida▁",
        "4427": "discovered▁",
        "4428": "structures▁",
        "4429": "Je",
        "4430": "UN",
        "4431": "Cer",
        "4432": "drum",
        "4433": "oday▁",
        "4434": "told▁",
        "4435": "ining▁",
        "4436": "Disney▁",
        "4437": "Parliament▁",
        "4438": "Ess",
        "4439": "Le▁",
        "4440": "Tar",
        "4441": "ski",
        "4442": "Bell",
        "4443": "flow",
        "4444": "Team▁",
        "4445": "grand",
        "4446": "male▁",
        "4447": "rick▁",
        "4448": "size▁",
        "4449": "theat",
        "4450": "anian▁",
        "4451": "front▁",
        "4452": "starting▁",
        "4453": "Mul",
        "4454": "Tay",
        "4455": "ola",
        "4456": "sky",
        "4457": "Canc",
        "4458": "Thir",
        "4459": "myth",
        "4460": "sure▁",
        "4461": "brough",
        "4462": "popular",
        "4463": "becoming▁",
        "4464": "Do",
        "4465": "Cop",
        "4466": "uss",
        "4467": "Pier",
        "4468": "Vide",
        "4469": "1924▁",
        "4470": "1933▁",
        "4471": "Green",
        "4472": "running▁",
        "4473": "selected▁",
        "4474": "Lim",
        "4475": "ces",
        "4476": "BBC▁",
        "4477": "Sea▁",
        "4478": "cric",
        "4479": "Jack▁",
        "4480": "hind▁",
        "4481": "Donald▁",
        "4482": "larger▁",
        "4483": "ability▁",
        "4484": "romantic▁",
        "4485": "ez",
        "4486": "hi▁",
        "4487": "agon",
        "4488": "bran",
        "4489": "del▁",
        "4490": "gas▁",
        "4491": "1930▁",
        "4492": "gress",
        "4493": "Steve▁",
        "4494": "birth▁",
        "4495": "center",
        "4496": "mechan",
        "4497": "silver▁",
        "4498": "tournam",
        "4499": "So",
        "4500": "Sum",
        "4501": "fut",
        "4502": "keep",
        "4503": "1937▁",
        "4504": "host▁",
        "4505": "|2002",
        "4506": "Poland",
        "4507": "Three▁",
        "4508": "mental▁",
        "4509": "believe▁",
        "4510": "Heritage▁",
        "4511": "Television▁",
        "4512": "administrative▁",
        "4513": "9/",
        "4514": "ux",
        "4515": "Gard",
        "4516": "near",
        "4517": "teen",
        "4518": "others",
        "4519": "Wilson▁",
        "4520": "someone▁",
        "4521": "pot",
        "4522": "draw",
        "4523": "gene",
        "4524": "ius▁",
        "4525": "plom",
        "4526": "1949▁",
        "4527": "South",
        "4528": "neigh",
        "4529": "Electr",
        "4530": "Region",
        "4531": "aying▁",
        "4532": "class▁",
        "4533": "surviv",
        "4534": "numbers▁",
        "4535": "distributed▁",
        "4536": "(7",
        "4537": "3,",
        "4538": "9-",
        "4539": "9||",
        "4540": "Fur",
        "4541": "akh",
        "4542": "1950▁",
        "4543": "birth",
        "4544": "schol",
        "4545": "Common",
        "4546": "Elizabeth▁",
        "4547": "Musicians▁",
        "4548": "officially▁",
        "4549": "Bos",
        "4550": "Seas",
        "4551": "atom",
        "4552": "grap",
        "4553": "weap",
        "4554": "Young▁",
        "4555": "plants▁",
        "4556": "//",
        "4557": "Mot",
        "4558": "cy▁",
        "4559": "ff▁",
        "4560": "hun",
        "4561": "Rome",
        "4562": "aper",
        "4563": "1940▁",
        "4564": "Total",
        "4565": "words",
        "4566": "Ireland",
        "4567": "astronom",
        "4568": "animated▁",
        "4569": "Scientists▁",
        "4570": "historical▁",
        "4571": "Bh",
        "4572": "://",
        "4573": "ave",
        "4574": "von▁",
        "4575": "model",
        "4576": "order",
        "4577": "shoot",
        "4578": "tree▁",
        "4579": "2019)▁",
        "4580": "annel▁",
        "4581": "iting▁",
        "4582": "ruled▁",
        "4583": "months▁",
        "4584": "college▁",
        "4585": "parents▁",
        "4586": "Province▁",
        "4587": "traditional▁",
        "4588": "Der",
        "4589": "So▁",
        "4590": "fru",
        "4591": "ute",
        "4592": "Life",
        "4593": "den▁",
        "4594": "ting",
        "4595": "week",
        "4596": "1938▁",
        "4597": "Like▁",
        "4598": "Press",
        "4599": "aded▁",
        "4600": "fish▁",
        "4601": "ials▁",
        "4602": "open▁",
        "4603": "Movie▁",
        "4604": "coach▁",
        "4605": "Austria",
        "4606": "Nintend",
        "4607": "higher▁",
        "4608": "league▁",
        "4609": "standing▁",
        "4610": "Ku",
        "4611": "Ri",
        "4612": "SA",
        "4613": "Cra",
        "4614": "htt",
        "4615": "Chap",
        "4616": "Curr",
        "4617": "audi",
        "4618": "bron",
        "4619": "rie▁",
        "4620": "ume▁",
        "4621": "||13",
        "4622": "1931▁",
        "4623": "1957▁",
        "4624": "Time▁",
        "4625": "ugby▁",
        "4626": "Scott▁",
        "4627": "except▁",
        "4628": "Israeli▁",
        "4629": "buildings▁",
        "4630": "Ay",
        "4631": "Sab",
        "4632": "Sea",
        "4633": "Tun",
        "4634": "rd▁",
        "4635": "real",
        "4636": "Hong▁",
        "4637": "incor",
        "4638": "ique▁",
        "4639": "College",
        "4640": "Georgia",
        "4641": "8-",
        "4642": "Gab",
        "4643": "Afgh",
        "4644": "bad▁",
        "4645": "Color",
        "4646": "aries",
        "4647": "first",
        "4648": "molec",
        "4649": "odes▁",
        "4650": "Winter▁",
        "4651": "antasy▁",
        "4652": "Station▁",
        "4653": "CE",
        "4654": "zo",
        "4655": "Pen",
        "4656": "sent",
        "4657": "1959▁",
        "4658": "Rock▁",
        "4659": "Formul",
        "4660": "Maria▁",
        "4661": "Norweg",
        "4662": "anned▁",
        "4663": "occer▁",
        "4664": "Public▁",
        "4665": "ologist▁",
        "4666": "Congress▁",
        "4667": "research▁",
        "4668": "northwest▁",
        "4669": "Lor",
        "4670": "lic",
        "4671": "Mill",
        "4672": "com▁",
        "4673": "eds▁",
        "4674": "spok",
        "4675": "|196",
        "4676": "Film▁",
        "4677": "ling▁",
        "4678": "aving▁",
        "4679": "chemist",
        "4680": "division",
        "4681": "U▁",
        "4682": "yg",
        "4683": "Men",
        "4684": "Tem",
        "4685": "ada▁",
        "4686": "days",
        "4687": "mes▁",
        "4688": "ody▁",
        "4689": "ric▁",
        "4690": "umer",
        "4691": "1954▁",
        "4692": "Trans",
        "4693": "chlor",
        "4694": "stein",
        "4695": "legisl",
        "4696": "3:",
        "4697": "Lev",
        "4698": "ops",
        "4699": "uten",
        "4700": "estim",
        "4701": "ured▁",
        "4702": "asked▁",
        "4703": "respec",
        "4704": "Alexand",
        "4705": "allows▁",
        "4706": "ampion▁",
        "4707": "bishop▁",
        "4708": "rivers▁",
        "4709": "discover",
        "4710": "process▁",
        "4711": "surround",
        "4712": "business▁",
        "4713": "beginning▁",
        "4714": "temperature▁",
        "4715": "én",
        "4716": "gun▁",
        "4717": "perc",
        "4718": "ush▁",
        "4719": "1927▁",
        "4720": "1935▁",
        "4721": "Tony▁",
        "4722": "ders▁",
        "4723": "iant▁",
        "4724": "2012,▁",
        "4725": "allow▁",
        "4726": "compar",
        "4727": "tried▁",
        "4728": "Jackson▁",
        "4729": "province",
        "4730": "Pakistan▁",
        "4731": "finished▁",
        "4732": "Lead",
        "4733": "ami▁",
        "4734": "iter",
        "4735": "1965▁",
        "4736": "cell▁",
        "4737": "ences",
        "4738": "escap",
        "4739": "kept▁",
        "4740": "mother",
        "4741": "Vietnam",
        "4742": "electro",
        "4743": "Business",
        "4744": "engineer",
        "4745": "Fol",
        "4746": "Ron",
        "4747": "em▁",
        "4748": "ulp",
        "4749": "Alli",
        "4750": "Bund",
        "4751": "ices",
        "4752": "then",
        "4753": "Wikipe",
        "4754": "adelph",
        "4755": "employ",
        "4756": "CB",
        "4757": "Ga",
        "4758": "MP",
        "4759": "ō▁",
        "4760": "Out",
        "4761": "nic",
        "4762": "Exam",
        "4763": "Marc",
        "4764": "rule▁",
        "4765": "soon▁",
        "4766": "fight▁",
        "4767": "Turkish▁",
        "4768": "brought▁",
        "4769": "surface▁",
        "4770": "=\"2\"|-||2",
        "4771": "Political▁",
        "4772": "generally▁",
        "4773": "maj",
        "4774": "mou",
        "4775": "two",
        "4776": "Arti",
        "4777": "Don▁",
        "4778": "aps▁",
        "4779": "farm",
        "4780": "1961▁",
        "4781": "Detro",
        "4782": "Then▁",
        "4783": "data▁",
        "4784": "medic",
        "4785": "works",
        "4786": "2008,▁",
        "4787": "Georgia▁",
        "4788": "citizens▁",
        "4789": "Philadelph",
        "4790": "Sti",
        "4791": "sor",
        "4792": "...▁",
        "4793": "Laur",
        "4794": "UEFA▁",
        "4795": "debut▁",
        "4796": "igned▁",
        "4797": "earthqu",
        "4798": "Federal▁",
        "4799": "Formula▁",
        "4800": "(5",
        "4801": "ab▁",
        "4802": "edd",
        "4803": "Anth",
        "4804": "Doug",
        "4805": "Serb",
        "4806": "ken▁",
        "4807": "miss",
        "4808": "more",
        "4809": "ters",
        "4810": "1944▁",
        "4811": "1963▁",
        "4812": "idence▁",
        "4813": "taking▁",
        "4814": "Villages▁",
        "4815": "36",
        "4816": "Na",
        "4817": "Ta",
        "4818": "Hou",
        "4819": "dri",
        "4820": "ech",
        "4821": "sts",
        "4822": "Finn",
        "4823": "alph",
        "4824": "ebec",
        "4825": "mass",
        "4826": "||30",
        "4827": "Organ",
        "4828": "arriv",
        "4829": "const",
        "4830": "erto▁",
        "4831": "reduc",
        "4832": "Brown▁",
        "4833": "regular▁",
        "4834": "Biography",
        "4835": "Louisiana",
        "4836": "Aut",
        "4837": "lif",
        "4838": "pal",
        "4839": "Gord",
        "4840": "Live▁",
        "4841": "behav",
        "4842": "frequ",
        "4843": "Gallery",
        "4844": "native▁",
        "4845": "multiple▁",
        "4846": "ada",
        "4847": "pan",
        "4848": "Langu",
        "4849": "ardin",
        "4850": "French",
        "4851": "coast▁",
        "4852": "sexual▁",
        "4853": "turned▁",
        "4854": "Scotland",
        "4855": "ization▁",
        "4856": "starred▁",
        "4857": "Internet▁",
        "4858": "probably▁",
        "4859": "(4",
        "4860": "CD",
        "4861": "uv",
        "4862": "(18",
        "4863": "Alf",
        "4864": "Hom",
        "4865": "ase",
        "4866": "dog",
        "4867": "olf",
        "4868": "Anti",
        "4869": "Sher",
        "4870": "revol",
        "4871": "2009,▁",
        "4872": "elled▁",
        "4873": "refer▁",
        "4874": "tells▁",
        "4875": "middle▁",
        "4876": "Argentine▁",
        "4877": "represented▁",
        "4878": "era",
        "4879": "Song",
        "4880": "oft▁",
        "4881": "1966▁",
        "4882": "occup",
        "4883": "Portugu",
        "4884": "Sports▁",
        "4885": "process",
        "4886": "program",
        "4887": "theory▁",
        "4888": "Francisco▁",
        "4889": "Raj",
        "4890": "1900",
        "4891": "1920",
        "4892": "ring",
        "4893": "sex▁",
        "4894": "1934▁",
        "4895": "Both▁",
        "4896": "Niger",
        "4897": "brain▁",
        "4898": "Persian▁",
        "4899": "climate▁",
        "4900": "DV",
        "4901": "ns",
        "4902": "Bak",
        "4903": "Syd",
        "4904": "spl",
        "4905": "Oper",
        "4906": "1932▁",
        "4907": "date▁",
        "4908": "kill▁",
        "4909": "ricul",
        "4910": "thous",
        "4911": "bacter",
        "4912": "blood▁",
        "4913": "space▁",
        "4914": "programm",
        "4915": "ny",
        "4916": "Act",
        "4917": "We▁",
        "4918": "lem",
        "4919": "adop",
        "4920": "mark",
        "4921": "1958▁",
        "4922": "ayed▁",
        "4923": "Paris▁",
        "4924": "color▁",
        "4925": "heavy▁",
        "4926": "promot",
        "4927": "Alabama",
        "4928": "Cancer▁",
        "4929": "Records",
        "4930": "Connectic",
        "4931": "Mid",
        "4932": "ala",
        "4933": "God▁",
        "4934": "ces▁",
        "4935": "sky▁",
        "4936": "Broad",
        "4937": "test▁",
        "4938": "2014,▁",
        "4939": "assist",
        "4940": "declar",
        "4941": "older▁",
        "4942": "ories▁",
        "4943": "defeated▁",
        "4944": "Alb",
        "4945": "But",
        "4946": "Hay",
        "4947": "Art▁",
        "4948": "Hall",
        "4949": "ural▁",
        "4950": "critic",
        "4951": "number",
        "4952": "||1||0",
        "4953": "animals",
        "4954": "create▁",
        "4955": "ray▁",
        "4956": "Blue▁",
        "4957": "Dougl",
        "4958": "anda▁",
        "4959": "pitch",
        "4960": "2013,▁",
        "4961": "Mount▁",
        "4962": "cells▁",
        "4963": "towns▁",
        "4964": "Kentucky",
        "4965": "incorpor",
        "4966": "||0||0||0||",
        "4967": "IP",
        "4968": "Aqu",
        "4969": "Up▁",
        "4970": "hic",
        "4971": "2||2",
        "4972": "Main",
        "4973": "attr",
        "4974": "aves",
        "4975": "suic",
        "4976": "Lord▁",
        "4977": "today",
        "4978": "diplom",
        "4979": "helps▁",
        "4980": "whole▁",
        "4981": "whose▁",
        "4982": "Series▁",
        "4983": "battle▁",
        "4984": "controll",
        "4985": "together",
        "4986": "happened▁",
        "4987": "languages▁",
        "4988": "By",
        "4989": "]▁",
        "4990": "Ern",
        "4991": "Rap",
        "4992": "cam",
        "4993": "spac",
        "4994": "ual",
        "4995": "Chem",
        "4996": "died",
        "4997": "Lady▁",
        "4998": "efore",
        "4999": "mean▁",
        "5000": "genus▁",
        "5001": "Mexico▁",
        "5002": "forced▁",
        "5003": "rather▁",
        "5004": "AS",
        "5005": "Aub",
        "5006": "ami",
        "5007": "flo",
        "5008": "hus",
        "5009": "Iowa",
        "5010": "Gramm",
        "5011": "More▁",
        "5012": "Produc",
        "5013": "nearly▁",
        "5014": "Nintendo▁",
        "5015": "followed▁",
        "5016": "districts▁",
        "5017": "Gil",
        "5018": "Nev",
        "5019": "Mosc",
        "5020": "liqu",
        "5021": "ull▁",
        "5022": "Long▁",
        "5023": "Bulgar",
        "5024": "Medal▁",
        "5025": "getting▁",
        "5026": "Olympics▁",
        "5027": "according▁",
        "5028": "Cir",
        "5029": "Lin",
        "5030": "ays",
        "5031": "ero",
        "5032": "ix▁",
        "5033": "des▁",
        "5034": "here▁",
        "5035": "known",
        "5036": "lines",
        "5037": "|1998",
        "5038": "Micros",
        "5039": "medal▁",
        "5040": "kilomet",
        "5041": "Stephen▁",
        "5042": "structure▁",
        "5043": "Bou",
        "5044": "Bow",
        "5045": "Leb",
        "5046": "lay",
        "5047": "sle",
        "5048": "Film",
        "5049": "Oreg",
        "5050": "call▁",
        "5051": "runs▁",
        "5052": "media▁",
        "5053": "causes▁",
        "5054": "proved▁",
        "5055": "winner▁",
        "5056": "produce▁",
        "5057": "Assembly▁",
        "5058": "dy",
        "5059": "hu",
        "5060": "Dan",
        "5061": "fav",
        "5062": "Linc",
        "5063": "Memb",
        "5064": "Vene",
        "5065": "anal",
        "5066": "emer",
        "5067": "oid▁",
        "5068": "cloth",
        "5069": "emic▁",
        "5070": "grow▁",
        "5071": "volcan",
        "5072": "machine▁",
        "5073": "reported▁",
        "5074": "development▁",
        "5075": "ki",
        "5076": "Dol",
        "5077": "cli",
        "5078": "she",
        "5079": "swi",
        "5080": "Bay▁",
        "5081": "ades",
        "5082": "bank",
        "5083": "ways",
        "5084": "1923▁",
        "5085": "coast",
        "5086": "frog▁",
        "5087": "Johnson▁",
        "5088": "leading▁",
        "5089": "Carolina▁",
        "5090": "competed▁",
        "5091": "Norwegian▁",
        "5092": "Kat",
        "5093": "Loc",
        "5094": "Of▁",
        "5095": "och",
        "5096": "Ever",
        "5097": "eat▁",
        "5098": "neum",
        "5099": "1925▁",
        "5100": "What▁",
        "5101": "ades▁",
        "5102": "Diseas",
        "5103": "Festiv",
        "5104": "iding▁",
        "5105": "rogen▁",
        "5106": "Arthur▁",
        "5107": "separate▁",
        "5108": "Ba",
        "5109": "Dou",
        "5110": "bot",
        "5111": "iro",
        "5112": "(190",
        "5113": "Book",
        "5114": "ura▁",
        "5115": "1901▁",
        "5116": "1926▁",
        "5117": "Brook",
        "5118": "board",
        "5119": "erson",
        "5120": "love▁",
        "5121": "names",
        "5122": "Storm▁",
        "5123": "stand▁",
        "5124": "moving▁",
        "5125": "ynasty▁",
        "5126": "Iranian▁",
        "5127": "appears▁",
        "5128": "68",
        "5129": "Tra",
        "5130": "www",
        "5131": "Hard",
        "5132": "Phys",
        "5133": "Shar",
        "5134": "pand",
        "5135": "Fame▁",
        "5136": "Grand",
        "5137": "Journ",
        "5138": "ender",
        "5139": "euten",
        "5140": "Italy▁",
        "5141": "chess▁",
        "5142": "piece▁",
        "5143": "airman▁",
        "5144": "commerc",
        "5145": "Science▁",
        "5146": "thriller▁",
        "5147": "(0",
        "5148": "Aff",
        "5149": "Jon",
        "5150": "Rub",
        "5151": "pil",
        "5152": "rup",
        "5153": "1930",
        "5154": "Carl",
        "5155": "Ther",
        "5156": "Under",
        "5157": "Mayor▁",
        "5158": "behind▁",
        "5159": "return▁",
        "5160": "Administr",
        "5161": "Minnesota",
        "5162": "Ul",
        "5163": "ix",
        "5164": "je",
        "5165": "kh",
        "5166": "ün",
        "5167": "5||",
        "5168": "Bad",
        "5169": "dol",
        "5170": "gal",
        "5171": "Jean",
        "5172": "Wels",
        "5173": "fast▁",
        "5174": "inson",
        "5175": "sell▁",
        "5176": "Brian▁",
        "5177": "Lincol",
        "5178": "purpos",
        "5179": "however",
        "5180": "letter▁",
        "5181": "spread▁",
        "5182": "square▁",
        "5183": "Oklahoma",
        "5184": "positive▁",
        "5185": "Christmas▁",
        "5186": "bad",
        "5187": "fic▁",
        "5188": "ward",
        "5189": "ership▁",
        "5190": "lawyer▁",
        "5191": "merged▁",
        "5192": "industri",
        "5193": ",000",
        "5194": "Ariz",
        "5195": "Ukra",
        "5196": "cook",
        "5197": "edic",
        "5198": "elt▁",
        "5199": "goal",
        "5200": "lem▁",
        "5201": "pay▁",
        "5202": "stra",
        "5203": "Class",
        "5204": "dish▁",
        "5205": "ible▁",
        "5206": "award▁",
        "5207": "listed▁",
        "5208": "passed▁",
        "5209": "Arkansas",
        "5210": "position",
        "5211": "railway▁",
        "5212": "Personal▁",
        "5213": "She",
        "5214": "ief",
        "5215": "Calv",
        "5216": "aka▁",
        "5217": "Kelly▁",
        "5218": "Welsh▁",
        "5219": "confir",
        "5220": "write▁",
        "5221": "medical▁",
        "5222": "(24",
        "5223": "Moh",
        "5224": "Mol",
        "5225": "Pur",
        "5226": "St▁",
        "5227": "arg",
        "5228": "ect",
        "5229": "ón▁",
        "5230": "Down",
        "5231": "ples",
        "5232": "1920▁",
        "5233": "Ocean",
        "5234": "Smith",
        "5235": "infec",
        "5236": "rated▁",
        "5237": "urity▁",
        "5238": "industr",
        "5239": "members",
        "5240": "Senator▁",
        "5241": "towards▁",
        "5242": "Illinois▁",
        "5243": "Princess▁",
        "5244": "businessman",
        "5245": "Hu",
        "5246": "ba",
        "5247": "í▁",
        "5248": "176",
        "5249": "za▁",
        "5250": "Over",
        "5251": "Sour",
        "5252": "ests",
        "5253": "frog",
        "5254": "ides",
        "5255": "past",
        "5256": "anny▁",
        "5257": "orse▁",
        "5258": "rate▁",
        "5259": "tured▁",
        "5260": "Russia▁",
        "5261": "Justice▁",
        "5262": "electric▁",
        "5263": "involved▁",
        "5264": "referred▁",
        "5265": "soldiers▁",
        "5266": "journalist",
        "5267": "4:",
        "5268": "Ah",
        "5269": "Ecu",
        "5270": "Ker",
        "5271": "Ren",
        "5272": "ato",
        "5273": "ja▁",
        "5274": "mes",
        "5275": "Love",
        "5276": "enem",
        "5277": "side",
        "5278": "illa▁",
        "5279": "mond▁",
        "5280": "news▁",
        "5281": "pneum",
        "5282": "polic",
        "5283": "2005,▁",
        "5284": "Colomb",
        "5285": "Later▁",
        "5286": "starts▁",
        "5287": "billion▁",
        "5288": "leyball▁",
        "5289": "matches▁",
        "5290": "35",
        "5291": "Ol",
        "5292": "Han",
        "5293": "bab",
        "5294": "dre",
        "5295": "etc",
        "5296": "ko▁",
        "5297": "ée▁",
        "5298": "And▁",
        "5299": "aska",
        "5300": "good",
        "5301": "thin",
        "5302": "edom▁",
        "5303": "folk▁",
        "5304": "Corpor",
        "5305": "Jones▁",
        "5306": "aired▁",
        "5307": "worth▁",
        "5308": "health▁",
        "5309": "passeng",
        "5310": "scored▁",
        "5311": "tennis▁",
        "5312": "quickly▁",
        "5313": "movement▁",
        "5314": "companies▁",
        "5315": "newspaper▁",
        "5316": ">▁",
        "5317": "70▁",
        "5318": "Ret",
        "5319": "Sax",
        "5320": "bach",
        "5321": "roll",
        "5322": "Medic",
        "5323": "ills▁",
        "5324": "micro",
        "5325": "2015,▁",
        "5326": "Night▁",
        "5327": "Spain▁",
        "5328": "obile▁",
        "5329": "Africa▁",
        "5330": "Social▁",
        "5331": "Zealand",
        "5332": "fought▁",
        "5333": "systems▁",
        "5334": "Presidents▁",
        "5335": "33",
        "5336": "NB",
        "5337": "NF",
        "5338": "Tak",
        "5339": "wa▁",
        "5340": "dens",
        "5341": "ited",
        "5342": "ryst",
        "5343": "1922▁",
        "5344": "Manip",
        "5345": "Vienn",
        "5346": "|1997",
        "5347": "kinds▁",
        "5348": "projec",
        "5349": "animal▁",
        "5350": "Special▁",
        "5351": "activist",
        "5352": "painter▁",
        "5353": "actually▁",
        "5354": "composed▁",
        "5355": "material▁",
        "5356": "Dak",
        "5357": "Ray",
        "5358": "civ",
        "5359": "Ball",
        "5360": "Simp",
        "5361": "Whit",
        "5362": "aki▁",
        "5363": "Egypt",
        "5364": "hand▁",
        "5365": "Events",
        "5366": "fully▁",
        "5367": "Malaysi",
        "5368": "friend▁",
        "5369": "actions▁",
        "5370": "professor▁",
        "5371": "Ka",
        "5372": "avi",
        "5373": "gas",
        "5374": "ram",
        "5375": "ula",
        "5376": "Harv",
        "5377": "Mand",
        "5378": "ira▁",
        "5379": "nic▁",
        "5380": "page",
        "5381": "Const",
        "5382": "ative",
        "5383": "minut",
        "5384": "onia▁",
        "5385": "thers",
        "5386": "Atlant",
        "5387": "comic▁",
        "5388": "things",
        "5389": "needed▁",
        "5390": "source▁",
        "5391": "Conf",
        "5392": "Nord",
        "5393": "ved▁",
        "5394": "Only▁",
        "5395": "Song▁",
        "5396": "rian▁",
        "5397": "explor",
        "5398": "conserv",
        "5399": "schools▁",
        "5400": "Christian",
        "5401": "incorporated▁",
        "5402": "Businesspeople▁",
        "5403": "án",
        "5404": "Dom",
        "5405": "job",
        "5406": "sun",
        "5407": "Bure",
        "5408": "cut▁",
        "5409": "hot▁",
        "5410": "know",
        "5411": "meet",
        "5412": "panc",
        "5413": "Genev",
        "5414": "Miss▁",
        "5415": "itch▁",
        "5416": "green▁",
        "5417": "illed▁",
        "5418": "rugby▁",
        "5419": "tellig",
        "5420": "toral▁",
        "5421": "union▁",
        "5422": "Walter▁",
        "5423": "spoken▁",
        "5424": "Century▁",
        "5425": "Tennessee",
        "5426": "Wisconsin",
        "5427": "fication▁",
        "5428": "powerful▁",
        "5429": "designated▁",
        "5430": "businessman▁",
        "5431": "Way",
        "5432": "5||1",
        "5433": "Hot▁",
        "5434": "Lind",
        "5435": "uary",
        "5436": "extre",
        "5437": "Deputy▁",
        "5438": "horror▁",
        "5439": "ologist",
        "5440": "||0||1||0||",
        "5441": "Cab",
        "5442": "Max",
        "5443": "Nik",
        "5444": "Sus",
        "5445": "Var",
        "5446": "Leon",
        "5447": "surv",
        "5448": "uce▁",
        "5449": "vehic",
        "5450": "Video▁",
        "5451": "action",
        "5452": "cases▁",
        "5453": "Columbia▁",
        "5454": "Virginia▁",
        "5455": "(▁",
        "5456": "AD",
        "5457": "Jas",
        "5458": "hur",
        "5459": "ili",
        "5460": "Cham",
        "5461": "Jord",
        "5462": "Oliv",
        "5463": "Winn",
        "5464": "atch",
        "5465": "Mike▁",
        "5466": "Vice▁",
        "5467": "point",
        "5468": "Force▁",
        "5469": "alphab",
        "5470": "organ▁",
        "5471": "Conserv",
        "5472": "foreign▁",
        "5473": "network▁",
        "5474": "regions▁",
        "5475": "stopped▁",
        "5476": "featured▁",
        "5477": "2||",
        "5478": "Fel",
        "5479": "alp",
        "5480": "31,▁",
        "5481": "6||1",
        "5482": "Hind",
        "5483": "ales",
        "5484": "ope▁",
        "5485": "why▁",
        "5486": "Over▁",
        "5487": "aked▁",
        "5488": "mark▁",
        "5489": "Ukrain",
        "5490": "belong",
        "5491": "method",
        "5492": "train▁",
        "5493": "Calais▁",
        "5494": "travel▁",
        "5495": "Division",
        "5496": "already▁",
        "5497": "association▁",
        "5498": "ky",
        "5499": ",\"▁",
        "5500": "Fic",
        "5501": "Nep",
        "5502": "USA",
        "5503": "ols",
        "5504": "hund",
        "5505": "libr",
        "5506": "offe",
        "5507": "sugg",
        "5508": "Afghan",
        "5509": "Mario▁",
        "5510": "Albert▁",
        "5511": "length▁",
        "5512": "Society▁",
        "5513": "Bangladesh",
        "5514": "ben",
        "5515": "Lith",
        "5516": "prin",
        "5517": "une▁",
        "5518": "wide",
        "5519": "Alber",
        "5520": "Charl",
        "5521": "March",
        "5522": "Theat",
        "5523": "spent▁",
        "5524": "streng",
        "5525": "Philip▁",
        "5526": "bronze▁",
        "5527": "buried▁",
        "5528": "degree▁",
        "5529": "points▁",
        "5530": "2:▁",
        "5531": "80▁",
        "5532": "Nel",
        "5533": "Vis",
        "5534": "du▁",
        "5535": "eat",
        "5536": "Van▁",
        "5537": "ato▁",
        "5538": "bon▁",
        "5539": "ials",
        "5540": "oil▁",
        "5541": "1921▁",
        "5542": "stead",
        "5543": "Muslim",
        "5544": "Women▁",
        "5545": "achiev",
        "5546": "altern",
        "5547": "break▁",
        "5548": "classi",
        "5549": "plants",
        "5550": "speak▁",
        "5551": "table▁",
        "5552": "anthrop",
        "5553": "entire▁",
        "5554": "showed▁",
        "5555": "officer▁",
        "5556": "private▁",
        "5557": "stories▁",
        "5558": "entertain",
        "5559": "physical▁",
        "5560": "||||||||||||||||",
        "5561": "ja",
        "5562": "pp",
        "5563": "Mes",
        "5564": "acy",
        "5565": "bit▁",
        "5566": "ito▁",
        "5567": "rey▁",
        "5568": "Stand",
        "5569": "talk▁",
        "5570": "tial▁",
        "5571": "Boston▁",
        "5572": "Melbour",
        "5573": "include",
        "5574": "sister▁",
        "5575": "Singers▁",
        "5576": "President",
        "5577": "distance▁",
        "5578": "economic▁",
        "5579": "function▁",
        "5580": "difficult▁",
        "5581": "4,",
        "5582": "Sé",
        "5583": "De▁",
        "5584": "Rav",
        "5585": "tax",
        "5586": "4||2",
        "5587": "Fair",
        "5588": "Lawr",
        "5589": "crip",
        "5590": "ize▁",
        "5591": "pron",
        "5592": "ump▁",
        "5593": "José▁",
        "5594": "mass▁",
        "5595": "Power▁",
        "5596": "fifth▁",
        "5597": "inary▁",
        "5598": "rights",
        "5599": "Victoria▁",
        "5600": "stations▁",
        "5601": "Hungarian▁",
        "5602": "Microsoft▁",
        "5603": "Portuguese▁",
        "5604": "Fa",
        "5605": "rh",
        "5606": "...",
        "5607": "Cru",
        "5608": "Deb",
        "5609": "IV▁",
        "5610": "Ray▁",
        "5611": "adi▁",
        "5612": "ning",
        "5613": "Ottom",
        "5614": "dead▁",
        "5615": "ives▁",
        "5616": "park▁",
        "5617": "softw",
        "5618": "Apple▁",
        "5619": "Croati",
        "5620": "contri",
        "5621": "month▁",
        "5622": "rules▁",
        "5623": "division▁",
        "5624": "Ot",
        "5625": "Non",
        "5626": "Veg",
        "5627": "sea",
        "5628": "Ice▁",
        "5629": "ibn▁",
        "5630": "made",
        "5631": "ming",
        "5632": "1955▁",
        "5633": "Road▁",
        "5634": "ufact",
        "5635": "upon▁",
        "5636": "ution",
        "5637": "Engine",
        "5638": "cover▁",
        "5639": "eding▁",
        "5640": "paper▁",
        "5641": "Andrew▁",
        "5642": "Indiana",
        "5643": "prison▁",
        "5644": "wealth▁",
        "5645": "Francis▁",
        "5646": "launched▁",
        "5647": "Buildings▁",
        "5648": "television",
        "5649": "Ut",
        "5650": "Pow",
        "5651": "aka",
        "5652": "led",
        "5653": "nob",
        "5654": "Brun",
        "5655": "Sam▁",
        "5656": "ashi",
        "5657": "ati▁",
        "5658": "bus▁",
        "5659": "rich",
        "5660": "ston",
        "5661": "vall",
        "5662": "yan▁",
        "5663": "Venez",
        "5664": "aine▁",
        "5665": "magne",
        "5666": "month",
        "5667": "your▁",
        "5668": "Berlin",
        "5669": "chief▁",
        "5670": "mixed▁",
        "5671": "night▁",
        "5672": "stone▁",
        "5673": "programs",
        "5674": "ographic▁",
        "5675": "philosoph",
        "5676": "49",
        "5677": "J▁",
        "5678": "Al▁",
        "5679": "Kaz",
        "5680": "ky▁",
        "5681": "ni▁",
        "5682": "7||1",
        "5683": "http",
        "5684": "scap",
        "5685": "Jean▁",
        "5686": "ires▁",
        "5687": "laws▁",
        "5688": "room▁",
        "5689": "Museum",
        "5690": "charge▁",
        "5691": "station",
        "5692": "directors",
        "5693": "executive▁",
        "5694": "eventually▁",
        "5695": "ographical▁",
        "5696": "za",
        "5697": "45▁",
        "5698": "Ele",
        "5699": "Pap",
        "5700": "Sul",
        "5701": "anch",
        "5702": "bott",
        "5703": "Holy▁",
        "5704": "Matth",
        "5705": "Stock",
        "5706": "past▁",
        "5707": "sculp",
        "5708": "Bundes",
        "5709": "lying▁",
        "5710": "urban▁",
        "5711": "whether▁",
        "5712": "education▁",
        "5713": "graduated▁",
        "5714": "175",
        "5715": "Pok",
        "5716": "Ric",
        "5717": "ose",
        "5718": "set",
        "5719": "Back",
        "5720": "Marv",
        "5721": "Maur",
        "5722": "atab",
        "5723": "grav",
        "5724": "Buddh",
        "5725": "Game▁",
        "5726": "stadi",
        "5727": "voice",
        "5728": "vote▁",
        "5729": "2017)▁",
        "5730": "stein▁",
        "5731": "terms▁",
        "5732": "likely▁",
        "5733": "ration▁",
        "5734": "symbol▁",
        "5735": "covered▁",
        "5736": "Research▁",
        "5737": "personal▁",
        "5738": "Committee▁",
        "5739": "Discography",
        "5740": "arrondissement▁",
        "5741": "IV",
        "5742": "Iv",
        "5743": "dé",
        "5744": "ald",
        "5745": "mpt",
        "5746": "How▁",
        "5747": "lim▁",
        "5748": "web▁",
        "5749": "Brown",
        "5750": "Hill▁",
        "5751": "Holly",
        "5752": "Home▁",
        "5753": "Marsh",
        "5754": "News▁",
        "5755": "Town▁",
        "5756": "ardo▁",
        "5757": "atell",
        "5758": "speed▁",
        "5759": "Develop",
        "5760": "experim",
        "5761": "recent▁",
        "5762": "hospital▁",
        "5763": "Entertainment",
        "5764": "alc",
        "5765": "São▁",
        "5766": "boy▁",
        "5767": "eks▁",
        "5768": "ima▁",
        "5769": "ingu",
        "5770": "star",
        "5771": "Liter",
        "5772": "bass▁",
        "5773": "eauti",
        "5774": "nine▁",
        "5775": "stage",
        "5776": "Korea▁",
        "5777": "calend",
        "5778": "cities",
        "5779": "dered▁",
        "5780": "Grammy▁",
        "5781": "damage▁",
        "5782": "market▁",
        "5783": "simply▁",
        "5784": "widely▁",
        "5785": "ications",
        "5786": "activist▁",
        "5787": "complete▁",
        "5788": "eutenant▁",
        "5789": "standard▁",
        "5790": "destroyed▁",
        "5791": "Christopher▁",
        "5792": "6||",
        "5793": "Dal",
        "5794": "Typ",
        "5795": "kin",
        "5796": "uch",
        "5797": "Cost",
        "5798": "Fern",
        "5799": "ret▁",
        "5800": "surg",
        "5801": "Even▁",
        "5802": "Jones",
        "5803": "atives",
        "5804": "overs▁",
        "5805": "Danish▁",
        "5806": "alists▁",
        "5807": "appear▁",
        "5808": "capital",
        "5809": "illustr",
        "5810": "pieces▁",
        "5811": "themselves▁",
        "5812": "/8",
        "5813": "isi",
        "5814": "sam",
        "5815": "Ben▁",
        "5816": "Orig",
        "5817": "face",
        "5818": "pet▁",
        "5819": "prec",
        "5820": "slow",
        "5821": "tive",
        "5822": "counc",
        "5823": "eful▁",
        "5824": "Ambass",
        "5825": "Greece",
        "5826": "Montre",
        "5827": "Quebec",
        "5828": "meant▁",
        "5829": "quite▁",
        "5830": "Season▁",
        "5831": "Company▁",
        "5832": "EP",
        "5833": "Wy",
        "5834": "Ais",
        "5835": "Is▁",
        "5836": "Rem",
        "5837": "Rol",
        "5838": "Sud",
        "5839": "ark",
        "5840": "ert",
        "5841": "tin",
        "5842": "tou",
        "5843": "mamm",
        "5844": "race",
        "5845": "uge▁",
        "5846": "oppos",
        "5847": "succe",
        "5848": "turn▁",
        "5849": "Track▁",
        "5850": "flows▁",
        "5851": "inform",
        "5852": "begins▁",
        "5853": "earned▁",
        "5854": "tioned▁",
        "5855": "comedian",
        "5856": "signific",
        "5857": "Mississippi",
        "5858": "zh",
        "5859": "°▁",
        "5860": "Ban",
        "5861": "Les",
        "5862": "orn",
        "5863": "Act▁",
        "5864": "Prot",
        "5865": "eman",
        "5866": "wind",
        "5867": "Fred▁",
        "5868": "Today",
        "5869": "agnos",
        "5870": "story",
        "5871": "leave▁",
        "5872": "reach▁",
        "5873": "centre▁",
        "5874": "claimed▁",
        "5875": "connected▁",
        "5876": "philanthrop",
        "5877": "organization▁",
        "5878": "38",
        "5879": "ko",
        "5880": "rod",
        "5881": "xim",
        "5882": "dial",
        "5883": "lor▁",
        "5884": "1953▁",
        "5885": "Manag",
        "5886": "ander",
        "5887": "cerem",
        "5888": "possi",
        "5889": "Tokyo▁",
        "5890": "ching▁",
        "5891": "inated▁",
        "5892": "previous▁",
        "5893": "Billboard▁",
        "5894": "classical▁",
        "5895": "Municipality▁",
        "5896": "+▁",
        "5897": "Ho",
        "5898": "Lis",
        "5899": "Pon",
        "5900": "Sau",
        "5901": "asc",
        "5902": "ba▁",
        "5903": "drop",
        "5904": "prev",
        "5905": "base▁",
        "5906": "care▁",
        "5907": "liber",
        "5908": "tell▁",
        "5909": "arrang",
        "5910": "holds▁",
        "5911": "mayor▁",
        "5912": "Douglas▁",
        "5913": "research",
        "5914": "communes▁",
        "5915": "Professor▁",
        "5916": "22",
        "5917": "ör",
        "5918": "Yam",
        "5919": "cut",
        "5920": "ior",
        "5921": "ita",
        "5922": "jam",
        "5923": "mom",
        "5924": "sus",
        "5925": "too",
        "5926": "(189",
        "5927": "300▁",
        "5928": "Show",
        "5929": "Top▁",
        "5930": "godd",
        "5931": "nam▁",
        "5932": "ophy",
        "5933": "stic",
        "5934": "agan▁",
        "5935": "areas",
        "5936": "bound",
        "5937": "compu",
        "5938": "true▁",
        "5939": "Freder",
        "5940": "Percy▁",
        "5941": "Upper▁",
        "5942": "festiv",
        "5943": "Street▁",
        "5944": "parliam",
        "5945": "simple▁",
        "5946": "trying▁",
        "5947": "Venezuel",
        "5948": "distribu",
        "5949": "guitarist",
        "5950": "Americans▁",
        "5951": "Commission",
        "5952": "wr",
        "5953": "Kev",
        "5954": "Me▁",
        "5955": "Seg",
        "5956": "rob",
        "5957": "ud▁",
        "5958": "Law▁",
        "5959": "via▁",
        "5960": "Dave▁",
        "5961": "blue▁",
        "5962": "cells",
        "5963": "expec",
        "5964": "ession▁",
        "5965": "increas",
        "5966": "troops▁",
        "5967": "Stanley▁",
        "5968": "letters▁",
        "5969": "consists▁",
        "5970": "j▁",
        "5971": "now",
        "5972": "ria",
        "5973": "6||2",
        "5974": "Emil",
        "5975": "Not▁",
        "5976": "Sri▁",
        "5977": "Stra",
        "5978": "elli",
        "5979": "gard",
        "5980": "mont",
        "5981": "stan",
        "5982": "House",
        "5983": "Show▁",
        "5984": "cardi",
        "5985": "crash",
        "5986": "divor",
        "5987": "night",
        "5988": "cular▁",
        "5989": "Jackson",
        "5990": "Poland▁",
        "5991": "direct▁",
        "5992": "entary▁",
        "5993": "headquar",
        "5994": "primary▁",
        "5995": "governor▁",
        "5996": "Bob",
        "5997": "nes",
        "5998": "oti",
        "5999": "Sun▁",
        "6000": "Trav",
        "6001": "aya▁",
        "6002": "here",
        "6003": "lock",
        "6004": "una▁",
        "6005": "Death",
        "6006": "Jane▁",
        "6007": "Leban",
        "6008": "hood▁",
        "6009": "ister",
        "6010": "lung▁",
        "6011": "numer",
        "6012": "Census",
        "6013": "Lower▁",
        "6014": "Sarah▁",
        "6015": "bridge",
        "6016": "leges▁",
        "6017": "prefec",
        "6018": "tribut",
        "6019": "coming▁",
        "6020": "ention▁",
        "6021": "normal▁",
        "6022": "racing▁",
        "6023": "Railway▁",
        "6024": "islands▁",
        "6025": "vention▁",
        "6026": "Ukrainian▁",
        "6027": "avyweight▁",
        "6028": "da",
        "6029": "inf",
        "6030": "ech▁",
        "6031": "fash",
        "6032": "inem",
        "6033": "meth",
        "6034": "Anne▁",
        "6035": "join▁",
        "6036": "Loire▁",
        "6037": "Space▁",
        "6038": "Anthony▁",
        "6039": "Jacques▁",
        "6040": "electric",
        "6041": "organism",
        "6042": "singles▁",
        "6043": "Mik",
        "6044": "1||0",
        "6045": "god▁",
        "6046": "Fort▁",
        "6047": "categ",
        "6048": "eman▁",
        "6049": "indic",
        "6050": "Advent",
        "6051": "leader",
        "6052": "Valley▁",
        "6053": "giving▁",
        "6054": "perial▁",
        "6055": "refers▁",
        "6056": "Congress",
        "6057": "fantasy▁",
        "6058": "Baseball▁",
        "6059": "Military▁",
        "6060": "Association",
        "6061": "individual▁",
        "6062": "77",
        "6063": "EC",
        "6064": "Abd",
        "6065": "Che",
        "6066": "Pyr",
        "6067": "veg",
        "6068": "Buff",
        "6069": "Ober",
        "6070": "oke▁",
        "6071": "Kong▁",
        "6072": "Your▁",
        "6073": "eter▁",
        "6074": "unit▁",
        "6075": "|2001",
        "6076": "Singap",
        "6077": "looks▁",
        "6078": "Puerto▁",
        "6079": "bought▁",
        "6080": "reading",
        "6081": "earlier▁",
        "6082": "=\"2\"|-||1",
        "6083": "greatest▁",
        "6084": "32▁",
        "6085": "Fox",
        "6086": "Hell",
        "6087": "Priv",
        "6088": "cred",
        "6089": "dead",
        "6090": "ule▁",
        "6091": "||33",
        "6092": "Juan▁",
        "6093": "labor",
        "6094": "mouth",
        "6095": "ships",
        "6096": "Center",
        "6097": "Jimmy▁",
        "6098": "ution▁",
        "6099": "brother",
        "6100": "national",
        "6101": "fighting▁",
        "6102": "inhabitants",
        "6103": "ots",
        "6104": "phy",
        "6105": "til",
        "6106": "alum",
        "6107": "guil",
        "6108": "less",
        "6109": "Lithu",
        "6110": "Main▁",
        "6111": "ancy▁",
        "6112": "deter",
        "6113": "ights",
        "6114": "itar▁",
        "6115": "playw",
        "6116": "rice▁",
        "6117": "taugh",
        "6118": "wave▁",
        "6119": "basic▁",
        "6120": "ideas▁",
        "6121": "istic▁",
        "6122": "chosen▁",
        "6123": "nuclear▁",
        "6124": "protect▁",
        "6125": "southwest▁",
        "6126": "RA",
        "6127": "Dur",
        "6128": "uth",
        "6129": "aim▁",
        "6130": "away",
        "6131": "repe",
        "6132": "ussi",
        "6133": "wife",
        "6134": "Eric▁",
        "6135": "Progr",
        "6136": "black",
        "6137": "goal▁",
        "6138": "initi",
        "6139": "ranch",
        "6140": "sons▁",
        "6141": "thing",
        "6142": "tory▁",
        "6143": "Health▁",
        "6144": "humans▁",
        "6145": "meters▁",
        "6146": "Islands▁",
        "6147": "Toronto▁",
        "6148": "friends▁",
        "6149": "Sometimes▁",
        "6150": "supported▁",
        "6151": "responsible▁",
        "6152": "Metropolitan▁",
        "6153": "34",
        "6154": "?▁",
        "6155": "Arn",
        "6156": "Kam",
        "6157": "Ton",
        "6158": "nav",
        "6159": "Ali▁",
        "6160": "Clin",
        "6161": "crow",
        "6162": "half",
        "6163": "tors",
        "6164": "Open▁",
        "6165": "aled▁",
        "6166": "conqu",
        "6167": "lake▁",
        "6168": "wall▁",
        "6169": "Under▁",
        "6170": "ester▁",
        "6171": "royal▁",
        "6172": "African",
        "6173": "Bavaria",
        "6174": "Modern▁",
        "6175": "Taylor▁",
        "6176": "design▁",
        "6177": "results",
        "6178": "Ottoman▁",
        "6179": "studies▁",
        "6180": "Egyptian▁",
        "6181": "activists",
        "6182": "elements▁",
        "6183": "confirmed▁",
        "6184": "Depression▁",
        "6185": "Da",
        "6186": "Adv",
        "6187": "Gon",
        "6188": "Ped",
        "6189": "oli",
        "6190": "Andr",
        "6191": "Jess",
        "6192": "fast",
        "6193": "reve",
        "6194": "swim",
        "6195": "tall",
        "6196": "tice",
        "6197": "Bank▁",
        "6198": "Brand",
        "6199": "Later",
        "6200": "Thail",
        "6201": "olas▁",
        "6202": "onian▁",
        "6203": "Alfred▁",
        "6204": "Company",
        "6205": "houses▁",
        "6206": "science",
        "6207": "entered▁",
        "6208": "champion▁",
        "6209": "Revolution",
        "6210": "background",
        "6211": "scientists▁",
        "6212": "ho",
        "6213": "1:▁",
        "6214": "bio",
        "6215": "sug",
        "6216": "Call",
        "6217": "Mach",
        "6218": "NHL▁",
        "6219": "Plan",
        "6220": "Road",
        "6221": "Sund",
        "6222": "ero▁",
        "6223": "ett▁",
        "6224": "feat",
        "6225": "Iowa▁",
        "6226": "aily▁",
        "6227": "2004,▁",
        "6228": "itself▁",
        "6229": "porary▁",
        "6230": "Finnish▁",
        "6231": "medalists",
        "6232": "complications▁",
        "6233": "',▁",
        "6234": "Gor",
        "6235": "mac",
        "6236": "ral",
        "6237": "Scre",
        "6238": "ann▁",
        "6239": "aven",
        "6240": "hang",
        "6241": "2010)",
        "6242": "Arts▁",
        "6243": "agon▁",
        "6244": "pite▁",
        "6245": "2018)▁",
        "6246": "Allen▁",
        "6247": "Roger▁",
        "6248": "advent",
        "6249": "below▁",
        "6250": "upper▁",
        "6251": "Family▁",
        "6252": "Howard▁",
        "6253": "Johnny▁",
        "6254": "million",
        "6255": "rested▁",
        "6256": "complex▁",
        "6257": "culture▁",
        "6258": "debuted▁",
        "6259": "fication",
        "6260": "Education",
        "6261": "aircraft▁",
        "6262": "gressive▁",
        "6263": "population",
        "6264": "Connecticut",
        "6265": "performance▁",
        "6266": "TC",
        "6267": "Cos",
        "6268": "agh",
        "6269": "cos",
        "6270": "ida",
        "6271": "uts",
        "6272": "Also",
        "6273": "Brad",
        "6274": "Jenn",
        "6275": "Nebr",
        "6276": "Rand",
        "6277": "home",
        "6278": "step",
        "6279": "2022▁",
        "6280": "Maced",
        "6281": "civil",
        "6282": "mers▁",
        "6283": "stay▁",
        "6284": "2007.▁",
        "6285": "Billy▁",
        "6286": "Encycl",
        "6287": "Orthod",
        "6288": "Water▁",
        "6289": "build▁",
        "6290": "comedy",
        "6291": "conver",
        "6292": "ening▁",
        "6293": "minor▁",
        "6294": "observ",
        "6295": "preser",
        "6296": "resist",
        "6297": "cricket",
        "6298": "object▁",
        "6299": "version",
        "6300": "further▁",
        "6301": "districts",
        "6302": "mythology",
        "6303": "PlayStation▁",
        "6304": "alg",
        "6305": "bes",
        "6306": "2006",
        "6307": "5||2",
        "6308": "Dan▁",
        "6309": "Hamp",
        "6310": "Hann",
        "6311": "bear",
        "6312": "gold",
        "6313": "mess",
        "6314": "Anna▁",
        "6315": "Haiti",
        "6316": "money",
        "6317": "teams",
        "6318": "mouth▁",
        "6319": "murder",
        "6320": "itation▁",
        "6321": "limited▁",
        "6322": "majority▁",
        "6323": "Mountains▁",
        "6324": "fictional▁",
        "6325": "guitarist▁",
        "6326": "recognized▁",
        "6327": "35▁",
        "6328": "Kal",
        "6329": "Maj",
        "6330": "Pho",
        "6331": "Son",
        "6332": "Tol",
        "6333": "lo▁",
        "6334": "Hart",
        "6335": "pati",
        "6336": "Emmy▁",
        "6337": "obal▁",
        "6338": "ules▁",
        "6339": "2001,▁",
        "6340": "Collec",
        "6341": "kills▁",
        "6342": "figure▁",
        "6343": "Ministers▁",
        "6344": "recording▁",
        "6345": "ML",
        "6346": "Arc",
        "6347": "Edi",
        "6348": "Rac",
        "6349": "Tat",
        "6350": "elf",
        "6351": "mm▁",
        "6352": "tub",
        "6353": "Lank",
        "6354": "ela▁",
        "6355": "esh▁",
        "6356": "hatt",
        "6357": "ria▁",
        "6358": "rid▁",
        "6359": "Alan▁",
        "6360": "Earl▁",
        "6361": "Jerus",
        "6362": "eggs▁",
        "6363": "2011.▁",
        "6364": "consist",
        "6365": "gender▁",
        "6366": "icipal▁",
        "6367": "numbers",
        "6368": "ularly▁",
        "6369": "Pictures",
        "6370": "edition▁",
        "6371": "problems",
        "6372": "remained▁",
        "6373": "Entertainment▁",
        "6374": ".)",
        "6375": "Va",
        "6376": "mn",
        "6377": "Cla",
        "6378": "Dig",
        "6379": "Do▁",
        "6380": "Hug",
        "6381": "Kan",
        "6382": "Muh",
        "6383": "ask",
        "6384": "rep",
        "6385": "ude",
        "6386": "Long",
        "6387": "acea",
        "6388": "iles",
        "6389": "inet",
        "6390": "Creek",
        "6391": "bach▁",
        "6392": "clubs",
        "6393": "ossil",
        "6394": "plant",
        "6395": "prote",
        "6396": "quali",
        "6397": "2009.▁",
        "6398": "assass",
        "6399": "Manhatt",
        "6400": "effect▁",
        "6401": "murder▁",
        "6402": "museum▁",
        "6403": "chester▁",
        "6404": "chestra▁",
        "6405": "ication▁",
        "6406": "manufact",
        "6407": "Bundeslig",
        "6408": "Commonwealth▁",
        "6409": "EE",
        "6410": "Jav",
        "6411": "Lyn",
        "6412": "Pul",
        "6413": "sho",
        "6414": "Kash",
        "6415": "engu",
        "6416": "situ",
        "6417": "1919▁",
        "6418": "State",
        "6419": "galax",
        "6420": "peror",
        "6421": "pool▁",
        "6422": "2013.▁",
        "6423": "Barcel",
        "6424": "Class▁",
        "6425": "Kevin▁",
        "6426": "athan▁",
        "6427": "trade▁",
        "6428": "leaves▁",
        "6429": "airport▁",
        "6430": "serving▁",
        "6431": "minister▁",
        "6432": "candidate▁",
        "6433": "completed▁",
        "6434": "hp",
        "6435": "3:▁",
        "6436": "=\"5",
        "6437": "Nav",
        "6438": "Sid",
        "6439": "itt",
        "6440": "kid",
        "6441": "mut",
        "6442": "Boy▁",
        "6443": "Good",
        "6444": "emet",
        "6445": "hood",
        "6446": "rick",
        "6447": "wear",
        "6448": "Four▁",
        "6449": "Hawai",
        "6450": "nickn",
        "6451": "sympt",
        "6452": "2010.▁",
        "6453": "anced▁",
        "6454": "colour",
        "6455": "Dallas▁",
        "6456": "chestra",
        "6457": "lasted▁",
        "6458": "taught▁",
        "6459": "attended▁",
        "6460": "Pakistani▁",
        "6461": "37",
        "6462": "hr",
        "6463": "ju",
        "6464": "4||",
        "6465": "Fac",
        "6466": "Inf",
        "6467": "Rot",
        "6468": "án▁",
        "6469": "9||2",
        "6470": "Band",
        "6471": "Kim▁",
        "6472": "eau▁",
        "6473": "mon▁",
        "6474": "phy▁",
        "6475": "pred",
        "6476": "|195",
        "6477": "coffe",
        "6478": "core▁",
        "6479": "estig",
        "6480": "hydro",
        "6481": "page▁",
        "6482": "Taiwan",
        "6483": "atural",
        "6484": "lawyer",
        "6485": "prime▁",
        "6486": "Atlanti",
        "6487": "Disease",
        "6488": "Muslim▁",
        "6489": "branch▁",
        "6490": "matter▁",
        "6491": "nearby▁",
        "6492": "organis",
        "6493": "ranked▁",
        "6494": "Britain▁",
        "6495": "producers",
        "6496": "DNA▁",
        "6497": "Hosp",
        "6498": "Max▁",
        "6499": "Phot",
        "6500": "Rach",
        "6501": "Vist",
        "6502": "illa",
        "6503": "scor",
        "6504": "Navy▁",
        "6505": "Water",
        "6506": "lobe▁",
        "6507": "Compan",
        "6508": "ammad▁",
        "6509": "cheon▁",
        "6510": "market",
        "6511": "Vietnam▁",
        "6512": "article▁",
        "6513": "neighbor",
        "6514": "Dominican▁",
        "6515": "territory▁",
        "6516": "associated▁",
        "6517": "controlled▁",
        "6518": "Cu",
        "6519": ".)▁",
        "6520": "Log",
        "6521": "Saf",
        "6522": "az▁",
        "6523": "oo▁",
        "6524": "siz",
        "6525": "ua▁",
        "6526": "000▁",
        "6527": "Bour",
        "6528": "best",
        "6529": "elle",
        "6530": "pack",
        "6531": "Alpes",
        "6532": "card▁",
        "6533": "convic",
        "6534": "count▁",
        "6535": "artists",
        "6536": "closed▁",
        "6537": "future▁",
        "6538": "investig",
        "6539": "younger▁",
        "6540": "formerly▁",
        "6541": "magnetic▁",
        "6542": "5,",
        "6543": "PA",
        "6544": "Ard",
        "6545": "Lav",
        "6546": "Pir",
        "6547": "bal",
        "6548": "eds",
        "6549": "hem",
        "6550": "lip",
        "6551": "Fron",
        "6552": "Marl",
        "6553": "Vers",
        "6554": "excl",
        "6555": "ider",
        "6556": "ora▁",
        "6557": "Camer",
        "6558": "space",
        "6559": "Calvad",
        "6560": "Margar",
        "6561": "Martin",
        "6562": "Sloven",
        "6563": "carry▁",
        "6564": "ified▁",
        "6565": "member",
        "6566": "plane▁",
        "6567": "Ecuador",
        "6568": "Country▁",
        "6569": "approxim",
        "6570": "seasons▁",
        "6571": "specific▁",
        "6572": "southeast▁",
        "6573": "Constitution▁",
        "6574": "39",
        "6575": "6,",
        "6576": "Ey",
        "6577": "H▁",
        "6578": "Esp",
        "6579": "Now",
        "6580": "bs▁",
        "6581": "ux▁",
        "6582": "ía▁",
        "6583": "2||0",
        "6584": "Bros",
        "6585": "Cher",
        "6586": "Club",
        "6587": "Fall",
        "6588": "Spir",
        "6589": "fund",
        "6590": "=\"5\"|",
        "6591": "apart",
        "6592": "code▁",
        "6593": "ellow",
        "6594": "insec",
        "6595": "olic▁",
        "6596": "Jerry▁",
        "6597": "Council",
        "6598": "Islands",
        "6599": "Ronald▁",
        "6600": "aining▁",
        "6601": "hosted▁",
        "6602": "online▁",
        "6603": "special",
        "6604": "planned▁",
        "6605": "remains▁",
        "6606": "broadcast▁",
        "6607": "controvers",
        "6608": "scientific▁",
        "6609": "universities▁",
        "6610": "OS▁",
        "6611": "Rou",
        "6612": "Teh",
        "6613": "rad",
        "6614": "urs",
        "6615": "2014",
        "6616": "Belar",
        "6617": "Chart",
        "6618": "Gold▁",
        "6619": "anish",
        "6620": "cover",
        "6621": "ently",
        "6622": "immun",
        "6623": "Série▁",
        "6624": "eption",
        "6625": "financ",
        "6626": "companies",
        "6627": "operating▁",
        "6628": "organized▁",
        "6629": "Ali",
        "6630": "Fle",
        "6631": "Nar",
        "6632": "2007",
        "6633": "2008",
        "6634": "2||3",
        "6635": "date",
        "6636": "mang",
        "6637": "Pitts",
        "6638": "degre",
        "6639": "reser",
        "6640": "solar▁",
        "6641": "split▁",
        "6642": "Britain",
        "6643": "Police▁",
        "6644": "really▁",
        "6645": "ulation",
        "6646": "Captain▁",
        "6647": "Service▁",
        "6648": "element▁",
        "6649": "feature▁",
        "6650": "success▁",
        "6651": "captured▁",
        "6652": "education",
        "6653": "pneumonia",
        "6654": "generation▁",
        "6655": "Zh",
        "6656": "DC▁",
        "6657": "Dam",
        "6658": "Rey",
        "6659": "cab",
        "6660": "eck",
        "6661": "ei▁",
        "6662": "imp",
        "6663": "swe",
        "6664": "try",
        "6665": "400▁",
        "6666": "Army",
        "6667": "dorf",
        "6668": "hero",
        "6669": "ival",
        "6670": "tric",
        "6671": "Hamil",
        "6672": "eded▁",
        "6673": "inct▁",
        "6674": "mosph",
        "6675": "2008.▁",
        "6676": "Death▁",
        "6677": "ading▁",
        "6678": "correc",
        "6679": "ington",
        "6680": "primar",
        "6681": "single",
        "6682": "terror",
        "6683": "value▁",
        "6684": "Johnson",
        "6685": "Society",
        "6686": "ington▁",
        "6687": "ization",
        "6688": "sequel▁",
        "6689": "adopted▁",
        "6690": "decision",
        "6691": "growing▁",
        "6692": "problem▁",
        "6693": "removed▁",
        "6694": "Memorial▁",
        "6695": "48",
        "6696": "Fem",
        "6697": "Hot",
        "6698": "One",
        "6699": "pay",
        "6700": "rol",
        "6701": "4||0",
        "6702": "Clim",
        "6703": "Dieg",
        "6704": "exhi",
        "6705": "shor",
        "6706": "motor",
        "6707": "party",
        "6708": "premi",
        "6709": "Deaths",
        "6710": "Turkey",
        "6711": "apers▁",
        "6712": "change",
        "6713": "drogen▁",
        "6714": "carried▁",
        "6715": "describe▁",
        "6716": "pandemic▁",
        "6717": "''",
        "6718": "78",
        "6719": "CC",
        "6720": "FF",
        "6721": "Key",
        "6722": "Oct",
        "6723": "iz▁",
        "6724": "osh",
        "6725": "Wars",
        "6726": "pret",
        "6727": "shows",
        "6728": "blues▁",
        "6729": "enter▁",
        "6730": "equal▁",
        "6731": "oxide▁",
        "6732": "places",
        "6733": "travel",
        "6734": "ynasty",
        "6735": "Maryland",
        "6736": "Patrick▁",
        "6737": "Orthodox▁",
        "6738": "Williams▁",
        "6739": "counties▁",
        "6740": "families▁",
        "6741": "marriage▁",
        "6742": "pressure▁",
        "6743": "programs▁",
        "6744": "versions▁",
        "6745": "collection▁",
        "6746": "earthquake▁",
        "6747": "iy",
        "6748": "Ful",
        "6749": "Heb",
        "6750": "Jar",
        "6751": "Vel",
        "6752": "kW▁",
        "6753": "lyn",
        "6754": "pa▁",
        "6755": "Mong",
        "6756": "Well",
        "6757": "aff▁",
        "6758": "flic",
        "6759": "gin▁",
        "6760": "mar▁",
        "6761": "reli",
        "6762": "1918▁",
        "6763": "Ford▁",
        "6764": "graph",
        "6765": "lots▁",
        "6766": "2012.▁",
        "6767": "owner▁",
        "6768": "usual▁",
        "6769": "wards▁",
        "6770": "Finland",
        "6771": "easily▁",
        "6772": "Antonio▁",
        "6773": "Members▁",
        "6774": "emperor▁",
        "6775": "notable▁",
        "6776": "writers▁",
        "6777": "declared▁",
        "6778": "historic▁",
        "6779": "magazine▁",
        "6780": "operation▁",
        "6781": "commercial▁",
        "6782": "completely▁",
        "6783": "Dy",
        "6784": "Cum",
        "6785": "Mak",
        "6786": "Nut",
        "6787": "ca▁",
        "6788": "ji▁",
        "6789": "nom",
        "6790": "oms",
        "6791": "Plat",
        "6792": "cann",
        "6793": "ites",
        "6794": "voic",
        "6795": "Free▁",
        "6796": "Will▁",
        "6797": "altit",
        "6798": "veget",
        "6799": "2003,▁",
        "6800": "Marie▁",
        "6801": "Third▁",
        "6802": "calcul",
        "6803": "giant▁",
        "6804": "image▁",
        "6805": "shire▁",
        "6806": "trial▁",
        "6807": "tries▁",
        "6808": "Bishop▁",
        "6809": "Census▁",
        "6810": "Gordon▁",
        "6811": "Soccer▁",
        "6812": "Airport▁",
        "6813": "borders▁",
        "6814": "leaders▁",
        "6815": "managed▁",
        "6816": "screenwriter",
        "6817": "azz",
        "6818": "ela",
        "6819": "fun",
        "6820": "ito",
        "6821": "pon",
        "6822": "sac",
        "6823": "USA▁",
        "6824": "cust",
        "6825": "ori▁",
        "6826": "text",
        "6827": "tis▁",
        "6828": "Album",
        "6829": "Napol",
        "6830": "Real▁",
        "6831": "Rober",
        "6832": "arms▁",
        "6833": "bank▁",
        "6834": "bird▁",
        "6835": "femin",
        "6836": "girl▁",
        "6837": "immig",
        "6838": "text▁",
        "6839": "Light▁",
        "6840": "Nation",
        "6841": "ancell",
        "6842": "broke▁",
        "6843": "health",
        "6844": "learn▁",
        "6845": "serve▁",
        "6846": "today▁",
        "6847": "Rivers▁",
        "6848": "manager",
        "6849": "Victoria",
        "6850": "reviews▁",
        "6851": "directly▁",
        "6852": "eautiful▁",
        "6853": "Azerbaijan",
        "6854": "elections▁",
        "6855": "Paralympics",
        "6856": "inhabitants▁",
        "6857": "FA",
        "6858": "Kö",
        "6859": "7||",
        "6860": "Hit",
        "6861": "INS",
        "6862": "Jam",
        "6863": "Kum",
        "6864": "Nat",
        "6865": "Sof",
        "6866": "agg",
        "6867": "thy",
        "6868": "ury",
        "6869": "Jama",
        "6870": "Kell",
        "6871": "Salv",
        "6872": "YouT",
        "6873": "ask▁",
        "6874": "case",
        "6875": "osph",
        "6876": "Gulf▁",
        "6877": "cases",
        "6878": "iana▁",
        "6879": "imum▁",
        "6880": "match",
        "6881": "stars",
        "6882": "2000,▁",
        "6883": "System",
        "6884": "corpor",
        "6885": "prove▁",
        "6886": "sites▁",
        "6887": "tered▁",
        "6888": "Office▁",
        "6889": "genous▁",
        "6890": "systems",
        "6891": "negative▁",
        "6892": "Philippines",
        "6893": "relationship▁",
        "6894": "169",
        "6895": "Ell",
        "6896": "MP▁",
        "6897": "Nam",
        "6898": "bea",
        "6899": "nar",
        "6900": "(188",
        "6901": "Liga",
        "6902": "Nich",
        "6903": "indi",
        "6904": "ione",
        "6905": "uri▁",
        "6906": "Good▁",
        "6907": "storm",
        "6908": "white",
        "6909": "Coast▁",
        "6910": "Times▁",
        "6911": "units▁",
        "6912": "Member▁",
        "6913": "diagnos",
        "6914": "American",
        "6915": "Channel▁",
        "6916": "Foreign▁",
        "6917": "longest▁",
        "6918": "movement",
        "6919": "Mountain▁",
        "6920": "Territory",
        "6921": "addition▁",
        "6922": "speaking▁",
        "6923": "Education▁",
        "6924": "Statistics",
        "6925": "historian▁",
        "6926": "particular▁",
        "6927": "47",
        "6928": "Wa",
        "6929": "ć▁",
        "6930": "Pad",
        "6931": "obi",
        "6932": "rub",
        "6933": "tle",
        "6934": "tox",
        "6935": "ugu",
        "6936": "Caes",
        "6937": "Will",
        "6938": "don▁",
        "6939": "Asia▁",
        "6940": "bury▁",
        "6941": "dark▁",
        "6942": "illed",
        "6943": "ories",
        "6944": "three",
        "6945": "reason▁",
        "6946": "Records▁",
        "6947": "density▁",
        "6948": "Indonesia",
        "6949": "campaign▁",
        "6950": "Geography▁",
        "6951": "Minnesota▁",
        "6952": "independence▁",
        "6953": "2:",
        "6954": "Cou",
        "6955": "rig",
        "6956": "Beat",
        "6957": "Bosn",
        "6958": "Pop▁",
        "6959": "cher",
        "6960": "poly",
        "6961": "sail",
        "6962": "thro",
        "6963": "Luis▁",
        "6964": "inger",
        "6965": "plan▁",
        "6966": "glass▁",
        "6967": "island",
        "6968": "reign▁",
        "6969": "antine▁",
        "6970": "comment",
        "6971": "engine▁",
        "6972": "Kurdish▁",
        "6973": "Library▁",
        "6974": "provide▁",
        "6975": "||1||0||",
        "6976": "contract▁",
        "6977": "photograp",
        "6978": "Indonesian▁",
        "6979": "headquarters▁",
        "6980": "mathematician▁",
        "6981": "(1▁",
        "6982": "awa",
        "6983": "loy",
        "6984": "Game",
        "6985": "Post",
        "6986": "Vinc",
        "6987": "acqu",
        "6988": "ette",
        "6989": "said",
        "6990": "anna▁",
        "6991": "eton▁",
        "6992": "integ",
        "6993": "solo▁",
        "6994": "Barbar",
        "6995": "inger▁",
        "6996": "killed",
        "6997": "votes▁",
        "6998": "synthes",
        "6999": "educator",
        "7000": "arrested▁",
        "7001": "compounds",
        "7002": "engineer▁",
        "7003": "opposite▁",
        "7004": "property▁",
        "7005": "Wikipedia▁",
        "7006": "Philadelphia",
        "7007": "representatives▁",
        "7008": "IA",
        "7009": "170",
        "7010": "Eug",
        "7011": "Kon",
        "7012": "emo",
        "7013": "idi",
        "7014": "ole",
        "7015": "ura",
        "7016": "3||2",
        "7017": "Roos",
        "7018": "diam",
        "7019": "ild▁",
        "7020": "sulf",
        "7021": "thor",
        "7022": "Adam▁",
        "7023": "Colon",
        "7024": "Dark▁",
        "7025": "maint",
        "7026": "2015)▁",
        "7027": "Births",
        "7028": "Clevel",
        "7029": "adult▁",
        "7030": "theory",
        "7031": "violin",
        "7032": "Toronto",
        "7033": "saying▁",
        "7034": "summer▁",
        "7035": "daughter",
        "7036": "ulation▁",
        "7037": "variety▁",
        "7038": "normally▁",
        "7039": "estimated▁",
        "7040": "Cow",
        "7041": "NAS",
        "7042": "bun",
        "7043": "tol",
        "7044": "6||0",
        "7045": "hers",
        "7046": "ibbe",
        "7047": "idae",
        "7048": "itz▁",
        "7049": "oud▁",
        "7050": "tish",
        "7051": "Carl▁",
        "7052": "Jeff▁",
        "7053": "Relig",
        "7054": "Tunis",
        "7055": "rebel",
        "7056": "twent",
        "7057": "Globe▁",
        "7058": "idents",
        "7059": "ishes▁",
        "7060": "||3||0",
        "7061": "Israel▁",
        "7062": "Romania",
        "7063": "Samuel▁",
        "7064": "Warner▁",
        "7065": "general",
        "7066": "titled▁",
        "7067": "accident",
        "7068": "artists▁",
        "7069": "effects▁",
        "7070": "happens▁",
        "7071": "teacher▁",
        "7072": "Regional▁",
        "7073": "Communist▁",
        "7074": "interview▁",
        "7075": "championship▁",
        "7076": "48▁",
        "7077": "8||",
        "7078": "Rad",
        "7079": "Ann▁",
        "7080": "Cons",
        "7081": "Epis",
        "7082": "Four",
        "7083": "Lanc",
        "7084": "Les▁",
        "7085": "Rain",
        "7086": "mit▁",
        "7087": "colum",
        "7088": "court",
        "7089": "drug▁",
        "7090": "feet▁",
        "7091": "human",
        "7092": "inet▁",
        "7093": "plus▁",
        "7094": "Cross▁",
        "7095": "democr",
        "7096": "explos",
        "7097": "hours▁",
        "7098": "judge▁",
        "7099": "promis",
        "7100": "victim",
        "7101": "weeks▁",
        "7102": "Berlin▁",
        "7103": "Spanish",
        "7104": "Ukraine",
        "7105": "agreed▁",
        "7106": "Liberal▁",
        "7107": "opening▁",
        "7108": "results▁",
        "7109": "section▁",
        "7110": "=\"2\"|-||4",
        "7111": "compared▁",
        "7112": "creating▁",
        "7113": "Mathematic",
        "7114": "MS",
        "7115": "(16",
        "7116": ");▁",
        "7117": "3||",
        "7118": "Bed",
        "7119": "Fal",
        "7120": "Pil",
        "7121": "Pom",
        "7122": "Yon",
        "7123": "ken",
        "7124": "oil",
        "7125": "ows",
        "7126": "tex",
        "7127": "9||1",
        "7128": "Alph",
        "7129": "Bron",
        "7130": "Diff",
        "7131": "eigh",
        "7132": "ense",
        "7133": "iro▁",
        "7134": "pedi",
        "7135": "2013.",
        "7136": "Alex▁",
        "7137": "Franç",
        "7138": "Khan▁",
        "7139": "chall",
        "7140": "fact▁",
        "7141": "mine▁",
        "7142": "paid▁",
        "7143": "whom▁",
        "7144": "Queens",
        "7145": "analys",
        "7146": "doing▁",
        "7147": "perman",
        "7148": "shape▁",
        "7149": "usion▁",
        "7150": "institu",
        "7151": "location▁",
        "7152": "agreement▁",
        "7153": "provinces▁",
        "7154": "wrestling▁",
        "7155": "Heavyweight▁",
        "7156": "philosopher▁",
        "7157": "BA",
        "7158": "Ow",
        "7159": "Oak",
        "7160": "shi",
        "7161": "zy▁",
        "7162": "2001",
        "7163": "adul",
        "7164": "dry▁",
        "7165": "ect▁",
        "7166": "rati",
        "7167": "Artic",
        "7168": "Cross",
        "7169": "Matt▁",
        "7170": "Meite",
        "7171": "Nazi▁",
        "7172": "capac",
        "7173": "ction",
        "7174": "lyric",
        "7175": "wards",
        "7176": "where",
        "7177": "1999,▁",
        "7178": "detail",
        "7179": "piano▁",
        "7180": "Caribbe",
        "7181": "Jersey▁",
        "7182": "Sweden▁",
        "7183": "covers▁",
        "7184": "workers▁",
        "7185": "Scotland▁",
        "7186": "Universe▁",
        "7187": "composers",
        "7188": "Universal▁",
        "7189": "competition▁",
        "7190": "Him",
        "7191": "Lak",
        "7192": "Vik",
        "7193": "bos",
        "7194": "NBA▁",
        "7195": "Tag▁",
        "7196": "bury",
        "7197": "eck▁",
        "7198": "gran",
        "7199": "2014)",
        "7200": "Gary▁",
        "7201": "Phoen",
        "7202": "Treat",
        "7203": "worth",
        "7204": "Danny▁",
        "7205": "Roosev",
        "7206": "dance▁",
        "7207": "Website",
        "7208": "anning▁",
        "7209": "yellow▁",
        "7210": "religion",
        "7211": "Oklahoma▁",
        "7212": "Ug",
        "7213": "uz",
        "7214": "zy",
        "7215": "Lud",
        "7216": "Swe",
        "7217": "Wel",
        "7218": "bit",
        "7219": "Pass",
        "7220": "Roll",
        "7221": "ads▁",
        "7222": "answ",
        "7223": "vert",
        "7224": "Arab▁",
        "7225": "Court",
        "7226": "Light",
        "7227": "after",
        "7228": "alcoh",
        "7229": "flood",
        "7230": "kins▁",
        "7231": "Oregon",
        "7232": "consol",
        "7233": "grown▁",
        "7234": "museum",
        "7235": "office",
        "7236": "store▁",
        "7237": "Unlike▁",
        "7238": "mitted▁",
        "7239": "intellig",
        "7240": "increase▁",
        "7241": "presents▁",
        "7242": "religion▁",
        "7243": "background▁",
        "7244": "||0||2||0||",
        "7245": "--",
        "7246": "99",
        "7247": "va",
        "7248": "Bea",
        "7249": "Sic",
        "7250": "ez▁",
        "7251": "han",
        "7252": "sem",
        "7253": "7||0",
        "7254": "Berk",
        "7255": "Time",
        "7256": "2011.",
        "7257": "Part▁",
        "7258": "Theod",
        "7259": "eing▁",
        "7260": "eland",
        "7261": "feel▁",
        "7262": "meet▁",
        "7263": "2014)▁",
        "7264": "Jesus▁",
        "7265": "Kings▁",
        "7266": "Norway",
        "7267": "Philli",
        "7268": "Story▁",
        "7269": "anded▁",
        "7270": "birds▁",
        "7271": "bring▁",
        "7272": "invest",
        "7273": "ising▁",
        "7274": "secret",
        "7275": "atmosph",
        "7276": "gained▁",
        "7277": "respond",
        "7278": "stated▁",
        "7279": "Province",
        "7280": "aircraft",
        "7281": "digital▁",
        "7282": "personal",
        "7283": "therine▁",
        "7284": "cultural▁",
        "7285": "elections",
        "7286": "invented▁",
        "7287": "influence▁",
        "7288": "northeast▁",
        "7289": "additional▁",
        "7290": "(89",
        "7291": "Ach",
        "7292": "Fuk",
        "7293": "ik▁",
        "7294": "8||2",
        "7295": "Icel",
        "7296": "Punj",
        "7297": "bish",
        "7298": "regn",
        "7299": "ures",
        "7300": "vice",
        "7301": "1913▁",
        "7302": "Compl",
        "7303": "Gabri",
        "7304": "anne▁",
        "7305": "birds",
        "7306": "fort▁",
        "7307": "miner",
        "7308": "quart",
        "7309": "wins▁",
        "7310": "Benjam",
        "7311": "antum▁",
        "7312": "needs▁",
        "7313": "stery▁",
        "7314": "termin",
        "7315": "therap",
        "7316": "threat",
        "7317": "agricul",
        "7318": "bright▁",
        "7319": "parish▁",
        "7320": "restaur",
        "7321": "speech▁",
        "7322": "Bavaria▁",
        "7323": "Governor",
        "7324": "Rangers▁",
        "7325": "Williams",
        "7326": "failure▁",
        "7327": "records▁",
        "7328": "selling▁",
        "7329": "subject▁",
        "7330": "Afghanistan",
        "7331": "previously▁",
        "7332": "56",
        "7333": "rot",
        "7334": "éné",
        "7335": "Bach",
        "7336": "ical",
        "7337": "ours",
        "7338": "path",
        "7339": "Fire▁",
        "7340": "Xbox▁",
        "7341": "beat▁",
        "7342": "flag▁",
        "7343": "heat▁",
        "7344": "entry▁",
        "7345": "stroke",
        "7346": "wants▁",
        "7347": "awards▁",
        "7348": "guitar▁",
        "7349": "Ireland▁",
        "7350": "Stockhol",
        "7351": "defined▁",
        "7352": "dynasty▁",
        "7353": "student▁",
        "7354": "Examples▁",
        "7355": "Imperial▁",
        "7356": "Pictures▁",
        "7357": "evidence▁",
        "7358": "mountains▁",
        "7359": "southwestern▁",
        "7360": "7,",
        "7361": "182",
        "7362": "36▁",
        "7363": "Go▁",
        "7364": "Sem",
        "7365": "Vas",
        "7366": "err",
        "7367": "ga▁",
        "7368": "haw",
        "7369": "pet",
        "7370": "uli",
        "7371": "arm▁",
        "7372": "athe",
        "7373": "cach",
        "7374": "imer",
        "7375": "turb",
        "7376": "Tour▁",
        "7377": "loss▁",
        "7378": "oslav",
        "7379": "visit",
        "7380": "2006.▁",
        "7381": "Peace▁",
        "7382": "Peters",
        "7383": "Senate",
        "7384": "danger",
        "7385": "départ",
        "7386": "goals▁",
        "7387": "Belgium",
        "7388": "Meitei▁",
        "7389": "Publish",
        "7390": "actions",
        "7391": "bodies▁",
        "7392": "double▁",
        "7393": "service",
        "7394": "trains▁",
        "7395": "Natural▁",
        "7396": "backing▁",
        "7397": "leaving▁",
        "7398": "prevent▁",
        "7399": "Director▁",
        "7400": "services▁",
        "7401": "Community▁",
        "7402": "Federation▁",
        "7403": "Lieutenant▁",
        "7404": "depression▁",
        "7405": "understand▁",
        "7406": "DS",
        "7407": "Art",
        "7408": "Bog",
        "7409": "Cob",
        "7410": "Lux",
        "7411": "Rud",
        "7412": "Syn",
        "7413": "bu▁",
        "7414": "Barr",
        "7415": "Beng",
        "7416": "DVD▁",
        "7417": "Mars",
        "7418": "News",
        "7419": "Stud",
        "7420": "Suff",
        "7421": "dog▁",
        "7422": "Cape▁",
        "7423": "Liver",
        "7424": "Mitch",
        "7425": "ante▁",
        "7426": "wound",
        "7427": "yers▁",
        "7428": "arrest",
        "7429": "clear▁",
        "7430": "improv",
        "7431": "predic",
        "7432": "trees▁",
        "7433": "00,000▁",
        "7434": "orders▁",
        "7435": "search▁",
        "7436": "shared▁",
        "7437": "fashion▁",
        "7438": "academic▁",
        "7439": "translated▁",
        "7440": "Championships",
        "7441": "MA",
        "7442": "oz",
        "7443": "174",
        "7444": "CO▁",
        "7445": "phr",
        "7446": "seg",
        "7447": "var",
        "7448": "zen",
        "7449": "3||1",
        "7450": "7||2",
        "7451": "Buen",
        "7452": "Glen",
        "7453": "Wild",
        "7454": "ali▁",
        "7455": "cong",
        "7456": "ees▁",
        "7457": "foot",
        "7458": "only",
        "7459": "ould",
        "7460": "Child",
        "7461": "deal▁",
        "7462": "equip",
        "7463": "induc",
        "7464": "infar",
        "7465": "mann▁",
        "7466": "sign▁",
        "7467": "skin▁",
        "7468": "Buffal",
        "7469": "Jason▁",
        "7470": "Moscow",
        "7471": "prepar",
        "7472": "Player▁",
        "7473": "Potter▁",
        "7474": "Rights▁",
        "7475": "Sources",
        "7476": "ability",
        "7477": "driver▁",
        "7478": "fellow▁",
        "7479": "vocals▁",
        "7480": "finally▁",
        "7481": "Argentina",
        "7482": "examples▁",
        "7483": "physicist▁",
        "7484": "ressional▁",
        "7485": "2).",
        "7486": "Att",
        "7487": "ova",
        "7488": "was",
        "7489": "(),▁",
        "7490": "Conn",
        "7491": "NFL▁",
        "7492": "Trin",
        "7493": "feel",
        "7494": "lah▁",
        "7495": "1914▁",
        "7496": "Land▁",
        "7497": "Media",
        "7498": "cher▁",
        "7499": "decor",
        "7500": "domes",
        "7501": "flow▁",
        "7502": "hero▁",
        "7503": "occas",
        "7504": "onto▁",
        "7505": "schem",
        "7506": "uals▁",
        "7507": "week▁",
        "7508": "wind▁",
        "7509": "2004.▁",
        "7510": "Barry▁",
        "7511": "Every▁",
        "7512": "Media▁",
        "7513": "Tamil▁",
        "7514": "county",
        "7515": "energy",
        "7516": "Bridge▁",
        "7517": "asters▁",
        "7518": "copies▁",
        "7519": "marine▁",
        "7520": "status▁",
        "7521": "Austria▁",
        "7522": "Between▁",
        "7523": "attacks▁",
        "7524": "concert▁",
        "7525": "looking▁",
        "7526": "hydrogen▁",
        "7527": "conductor▁",
        "7528": "literature",
        "7529": "Basketball▁",
        "7530": "Es",
        "7531": "Nu",
        "7532": "Py",
        "7533": "Ts",
        "7534": "q▁",
        "7535": "5:▁",
        "7536": "lea",
        "7537": "pi▁",
        "7538": "sax",
        "7539": "Gian",
        "7540": "Wond",
        "7541": "agan",
        "7542": "ail▁",
        "7543": "alia",
        "7544": "ila▁",
        "7545": "ote▁",
        "7546": "semi",
        "7547": "tha▁",
        "7548": "word",
        "7549": "attle",
        "7550": "devel",
        "7551": "easy▁",
        "7552": "polo▁",
        "7553": "sched",
        "7554": "sycho",
        "7555": "2000.▁",
        "7556": "Honor▁",
        "7557": "Street",
        "7558": "causes",
        "7559": "extrem",
        "7560": "visit▁",
        "7561": "||6||0",
        "7562": "Palace▁",
        "7563": "Region▁",
        "7564": "albums▁",
        "7565": "eventh▁",
        "7566": "listing",
        "7567": "pianist",
        "7568": "Further▁",
        "7569": "Matthew▁",
        "7570": "cardiac▁",
        "7571": "display▁",
        "7572": "husband▁",
        "7573": "Francisco",
        "7574": "continue▁",
        "7575": "earliest▁",
        "7576": "scientists",
        "7577": "Confederate▁",
        "7578": "sportspeople",
        "7579": "46",
        "7580": "CN",
        "7581": "Gy",
        "7582": "Ib",
        "7583": "CC▁",
        "7584": "Hab",
        "7585": "Osc",
        "7586": "aqu",
        "7587": "lap",
        "7588": "Nick",
        "7589": "Tim▁",
        "7590": "With",
        "7591": "eon▁",
        "7592": "Catal",
        "7593": "Hans▁",
        "7594": "along",
        "7595": "anie▁",
        "7596": "Baltim",
        "7597": "Boris▁",
        "7598": "Series",
        "7599": "Simon▁",
        "7600": "Wales▁",
        "7601": "defini",
        "7602": "satell",
        "7603": "annual▁",
        "7604": "bigger▁",
        "7605": "highly▁",
        "7606": "Detroit▁",
        "7607": "Houston▁",
        "7608": "stations",
        "7609": "describes▁",
        "7610": "transport▁",
        "7611": "appearance▁",
        "7612": "Y▁",
        "7613": "Avi",
        "7614": "Fut",
        "7615": "IS▁",
        "7616": "Sah",
        "7617": "aki",
        "7618": "bow",
        "7619": "pas",
        "7620": "ped",
        "7621": "1918",
        "7622": "Benn",
        "7623": "Jews",
        "7624": "Las▁",
        "7625": "drin",
        "7626": "ecra",
        "7627": "2015.",
        "7628": "Rome▁",
        "7629": "Studi",
        "7630": "Wars▁",
        "7631": "accep",
        "7632": "aker▁",
        "7633": "boro▁",
        "7634": "ease▁",
        "7635": "ocks▁",
        "7636": "suppl",
        "7637": "thus▁",
        "7638": "2014.▁",
        "7639": "Bible▁",
        "7640": "Sydney",
        "7641": "aming▁",
        "7642": "divorc",
        "7643": "editor",
        "7644": "Knight▁",
        "7645": "Mediter",
        "7646": "Children",
        "7647": "learned▁",
        "7648": "managers",
        "7649": "romance▁",
        "7650": "brothers▁",
        "7651": "reaction▁",
        "7652": "regional▁",
        "7653": "software▁",
        "7654": "tradition",
        "7655": "Districts▁",
        "7656": "represent▁",
        "7657": "revolution",
        "7658": "construction▁",
        "7659": "screenwriter▁",
        "7660": "10.",
        "7661": "90▁",
        "7662": "Bot",
        "7663": "Kim",
        "7664": "Mit",
        "7665": "fy▁",
        "7666": "lat",
        "7667": "Kong",
        "7668": "Plot",
        "7669": "Stew",
        "7670": "mers",
        "7671": "push",
        "7672": "Pays▁",
        "7673": "Stadi",
        "7674": "White",
        "7675": "cold▁",
        "7676": "fell▁",
        "7677": "parts",
        "7678": "poor▁",
        "7679": "radio",
        "7680": "Alice▁",
        "7681": "Lewis▁",
        "7682": "astic▁",
        "7683": "chair▁",
        "7684": "inner▁",
        "7685": "receiv",
        "7686": "looked▁",
        "7687": "Greater▁",
        "7688": "attempt▁",
        "7689": "ordered▁",
        "7690": "Sciences▁",
        "7691": "activity▁",
        "7692": "required▁",
        "7693": "Educators▁",
        "7694": "environment",
        "7695": "volleyball▁",
        "7696": "(6",
        "7697": "DO",
        "7698": "’▁",
        "7699": "0)▁",
        "7700": "Aus",
        "7701": "Sop",
        "7702": "Yug",
        "7703": "uok",
        "7704": "5||0",
        "7705": "Addi",
        "7706": "Hiro",
        "7707": "List",
        "7708": "Plac",
        "7709": "Poké",
        "7710": "UNES",
        "7711": "sens",
        "7712": "ère▁",
        "7713": "2010.",
        "7714": "Chang",
        "7715": "ating",
        "7716": "burgh",
        "7717": "eval▁",
        "7718": "lets▁",
        "7719": "2002,▁",
        "7720": "Penins",
        "7721": "battle",
        "7722": "divers",
        "7723": "inspir",
        "7724": "moves▁",
        "7725": "Chinese",
        "7726": "Comics▁",
        "7727": "himself",
        "7728": "Highway▁",
        "7729": "ardinal▁",
        "7730": "renamed▁",
        "7731": "interest▁",
        "7732": "president",
        "7733": "Governors▁",
        "7734": "musicians▁",
        "7735": "ci",
        "7736": "Daw",
        "7737": "Dub",
        "7738": "Gib",
        "7739": "Int",
        "7740": "Tob",
        "7741": "cit",
        "7742": "jus",
        "7743": "kir",
        "7744": "si▁",
        "7745": "Abra",
        "7746": "Ferr",
        "7747": "Indu",
        "7748": "Pear",
        "7749": "Who▁",
        "7750": "eda▁",
        "7751": "ele▁",
        "7752": "ete▁",
        "7753": "extr",
        "7754": "ida▁",
        "7755": "mir▁",
        "7756": "myoc",
        "7757": "ober",
        "7758": "torn",
        "7759": "Down▁",
        "7760": "acks▁",
        "7761": "aire▁",
        "7762": "circu",
        "7763": "user▁",
        "7764": "Bruce▁",
        "7765": "Sport▁",
        "7766": "belief",
        "7767": "incumb",
        "7768": "months",
        "7769": "saxoph",
        "7770": "System▁",
        "7771": "census▁",
        "7772": "concent",
        "7773": "fiction",
        "7774": "motion▁",
        "7775": "Network▁",
        "7776": "objects▁",
        "7777": "Margaret▁",
        "7778": "Ministry▁",
        "7779": "diagnosed▁",
        "7780": "infarction",
        "7781": "information",
        "7782": "Pennsylvania▁",
        "7783": "SS",
        "7784": "'.▁",
        "7785": "(79",
        "7786": "33▁",
        "7787": "Cay",
        "7788": "DS▁",
        "7789": "Kin",
        "7790": "Meg",
        "7791": "WA▁",
        "7792": "iop",
        "7793": "rhy",
        "7794": "||▁",
        "7795": "1||3",
        "7796": "Bad▁",
        "7797": "Bart",
        "7798": "Khan",
        "7799": "Out▁",
        "7800": "hop▁",
        "7801": "Essex",
        "7802": "Psych",
        "7803": "Tokyo",
        "7804": "advis",
        "7805": "arts▁",
        "7806": "iano▁",
        "7807": "2005.▁",
        "7808": "Adams▁",
        "7809": "Observ",
        "7810": "dissol",
        "7811": "Native▁",
        "7812": "automob",
        "7813": "couple▁",
        "7814": "course▁",
        "7815": "flight▁",
        "7816": "painter",
        "7817": "Columbia",
        "7818": "picture▁",
        "7819": "theatre▁",
        "7820": "Frederick▁",
        "7821": "Mediterran",
        "7822": "thousands▁",
        "7823": "alternative▁",
        "7824": "Abb",
        "7825": "Dra",
        "7826": "Eli",
        "7827": "Lea",
        "7828": "Num",
        "7829": "acu",
        "7830": "bey",
        "7831": "su▁",
        "7832": "ug▁",
        "7833": "Astr",
        "7834": "Pro▁",
        "7835": "Roy▁",
        "7836": "does",
        "7837": "ella",
        "7838": "hall",
        "7839": "Line▁",
        "7840": "cars▁",
        "7841": "foot▁",
        "7842": "worn▁",
        "7843": "Count▁",
        "7844": "Saudi▁",
        "7845": "Stone▁",
        "7846": "Wilson",
        "7847": "commis",
        "7848": "franch",
        "7849": "fried▁",
        "7850": "liked▁",
        "7851": "subjec",
        "7852": "twice▁",
        "7853": "Brazil▁",
        "7854": "Bureau▁",
        "7855": "Leader▁",
        "7856": "Marine▁",
        "7857": "install",
        "7858": "seasons",
        "7859": "urrican",
        "7860": "Industri",
        "7861": "Computer▁",
        "7862": "attacked▁",
        "7863": "chairman▁",
        "7864": "provides▁",
        "7865": "mentioned▁",
        "7866": "personality▁",
        "7867": "0–",
        "7868": "Um",
        "7869": "c▁",
        "7870": "tz",
        "7871": "är",
        "7872": "55▁",
        "7873": "Sak",
        "7874": "fix",
        "7875": "ima",
        "7876": "max",
        "7877": "pel",
        "7878": "rev",
        "7879": "ube",
        "7880": "\"),▁",
        "7881": "2009",
        "7882": "Jeff",
        "7883": "Moon",
        "7884": "Salz",
        "7885": "Sang",
        "7886": "Sult",
        "7887": "kin▁",
        "7888": "Andro",
        "7889": "Night",
        "7890": "Sound",
        "7891": "clear",
        "7892": "cost▁",
        "7893": "drums",
        "7894": "edge▁",
        "7895": "elve▁",
        "7896": "iron▁",
        "7897": "pass▁",
        "7898": "2003.▁",
        "7899": "Board▁",
        "7900": "Cathed",
        "7901": "Indian",
        "7902": "dates▁",
        "7903": "drive▁",
        "7904": "erence",
        "7905": "noted▁",
        "7906": "princi",
        "7907": "Buenos▁",
        "7908": "Several▁",
        "7909": "atively▁",
        "7910": "contain▁",
        "7911": "parties▁",
        "7912": "suicide▁",
        "7913": "Airlines▁",
        "7914": "Benjamin▁",
        "7915": "discovery▁",
        "7916": "presented▁",
        "7917": "journalists",
        "7918": "significant▁",
        "7919": "municipalities",
        "7920": "Mé",
        "7921": "Vl",
        "7922": "160",
        "7923": "Din",
        "7924": "Fab",
        "7925": "Tig",
        "7926": "agr",
        "7927": "8||1",
        "7928": "Merc",
        "7929": "Sier",
        "7930": "arms",
        "7931": "fals",
        "7932": "heav",
        "7933": "mist",
        "7934": "2012.",
        "7935": "Fried",
        "7936": "endor",
        "7937": "enne▁",
        "7938": "heim▁",
        "7939": "traff",
        "7940": "Costa▁",
        "7941": "Suffol",
        "7942": "before",
        "7943": "grade▁",
        "7944": "||4||0",
        "7945": "Carlos▁",
        "7946": "Lincoln",
        "7947": "defeat▁",
        "7948": "ethnic▁",
        "7949": "follow▁",
        "7950": "respons",
        "7951": "teacher",
        "7952": "Theatre▁",
        "7953": "myocardi",
        "7954": "Michigan▁",
        "7955": "altitude▁",
        "7956": "comedian▁",
        "7957": "evolution",
        "7958": "training▁",
        "7959": "experience▁",
        "7960": "Gun",
        "7961": "Hop",
        "7962": "jur",
        "7963": "pup",
        "7964": "Fame",
        "7965": "acid",
        "7966": "aine",
        "7967": "elim",
        "7968": "fair",
        "7969": "fres",
        "7970": "ills",
        "7971": "ocol",
        "7972": "pick",
        "7973": "uro▁",
        "7974": "1917▁",
        "7975": "Books",
        "7976": "Filip",
        "7977": "aceae",
        "7978": "oper▁",
        "7979": "Dakota",
        "7980": "Davis▁",
        "7981": "Today▁",
        "7982": "comput",
        "7983": "replac",
        "7984": "score▁",
        "7985": "Charlot",
        "7986": "Pierre▁",
        "7987": "growth▁",
        "7988": "method▁",
        "7989": "practic",
        "7990": "report▁",
        "7991": "stayed▁",
        "7992": "treated▁",
        "7993": "Romanian▁",
        "7994": "Champions▁",
        "7995": "Fictional▁",
        "7996": "Foundation",
        "7997": "committed▁",
        "7998": "Filmography",
        "7999": "electrical▁",
        "8000": "interested▁",
        "8001": "myocardial▁",
        "8002": "58",
        "8003": "76",
        "8004": "oa",
        "8005": "12)",
        "8006": "168",
        "8007": "Lan",
        "8008": "Yok",
        "8009": "die",
        "8010": "iat",
        "8011": "mo▁",
        "8012": "oto",
        "8013": "4||3",
        "8014": "mann",
        "8015": "1916▁",
        "8016": "Amend",
        "8017": "Karl▁",
        "8018": "Krist",
        "8019": "Magaz",
        "8020": "certi",
        "8021": "hyper",
        "8022": "scope",
        "8023": "wing▁",
        "8024": "|1996",
        "8025": "Heart▁",
        "8026": "Larry▁",
        "8027": "aling▁",
        "8028": "batter",
        "8029": "knowle",
        "8030": "respir",
        "8031": "theme▁",
        "8032": "||5||0",
        "8033": "Arizona",
        "8034": "actors▁",
        "8035": "chester",
        "8036": "liquid▁",
        "8037": "personn",
        "8038": "sounds▁",
        "8039": "Colorado",
        "8040": "Lawyers▁",
        "8041": "product▁",
        "8042": "Business▁",
        "8043": "Missouri▁",
        "8044": "episodes▁",
        "8045": "technology▁",
        "8046": "ER",
        "8047": "Ig",
        "8048": "Ok",
        "8049": "75▁",
        "8050": "Be▁",
        "8051": "Cha",
        "8052": "Lee",
        "8053": "Let",
        "8054": "Raw",
        "8055": "ogy",
        "8056": "1910",
        "8057": "2).▁",
        "8058": "Buck",
        "8059": "Jan▁",
        "8060": "Mess",
        "8061": "Our▁",
        "8062": "Vanc",
        "8063": "Wolf",
        "8064": "apti",
        "8065": "fer▁",
[...]
